<unk>	0
1000000000000000000000	-3.88815
2	-4.7479
4	-4.82136
0	-5.06744
1	-5.07503
3	-5.12722
0000000000000000000000000000	-5.18061
E	-5.19449
6	-5.21197
E9	-5.27197
48	-5.31377
D	-5.36266
8	-5.37078
7	-5.38988
C	-5.39869
5	-5.44011
A	-5.45171
8B85	-5.60234
B	-5.63157
F	-5.65255
00000000000000	-5.75314
9	-5.76796
00000000000000000000000000000000	-5.78927
000000000000000000	-5.90951
488B0500000000	-5.92694
2A000000	-5.96681
80000000000000018000000000000000	-6.01825
0FB68D	-6.04559
000000000000	-6.05563
488B85	-6.0648
83E9014863C9	-6.1332
0FB78D	-6.20164
89C1488B0500000000	-6.2053
6689C1488B0500000000668908	-6.20574
0000	-6.21464
83C1014863C9	-6.21907
4805	-6.22688
88C1488B05000000008808	-6.27487
8B8D	-6.30274
00000000000000000000000010000000	-6.3345
480FBF8D	-6.34668
8B0488	-6.35759
480FBE8D	-6.40428
00	-6.42495
66	-6.42916
4898	-6.43112
B8	-6.43934
E900000000	-6.46346
C785	-6.46384
00000000	-6.47431
01000000000000000000000000000000	-6.50663
488B04C8	-6.52012
000F84	-6.56037
F8FFFF	-6.68436
48638D	-6.68659
1010000000000000000000	-6.69192
000F95C180E101488B05000000008808	-6.69468
000000020000000	-6.69496
1003E000	-6.6952
7F454	-6.69521
C46020	-6.69526
0FBE8D	-6.70481
00F1FF00000	-6.70561
00000066756E632E63007465737400	-6.70786
060000000000000000	-6.70934
0FBF8D	-6.70947
3796D	-6.70992
46578	-6.70999
746162002E7	-6.71004
37472746162002E7	-6.71006
368737472746162002E7	-6.71008
612E7	-6.71009
2656C	-6.7101
26000000000000000000000000000000	-6.71158
2000000001000000	-6.71191
74000000000000000000000000000000	-6.71227
0400000040000000	-6.71241
8885	-6.71768
488B0500000000488908	-6.73744
900000003	-6.73825
000000000000000000000000000000	-6.74219
100000002	-6.74591
30000000000000000000000000000	-6.74916
000000000000004000000000000000	-6.75784
488B05000000008908	-6.75906
66C785	-6.76502
00000000000000000014000000	-6.77309
C685	-6.78603
0000000000000000000000001B000000	-6.80234
488B8D	-6.8208
0FB685	-6.83414
83F8000F84	-6.83949
02000010000000	-6.8481
D0	-6.85444
F7FFFF	-6.87317
10000000000000000000000000000	-6.87326
0FBF85	-6.87617
83C1024863C9	-6.91761
83E9024863C9	-6.93391
48C785	-6.9347
0FBE85	-6.97605
000000000110000000	-6.98114
E9000000008B85	-6.99726
10	-7.01399
FF	-7.01972
30	-7.0518
20	-7.05481
488B8598000000	-7.06805
50	-7.07105
18	-7.0782
C0	-7.09995
0FB60408	-7.12049
5DC30000000	-7.12079
40	-7.12208
C8	-7.12538
F8	-7.12943
98	-7.15165
E0	-7.15459
488B95	-7.16257
0000000000000000001B000000	-7.16899
8A040824010FB6C0	-7.1718
3000000010000000	-7.17373
488B4570	-7.18131
4883F8000F84	-7.18136
0FB70448	-7.18563
28	-7.18771
488B8580000000	-7.19685
488914C8	-7.1977
04	-7.20358
488B4568	-7.20485
60	-7.20834
3000000FCFFFFFFFFFFFFFF	-7.20939
4869D2	-7.21919
80	-7.21958
85	-7.22084
8B95	-7.22398
44	-7.22615
D8	-7.22712
488B4560	-7.23183
38	-7.23211
488B4578	-7.23615
6689C2	-7.23691
88	-7.23761
8B	-7.23991
881408	-7.24177
F6FFFF	-7.24457
66891448	-7.24679
891488	-7.26176
488B8588000000	-7.2619
488B4558	-7.2663
58	-7.2774
83BD	-7.27849
88C2	-7.28234
0FBE0408	-7.28578
4898488985	-7.29048
488B4550	-7.29782
F0	-7.30585
002E7	-7.31431
488B8590000000	-7.31847
48698D	-7.3247
E8	-7.32773
486B8D	-7.33128
E90D0000000FB785	-7.34384
0FBF0448	-7.34991
E910000000B8	-7.35483
B9	-7.35952
B0	-7.36831
0F	-7.37141
668985	-7.37982
488B4548	-7.39492
08	-7.40277
4801C8	-7.4095
68	-7.41327
488B85A0000000	-7.42229
83F0FF	-7.43907
90	-7.4474
70	-7.45145
F5FFFF	-7.45702
A8	-7.45743
4C	-7.46822
01000000	-7.47954
488B85A8000000	-7.49088
E90D0000000FBF85	-7.49277
00000000100000004	-7.50143
89C2	-7.50234
A0	-7.51806
488B4540	-7.52711
01	-7.53826
00000000000000000022000000	-7.56292
5000000FCFFFFFFFFFFFFFF	-7.56921
488B85B0000000	-7.57678
486385	-7.58155
DC	-7.58301
E90D0000000FB685	-7.59011
4801C1	-7.61204
78	-7.62109
488B85B8000000	-7.62338
488B85C0000000	-7.62469
84	-7.6305
488B45F0	-7.64343
E90C000000	-7.64814
94	-7.65453
00000000000000000000400000000000	-7.65618
00000000400000000000	-7.65892
89C1488B05000000008908	-7.66192
EC	-7.66546
D1	-7.66883
FC	-7.6694
E4	-7.67815
4869C0	-7.68046
83C1034863C9	-7.68921
488B85D0000000	-7.69108
488B4538	-7.69673
488B85C8000000	-7.70173
898D	-7.70575
486BC9164801C8	-7.70633
83E9034863C9	-7.70895
4863C8488B0500000000488908	-7.71429
83C001	-7.71979
486BC9184801C8	-7.71987
B5	-7.72593
2D	-7.7324
3C	-7.74384
0C	-7.75653
E90E000000	-7.76164
0000000000	-7.7642
E90D0000000FBE85	-7.76504
D4	-7.76519
F4	-7.76647
B4	-7.76762
488B85D8000000	-7.77196
0000000003000000010000000	-7.77314
0FEFFFF488985	-7.77898
833C88000F84	-7.78803
31C029C8	-7.79229
CF	-7.7967
35	-7.8019
486BC9144801C8	-7.80196
19	-7.80664
803C08000F84	-7.8177
486BC9644801C8	-7.81965
89	-7.81975
488B85E0000000	-7.82322
488B05000000008A0024010FB6C0	-7.82754
FE	-7.83484
48833CC8000F84	-7.83492
8FFFF	-7.83655
66833C48000F84	-7.83895
14	-7.84081
BC	-7.84162
83C10189C9	-7.84189
1B	-7.8424
34	-7.84281
83E90189C9	-7.84418
BA	-7.84475
FB	-7.84967
11	-7.85367
A4	-7.8539
AC	-7.85486
3D	-7.85494
486BC92C4801C8	-7.85653
488B85E8000000	-7.86942
5DC30	-7.87924
45	-7.88085
54	-7.88111
486BC9304801C8	-7.88987
C4	-7.89713
488B45E8	-7.90436
00000000000000000029000000	-7.90441
CC	-7.91051
F2	-7.91185
2A00000004000000FCFFFFFFFFFFFFFF	-7.91256
488B4530	-7.91479
486BC9584801C8	-7.92162
486BC9604801C8	-7.92192
E9090000008B45	-7.92213
25	-7.9237
486BC9284801C8	-7.92565
83C002	-7.92582
DF	-7.93374
8F	-7.93674
488B85F0000000	-7.9387
0D	-7.93919
1C	-7.94024
488B04C8488985	-7.94517
64	-7.94726
4869C9900000004801C8	-7.94748
486BC9194801C8	-7.95539
4869C9400200004801C8	-7.96875
488B4DD8	-7.96886
F9FFFF	-7.97428
EA	-7.97689
4869C9E40100004801C8	-7.97703
9C	-7.97713
83C003	-7.98157
4829C8	-7.98353
D6	-7.98729
15	-7.98741
488B4528	-7.98935
48C1E1044801C8	-7.99204
4883BD	-7.99342
80100004C8B8D	-7.99352
7F	-7.99713
2C	-7.99761
F6	-7.99941
17	-8.00632
486BC9504801C8	-8.00694
488B4DD0	-8.00869
48BA	-8.00888
27	-8.00995
3B	-8.0112
24	-8.01536
48694DD0	-8.01822
0000000000000000000000000000000	-8.01902
1000000000000000000000000000000	-8.01964
5C	-8.01982
EF	-8.02228
33	-8.02397
4869C9900100004801C8	-8.0252
480500	-8.02526
4869C9C80000004801C8	-8.02787
80E201881408	-8.02913
0385	-8.03052
1A	-8.03105
48694DD8	-8.03232
486BC9154801C8	-8.03726
8C	-8.03979
486BC9174801C8	-8.04084
83C004	-8.04266
89C0	-8.04348
E7	-8.04359
75	-8.04574
06	-8.04865
EE	-8.05313
01C8	-8.0567
9FFFFE90C0000008B85	-8.05707
8B4DD8	-8.05811
8B4DE0	-8.05869
DE	-8.06003
D7	-8.06023
B0000	-8.06037
E6	-8.06042
02	-8.06224
0B	-8.06929
37000000	-8.06958
000F95C08885	-8.07053
D110000008B85	-8.07243
93	-8.07516
0000000000000003000000010000000	-8.07694
F7	-8.08031
000F95C034FF24010FB6C0	-8.08097
3110000008B85	-8.08294
488B4DE0	-8.08329
05	-8.08469
4863D0	-8.08489
668B0448668985	-8.08654
32	-8.08774
C7	-8.09357
F1	-8.09424
488B4520	-8.09531
83	-8.09751
55	-8.09919
488B0500000000C700	-8.09967
8A	-8.10018
31	-8.10087
CA	-8.10139
488B85F8000000	-8.10181
F9	-8.10346
488B0500000000488B00488985	-8.10387
23	-8.10519
6110000008B85	-8.10947
41	-8.11227
07	-8.11373
3F	-8.1146
8B45F8	-8.11754
03	-8.11839
FEFFFFE900000000	-8.11842
0FFFFFF488985	-8.12071
0FBFC8488B05000000000FBF00	-8.12098
0000000000000D000000	-8.12249
486BC9114801C8	-8.12713
13	-8.12828
488B8508010000	-8.12861
488B05000000008A008885	-8.13108
488B0500000000668B00668985	-8.13236
0FBEC8488B05000000000FBE00	-8.13288
0FB6C8488B05000000000FB600	-8.134
488B05000000008B008985	-8.13435
6C	-8.13441
BF	-8.13746
E1	-8.14027
486BC9134801C8	-8.14242
51	-8.1426
008885	-8.14326
DA	-8.14468
4883F0FF	-8.14616
13000000	-8.15149
24010FB6C0	-8.15443
F4FFFF	-8.15451
E110000008B85	-8.1577
488B45E0	-8.15878
110000000	-8.15998
E0000	-8.16035
6000000FCFFFFFFFFFFFFFF	-8.16162
488B45F8	-8.16258
FA	-8.16472
E2	-8.16501
EB	-8.16586
486395	-8.1665
488B4518	-8.16943
BE	-8.17057
0100	-8.17231
400006000500554889E54881EC	-8.17265
B7	-8.17399
48898D	-8.17425
8B4DDC	-8.17499
89C1488B0500000000488908	-8.17506
488B8500010000	-8.17883
39	-8.17924
486BC90F4801C8	-8.17942
76	-8.18022
486BC9124801C8	-8.18191
16	-8.18307
0FB7C8488B05000000000FB700	-8.18337
BB	-8.18411
97	-8.18468
A7	-8.18542
FFFFFFFF	-8.1858
486BC90D4801C8	-8.18765
C6	-8.18814
96	-8.19398
7661725F3230007661725F323100	-8.19715
57	-8.19777
488B8510010000	-8.19869
8B4DE4	-8.19909
49	-8.20141
37	-8.20434
486BC90E4801C8	-8.2046
4869C9C80300004801C8	-8.2128
8A04088885	-8.21332
B3	-8.2148
09	-8.21489
48694DC8	-8.2152
8B45FC	-8.21614
69	-8.21693
8D	-8.21888
D2	-8.21901
74	-8.21901
4883E901	-8.22151
488B4510	-8.22197
488B8518010000	-8.22234
1B000000000000000000000000000000	-8.22291
48694DE0	-8.22301
29	-8.2245
488B4DC8	-8.22457
C2	-8.22718
AB	-8.22863
5B	-8.22893
AA	-8.2294
FDFFFFE900000000	-8.22946
E5	-8.23025
00000FBF85	-8.23364
488B0500000000C600	-8.23383
0FB695	-8.2351
F3	-8.23511
4000000FCFFFFFFFFFFFFFF002E	-8.23938
4869C9800400004801C8	-8.24082
77	-8.24146
58FFFFFF	-8.24372
8B4DD4	-8.2464
488B050000000066C700	-8.24738
D3	-8.24742
2A	-8.25331
7D	-8.25391
486BC90C4801C8	-8.25534
60FFFFFF	-8.26016
E8FEFFFF	-8.26026
1F	-8.26043
83F8	-8.26048
95	-8.2626
00000FB785	-8.26271
F5	-8.26295
65	-8.26487
4881E9	-8.26511
2B	-8.26517
4D	-8.26658
A3	-8.26766
7A	-8.2694
8B4DE8	-8.26945
3A	-8.26972
6B	-8.27018
B6	-8.27041
9A	-8.27445
B2	-8.27575
486BC90B4801C8	-8.27839
61	-8.27844
D5	-8.2788
99F7F9	-8.28014
E0FEFFFF	-8.28131
488B8520010000	-8.28315
8B45F4	-8.2845
AF	-8.28469
22	-8.28486
BD	-8.28603
DB	-8.28736
F0FEFFFF	-8.29014
4881C4	-8.29051
0FB795	-8.29066
1E	-8.2916
87	-8.29298
486BC90A4801C8	-8.29638
FD	-8.29756
E3	-8.29823
488B8558010000	-8.3
12	-8.30034
9E	-8.30219
4869C9710200004801C8	-8.30318
78FFFFFF	-8.30462
70FFFFFF	-8.30625
79	-8.30727
4881C1	-8.30751
A6	-8.30891
0FB6C0	-8.309
488B8528010000	-8.31001
8B45EC	-8.31031
7661725F3138007661725F313900	-8.31175
AE	-8.31213
F60408010F84	-8.31245
48634DDC	-8.31329
4F	-8.31433
86	-8.31499
53	-8.31585
4883C101	-8.31747
CE	-8.31838
80E2010FB6D2	-8.31928
4869C9200300004801C8	-8.31948
48C1E1084801C8	-8.31969
68FFFFFF	-8.32018
31C0	-8.32162
72	-8.3275
92	-8.32848
6FBFFFF	-8.3292
000000	-8.32955
48FFFFFF	-8.33019
6FFFF8B85	-8.33625
C3	-8.33664
9F	-8.33776
E91600000048B8	-8.33954
21	-8.34039
50FFFFFF	-8.34197
5A	-8.34365
6A	-8.34542
63	-8.3462
71	-8.34725
ED	-8.34797
480FBE95	-8.3486
36	-8.34947
73	-8.34957
DD	-8.34966
7C	-8.35171
8E	-8.35209
48634DE0	-8.35355
6F	-8.35388
A5	-8.35447
9B	-8.35511
486BC9324801C8	-8.35518
482D	-8.35553
40000	-8.35717
40FFFFFF	-8.35728
7B	-8.35789
8FFFFE90C0000008B85	-8.35807
B1	-8.35966
26	-8.36066
C1	-8.36186
4801D1	-8.36199
6FFFF	-8.36418
30000	-8.36842
488B0500000000C60001	-8.36872
5E	-8.37022
8B45F0	-8.37034
0FB78	-8.37076
7661725F3139007661725F323000	-8.37566
4869C9003600004801C8	-8.37617
5F	-8.37792
4869C9982900004801C8	-8.38099
4839C80F8D	-8.38149
488B8530010000	-8.38183
0FB7	-8.38635
4869C9110200004801C8	-8.38835
83F1FF	-8.38864
3E	-8.38964
F8FEFFFF	-8.39025
0FB7C02D	-8.39027
4869C9B90100004801C8	-8.39069
0A	-8.39116
488B050000000048C700	-8.39142
67	-8.39423
A1	-8.3949
30FFFFFF	-8.39497
D0FEFFFF	-8.40015
480FBF95	-8.4002
D9	-8.4015
83F8010F8D	-8.408
0E	-8.40831
28FFFFFF	-8.40971
A2	-8.40987
48C1E1054801C8	-8.41131
F3FFFF	-8.41368
C9	-8.41398
2F	-8.41544
8A95	-8.42233
38FFFFFF	-8.42492
0FBEC0	-8.42577
0FB7C881E9	-8.42768
0FB7C981E9	-8.42804
59	-8.42825
5D	-8.4284
20FFFFFF	-8.42985
000F95C024010FB6C8	-8.43092
68FEFFFF	-8.43275
8B4510	-8.43467
486BC92A4801C8	-8.4356
10FFFFFF	-8.43674
56	-8.43698
8B4520	-8.43709
4869C9401F00004801C8	-8.43714
48C1E1064801C8	-8.43778
A0FEFFFF	-8.4405
486BC92E4801C8	-8.44577
B8FEFFFF	-8.44667
9FFFF	-8.44677
AFCFFFF	-8.45179
7661725F3136007661725F313700	-8.45188
2E	-8.45339
CB	-8.45431
C8FEFFFF	-8.45502
83C10289C9	-8.4566
08FFFFFF	-8.4568
17000000000000	-8.45723
4869C9210100004801C8	-8.4589
0000000000000000003E000000	-8.46252
488B8538010000	-8.46273
0FB74DDE	-8.46691
99	-8.46693
B010000	-8.46935
7FFFF	-8.47037
7661725F3137007661725F313800	-8.47158
8B4518	-8.4745
7E	-8.47997
8B4528	-8.48068
90FEFFFF	-8.48096
80FEFFFF	-8.48171
60FEFFFF	-8.48226
9D	-8.48353
16000000	-8.48467
48630488	-8.49024
70FEFFFF	-8.49051
1D	-8.49128
0FBE4D	-8.49163
B0FEFFFF	-8.49219
83E90289C9	-8.49269
88FEFFFF	-8.49347
50FDFFFF	-8.49543
00FFFFFF	-8.49545
E0FDFFFF	-8.49602
18FFFFFF	-8.49665
4869C9C40000004801C8	-8.49665
AD	-8.49681
FCFFFFE900000000	-8.49737
4869C9690100004801C8	-8.4992
8B45E8	-8.49975
48FEFFFF	-8.49981
98FEFFFF	-8.50019
486BC9224801C8	-8.50145
486BC95C4801C8	-8.50155
A9	-8.50262
4869C9440100004801C8	-8.50471
0FB7C0	-8.50541
0FB64D	-8.50542
90FDFFFF	-8.50669
6D	-8.50841
4869C9A90000004801C8	-8.50887
D3F8	-8.51161
D010000	-8.51265
48C1E1074801C8	-8.5134
B8FDFFFF	-8.5134
C8FDFFFF	-8.51576
010000000000000D000000	-8.51661
40FEFFFF	-8.51783
B0FDFFFF	-8.51785
4883E8	-8.51811
A8FEFFFF	-8.51964
486BC9544801C8	-8.51994
20FEFFFF	-8.52065
98FDFFFF	-8.5212
D3E0	-8.52317
C0FEFFFF	-8.52325
4869C9E10000004801C8	-8.52572
8B4DD0	-8.52626
5FFFF	-8.52733
10FEFFFF	-8.52856
4869C9C00000004801C8	-8.52907
4869C9B80000004801C8	-8.52915
1FFFFFF	-8.5317
488B8540010000	-8.532
4B	-8.53337
83EA014863D2	-8.53374
5FEFFFF	-8.53718
0FB74DD6	-8.5373
78FEFFFF	-8.53759
488B4DC0	-8.53774
6E	-8.53984
47	-8.54137
C5	-8.54227
486BC9244801C8	-8.54235
7661725F3135007661725F313600	-8.543
486BC9444801C8	-8.54467
488B8548010000	-8.54701
70FDFFFF	-8.54709
486BC91A4801C8	-8.54714
D8FEFFFF	-8.54755
68FDFFFF	-8.5479
0FBE0C11	-8.54833
488B4DE8	-8.5484
486BC9264801C8	-8.54992
16000000000000	-8.55024
F0FDFFFF	-8.55241
18FEFFFF	-8.55432
48634DE8	-8.55748
58FEFFFF	-8.56071
D0FDFFFF	-8.56341
3B45	-8.56746
486BC91C4801C8	-8.56781
8B4DEC	-8.57
82	-8.57009
8A4DDF80E1010FB6C9	-8.57042
00000000000000000045000000	-8.57048
4869C9B00000004801C8	-8.5713
48634DD4	-8.57147
4869C9A80000004801C8	-8.57184
A0FDFFFF	-8.57291
000F95C024010FB6C0	-8.57444
8B4DBC	-8.57472
8B4DCC	-8.57526
80E1010FB6C9	-8.57637
DFEFFFF	-8.57775
E911000000B8	-8.57892
000000000000000D000000	-8.57912
88FDFFFF	-8.57952
0FBF	-8.57961
E8FDFFFF	-8.58146
30FEFFFF	-8.58443
10000000B8010000008985	-8.58525
83C2014863D2	-8.58612
CD	-8.58689
00FEFFFF	-8.5879
486BC94C4801C8	-8.59004
62	-8.59154
BFCFFFF	-8.5936
A8FDFFFF	-8.59394
400000000000400006000500554889E5	-8.59482
F8FDFFFF	-8.59516
486BC9794801C8	-8.59576
4839C80F83	-8.5958
488B0D00000000	-8.59655
91	-8.59656
FFBFFFF	-8.5971
0FB60C11	-8.59959
0200	-8.60225
28FEFFFF	-8.60236
486BC9344801C8	-8.60339
10000000B8	-8.60442
000000004883BD	-8.60785
0000000083BD	-8.60801
EFBFFFF	-8.60832
486BC9384801C8	-8.61109
7661725F3232007661725F323300	-8.61247
8B4DC4	-8.61272
8A8D	-8.61425
C0FDFFFF	-8.61509
7661725F3134007661725F313500	-8.61548
48FDFFFF	-8.61563
488B84C8	-8.61664
8B4530	-8.61787
486BC91E4801C8	-8.61882
48634DE4	-8.61965
80FDFFFF	-8.62111
D8FDFFFF	-8.62118
48634DD8	-8.62196
3FCFFFF	-8.62707
900000000000000004	-8.62802
60FDFFFF	-8.62978
00000000000000000021000000	-8.62991
52	-8.63162
7FBFFFF	-8.6321
486BC93C4801C8	-8.63363
0000000000000078000000000000000	-8.63439
08FEFFFF	-8.63936
0FBF0C51	-8.63941
4A	-8.63976
2A00000003000000FCFFFFFFFFFFFFFF	-8.64018
4869C9880000004801C8	-8.64041
8A4DD780E1010FB6C9	-8.64085
50FEFFFF	-8.64275
0FB6	-8.64492
0FB64DDF	-8.64725
488B8550010000	-8.64766
58FDFFFF	-8.64777
00000000000000000028000000	-8.64788
10000000	-8.64876
78FDFFFF	-8.64974
83F0FF83F8000F84	-8.65054
38FEFFFF	-8.65182
0000000000000000004C000000	-8.65459
488B8590000000488B8588000000	-8.65558
38FDFFFF	-8.65947
486BC9484801C8	-8.6597
B8000000	-8.66087
10000	-8.66315
39C80F8D	-8.66597
90000000	-8.66772
4869C9093D00004801C8	-8.67074
20000000000000000000000000000000	-8.67142
4869C9980000004801C8	-8.67293
8A4	-8.67475
486BC9684801C8	-8.68248
8B4538	-8.68799
010F84	-8.68824
486BC9704801C8	-8.68891
F00	-8.68947
488B4DB8	-8.69338
01C866	-8.6937
FFFFFFE900000000	-8.69575
4863C8488B0500000000	-8.69658
48694DC0	-8.69734
4869C9E20400004801C8	-8.69983
0000000000000000000000000	-8.7056
FBFFFFE900000000	-8.71211
9FFFFFF	-8.71367
480FBF4DE6	-8.71531
A8FCFFFF	-8.71677
488B8560010000	-8.71929
10FDFFFF	-8.72035
486BC9784801C8	-8.72281
00000000000000000053000000	-8.7229
C70488	-8.72329
0FB64DD7	-8.72332
0000000000000000002F000000	-8.72396
000F95C180E1010FB6C939C80F8D	-8.72411
4E	-8.72441
480FBE4DDF	-8.72718
00FDFFFF	-8.72818
F0FCFFFF	-8.72943
66C70448	-8.73012
18FDFFFF	-8.73025
F2FFFF	-8.73289
28FDFFFF	-8.73412
4869C9A00000004801C8	-8.7348
BCFEFFFF	-8.73531
7661725F3231007661725F323200	-8.73841
F8FCFFFF	-8.73918
480385	-8.74045
80100004C8B85	-8.74269
C60408	-8.74292
20FDFFFF	-8.74374
7661725F3133007661725F313400	-8.74412
48C1E1094801C8	-8.74421
40FDFFFF	-8.74439
4869C9872F00004801C8	-8.74598
4869C92D2400004801C8	-8.74667
8A0C1180E1010FB6C9	-8.74791
0FBE	-8.74892
8B45E4	-8.75154
0FB64DCF	-8.75213
48898570FFFFFF	-8.75284
4869C9C40900004801C8	-8.75301
8B4DAC	-8.75477
EFFFF	-8.75532
48C1E10C4801C8	-8.75651
30FDFFFF	-8.7588
3FFFF	-8.75947
08FDFFFF	-8.7612
486995	-8.76187
EFFFFF	-8.76223
1FEFFFF	-8.76331
0FB70C51	-8.76463
B801000000	-8.76512
C8FCFFFF	-8.76772
0E000000	-8.76788
D4FEFFFF	-8.76841
E911000000	-8.76938
D8FCFFFF	-8.77169
C0FCFFFF	-8.77297
29C8	-8.77472
ECFEFFFF	-8.77586
0FB74DE4	-8.77621
9CFEFFFF	-8.77865
F0FFFF	-8.77899
7FFFFE90C0000008B85	-8.78036
DFFFF	-8.78047
2FCFFFF	-8.78111
74FEFFFF	-8.78144
ACFEFFFF	-8.78162
0000000000000000005A000000	-8.78281
4869C9720300004801C8	-8.78299
486B4DD8	-8.78391
8A45E724010FB6C0	-8.7844
0F84	-8.78465
488B8568010000	-8.78475
B4FEFFFF	-8.78555
D0FCFFFF	-8.7889
488B4DA8	-8.78993
E0FCFFFF	-8.79194
E8FCFFFF	-8.79241
48C1E10A4801C8	-8.7927
9FEFFFF	-8.79348
85A8000000488B85A0000000	-8.79456
4883F8	-8.79481
0FB74DDA	-8.79492
488B45D8	-8.79516
80000000	-8.79675
4869C9881300004801C8	-8.79809
39C80F8D120000000FB785	-8.79933
90FCFFFF	-8.7994
B8000000488B85B0000000488B	-8.80077
81E9	-8.80092
8B4DB4	-8.80496
94FEFFFF	-8.8051
0000000000000000001A000000	-8.8051
488B05000000008A0024018885	-8.80529
8A4DCF80E1010FB6C9	-8.80594
48634DC4	-8.80816
4869C9220400004801C8	-8.80853
48898560FFFFFF	-8.81018
0FAFC1	-8.81142
09C8	-8.81492
0FB74DCE	-8.81555
FCFEFFFF	-8.81662
700	-8.81717
4869C9420200004801C8	-8.81793
F1FFFF	-8.81845
44FEFFFF	-8.82094
DCFEFFFF	-8.82147
31C02B45	-8.82298
488B8570010000	-8.82356
0F85	-8.82439
4863	-8.82452
480FBE4DD7	-8.82618
39C80F8E120000000FB785	-8.82646
4869C9440800004801C8	-8.82675
4883E902	-8.82837
0FB74DE6	-8.83042
48C1E10B4801C8	-8.83078
4869C9E40600004801C8	-8.83229
5FFFF8B85	-8.83407
54FEFFFF	-8.83457
480FBF4DDE	-8.83619
CCFEFFFF	-8.83768
0F0000000FB645	-8.83862
A4FEFFFF	-8.83879
0FFFFFF	-8.83995
4869C9881000004801C8	-8.84018
00000000000000000061000000	-8.84098
488B05000000004805	-8.84125
83E8	-8.84188
7661725F3132007661725F313300	-8.8431
83C001668985	-8.84419
8B8488	-8.84546
4869C9311300004801C8	-8.84667
0B000000000000	-8.84681
48898550FFFFFF	-8.84688
4869C9900700004801C8	-8.84697
8A45DF24010FB6C0	-8.8478
B8FCFFFF	-8.84805
21C8	-8.84994
8A400	-8.8515
4869C9000900004801C8	-8.85176
48634DD0	-8.85212
00000000000000000036000000	-8.85216
74FFFFFF	-8.85319
B0FCFFFF	-8.85335
39C80F8D120000000FBF85	-8.85354
83C002668985	-8.85431
8B4DC8	-8.85595
83F0FF4898	-8.85618
04FFFFFF	-8.85671
4869F6	-8.85689
0300	-8.85742
64FFFFFF	-8.86014
4869C9B80A00004801C8	-8.86037
4889	-8.86499
8B4540	-8.8652
4869C9D20200004801C8	-8.86767
64FEFFFF	-8.8696
7EFFFFFF	-8.87125
4869C9880200004801C8	-8.87139
C4FEFFFF	-8.87146
58FCFFFF	-8.8716
7661725F3233007661725F323400	-8.87163
4869C9A40500004801C8	-8.87305
C6040801	-8.87386
5CFFFFFF	-8.87401
4869C9C80D00004801C8	-8.87418
486B4DD0	-8.87441
8A4DC780E1010FB6C9	-8.87636
83F8000F95C034FF24010FB6C0	-8.87699
5CFEFFFF	-8.87739
8A45FF24010FB6C0	-8.87752
4869C9950800004801C8	-8.87784
4869C9C81600004801C8	-8.87792
83C0018885	-8.87793
48694DB8	-8.87889
4869C9CB1A00004801C8	-8.88059
88FCFFFF	-8.88091
7661725F3234007661725F323500	-8.88175
4869C9840400004801C8	-8.88317
00000000000000000068000000	-8.88362
39C80F8E120000000FBF85	-8.88395
C645D	-8.88414
0CFFFFFF	-8.88569
4869C9520100004801C8	-8.88624
48898520FFFFFF	-8.88752
6CFFFFFF	-8.89024
0FB645FF	-8.89128
0FB64DE7	-8.89176
E90A0000000FBF45	-8.89248
4869C92F0D00004801C8	-8.89263
480FBF4DE4	-8.89278
29C86689C1488B0500000000668908	-8.89593
489948F7F9	-8.89625
0F000000	-8.89699
28FCFFFF	-8.89812
60FCFFFF	-8.89838
000F95C2	-8.89847
8A45EF24010FB6C0	-8.8986
48898530FFFFFF	-8.89935
488B8578010000	-8.90107
A0FCFFFF	-8.90144
0000000000000000003D000000	-8.90201
98FCFFFF	-8.90265
4869C9880100004801C8	-8.90278
4869C9001200004801C8	-8.90524
83E80183F8000F95C024018885	-8.90529
4869C9200F00004801C8	-8.9065
E4FEFFFF	-8.90754
4000000FCFFFFFFFFFFFFFF0	-8.9077
48898540FFFFFF	-8.90838
4000000FCFFFFFFFFFFFFFF1	-8.9084
4000000FCFFFFFFFFFFFFFF2	-8.90846
4000000FCFFFFFFFFFFFFFF3	-8.90917
31C8	-8.90963
83C003668985	-8.90995
0FB74DBE	-8.91044
8A4DE780E1010FB6C9	-8.91073
480FBF4DD6	-8.91126
70FCFFFF	-8.91174
0FB74DE2	-8.91264
48898510FFFFFF	-8.91407
83C0038885	-8.91447
4000000FCFFFFFFFFFFFFFF4	-8.91472
4FFFF	-8.91535
7661725F313	-8.91559
78FCFFFF	-8.9178
54FFFFFF	-8.91827
24FFFFFF	-8.91864
489848B9	-8.92018
3000000FCFFFFFFFFFFFFFF3	-8.92024
4869C9080900004801C8	-8.92045
8A55	-8.92099
480FBF4DCE	-8.92245
4869C9400600004801C8	-8.92355
0000000000000000006F000000	-8.92424
4CFEFFFF	-8.92441
E99	-8.92453
50000	-8.92471
83C1044863C9	-8.9251
CFFFF	-8.92513
83C0028885	-8.92633
46FFFFFF	-8.92857
50FCFFFF	-8.92859
29C888C1488B05000000008808	-8.92884
48634DCC	-8.92921
4869C9C00600004801C8	-8.92966
0FB74DC6	-8.92976
1CFFFFFF	-8.93056
48C704C8	-8.93062
EEFFFF	-8.93134
0FB64DC7	-8.93149
2CFFFFFF	-8.93215
4869C9A40200004801C8	-8.93425
84FEFFFF	-8.93499
4869C9840300004801C8	-8.93595
83E9044863C9	-8.93641
FCFDFFFF	-8.93669
0FAFC188C1488B05000000008808	-8.937
48634DEC	-8.93833
FF0000	-8.93886
4000000FCFFFFFFFFFFFFFF7	-8.93917
8CFEFFFF	-8.94029
0FB6C02D	-8.94124
480FBE4DCF	-8.94187
0FB745	-8.94283
4869C9100300004801C8	-8.94285
0FB6C881E9	-8.94382
0C000000	-8.94425
83F8000F95C2	-8.94469
48694DB0	-8.94534
48634DB4	-8.94633
7CFEFFFF	-8.94654
8A4D	-8.94656
81	-8.94685
4801D1488B95	-8.94733
6CFEFFFF	-8.9476
0FB64DBF	-8.94808
8B85C8000000488B8	-8.94831
5C0000000488B85	-8.94846
300	-8.9494
0050000	-8.94964
4869C9C20100004801C8	-8.95002
0FBF45	-8.95019
488B4D70	-8.95168
80E2010FB6D24869D2	-8.95266
0FB64DE3	-8.95348
000F8410000000B8	-8.95365
8A040824018885	-8.95381
83C0048885	-8.95553
FF000000	-8.95594
14FFFFFF	-8.95604
4EFFFFFF	-8.95669
5EFFFFFF	-8.95757
4000000FCFFFFFFFFFFFFFF5	-8.95757
3FBFFFF	-8.95774
68FCFFFF	-8.95887
80FCFFFF	-8.95958
E90B000000	-8.95964
83C004668985	-8.96005
85D8000000488B85D000000048	-8.96051
31C86689C1488B0500000000668908	-8.96069
48FCFFFF	-8.96077
6FAFFFF	-8.96119
488B4D78	-8.9618
00000000000000000044000000	-8.96182
89D08B95	-8.96247
0FB74DEE	-8.96299
48694DA8	-8.96312
31C888C1488B05000000008808	-8.96314
E90A0000000FB745	-8.96357
40FCFFFF	-8.96441
483308488B0500000000488908	-8.96471
4000000FCFFFFFFFFFFFFFF6	-8.96558
00000000000000000076000000	-8.96617
6EFFFFFF	-8.96633
48898500FFFFFF	-8.96671
3EFFFFFF	-8.96845
08FCFFFF	-8.96876
488B8580010000	-8.96922
4869C9480500004801C8	-8.97021
01C86689C1488B0500000000668908	-8.97065
488B8D88000000	-8.97321
F4FDFFFF	-8.97358
4869C9330500004801C8	-8.97548
8B4DA4	-8.97799
4869C9200600004801C8	-8.97857
01C888C1488B05000000008808	-8.97921
884DF	-8.97959
BFFFF	-8.97982
3CFEFFFF	-8.98021
FFFF	-8.98079
F4FEFFFF	-8.98253
1000000000000	-8.98348
0E000000000000	-8.98456
7CFFFFFF	-8.98488
4000000FCFFFFFFFFFFFFFF9	-8.98552
1CFEFFFF	-8.98556
AFBFFFF	-8.9856
4869C9100500004801C8	-8.9869
488B8D80000000	-8.98763
0FB74DEA	-8.98803
EFAFFFF	-8.98964
4869C9480B00004801C8	-8.99174
4C8B	-8.99405
488B4DB0	-8.99417
488B4D68	-8.99433
8B4548	-8.99557
4869C9F20000004801C8	-8.99927
60000	-8.99953
4000000FCFFFFFFFFFFFFFF8	-9.00015
FAFFFFE900000000	-9.00095
010000000000002A0000000	-9.00174
AFFFF	-9.00191
0FBF4D	-9.00249
0000000000000000007D000000	-9.0044
488B4D60	-9.00524
A0000000	-9.00705
D000000000000002A0000000	-9.00747
488B8580000000488B4578488B4570	-9.00824
7661725F3235007661725F323600	-9.00882
38FCFFFF	-9.01105
4000000FCFFFFFFFFFFFFFFA	-9.01193
4869C9E80300004801C8	-9.01214
B4FDFFFF	-9.01434
480FBF4DDA	-9.01449
4000000FCFFFFFFFFFFFFFFB	-9.01595
2CFEFFFF	-9.01632
0FB6400	-9.01653
4CFFFFFF	-9.01741
0FB74DEC	-9.01744
F0FBFFFF	-9.01762
488B8590010000	-9.01804
488985F0FEFFFF	-9.01981
3308488B05000000008908	-9.02077
A8000000000000000	-9.02116
0000000000000000004B000000	-9.02183
E13000000488B85	-9.02189
4869C9200100004801C8	-9.02219
2EFFFFFF	-9.02242
8B4DC0	-9.02339
14FEFFFF	-9.02545
66FFFFFF	-9.0271
4869C9200A00004801C8	-9.02732
3000000FCFFFFFFFFFFFFFF6	-9.02801
00FCFFFF	-9.0281
617	-9.0284
10FCFFFF	-9.02949
3CFFFFFF	-9.02992
30FCFFFF	-9.03032
488B8588010000	-9.03124
24FEFFFF	-9.03272
3000000FCFFFFFFFFFFFFFF2	-9.03347
2FFFF	-9.03421
20FCFFFF	-9.03581
36FFFFFF	-9.03593
488B0500000000488914C8	-9.03795
4869C9080700004801C8	-9.03798
D8FBFFFF	-9.03823
48634DBC	-9.03937
48694DA0	-9.04
2FBFFFF	-9.04011
48B80	-9.04084
80000004C8B8D	-9.04107
7661725F3236007661725F323700	-9.04148
00000000000000000084000000	-9.04156
E9A	-9.04157
486B4DE0	-9.04257
4869C9800C00004801C8	-9.04442
3000000FCFFFFFFFFFFFFFF5	-9.04615
480308488B0500000000488908	-9.04669
488B8D90000000	-9.04802
488B4D58	-9.04807
48894580	-9.04902
120000	-9.04996
FFEFFFFE9	-9.0506
31C04829C8	-9.05171
483B8	-9.05222
8B4DB8	-9.05226
480FBE4DC7	-9.05271
4883C102	-9.05437
3000000FCFFFFFFFFFFFFFF7	-9.05499
0FBE55	-9.05746
488985E0FEFFFF	-9.05883
0FB745FE	-9.05942
76FFFFFF	-9.05976
898574FFFFFF	-9.06011
488B4D90	-9.06053
C8FBFFFF	-9.06092
0CFEFFFF	-9.06095
88000000	-9.06136
83E9014863C9488B04C8	-9.06186
488B0500000000891488	-9.06216
48694D98	-9.06247
4000000FCFFFFFFFFFFFFFFC	-9.06362
0FB64510	-9.0644
100000	-9.06462
48894598488B4598	-9.06465
0FB74D9E	-9.06525
DFDFFFF	-9.06678
34FEFFFF	-9.0669
7661725F313900	-9.06744
D4FDFFFF	-9.06758
4000000FCFFFFFFFFFFFFFFD	-9.06762
3000000FCFFFFFFFFFFFFFF0	-9.06837
488B4D50	-9.06842
34FFFFFF	-9.07039
C4FDFFFF	-9.07119
3000000FCFFFFFFFFFFFFFF4	-9.07268
E4FDFFFF	-9.07284
00000004C8B8D	-9.07332
05FFFFFF7F	-9.07383
00000000000000000052000000	-9.07393
0000000000000000008B000000	-9.07417
488985D0FEFFFF	-9.07526
488B0500000000881408	-9.07771
0FAFC16689C1488B0500000000668908	-9.07825
44FFFFFF	-9.07888
0FB74DB6	-9.07902
34FF24010FB6C0	-9.07935
3000000FCFFFFFFFFFFFFFF1	-9.08014
FFAFFFF	-9.08125
4869C9127A00004801C8	-9.08136
5FDFFFF	-9.08253
5000000FCFFFFFFFFFFFFFF0	-9.08325
A8FBFFFF	-9.08374
8945E4	-9.0839
486B4DC8	-9.08486
E0FBFFFF	-9.08531
5000000FCFFFFFFFFFFFFFF2	-9.08585
C645C	-9.08629
8845F	-9.08649
89C1	-9.08709
48894D	-9.08731
0000000040000000000040000	-9.08774
483B45	-9.08901
48837DF0000F84	-9.08927
480580	-9.08973
488B050000000066891448	-9.08978
89C2488B05000000004869D2	-9.09008
898578FFFFFF	-9.09078
B8FBFFFF	-9.09079
5000000FCFFFFFFFFFFFFFF5	-9.09119
83E9014863C98B0488	-9.09124
0D000000000000	-9.09168
448A	-9.09221
0FB74DE8	-9.09225
7661725F3237007661725F323800	-9.09231
8000000488B85E0000000488B	-9.09234
5000000FCFFFFFFFFFFFFFF3	-9.09428
4869C9305300004801C8	-9.0947
488B8598010000	-9.09473
6689	-9.09521
5000000FCFFFFFFFFFFFFFF1	-9.09529
5000000FCFFFFFFFFFFFFFF4	-9.09583
6000000FCFFFFFFFFFFFFFF3	-9.09654
3B8	-9.09755
488B094829C1488B0500000000488908	-9.09757
1F000000	-9.09766
E915000000	-9.09806
0FBE400	-9.09886
F8FBFFFF	-9.09998
E00	-9.10039
400	-9.10046
0FBEC983E9	-9.10138
480FBE4DBF	-9.10159
48898578FFFFFF	-9.102
488945C0	-9.10215
0FBE4510	-9.1027
6000000FCFFFFFFFFFFFFFF7	-9.1033
39C80F9EC024010FB6C0	-9.10416
5000000FCFFFFFFFFFFFFFF6	-9.10478
8A4DBF80E1010FB6C9	-9.10519
ECFDFFFF	-9.10524
26FFFFFF	-9.1054
8945DC	-9.10544
480FBF4DBE	-9.1055
6000000FCFFFFFFFFFFFFFF9	-9.10578
488B4DA0	-9.10603
1EFFFFFF	-9.1067
3000000FCFFFFFFFFFFFFFF9	-9.10679
48B8F	-9.10682
48634DC8	-9.1073
56FFFFFF	-9.1076
488985C0FEFFFF	-9.108
48050000	-9.10809
00000000001B000000	-9.10913
39C80F94C024010FB6C0	-9.11022
00000000000000000092000000	-9.11027
BFBFFFF	-9.11094
04FEFFFF	-9.11292
7FEFFFFE9	-9.11297
C645E	-9.11388
488B8D98000000	-9.11493
16FFFFFF	-9.11495
89855CFFFFFF	-9.11506
6000000FCFFFFFFFFFFFFFF5	-9.11548
488B0500000000C60000	-9.11614
100	-9.11628
3000000FCFFFFFFFFFFFFFF8	-9.1172
5000000FCFFFFFFFFFFFFFF8	-9.11768
4869C924F400004801C8	-9.1177
898570FFFFFF	-9.11783
5000000FCFFFFFFFFFFFFFF7	-9.11841
488B80	-9.11893
480FBF4DAE	-9.11907
0FBEC883E9	-9.11926
7000000FCFFFFFFFFFFFFFF5	-9.11953
480FBF4DE2	-9.12078
5F0000000488B85E	-9.12083
488B05000000000FBF00	-9.12086
0F0000000FB745	-9.12089
480FBF4DDC	-9.12207
0F8D	-9.1223
48C1E10D4801C8	-9.12285
31D248F7F1	-9.12384
D0FBFFFF	-9.12483
00000000000000004	-9.1252
4000000FCFFFFFFFFFFFFFFF	-9.12654
0FB704484898	-9.1266
00000000000000000059000000	-9.12684
48634DAC	-9.12766
8945CC8B45CC	-9.12801
18FCFFFF	-9.12848
00000	-9.12966
07000000000000	-9.13024
E8FBFFFF	-9.13079
52FFFFFF	-9.1308
00010000488B85F8000000488B8	-9.13209
6000000FCFFFFFFFFFFFFFF1	-9.13305
4000000FCFFFFFFFFFFFFFFE	-9.13317
10000000488B45D0488985	-9.13368
7000000FCFFFFFFFFFFFFFF2	-9.13481
837	-9.13502
7FFFFFFF	-9.13529
5000000FCFFFFFFFFFFFFFFA	-9.13535
6000000FCFFFFFFFFFFFFFF4	-9.13542
488B8D78FFFFFF	-9.13607
48894588	-9.13634
488945D0	-9.13706
83F80D0F8D	-9.13754
8A040824010FB6C04898	-9.13767
000F85	-9.13772
8A45D724010FB6C0	-9.13808
0FBF04484898	-9.13897
7000000FCFFFFFFFFFFFFFF4	-9.13928
5000000FCFFFFFFFFFFFFFF9	-9.13992
6000000FCFFFFFFFFFFFFFF0	-9.14119
0FB64518	-9.14131
898568FFFFFF	-9.14214
00000000000000000099000000	-9.14223
488985B0FEFFFF	-9.14225
488B05000000000FB600	-9.14254
B0FBFFFF	-9.14393
39C80F9FC024010FB6C0	-9.14436
7000000FCFFFFFFFFFFFFFF9	-9.14508
15000000000000	-9.14546
7000000FCFFFFFFFFFFFFFFC	-9.14589
7000000FCFFFFFFFFFFFFFFB	-9.14629
488945A0488B45A0	-9.1465
488908	-9.14684
CCFDFFFF	-9.14711
39C80F95C024010FB6C0	-9.14717
89C88B8D	-9.14734
600	-9.14768
488945C8	-9.14862
488B4D48	-9.14901
6000000FCFFFFFFFFFFFFFF2	-9.14938
62FFFFFF	-9.14983
7000000FCFFFFFFFFFFFFFF6	-9.14984
E97	-9.15093
83C1014863C9488B04C8	-9.15153
488945B8	-9.15205
39C80F9DC024010FB6C0	-9.15246
0FB74DDC	-9.1527
57FFFFFF	-9.15271
0FBE04084898	-9.1531
0FBFC981E9	-9.1534
0FBFC881E9	-9.15414
8A4DE380E1010FB6C9	-9.15475
8955	-9.15605
83F8150F8D	-9.157
83F8140F8D	-9.15772
25F3	-9.15788
8945C48B45C4	-9.15859
C0FBFFFF	-9.15866
BCFDFFFF	-9.15876
6FFFFE90C0000008B85	-9.15914
9000000FCFFFFFFFFFFFFFF	-9.1594
982D	-9.15948
89856CFFFFFF	-9.15976
7000000FCFFFFFFFFFFFFFFD	-9.16009
7000000FCFFFFFFFFFFFFFF3	-9.16013
3000000FCFFFFFFFFFFFFFFA	-9.16022
E9B	-9.16029
7000000FCFFFFFFFFFFFFFF1	-9.16065
90000000000000000000000000000000	-9.16078
7000000FCFFFFFFFFFFFFFF0	-9.16138
0FB604084898	-9.16172
90FBFFFF	-9.16174
488985A0FEFFFF	-9.16199
89F08BB5	-9.16422
66C745D	-9.16435
7000000FCFFFFFFFFFFFFFF8	-9.16449
050000000000002A0000001	-9.16528
6000000FCFFFFFFFFFFFFFFA	-9.16528
83F80B0F8D	-9.16582
7AFFFFFF	-9.16583
480FBF4DC6	-9.1664
48694D90	-9.16722
8945D0	-9.16794
31C0482B45	-9.16797
6000000FCFFFFFFFFFFFFFF6	-9.16815
6000000FCFFFFFFFFFFFFFFC	-9.16863
83F80C0F8D	-9.16913
C030000	-9.16936
4869C95A4800004801C8	-9.1695
7000000FCFFFFFFFFFFFFFF7	-9.1697
06FFFFFF	-9.16988
8B0929C1488B05000000008908	-9.17055
48898568FFFFFF	-9.1709
000000000000000000A0000000	-9.17097
5000000FCFFFFFFFFFFFFFFB	-9.17169
00000000000000000060000000	-9.17198
0400	-9.17234
48898590FEFFFF	-9.17238
10000000488B45C8488985	-9.17248
7000000FCFFFFFFFFFFFFFFE	-9.17283
83F80A0F8D	-9.17305
7000000FCFFFFFFFFFFFFFFA	-9.1734
6000000FCFFFFFFFFFFFFFF8	-9.17443
480FBE4DD3	-9.17475
83F80E0F8D	-9.17528
5000000FCFFFFFFFFFFFFFFC	-9.17558
C8000000	-9.17565
7FAFFFF	-9.1759
7661725F3238007661725F323900	-9.17607
898560FFFFFF	-9.17623
98000000	-9.17681
18000000000000	-9.17691
8B45E0	-9.17702
4869C91CBE00004801C8	-9.17731
0FB64DB7	-9.17863
8000000FCFFFFFFFFFFFFFFB	-9.17875
8945D08B45D0	-9.1791
488B4D88	-9.17936
83F8130F8D	-9.17947
48C1E10F4801C8	-9.18081
6000000FCFFFFFFFFFFFFFFE	-9.18112
488945A8488B45A8	-9.18122
0FBE45FF	-9.18122
89C1488B05000000004805	-9.18225
8945D88B45D8	-9.18281
7000000FCFFFFFFFFFFFFFFF	-9.18385
83C1014863C98B0488	-9.18402
48898578FFFFFF488B8578FFFFFF	-9.1843
10000000488B45C0488985	-9.18557
83F80F0F8D	-9.18598
1A000000000000	-9.18635
EDFFFF	-9.18666
86FEFFFF	-9.1867
7661725F3131007661725F313200	-9.18685
5000000FCFFFFFFFFFFFFFFD	-9.18692
8B4DB0	-9.18702
5AFFFFFF	-9.18765
DCFDFFFF	-9.18791
7010000000000002A0000000	-9.18871
0308488B05000000008908	-9.18893
48898580FEFFFF	-9.18945
488B85A0010000	-9.18972
8B0C91	-9.19034
6000000FCFFFFFFFFFFFFFFB	-9.19049
8000000FCFFFFFFFFFFFFFF3	-9.19085
5010000000000002A0000000	-9.19159
DEFEFFFF	-9.19185
00000080	-9.19187
488B4D98	-9.19281
164801C8	-9.19363
898544FFFFFF	-9.19453
66C745E	-9.19495
488B05000000000FB700	-9.19514
4883C4	-9.19546
7661725F3239007661725F333000	-9.19559
3000000FCFFFFFFFFFFFFFFB	-9.19561
8B4DF0	-9.19575
8000000FCFFFFFFFFFFFFFF2	-9.19579
8000000FCFFFFFFFFFFFFFF9	-9.19593
8A4DAF80E1010FB6C9	-9.1961
8B8D74FFFFFF	-9.19664
190000000000002A0000001	-9.19707
A00000004C8B8	-9.19709
03000000	-9.1972
89852CFFFFFF	-9.19724
4883E9	-9.19777
50FBFFFF	-9.19784
6000000FCFFFFFFFFFFFFFFF	-9.19855
9010000000000002A0000000	-9.1997
0EFFFFFF	-9.20072
83F8110F8D	-9.20074
8000000FCFFFFFFFFFFFFFF6	-9.20165
0FB74DAE	-9.2017
2AFFFFFF	-9.20185
8A45F724010FB6C0	-9.20298
4869C948E801004801C8	-9.20321
4869C9387C01004801C8	-9.20348
4863C8	-9.20365
000000000000000000A7000000	-9.20461
4869C9006C00004801C8	-9.20465
2010000000000002A0000000	-9.20523
486345	-9.20544
0FB64520	-9.20554
4869C9622600004801C8	-9.20571
48C1E10E4801C8	-9.2064
00000000000000000067000000	-9.20681
6000000FCFFFFFFFFFFFFFFD	-9.20685
8000000FCFFFFFFFFFFFFFF1	-9.20706
A0FBFFFF	-9.20748
A010000000000002A0000000	-9.20796
8B4D94	-9.20858
8945D48B45D4	-9.20863
8000000FCFFFFFFFFFFFFFFC	-9.20933
48894590	-9.21036
48898570FEFFFF	-9.21091
4869C9B49000004801C8	-9.21125
A4FDFFFF	-9.21137
66C745C	-9.21182
4869C9E1F505004801C8	-9.21207
64FDFFFF	-9.2135
8A4DB780E1010FB6C9	-9.21371
24018845F	-9.21389
898558FFFFFF	-9.21404
E010000000000002A0000000	-9.21487
B0000000	-9.21524
488B4D40	-9.21566
10000000488B45B8488985	-9.21642
48894588488B4588	-9.21673
3010000000000002A0000000	-9.2171
500	-9.21724
8B4D9C	-9.21746
4869C960A600004801C8	-9.21754
0F0000000FBF45	-9.21756
83F8120F8D	-9.21791
5000000FCFFFFFFFFFFFFFFE	-9.21811
F645F	-9.21838
488B8DA0000000	-9.2187
8000000FCFFFFFFFFFFFFFF0	-9.21881
39C80F8E	-9.21894
7000000FCFFFFFFFFFFFFFF002E	-9.2191
48898528FFFFFF	-9.21996
8000000FCFFFFFFFFFFFFFFF	-9.2203
98FBFFFF	-9.22109
8000000FCFFFFFFFFFFFFFF4	-9.22112
1010000000000002A0000000	-9.22189
0FBF55	-9.22212
4869C90E5F00004801C8	-9.22284
668B0448	-9.2232
488945B0488B45B0	-9.22327
480345	-9.22335
486BC0	-9.22338
48634DA4	-9.2241
8000000FCFFFFFFFFFFFFFFA	-9.22414
7661725F323000	-9.2242
11000000B8	-9.22458
89857CFFFFFF	-9.22476
48898558FFFFFF	-9.22512
88FBFFFF	-9.22556
8000000FCFFFFFFFFFFFFFFD	-9.22615
807D	-9.22696
488B050000000048B9	-9.22714
10000000488B45D8488985	-9.22739
F9FFFFE900000000	-9.22759
8000000FCFFFFFFFFFFFFFF7	-9.2278
4CFDFFFF	-9.22817
09000000000000	-9.22834
8000000FCFFFFFFFFFFFFFF5	-9.22862
80000001200010000000000000000003	-9.22891
488B8510010000488B	-9.23029
80FBFFFF	-9.23069
4010000000000002A0000000	-9.23072
48694DE8	-9.23178
9CFDFFFF	-9.23218
F010000000000002A0000000	-9.2322
D010000000000002A0000000	-9.23225
4801D0	-9.23275
0060000	-9.23291
4030000	-9.23299
0FB745EE	-9.23339
000000000078	-9.23351
6010000000000002A0000000	-9.23368
8A4DEB80E1010FB6C9	-9.2337
48C1E1104801C8	-9.23483
89851CFFFFFF	-9.23502
8B4D84	-9.23536
4869C9214504004801C8	-9.23628
10000000488B45B0488985	-9.23649
0FB64528	-9.23769
8508010000488B85	-9.23797
83F8000F95C024010FB6C8	-9.23806
7661725F313700	-9.23896
10000000488B45A8488985	-9.23923
488B8DA8000000	-9.23932
898564FFFFFF	-9.23964
C0000000	-9.24135
000000000000000000AE000000	-9.24151
8000000FCFFFFFFFFFFFFFF8	-9.24242
B010000000000002A0000000	-9.24249
8A8D5	-9.24345
A8000000	-9.24359
0FB64DEB	-9.24364
4869C9B1F702004801C8	-9.24382
488B85A8010000	-9.24425
0000000000000000006E000000	-9.24427
4869C9C44C00004801C8	-9.24457
8000000FCFFFFFFFFFFFFFFE	-9.2457
8010000000000002A0000000	-9.24583
480FBE4DE7	-9.2462
0FB74DD2	-9.24641
31D2F7F1	-9.24643
8050000	-9.24646
3000000FCFFFFFFFFFFFFFFC	-9.24691
488945D8	-9.24714
48898570FFFFFF488B8570FFFFFF	-9.24753
83F8100F8D	-9.24757
C010000000000002A0000000	-9.24794
7EFEFFFF	-9.24814
7661725F3330007661725F333100	-9.24847
9805	-9.24904
8945BC8B45BC	-9.2492
8A4D9F80E1010FB6C9	-9.24941
E919000000	-9.24957
4AFFFFFF	-9.24981
4869C900D800004801C8	-9.25013
4869C92C6B00004801C8	-9.2505
8A4DDB80E1010FB6C9	-9.25062
83F8160F8D	-9.25089
8945DC8B45DC	-9.25119
898550FFFFFF	-9.2515
CEFEFFFF	-9.2516
48B81	-9.25161
0FB64DDB	-9.25233
ACFDFFFF	-9.253
8A8D7	-9.25318
14FDFFFF	-9.25344
C645B	-9.25417
898534FFFFFF	-9.25422
0F000000000000	-9.25446
68FBFFFF	-9.25484
898504FFFFFF	-9.25502
4869C9682101004801C8	-9.25556
89850CFFFFFF	-9.25563
94FDFFFF	-9.25582
9000000FCFFFFFFFFFFFFFFC	-9.25625
48898558FEFFFF	-9.25678
72FFFFFF	-9.25688
900	-9.25705
E90D00000031C08985	-9.25796
4869C9701500004801C8	-9.25851
24018885	-9.25871
0FB74DE0	-9.25915
6CFDFFFF	-9.26087
48898538FFFFFF	-9.26136
60FBFFFF	-9.26147
4829D14839C80F83	-9.26154
5000000FCFFFFFFFFFFFFFFF	-9.2619
8B4D8C	-9.26213
8CFDFFFF	-9.26235
1D000000000000	-9.2624
48898548FFFFFF	-9.26274
4869C9902D00004801C8	-9.263
7CFDFFFF	-9.26315
0EFEFFFF	-9.26348
488B85B0010000	-9.26367
8945D4	-9.26368
488B75	-9.26435
898548FFFFFF	-9.26583
F645E	-9.26594
3000000FCFFFFFFFFFFFFFFD	-9.26639
480FBF4DEA	-9.26645
95C180E101488B05000000008808	-9.26692
8945B48B45B4	-9.26724
488B04C84883F0FF	-9.26732
4869C9C04C01004801C8	-9.26772
48898560FEFFFF	-9.26774
200	-9.26775
8945AC	-9.26783
898514FFFFFF	-9.26815
E918000000	-9.2684
000000000000000000B5000000	-9.26938
C020000	-9.26941
0FB64D9F	-9.27062
48B8E	-9.27069
480FBF4DD4	-9.27081
FCFCFFFF	-9.27108
E6FEFFFF	-9.27167
FFFFFF7F	-9.27205
48694D88	-9.27209
70FBFFFF	-9.27254
24010FB6C831C029C8	-9.27313
488B8DB0000000	-9.2733
4869C9542200004801C8	-9.27369
0FB645EF	-9.27384
9000000FCFFFFFFFFFFFFFF7	-9.27399
900000004801C8	-9.27476
EEFEFFFF	-9.27546
0FB64DD3	-9.27669
47FFFFFF	-9.27684
898554FFFFFF	-9.27695
1CFDFFFF	-9.27767
8985FCFEFFFF	-9.27768
08000000000000	-9.27827
488945C0488B45C0	-9.27845
4869C9889900004801C8	-9.27858
488B	-9.27876
480FBF4D	-9.27893
9000000FCFFFFFFFFFFFFFF6	-9.27989
A000000FCFFFFFFFFFFFFFF0	-9.27993
7661725F313800	-9.28053
488B85B8010000	-9.28067
00000000000000000075000000	-9.28103
4869C9803E00004801C8	-9.28105
0CFDFFFF	-9.28151
9000000FCFFFFFFFFFFFFFFB	-9.28166
4869C9963500004801C8	-9.28407
8945A48B45A4	-9.28449
40FBFFFF	-9.28455
898540FFFFFF	-9.28491
9000000FCFFFFFFFFFFFFFF8	-9.28527
A000000FCFFFFFFFFFFFFFFF	-9.28555
A000000FCFFFFFFFFFFFFFF1	-9.28638
48634D	-9.28652
F6FEFFFF	-9.28658
A000000FCFFFFFFFFFFFFFF4	-9.28687
7661725F3130007661725F313100	-9.28716
9000000FCFFFFFFFFFFFFFF3	-9.28728
78FBFFFF	-9.28753
1A000000	-9.2878
9000000FCFFFFFFFFFFFFFF4	-9.28811
0A000000000000	-9.28837
48898550FEFFFF	-9.28844
A000000FCFFFFFFFFFFFFFF9	-9.28846
48894580488B4580	-9.28867
A000000FCFFFFFFFFFFFFFF2	-9.2889
9000000FCFFFFFFFFFFFFFF5	-9.28909
89853CFFFFFF	-9.28956
220000000000002A0000002	-9.28975
488BB5	-9.28975
8945CC	-9.28981
9000000FCFFFFFFFFFFFFFF0	-9.28991
4869C92A1100004801C8	-9.2907
0F0000000000002A0000002	-9.29098
A000000FCFFFFFFFFFFFFFF7	-9.29242
A000000FCFFFFFFFFFFFFFFA	-9.29278
8A45EB24010FB6C0	-9.29302
83F8170F8D	-9.29426
898524FFFFFF	-9.29454
A6FEFFFF	-9.29461
4869C9007D00004801C8	-9.29472
9000000FCFFFFFFFFFFFFFF9	-9.29575
48898540FEFFFF	-9.29707
9000000FCFFFFFFFFFFFFFFD	-9.29745
06000000	-9.29747
140000	-9.2976
9000000FCFFFFFFFFFFFFFFF	-9.29767
9000000FCFFFFFFFFFFFFFF1	-9.29851
9000000FCFFFFFFFFFFFFFFA	-9.29852
44FDFFFF	-9.29895
8EFEFFFF	-9.29948
488945B8488B45B8	-9.29968
48894590488B4590	-9.30083
83C10389C9	-9.30105
8B45DC	-9.30175
9000000FCFFFFFFFFFFFFFF2	-9.30201
A000000FCFFFFFFFFFFFFFF8	-9.30206
8945AC8B45AC	-9.30248
84FDFFFF	-9.30315
000000000000000000BC000000	-9.30339
480FBF0448	-9.30351
894584	-9.30373
4869C9A84400004801C8	-9.30374
000F841600000048B8	-9.30381
EAFEFFFF	-9.30406
4869C9BC3400004801C8	-9.30593
04000010000000	-9.3061
7661725F323200	-9.30645
0FBE4DF	-9.30693
A000000FCFFFFFFFFFFFFFFE	-9.30696
6AFFFFFF	-9.30748
ECFFFF	-9.30811
7661725F3332007661725F333300	-9.30849
4801D18B95	-9.30896
8B4550	-9.30909
4869C900B001004801C8	-9.30945
A000000FCFFFFFFFFFFFFFF5	-9.30966
DCFCFFFF	-9.30978
3000000FCFFFFFFFFFFFFFFE	-9.30995
B000000FCFFFFFFFFFFFFFFC	-9.31089
20000000	-9.31116
48898530FEFFFF	-9.31168
B000000FCFFFFFFFFFFFFFF2	-9.31187
A000000FCFFFFFFFFFFFFFF3	-9.31222
A000000FCFFFFFFFFFFFFFFC	-9.31272
0FBFC981C1	-9.31272
8945E8	-9.3129
4869C9109303004801C8	-9.31312
0FB64DED	-9.31313
58FBFFFF	-9.31422
0000000000000000007C000000	-9.31429
8855F	-9.31438
480FBE4DC	-9.31505
77FFFFFF	-9.31511
8985ECFEFFFF	-9.3155
24010FB6D0	-9.31659
A000000FCFFFFFFFFFFFFFFD	-9.3167
898538FFFFFF	-9.31762
A000000FCFFFFFFFFFFFFFFB	-9.31847
1A0000000000002A0000001	-9.31908
48B87	-9.31961
8985E4FEFFFF	-9.32067
9000000FCFFFFFFFFFFFFFFE	-9.32077
B000000FCFFFFFFFFFFFFFF0	-9.32085
8985F4FEFFFF	-9.32113
8945948B4594	-9.32148
89854CFFFFFF	-9.32264
8945C88B45C8	-9.32284
E9C	-9.32287
18000000	-9.32346
8A4DCB80E1010FB6C9	-9.32354
483B04D10F	-9.32376
7F000000	-9.32407
6FFFFFFF	-9.32456
30FBFFFF	-9.32491
00FBFFFF	-9.32496
8945C4	-9.32526
480FBE4DA7	-9.32537
8945D8	-9.32595
20010000488B8518010000	-9.32693
FEFEFFFF	-9.32756
807DF	-9.32767
31C02B85	-9.32779
B000000FCFFFFFFFFFFFFFF5	-9.32834
A000000FCFFFFFFFFFFFFFF6	-9.32851
48B88	-9.32897
6030000	-9.32941
E916000000	-9.32942
28FBFFFF	-9.33095
48898520FEFFFF	-9.33109
48B8B	-9.3312
488985F8FEFFFF	-9.33232
4801D14881C1	-9.33293
B000000FCFFFFFFFFFFFFFF6	-9.33298
0000000000E0	-9.33367
4801D1486995	-9.33367
000000000000000000C3000000	-9.33385
488945B0	-9.33388
488B4D80	-9.33396
04000000	-9.33412
42FFFFFF	-9.33413
39C80F9CC024010FB6C0	-9.33414
24010FB6C8488B05000000008908	-9.3364
C7FEFFFF	-9.33679
488994C8	-9.33689
B000000FCFFFFFFFFFFFFFF9	-9.33706
66C745B	-9.33745
89458C8B458C	-9.33747
B000000FCFFFFFFFFFFFFFFB	-9.33769
B000000FCFFFFFFFFFFFFFFE	-9.33818
488945A8	-9.33834
1C000000	-9.33896
B000000FCFFFFFFFFFFFFFFA	-9.33937
D6FEFFFF	-9.34004
0FB74DA6	-9.34047
898528FFFFFF	-9.34114
89F88BBD	-9.34126
480FBE0408	-9.34153
00000000000000000083000000	-9.34222
0FB74510	-9.34268
48B8A	-9.34293
4869C9660A00004801C8	-9.34295
4869C958D600004801C8	-9.34298
0FBFC881C1	-9.34309
898530FFFFFF	-9.34313
4869C9001005004801C8	-9.34399
A030000	-9.34414
8A8DF	-9.3443
6020000	-9.34437
4869C9E02A00004801C8	-9.34471
8A8DE	-9.34496
88C1	-9.3452
8945C8	-9.34535
48B82	-9.34548
4869C9C05500004801C8	-9.34581
8985DCFEFFFF	-9.34595
48B83	-9.34631
89459C8B459C	-9.34716
488945C8488B45C8	-9.34773
184801C8	-9.34806
0FBE4518	-9.34821
0AFFFFFF	-9.34848
5CFDFFFF	-9.34884
E4FCFFFF	-9.34927
46FEFFFF	-9.34954
4863C848B8	-9.34987
48B8C	-9.35
7661725F3331007661725F333200	-9.3511
EFFFF0FB78D	-9.35171
BEFEFFFF	-9.35177
48B89	-9.35235
3CFDFFFF	-9.35252
89C089C1488B0500000000488908	-9.35283
4801CA	-9.35292
E90A0000000FB645	-9.353
83C2024863D2	-9.35309
4869C95E1A00004801C8	-9.35368
02FFFFFF	-9.35379
54FDFFFF	-9.35404
83C00183F8000F95C02401	-9.35452
B000000FCFFFFFFFFFFFFFF3	-9.35461
0000000000000000000000001	-9.35481
83F8000F95C08885	-9.35522
D4FCFFFF	-9.35547
0F94C024010FB6C0	-9.35634
1F0000	-9.35699
0000000000C0	-9.35711
48B86	-9.35721
488B8DB8000000	-9.35747
2CFDFFFF	-9.3575
E030000	-9.35788
4801D1486955	-9.35813
480FAF08488B0500000000488908	-9.35817
3000000FCFFFFFFFFFFFFFFF	-9.35875
D98000000	-9.35912
B000000FCFFFFFFFFFFFFFF4	-9.35913
6EFEFFFF	-9.35914
B000000FCFFFFFFFFFFFFFF1	-9.35958
CEFDFFFF	-9.36048
21C888C1488B05000000008808	-9.36052
0000000000D8	-9.36069
4869C9007102004801C8	-9.36103
48B84	-9.36141
4869C9414601004801C8	-9.36144
48FBFFFF	-9.36157
020000000000000D000000	-9.36244
48898578FEFFFF	-9.3628
488B4D38	-9.363
000000000000000000CA000000	-9.36304
C645A	-9.36386
83E8014863C8488B0500000000	-9.36434
20FBFFFF	-9.36457
60000000	-9.36462
B6FEFFFF	-9.36497
0FB645F7	-9.36509
8945C08B45C0	-9.36543
8B8D54FFFFFF	-9.36594
B000000FCFFFFFFFFFFFFFFD	-9.36605
C80000004801C8	-9.3661
B000000FCFFFFFFFFFFFFFF7	-9.36732
4869C9916F00004801C8	-9.36746
B000000FCFFFFFFFFFFFFFF8	-9.36756
0000000000000000008A000000	-9.36791
B000000FCFFFFFFFFFFFFFFF	-9.36816
8985D4FEFFFF	-9.36833
18FBFFFF	-9.36873
DFFFF0FB78D	-9.36935
4869C9C1C500004801C8	-9.36936
74FDFFFF	-9.36936
1FFFF	-9.36967
144801C8	-9.37008
480FBF4DB6	-9.3703
4869C9205B00004801C8	-9.37112
48898518FFFFFF	-9.37131
26FEFFFF	-9.37173
4869C9109600004801C8	-9.37228
480FBE4DB7	-9.37298
480FBF4DEC	-9.37364
34FDFFFF	-9.37366
89C1488B050000000066891448	-9.37366
4869C940B600004801C8	-9.37389
898518FFFFFF	-9.37486
8A45E324010FB6C0	-9.37572
00000000000000000035000000	-9.37584
0FB74518	-9.37703
FFFEFFFF	-9.37819
488985D8FEFFFF	-9.37831
488B8D60FFFFFF	-9.37839
80E101488B05000000008808	-9.37851
48898510FEFFFF	-9.37852
80000001200010000000000000000004	-9.37859
83E801	-9.37908
1030000	-9.37955
32FFFFFF	-9.38089
07000000	-9.38101
C000000FCFFFFFFFFFFFFFF5	-9.38108
9EFEFFFF	-9.38134
8A8D6	-9.38137
83EA024863D2	-9.38151
9030000	-9.3823
4020000	-9.38293
38FBFFFF	-9.38301
00100004C8B85	-9.38307
898520FFFFFF	-9.38332
0000000000000000002E000000	-9.38393
48837DE8000F84	-9.38459
1EFEFFFF	-9.3856
48898518FEFFFF	-9.38603
488985E8FEFFFF	-9.38667
8945848B4584	-9.38705
C000000FCFFFFFFFFFFFFFFC	-9.38707
4863C948	-9.38753
4883F8000F95C034FF24010FB6C0	-9.38799
48898500FEFFFF	-9.38818
4869C9786900004801C8	-9.38836
89C1488B0500000000881408	-9.38881
48898508FFFFFF	-9.38907
4869C9001B00004801C8	-9.3901
48698D78FFFFFF	-9.39027
37FFFFFF	-9.39205
27FFFFFF	-9.39224
C000000FCFFFFFFFFFFFFFF7	-9.39255
80000001200010000000000000000007	-9.39274
160000	-9.39326
000000000000000000D1000000	-9.39353
D030000	-9.39374
7661725F323100	-9.39454
BAFEFFFF	-9.39458
80000001200010000000000000000002	-9.39506
0FB64DDE	-9.39552
10000000488B45E0488985	-9.39558
83E90389C9	-9.39563
604801C8	-9.39569
898510FFFFFF	-9.39606
8985BCFEFFFF	-9.39698
C11	-9.39718
00000000000000000091000000	-9.3986
C6FEFFFF	-9.39873
8985CCFEFFFF	-9.39929
8A4DF	-9.39955
230000000000002A0000002	-9.39965
8985B4FEFFFF	-9.39966
26000000	-9.39977
488B85C0010000	-9.39988
C000000FCFFFFFFFFFFFFFF6	-9.39994
0000000000002A0000009	-9.40043
0FBE45EF	-9.40063
8945B4	-9.40103
89C1488B0500000000891488	-9.40103
4883EA01	-9.40119
4869C911FD01004801C8	-9.40142
21C86689C1488B0500000000668908	-9.40148
8A8D9	-9.40175
48898568FEFFFF	-9.40185
3030000	-9.40194
6FEFFFFE9	-9.40204
488985E0FDFFFF	-9.40218
0FB755E	-9.40228
0000000000000000003C000000	-9.40237
7661725F3334007661725F333500	-9.40281
B00	-9.40319
C000000FCFFFFFFFFFFFFFFF	-9.40322
8945A8	-9.40335
0FBE4528	-9.40363
8060000	-9.40369
488B8D68FFFFFF	-9.40394
C000000FCFFFFFFFFFFFFFF4	-9.4043
8985C4FEFFFF	-9.40643
0FFFF	-9.40655
83F8000F95C024010FB6C0	-9.40731
C000000FCFFFFFFFFFFFFFF9	-9.40753
A39C80F8D	-9.40767
8995	-9.40801
80000001200010000000000000000006	-9.40818
5030000	-9.40832
04FDFFFF	-9.40839
8A4DE680E1010FB6C9	-9.40842
E912000000	-9.40907
C000000FCFFFFFFFFFFFFFF2	-9.41002
6689C1	-9.41027
0FB655E	-9.41058
7F0000	-9.41079
898508FFFFFF	-9.41151
0FAF08488B05000000008908	-9.41309
48694D80	-9.41321
488B8D70FFFFFF	-9.41373
FAFEFFFF	-9.41389
89858CFEFFFF	-9.41444
09C86689C1488B0500000000668908	-9.41456
4869C9800D00004801C8	-9.4146
EFEFFFFE9	-9.41474
3FEFFFF80E1010FB6C9	-9.41526
898500FFFFFF	-9.41563
0FB64530	-9.41598
48894598	-9.41598
4801D18A95	-9.41607
0F6FFFFE90E000000488B85	-9.41614
D000000FCFFFFFFFFFFFFFF5	-9.41649
C000000FCFFFFFFFFFFFFFFE	-9.4165
644801C8	-9.41745
C000000FCFFFFFFFFFFFFFFD	-9.41783
488945A0	-9.41838
486355	-9.41858
B4FCFFFF	-9.41866
66894DF	-9.41944
10FBFFFF	-9.41954
000000000000000000D8000000	-9.42002
0000000000D0	-9.42011
F8FFFFE900000000	-9.4204
16FEFFFF	-9.4208
B030000	-9.42083
72000000	-9.42088
480FBE4DDB	-9.42104
C000000FCFFFFFFFFFFFFFFB	-9.42115
486B55	-9.4213
0FB68D7FFFFFFF	-9.42156
E95	-9.42159
C6459	-9.42169
C000000FCFFFFFFFFFFFFFF	-9.42175
488B8D20FFFFFF	-9.42262
C000000FCFFFFFFFFFFFFFF1	-9.42291
488985E8FDFFFF	-9.42357
09C888C1488B05000000008808	-9.42374
76FEFFFF	-9.42423
D000000FCFFFFFFFFFFFFFFF	-9.4249
8945BC	-9.42491
3C000F84	-9.42568
894588	-9.42615
8A4DDE80E1010FB6C9	-9.42633
898574FFFFFF8B8574FFFFFF	-9.42636
D000000FCFFFFFFFFFFFFFF6	-9.42653
194801C8	-9.42694
480FBE4DAF	-9.42711
8985ACFEFFFF	-9.42711
8F6FFFFE90E000000488B85	-9.42849
000000000090	-9.42929
E90E000000488B8578FFFFFF488985	-9.42955
C000000FCFFFFFFFFFFFFFF8	-9.42981
00000000000000000098000000	-9.43142
3EFEFFFF	-9.43168
08FBFFFF	-9.43203
C000000FCFFFFFFFFFFFFFF0	-9.43222
E917000000	-9.43234
4869C900FA00004801C8	-9.43252
C000000FCFFFFFFFFFFFFFFA	-9.43312
480B08488B0500000000488908	-9.43321
0FB64DA7	-9.43339
8985F8FEFFFF	-9.43371
4801D10FB695	-9.43381
2030000	-9.43445
304801C8	-9.43445
4869C9109A01004801C8	-9.43453
5EFEFFFF	-9.43523
0F95C024010FB6C0	-9.43531
488985F0FDFFFF	-9.43532
4883F1FF	-9.43554
3F000000	-9.43565
7030000	-9.43573
F0000000	-9.43588
488985C8FEFFFF	-9.43617
66C745A	-9.43618
4801D10FB795	-9.43685
7661725F3333007661725F333400	-9.43688
24FDFFFF	-9.4369
4869C9D00700004801C8	-9.43711
488B4DF0	-9.4372
0FB645E7	-9.43834
8945B88B45B8	-9.43913
898594FEFFFF	-9.43931
5020000000000002A0000000	-9.43964
488985C8FDFFFF	-9.43966
0FB74528	-9.44034
0FB745E6	-9.44082
8528010000488B85	-9.44095
0FBE4520	-9.4411
0FB74DF0	-9.44146
000	-9.44147
D000000FCFFFFFFFFFFFFFF7	-9.44168
D000000FCFFFFFFFFFFFFFFD	-9.44211
E000000FCFFFFFFFFFFFFFF	-9.44223
FFFF0000	-9.44247
4869C9A00F00004801C8	-9.44324
4EFEFFFF	-9.44328
10000488B8530010000488B	-9.44359
D000000FCFFFFFFFFFFFFFFC	-9.44373
8B8D5CFFFFFF	-9.44404
488B8DC0000000	-9.44422
88459	-9.4449
9020000000000002A0000000	-9.4449
E000000FCFFFFFFFFFFFFFF7	-9.44535
89856CFEFFFF	-9.44549
D000000FCFFFFFFFFFFFFFF9	-9.44577
639C80F8D	-9.44623
4C8B8D900000004C8B8D880000004	-9.44656
40010000488B85380	-9.44677
000000000000000000DF000000	-9.44696
96FEFFFF	-9.44705
48C7C0	-9.4471
D000000FCFFFFFFFFFFFFFF2	-9.4475
80000001200010000000000000000009	-9.44794
E020000000000002A0000000	-9.448
E000000FCFFFFFFFFFFFFFFF	-9.44803
CAFEFFFF	-9.44855
22000000	-9.44908
6020000000000002A0000000	-9.44951
B020000000000002A0000000	-9.44982
89859CFEFFFF	-9.45051
C000000FCFFFFFFFFFFFFFF3	-9.45138
E000000FCFFFFFFFFFFFFFFD	-9.45148
0E0000000000002A0000002	-9.45159
7020000000000002A0000000	-9.45177
1020000000000002A0000000	-9.4519
48698D68FFFFFF	-9.45193
488B8DC8000000	-9.45221
0F86	-9.45268
4020000000000002A0000000	-9.45281
8B8D64FFFFFF	-9.45287
B7FEFFFF	-9.45337
D000000FCFFFFFFFFFFFFFFA	-9.45359
0020000000000002A0000000	-9.45447
D000000FCFFFFFFFFFFFFFF0	-9.45466
80000001200010000000000000000005	-9.45492
00000000000000000043000000	-9.455
7661725F313600	-9.45594
A020000	-9.4563
0F83	-9.45638
8985A4FEFFFF	-9.45678
482308488B0500000000488908	-9.45678
180000	-9.45707
7661725F3336007661725F333700	-9.4574
89855CFEFFFF	-9.45743
E91300000048C7C0	-9.45748
8B1488	-9.45816
D000000FCFFFFFFFFFFFFFF1	-9.45832
31C883F8	-9.45884
0000000000000000009F000000	-9.45885
2040000	-9.45931
8985F0FEFFFF	-9.45949
488B05000000004869D2	-9.45955
89857CFFFFFF8B857CFFFFFF	-9.45962
C80000004C8B8	-9.46019
488985A8FEFFFF	-9.4603
4869C9CC1400004801C8	-9.46082
8845D	-9.46106
8B4558	-9.46118
539C80F8D	-9.46125
D020000000000002A0000000	-9.46132
84FCFFFF	-9.46159
8378	-9.46181
2020000000000002A0000000	-9.46191
69C0	-9.46206
0FB74520	-9.46255
D000000FCFFFFFFFFFFFFFF3	-9.46266
D000000FCFFFFFFFFFFFFFF8	-9.46266
488985D8FDFFFF	-9.4628
F020000000000002A0000000	-9.46281
83C11	-9.46296
47FEFFFF	-9.46325
48000000	-9.4633
1E000000	-9.46368
3FFFFFFF	-9.46372
89C1488B0500000000488914C8	-9.46399
239C80F8D	-9.4643
E000000FCFFFFFFFFFFFFFF5	-9.46455
4883C001	-9.46482
89856CFFFFFF8B856CFFFFFF	-9.465
000000000040	-9.46516
D000000FCFFFFFFFFFFFFFF4	-9.4654
A020000000000002A0000000	-9.46544
D000000FCFFFFFFFFFFFFFF	-9.46702
0070000	-9.46708
00000000000000000000000088	-9.46756
14000000000000	-9.46811
31C029C883F8000F84	-9.46823
480540	-9.46826
8A4DA780E1010FB6C9	-9.46848
488985B8FEFFFF	-9.46887
D000000FCFFFFFFFFFFFFFFE	-9.46958
488B05000000008808	-9.46962
1AFFFFFF	-9.46962
66FEFFFF	-9.46966
1D000000	-9.46973
4FFEFFFF	-9.46982
5020000	-9.4709
20010000	-9.47147
C4FCFFFF	-9.47151
80000001200010000000000000000008	-9.47175
3020000000000002A0000000	-9.47176
4883F8000F95C024010FB6C8	-9.47176
83F8180F8D	-9.47223
AEFEFFFF	-9.47239
8A8D3	-9.47286
17FFFFFF	-9.47366
ECFCFFFF	-9.47391
8000000120001000000000000000000A	-9.47392
488995	-9.47423
24010FB6C8	-9.47493
8985B8FEFFFF	-9.47509
EEFDFFFF	-9.47563
898584FEFFFF	-9.47565
8945E0	-9.47596
898564FFFFFF8B8564FFFFFF	-9.47651
8CFCFFFF	-9.47739
C020000000000002A0000000	-9.47764
488B14C8	-9.47817
E000000FCFFFFFFFFFFFFFF8	-9.47829
24018845E	-9.47872
0FB745F6	-9.47902
E000000FCFFFFFFFFFFFFFF0	-9.47903
0FB74DD4	-9.47928
CFFFFFF	-9.47942
488985A0FDFFFF	-9.47952
000000000000000000A6000000	-9.47959
4FFFF8B85	-9.47988
000000000000000000E6000000	-9.48002
240000000000002A0000002	-9.48007
89F08B75	-9.48079
8B8D7CFFFFFF	-9.48083
4869C9005100004801C8	-9.48111
15000000	-9.48119
D6FDFFFF	-9.48148
00000000000000000013000000	-9.48149
8A45E624010FB6C0	-9.48198
F000000FCFFFFFFFFFFFFFF3	-9.48291
898544FEFFFF	-9.48319
0FBF4520	-9.48339
37FEFFFF	-9.48353
00000000000000000027000000	-9.48406
6683F8000F84	-9.48406
8A8408	-9.48452
8A8DB	-9.48477
1C0000	-9.48489
8B4D80	-9.4853
8000000120001000000000000000000B	-9.48564
4869C9313900004801C8	-9.4859
06FEFFFF	-9.48599
E000000FCFFFFFFFFFFFFFFA	-9.48602
0B08488B05000000008908	-9.48642
240000000000002A0000003	-9.48651
8B4DA0	-9.4873
480FBE4DE3	-9.48815
E000000FCFFFFFFFFFFFFFF4	-9.48837
8B4DA8	-9.4886
D020000	-9.48876
8945B08B45B0	-9.48939
9CFCFFFF	-9.48951
89459C	-9.48992
E000000FCFFFFFFFFFFFFFF6	-9.49073
668955	-9.4917
899488	-9.49219
BFEFFFF24010FB6C0	-9.49256
F000000FCFFFFFFFFFFFFFF0	-9.49257
EBFFFF	-9.49306
488985A8FDFFFF	-9.49341
0000000000000000004A000000	-9.49343
9FDFFFF	-9.49355
89857CFEFFFF	-9.49363
E9D	-9.49386
E000000FCFFFFFFFFFFFFFF3	-9.49416
E000000FCFFFFFFFFFFFFFF2	-9.49537
488B4568488B4560488B4558488B4550	-9.49548
E000000FCFFFFFFFFFFFFFF9	-9.49566
E020000	-9.49591
894594	-9.49597
260000000000002A0000003	-9.49613
83C0014863C8488B0500000000	-9.4962
F000000FCFFFFFFFFFFFFFF1	-9.4969
3FFEFFFF	-9.49739
000000000068	-9.49748
17000000	-9.49752
8985E0FEFFFF	-9.49764
F000000FCFFFFFFFFFFFFFFF	-9.49887
E914000000	-9.49903
000000000000000000AD000000	-9.49936
0FB645D	-9.49961
F000000FCFFFFFFFFFFFFFFE	-9.49967
89855CFFFFFF8B855CFFFFFF	-9.49994
E000000FCFFFFFFFFFFFFFFE	-9.50041
7020000	-9.50109
8985E8FEFFFF	-9.50168
57FEFFFF	-9.50213
D000000FCFFFFFFFFFFFFFFB	-9.50216
439C80F8D	-9.50217
2308488B05000000008908	-9.5024
480FBE4D97	-9.50256
8945C0	-9.50281
0FB64DB	-9.50292
0FBF45FE	-9.50301
0FB64DE6	-9.50318
3020000	-9.50381
488945E0	-9.50395
1000000FCFFFFFFFFFFFFFFD	-9.50413
31C9	-9.50522
0000000FCFFFFFFFFFFFFFF	-9.50537
8020000000000002A0000000	-9.506
73FFFFFF	-9.50613
CFFEFFFF	-9.50628
8945A88B45A8	-9.50636
F030000	-9.50745
448B	-9.50764
488B8550010000488B8	-9.50768
0FBE45	-9.50794
E9F	-9.50797
89854CFEFFFF	-9.50807
8945E08B45E0	-9.50856
0000000000A0	-9.50866
07FFFFFF	-9.50937
8FAFFFF483B85	-9.50951
000000000000000000ED000000	-9.51028
22FFFFFF	-9.51038
9AFEFFFF	-9.51138
480FBF4D9E	-9.51146
898534FEFFFF	-9.51152
F000000FCFFFFFFFFFFFFFF2	-9.51179
898574FEFFFF	-9.51185
488B85C8010000	-9.51194
0FB74D96	-9.51248
CF6FFFF	-9.51254
67FFFFFF	-9.51262
898554FEFFFF	-9.51281
504801C8	-9.51304
48898580FDFFFF	-9.51309
000F95C024018885	-9.51344
833C88000F95C034FF24010FB6C0	-9.51406
F000000FCFFFFFFFFFFFFFF	-9.51413
8F4FFFF	-9.51425
F8FAFFFF	-9.51434
F000000FCFFFFFFFFFFFFFF7	-9.51444
56FEFFFF	-9.51476
3AFFFFFF	-9.51536
8B8D44FFFFFF	-9.51556
E90A0000000FBE45	-9.51577
0000000FCFFFFFFFFFFFFFF7	-9.51599
83EA014863D24869D2	-9.51612
488985D0FDFFFF	-9.51615
C6458	-9.51659
0000000FCFFFFFFFFFFFFFFA	-9.51702
488B8D48FFFFFF	-9.5172
0000000000F0	-9.51735
4869C9102700004801C8	-9.51758
8B8D6CFFFFFF	-9.5178
0FB655	-9.51816
894580	-9.51826
0345	-9.51836
48898578FDFFFF	-9.51837
E90E000000488B8570FFFFFF488985	-9.51862
E000000FCFFFFFFFFFFFFFFC	-9.51884
48B8D	-9.51913
ACFCFFFF	-9.51914
488985C0FDFFFF	-9.51965
8985D8FEFFFF	-9.51974
E2FEFFFF	-9.51997
F000000FCFFFFFFFFFFFFFF6	-9.52008
D7FEFFFF	-9.52018
1000000FCFFFFFFFFFFFFFF5	-9.52019
95C180E1010FB6C939C80F8D	-9.52026
89853CFEFFFF	-9.52037
0000000FCFFFFFFFFFFFFFF9	-9.5207
E000000FCFFFFFFFFFFFFFFB	-9.521
1B0000000000002A0000001	-9.52125
F000000FCFFFFFFFFFFFFFF9	-9.52136
0000000FCFFFFFFFFFFFFFFC	-9.52141
F000000FCFFFFFFFFFFFFFFD	-9.52165
48898598FDFFFF	-9.52246
0FB74D8E	-9.52313
8000000120001000000000000000000D	-9.52328
83F8000F8410000000B8	-9.52341
01C883F8	-9.52351
000000004829C8	-9.52366
12FFFFFF	-9.5239
14000000	-9.52426
29C883F8	-9.52432
89C2488B0500000000	-9.52433
8945A08B45A0	-9.52443
F000000FCFFFFFFFFFFFFFF5	-9.52468
8985D0FEFFFF	-9.52495
36000000	-9.52548
6BFFFFFF	-9.52548
8B4D98	-9.52555
220000000000002A0000003	-9.52569
1FDFFFF	-9.52664
0FFFFFFF	-9.52665
548010000488B85	-9.52695
BCFCFFFF	-9.52706
004805	-9.52756
95C034FF24010FB6C0	-9.52764
8A4DE580E1010FB6C9	-9.52786
1000000FCFFFFFFFFFFFFFF8	-9.52857
6172725F31343	-9.52912
898564FEFFFF	-9.5295
F000000FCFFFFFFFFFFFFFF8	-9.52988
584801C8	-9.53031
488B45D0	-9.53036
F7FFFFE900000000	-9.53038
898554FFFFFF8B8554FFFFFF	-9.53045
0FBF45EE	-9.53059
F000000FCFFFFFFFFFFFFFFC	-9.53167
E000000FCFFFFFFFFFFFFFF1	-9.532
3B04910F	-9.53205
4883C002	-9.53232
7661725F313500	-9.53253
0000000FCFFFFFFFFFFFFFF3	-9.5331
4FFFFFFF	-9.53313
230000000000002A0000003	-9.53316
89D1	-9.53324
1000000FCFFFFFFFFFFFFFFF	-9.53331
000000000000000000B4000000	-9.53337
8B75	-9.53374
DFCFFFF	-9.53387
488B0CD1	-9.53421
F000000FCFFFFFFFFFFFFFFA	-9.53431
1000000FCFFFFFFFFFFFFFFC	-9.53461
1000000FCFFFFFFFFFFFFFFB	-9.53469
E39C80F8D	-9.53485
1000000FCFFFFFFFFFFFFFF0	-9.53492
B020000	-9.53514
0F4FFFF	-9.53543
0FB64DEF	-9.53543
80780	-9.53643
00000000000000000051000000	-9.53782
8845B	-9.53803
48833CC8000F95C034FF24010FB6C0	-9.53813
A4FCFFFF	-9.5383
0000000FCFFFFFFFFFFFFFF2	-9.53851
10000000488B45F0488985	-9.53885
0000000FCFFFFFFFFFFFFFF5	-9.53887
F000000FCFFFFFFFFFFFFFFB	-9.53897
7661725F323400	-9.53927
0FB64DDD	-9.53963
2020000	-9.53975
488985B0FDFFFF	-9.54001
488B8DE8FEFFFF	-9.54006
48898588FDFFFF	-9.54041
9020000	-9.54058
488B8D28FFFFFF	-9.54061
488B4D30	-9.54112
250000000000002A0000003	-9.54175
0FB655D	-9.54235
1000000FCFFFFFFFFFFFFFF6	-9.54246
E900000000E900000000	-9.54266
12000000000000	-9.54278
8945888B4588	-9.54307
000000000000000000F4000000	-9.54318
0FBE45F7	-9.54357
4F6FFFF	-9.54364
488B8DF0FEFFFF	-9.54428
250000000000002A0000002	-9.5444
80E1010FB6C939C80F8D160000008A85	-9.54464
839C80F8D	-9.54498
0FB74D	-9.54534
2000000FCFFFFFFFFFFFFFF5	-9.54534
8B4568	-9.54547
BFFEFFFF	-9.54566
8000000120001000000000000000000C	-9.54639
000F95C034FF24010FB6C04898	-9.54649
48898588FEFFFF	-9.54665
488B8D50FFFFFF	-9.54675
66C7459	-9.54687
488985B8FDFFFF	-9.54692
0FBE4D9	-9.54846
89852CFEFFFF	-9.54924
7661725F3335007661725F333600	-9.54928
488B8DD0000000	-9.54949
1000000FCFFFFFFFFFFFFFF1	-9.54954
803C08000F95C034FF24010FB6C0	-9.55078
31C029C84898	-9.5513
C2FEFFFF	-9.5513
8A45DE24010FB6C0	-9.55136
8A45F324010FB6C0	-9.55143
0D000000B8	-9.55145
64FCFFFF	-9.55175
0000000FCFFFFFFFFFFFFFF6	-9.55178
80E1010FB6C939C80F8E160000008A85	-9.55252
DAFEFFFF	-9.55274
C39C80F8D	-9.553
33000000	-9.5531
488B050000000066C7000000	-9.55311
89458C	-9.55345
89854CFFFFFF8B854CFFFFFF	-9.55347
0010000488BBD	-9.5537
8985C8FEFFFF	-9.55386
F020000	-9.55423
A2FEFFFF	-9.55442
F000000FCFFFFFFFFFFFFFF4	-9.55458
0000000FCFFFFFFFFFFFFFFF	-9.55461
D3E8	-9.55461
898504FEFFFF	-9.55473
4488C	-9.55501
898544FFFFFF8B8544FFFFFF	-9.55517
898524FEFFFF	-9.55521
31C929D1	-9.55654
48898590FDFFFF	-9.55683
1000000FCFFFFFFFFFFFFFFA	-9.55752
5FFFFFFF	-9.55776
1000000FCFFFFFFFFFFFFFF9	-9.55827
000000000098	-9.55835
486B4DC0	-9.55875
1000000FCFFFFFFFFFFFFFF4	-9.55885
5CFCFFFF	-9.55917
000000000000000000BB000000	-9.55923
1000000FCFFFFFFFFFFFFFFE	-9.55972
67FEFFFF	-9.56001
89851CFEFFFF	-9.56009
FEFFFFFF	-9.56033
0000000FCFFFFFFFFFFFFFF0	-9.56069
E90E000000488B8568FFFFFF488985	-9.56069
FFFF0F86110000008B85	-9.56111
7661725F3338007661725F333900	-9.56159
64000000	-9.56166
48634D8C	-9.5618
7661725F323300	-9.56182
A00	-9.56205
48898570FDFFFF	-9.5621
939C80F8D	-9.56224
0F8E	-9.56228
8985C0FEFFFF	-9.56289
898588FEFFFF	-9.56368
2FFFFFFF	-9.56384
8985A0FEFFFF	-9.56444
19000000	-9.56445
488B4D28	-9.56461
0FBE4DC	-9.56475
8985FCFDFFFF	-9.56476
0FB64DAF	-9.56485
000000000000000000000000B8	-9.56486
39C80F8D120000000FB685	-9.56504
FEFDFFFF	-9.56504
270000000000002A0000003	-9.56614
88458	-9.56638
0000000FCFFFFFFFFFFFFFFB	-9.56656
480FBF55E	-9.5666
8945A4	-9.56668
0000000FCFFFFFFFFFFFFFFD	-9.56672
6FFEFFFF	-9.56716
898580FEFFFF	-9.56798
48898598FEFFFF	-9.5682
23000000	-9.56821
488B8D38FFFFFF	-9.56838
8A45CF24010FB6C0	-9.56854
8000000120001000000000000000000E	-9.56956
4869C9C2EB0B004801C8	-9.57002
0000000FCFFFFFFFFFFFFFF4	-9.57037
1000000FCFFFFFFFFFFFFFF7	-9.57038
F4FCFFFF	-9.57046
488B8D58FFFFFF	-9.57076
898514FEFFFF	-9.57102
480FBF4D96	-9.57228
486B95	-9.57249
1000000FCFFFFFFFFFFFFFF3	-9.57254
000000000000000000FB000000	-9.5726
83C2014863D24869D2	-9.57292
898590FEFFFF	-9.57294
0F850D000000B0018885	-9.57319
0FB745FC	-9.57359
488B8DD8000000	-9.57419
90010000	-9.57447
1000000FCFFFFFFFFFFFFFF2	-9.57501
66833C48000F95C034FF24010FB6C0	-9.57571
8A8D2	-9.57592
8945988B4598	-9.57653
800	-9.57677
48898560FDFFFF	-9.57727
480FBE4DEB	-9.57741
0FBF4510	-9.57841
E6FDFFFF	-9.5788
0000000FCFFFFFFFFFFFFFF1	-9.5789
40020000	-9.57894
00000000000000000058000000	-9.57905
8B45D8	-9.57967
38000000	-9.58103
2FAFFFF	-9.58115
1E0000000000002A0000003	-9.5813
1FFFFFFF	-9.58171
8A8D1	-9.58189
C8B8D800000004C8B4D784C8B4D704	-9.58225
0000000FCFFFFFFFFFFFFFFE	-9.58245
000000000000000000C2000000	-9.58263
72FEFFFF	-9.58265
280000000000002A0000003	-9.58288
A7FEFFFF	-9.58321
89C089C2	-9.58351
174801C8	-9.58375
8845A	-9.58393
2000000FCFFFFFFFFFFFFFF1	-9.58412
89C0488985	-9.58432
0FB74DCA	-9.58456
0FBE45F	-9.58504
8B8D78FFFFFF	-9.58516
0000000000000000000000007	-9.58666
48634DB8	-9.58668
8B8D0CFFFFFF	-9.58747
8945908B4590	-9.58749
0F0000000FBE45	-9.58751
2D0000	-9.58755
488B85D0010000	-9.58795
48634D9C	-9.5884
000000000018	-9.58862
AAFEFFFF	-9.58865
5C000000	-9.58902
BEFDFFFF	-9.58931
48898568FFFFFF488B8568FFFFFF	-9.5894
898534FFFFFF8B8534FFFFFF	-9.58958
000000000080	-9.58965
E9000000000FBF85	-9.59053
8B048883F0FF	-9.59066
8A55E	-9.5911
837DF8000F84	-9.59137
8B4D30	-9.59143
000000000028	-9.5918
4883C003	-9.59219
3A000000	-9.59263
4883F8000F95C2	-9.59263
7BFFFFFF	-9.5927
000000000070	-9.59273
80200004C8B8D	-9.59288
8A45D	-9.59321
488B8D10FFFFFF	-9.59355
4821C8	-9.59375
66899448	-9.59377
1D0000000000002A0000003	-9.59408
2030000000000002A0000000	-9.59429
D0FAFFFF	-9.59466
89D08B55	-9.59506
12000000	-9.59521
0FBE4DB	-9.59568
4831C8	-9.5957
8945B8	-9.5957
48634D84	-9.59582
AFAFFFF	-9.59597
6CFCFFFF	-9.59597
898570FEFFFF	-9.59631
E8FAFFFF	-9.59635
48698D60FFFFFF	-9.5966
48898538FEFFFF	-9.59673
B001	-9.59677
0000000FCFFFFFFFFFFFFFF8	-9.59687
4FFFFFF	-9.597
0FAFC183F8	-9.59726
8985F4FDFFFF	-9.59767
000039C80F83	-9.59814
898560FEFFFF	-9.59864
480FBE4DCB	-9.59884
4809C8	-9.59894
2000000FCFFFFFFFFFFFFFF0	-9.59898
8B80	-9.59922
00000000000000000002010000	-9.59963
D8FAFFFF	-9.60005
8985B0FEFFFF	-9.60068
89850CFEFFFF	-9.6007
63FFFFFF	-9.60131
39000000	-9.60148
40000000	-9.60154
B39C80F8D	-9.60154
4869C9202607004801C8	-9.60185
D2FEFFFF	-9.60188
8985DCFDFFFF	-9.60246
48634D94	-9.60281
898578FEFFFF	-9.60287
0080000	-9.60339
E90E000000488B8560FFFFFF488985	-9.60355
2000000FCFFFFFFFFFFFFFFA	-9.60437
2000000FCFFFFFFFFFFFFFFD	-9.60447
0FBE95	-9.60515
488B85D8010000	-9.60522
2C000000	-9.60557
8945B0	-9.60585
30000000	-9.60611
8F5FFFF488B85	-9.60742
0FBE4530	-9.60742
2000000FCFFFFFFFFFFFFFFF	-9.60757
34000000	-9.60816
8945A0	-9.60838
8B4560	-9.60885
C6FDFFFF	-9.60916
1030000000000002A0000000	-9.60937
8985ECFDFFFF	-9.60949
8A8DC	-9.60972
8A4DEF80E1010FB6C9	-9.60977
E90E000000488B8558FFFFFF488985	-9.60979
7661725F3337007661725F333800	-9.60986
30000000000000D000000	-9.61042
480FBF4DD2	-9.61073
8A857	-9.61074
898568FEFFFF	-9.61076
2000000FCFFFFFFFFFFFFFF2	-9.61127
9030000000000002A0000000	-9.61132
1B000000	-9.61173
3FEFFFF24010FB6C0	-9.61264
0FB64DFF	-9.61278
2000000FCFFFFFFFFFFFFFF9	-9.61306
8A4DB380E1010FB6C9	-9.61308
F7FDFFFF	-9.6131
1B0000000000002A0000003	-9.61335
2000000FCFFFFFFFFFFFFFF8	-9.61337
284801C8	-9.61338
480FBE4DF	-9.61354
8A8DD	-9.61359
8A8D0	-9.61392
0FBE4538	-9.61435
2000000FCFFFFFFFFFFFFFF	-9.61444
000000000000000000C9000000	-9.6145
0000000000F8	-9.6145
E90E000000488B8550FFFFFF488985	-9.61459
C6040800	-9.61544
8070000	-9.61568
89853CFFFFFF8B853CFFFFFF	-9.61592
488B8D30FFFFFF	-9.61706
E913000000	-9.61717
E7FDFFFF	-9.61758
8B4D90	-9.61779
0FBF4518	-9.61798
0000000000000000005F000000	-9.61803
35000000	-9.61862
0FBE4DD	-9.61892
898598FEFFFF	-9.6198
89852CFFFFFF8B852CFFFFFF	-9.61993
0FB74DF2	-9.62
48898558FDFFFF	-9.62063
2000000FCFFFFFFFFFFFFFF7	-9.62068
87FEFFFF	-9.62137
2000000FCFFFFFFFFFFFFFFE	-9.62155
2000000FCFFFFFFFFFFFFFF6	-9.62163
0000000000000000000000003	-9.62211
8000000FCFFFFFFFFFFFFFF002E	-9.62254
8A45DB24010FB6C0	-9.62255
7661725F3430007661725F343100	-9.62362
00000000837D	-9.62387
B2FEFFFF	-9.62401
3030000000000002A0000000	-9.62417
8A45E524010FB6C0	-9.62434
10000000488B45E8488985	-9.62446
48898540FDFFFF	-9.62451
0000000000A8	-9.62553
F00000004C8B8	-9.62564
8A4D8F80E1010FB6C9	-9.62584
F39C80F8D	-9.62608
4030000000000002A0000000	-9.62639
48634DA8	-9.6264
0FB64DE5	-9.62663
48698D48FFFFFF	-9.6267
5030000000000002A0000000	-9.62687
1C0000000000002A0000003	-9.62733
8B4D20	-9.62736
898568FFFFFF8B8568FFFFFF	-9.62753
AFFEFFFF	-9.62767
EAFFFF	-9.62785
5FCFFFF	-9.62789
00000000000000000009010000	-9.62801
8A04088845	-9.6281
000000000030	-9.62813
F030000000000002A0000000	-9.6283
0FB74530	-9.62833
488B8578FFFFFF483B8570FFFFFF0F8	-9.62835
D39C80F8D	-9.62945
2C4801C8	-9.62947
D030000000000002A0000000	-9.62956
8A45C	-9.62969
36FEFFFF	-9.63003
0FB64DEA	-9.63067
83C	-9.63082
0000000000000000000000002	-9.63092
2000000FCFFFFFFFFFFFFFFC	-9.63171
491	-9.63235
7661725F313400	-9.63244
96FDFFFF	-9.63262
27FEFFFF	-9.63301
290000000000002A0000003	-9.63343
8945808B4580	-9.63383
739C80F8D	-9.63443
E91C000000	-9.63511
000000000058	-9.63549
EBFEFFFF	-9.6362
21000000	-9.6365
8A8D7FFFFFFF80E1010FB6C9	-9.63652
48898538FDFFFF	-9.63669
8B4D88	-9.63747
3FDFFFF80E1010FB6C9	-9.63789
488B050000000048698D	-9.63851
898570FFFFFF8B8570FFFFFF	-9.63882
89C88B4D	-9.63917
48894598488B45A0483B45980F8	-9.64056
0000000048	-9.64097
48634DB0	-9.64103
D7FDFFFF	-9.64161
000000000000000000D0000000	-9.64177
48898550FDFFFF	-9.64184
48898530FDFFFF	-9.64207
0FB64D8	-9.64249
24000000	-9.64363
7030000000000002A0000000	-9.64366
C8FAFFFF	-9.64369
31C0482B04D1	-9.64376
0FB745EC	-9.64384
2000000FCFFFFFFFFFFFFFF3	-9.64396
488945D0488B45D0	-9.64398
E0FAFFFF	-9.6441
898524FFFFFF8B8524FFFFFF	-9.64433
0030000000000002A0000000	-9.64444
48898548FDFFFF	-9.64457
B030000000000002A0000000	-9.64464
2EFEFFFF	-9.64465
898558FEFFFF	-9.6448
8985BCFDFFFF	-9.64489
2BFFFFFF	-9.64492
83E90	-9.64513
6030000000000002A0000000	-9.64557
13FFFFFF	-9.6458
EFFEFFFF	-9.64583
07FEFFFF	-9.64604
480FBE55D	-9.64628
000004C8B8DA	-9.64632
44FCFFFF	-9.64635
39C80F8E120000000FB685	-9.64644
F7FEFFFF	-9.64644
8985A8FEFFFF	-9.64714
80000001200010000000000000000000	-9.64717
8985A4FDFFFF	-9.64745
7CFCFFFF	-9.64841
83F8190F8D	-9.64848
000F95C180F1FF80E1010FB6C9	-9.6488
01000FBF85	-9.64897
4C8B8DB00	-9.64957
898548FEFFFF	-9.65002
488B7D	-9.65024
FFFFFF80E1010FB6C9	-9.65064
8985E4FDFFFF	-9.65087
00000000000000000066000000	-9.65107
8985D4FDFFFF	-9.6518
1020000	-9.65183
488B0500000000668908	-9.65188
488B8DC0FEFFFF	-9.65232
2000000FCFFFFFFFFFFFFFFB	-9.65244
E9000000000FBE85	-9.65246
0FB64DC3	-9.65325
8985CCFDFFFF	-9.65328
0FB745EA	-9.65329
8A8DA	-9.6534
2000000FCFFFFFFFFFFFFFF4	-9.65378
894590	-9.65413
8B4DF4	-9.65416
5FFFFE90C0000008B85	-9.65434
94FCFFFF	-9.6544
0FB64538	-9.6547
48034D	-9.6548
4805C0	-9.655
00000000000000000010010000	-9.65529
6EFDFFFF	-9.6553
0FBF95	-9.65557
1A0000000000002A0000003	-9.65614
0FB64D97	-9.65623
4CFCFFFF	-9.65627
8985ACFDFFFF	-9.65662
488B050000000048C70000000000	-9.65676
A030000000000002A0000000	-9.657
0FB74	-9.65721
8B4D38	-9.65726
80E201488B0500000000881408	-9.65754
7661725F323500	-9.65783
80E2018855F	-9.65795
66C7458	-9.65799
7661725F323600	-9.658
D3FEFFFF	-9.65862
0D000000	-9.65928
488B8DE0000000	-9.66057
68010000488B8560010000	-9.66083
1E0000	-9.66088
0D0000000000002A0000002	-9.66089
898550FEFFFF	-9.66104
480FBF4DA6	-9.66148
48898568FDFFFF	-9.6616
8985C4FDFFFF	-9.66204
0FBE4DFF	-9.66208
8030000000000002A0000000	-9.66305
C030000000000002A0000000	-9.66354
48898560FFFFFF488B8560FFFFFF	-9.66363
53FFFFFF	-9.6637
480FBF55D	-9.66385
2A0000000000002A0000003	-9.66425
48634DC0	-9.66429
8000000120001000000000000000000F	-9.66451
82FEFFFF	-9.66588
48898520FDFFFF	-9.66662
8A8D4	-9.66671
0500	-9.66693
000000000000000000D7000000	-9.66695
488378	-9.66706
8A854	-9.66744
4189F	-9.66797
5F000000	-9.66808
488B85E0010000	-9.66828
488B0500000000C70000000000	-9.66871
77FEFFFF	-9.66946
8A45C724010FB6C0	-9.6695
31C02B0491	-9.67029
89859CFDFFFF	-9.67052
48898518FDFFFF	-9.67095
898560FFFFFF8B8560FFFFFF	-9.67188
8A4DC380E1010FB6C9	-9.67236
260000000000002A0000002	-9.67259
80000001200010000000000000000001	-9.67305
0F5FFFF488B85	-9.67482
480FBF4D86	-9.67488
B8FAFFFF	-9.67495
E91D000000	-9.67506
8A856	-9.67513
8A55F	-9.67591
E90E000000488B8548FFFFFF488985	-9.67603
8FFFFFF	-9.67663
89851CFFFFFF8B851CFFFFFF	-9.67725
0FB755	-9.67735
E90E000000488B8540FFFFFF488985	-9.67748
98FAFFFF	-9.6779
00000000000000000000000060	-9.67805
4883FA00480F45C1	-9.67852
E91A000000	-9.67853
8A4D9780E1010FB6C9	-9.67881
00000000000000000017010000	-9.67921
00004839C80F8D	-9.67935
488B8DF8FEFFFF	-9.67965
0000000000000000006D000000	-9.6798
F2FEFFFF	-9.68028
74FCFFFF	-9.68056
4883C0	-9.68063
ECFBFFFF	-9.68064
48898548FEFFFF	-9.68072
0000000000B0	-9.68083
3C000000	-9.68088
3B000000	-9.68126
8A4408	-9.68134
54FCFFFF	-9.68197
8A855	-9.68207
CCFCFFFF	-9.68296
62FEFFFF	-9.68297
480FBF4DE8	-9.683
898558FFFFFF8B8558FFFFFF	-9.68302
7FCFFFF80E1010FB6C9	-9.68311
E91B000000	-9.68343
0000000000000000000000009	-9.68343
480FBE4D9F	-9.68346
7FDFFFF24010FB6C0	-9.68415
80F	-9.6843
4863C9	-9.68522
48894590488B4598483B45900F8	-9.68539
C3FEFFFF	-9.68548
0000000000C8	-9.68626
FFCFFFF24010FB6C0	-9.68633
8985B4FDFFFF	-9.68675
898594FDFFFF	-9.68689
83F2FF	-9.68717
8A4DD380E1010FB6C9	-9.68751
DFFEFFFF	-9.68756
48898528FDFFFF	-9.68778
0FBE4D8	-9.68831
0FB64DE9	-9.68844
004801C8	-9.68915
4869C984D717004801C8	-9.68939
3FAFFFF	-9.68947
2CFCFFFF	-9.68998
EFFDFFFF	-9.69042
17FEFFFF	-9.69048
B901000000	-9.69062
480FBE55E	-9.69069
898578FFFFFF8B8578FFFFFF	-9.6908
4869C9841411004801C8	-9.69121
488B8568FFFFFF483B8560FFFFFF0F8	-9.69128
DEFDFFFF	-9.69159
898550FFFFFF8B8550FFFFFF	-9.69179
8B55B	-9.69234
00200004C8B8D	-9.69254
AEFDFFFF	-9.69283
0B4801C8	-9.69285
4829C8480385	-9.69301
488985A	-9.69328
0BFFFFFF	-9.69331
8A4DE280E1010FB6C9	-9.69336
488B8D40FFFFFF	-9.69341
97FEFFFF	-9.69416
0FBE45B	-9.69452
E030000000000002A0000000	-9.69498
48698D50FFFFFF	-9.69544
0FBF458	-9.69549
48837DF8000F84	-9.69577
FEFFFF000FBE85	-9.69584
BFAFFFF	-9.696
80FFFF	-9.69601
000000000000000000DE000000	-9.69608
8A45FB24010FB6C0	-9.69695
48C1E1114801C8	-9.69806
78000000	-9.69903
6FFFFFFE9	-9.69909
0000000000000000001E010000	-9.69937
9EFDFFFF	-9.69949
4869C962EF05004801C8	-9.70029
92FEFFFF	-9.7003
8A45EE24010FB6C0	-9.70079
F645D	-9.70081
0FBF4DFE	-9.70093
8845C	-9.70112
6683FA000F45C1	-9.70119
0FFEFFFF	-9.70136
83C003668945	-9.70167
0FB64D8F	-9.70169
7661725F3339007661725F343000	-9.70221
0FB74DC2	-9.70292
C51	-9.70337
46FDFFFF	-9.70364
9FFEFFFF	-9.70379
E7FEFFFF	-9.70423
0FB64	-9.70425
47000000	-9.7045
41000000	-9.70481
F0FAFFFF	-9.7055
8B45C0	-9.70585
00100000000000030000000000000000	-9.70674
480FBE4DDE	-9.70733
894598	-9.70743
8B8D68FFFFFF	-9.70781
C7FDFFFF	-9.70851
CBFEFFFF	-9.70915
2F000000	-9.70916
0FB74D86	-9.70957
488B8DE8000000	-9.70977
80E2010FB6D283EA014863D2	-9.71028
88FAFFFF	-9.71045
0FB64DBB	-9.71072
43FFFFFF	-9.71104
1C0000000000002A0000001	-9.71125
23FFFFFF	-9.71126
80E101884DF	-9.71169
A6FDFFFF	-9.71222
B7FDFFFF	-9.71233
00000000000000000074000000	-9.71245
3CFCFFFF	-9.71246
FFCFFFF80E1010FB6C9	-9.71279
48898558FFFFFF488B8558FFFFFF	-9.7128
48698D58FFFFFF	-9.71287
48898550FFFFFF488B8550FFFFFF	-9.71293
E90E000000488B8530FFFFFF488985	-9.71301
154801C8	-9.71356
66837DFE000F84	-9.71368
8B04888985	-9.71396
4F000000	-9.71396
7AFEFFFF	-9.71425
B0FAFFFF	-9.71519
4989F	-9.71583
488B4D20	-9.71602
0FBF8448	-9.7167
480FAFC1	-9.71694
3E000000	-9.71749
89858CFDFFFF	-9.71763
89857CFDFFFF	-9.71769
BFEFFFF80E1010FB6C9	-9.7179
2B0000000000002A0000003	-9.71818
48898510FDFFFF	-9.71824
7F9FFFF	-9.71862
00000000000000000025010000	-9.71902
898574FDFFFF	-9.71949
48898528FEFFFF	-9.71966
270000000000002A0000002	-9.71976
8945E48B45E4	-9.72065
1CFCFFFF	-9.72111
7FDFFFF80E1010FB6C9	-9.72113
210000000000002A0000003	-9.72131
FFDFFFF24010FB6C0	-9.72138
000000000000000000E5000000	-9.72169
4869C9C4DE0B004801C8	-9.72243
90FAFFFF	-9.72275
48898578FFFFFF488B458048	-9.72285
48894588488B4590483B45880F8	-9.72303
4869C908AF2F004801C8	-9.72316
488B8558FFFFFF483B8550FFFFFF0F8	-9.72331
F6FDFFFF	-9.72353
28000000	-9.72375
48C1E1134801C8	-9.72379
DFFDFFFF	-9.72404
8010000488BBD	-9.72497
7661725F3432007661725F343300	-9.72566
4869C9828C02004801C8	-9.72586
48898548FFFFFF488B8548FFFFFF	-9.72589
0FBE45E7	-9.72594
11000000	-9.72638
27000000	-9.72644
8B8D4CFFFFFF	-9.72743
5BFFFFFF	-9.72751
83FA00480F45C1	-9.72769
0FBF4528	-9.72782
E90E000000488B8538FFFFFF488985	-9.72813
8A45ED24010FB6C0	-9.7283
190000000000002A0000003	-9.72847
C0FAFFFF	-9.72861
4883E903	-9.72891
4801F1	-9.72937
003600004801C8	-9.72953
0FB645E	-9.72953
00FAFFFF	-9.72991
48898540FFFFFF488B8540FFFFFF	-9.73244
00100000000000078000000000000000	-9.73297
488B8D00FFFFFF	-9.73306
48898508FEFFFF	-9.7331
4BFFFFFF	-9.7334
7FCFFFF24010FB6C0	-9.73362
7FFEFFFF	-9.73369
08948	-9.73411
A7FDFFFF	-9.73416
6172725F313300	-9.73425
0FB64DE2	-9.73463
4869C900200A004801C8	-9.73582
898584FDFFFF	-9.73587
5FFFFFF	-9.73651
B00183F9008885	-9.73676
488B8DD8FEFFFF	-9.73701
488985F0FCFFFF	-9.73716
486BF6	-9.73787
31C0482B85	-9.73808
488B4D10	-9.73949
48894580488B4588483B45800F8	-9.7401
8845E	-9.74022
31C083F9008885	-9.74093
8945F0	-9.74121
6172725F313400	-9.74134
48C1E00	-9.74165
89856CFDFFFF	-9.74287
48898508FDFFFF	-9.74337
BFFDFFFF	-9.74338
4869C9041905004801C8	-9.74377
486B4DB8	-9.7439
139C80F8D	-9.74418
48C1E1124801C8	-9.74445
0000000000000000000000005	-9.74463
0000000000000000007B000000	-9.74488
2DF	-9.74511
488985F8FDFFFF	-9.74538
97FDFFFF	-9.74538
480FBF4DCA	-9.74603
000000000000000000EC000000	-9.74604
25000000	-9.74617
4869C9082922004801C8	-9.74639
0000000000000000002C010000	-9.74641
4883F0FF4883F8000F84	-9.74684
480FBE4DB	-9.74706
0FB68D67FFFFFF	-9.74707
408A7D	-9.74717
D4FBFFFF	-9.74815
5FFDFFFF	-9.74898
4869C9428A08004801C8	-9.74972
6172725F313500	-9.75011
114801C8	-9.75023
4869C9887C03004801C8	-9.75047
0FB78448	-9.75052
4883BCC8	-9.75095
2D9	-9.75102
4801D04805	-9.7513
80100000000000030000000000000000	-9.75153
488985F8FCFFFF	-9.75154
4869C944F407004801C8	-9.75211
898548FFFFFF8B8548FFFFFF	-9.75245
7FFFFFF	-9.75269
8AFEFFFF	-9.75309
0FB7400	-9.75353
898594F	-9.75393
4869	-9.75395
018885	-9.7541
0FB68D77FFFFFF	-9.7547
83C004668945	-9.75471
1300000048C7C0	-9.75479
480FBE4DE5	-9.7549
9BFEFFFF	-9.75514
4E000000	-9.75574
8B8D3CFFFFFF	-9.75669
FFDFFFF80E1010FB6C9	-9.75691
480FAF	-9.75805
02000000	-9.75818
2C0000000000002A0000003	-9.7582
48898500FDFFFF	-9.75826
6C000000	-9.75839
0F9EC024010FB6C0	-9.75862
8A4DDD80E1010FB6C9	-9.75862
124801C8	-9.75946
488985E8FCFFFF	-9.76006
48898538FFFFFF488B8538FFFFFF	-9.76012
0FB64DCB	-9.76086
8B4D18	-9.76132
FEFFFF000FB685	-9.76138
8A1408	-9.76153
488B050000000048694DD8	-9.76174
78FAFFFF	-9.76251
48898528FFFFFF488B8528FFFFFF	-9.76313
480FBF4DEE	-9.76341
E0000000	-9.76373
8B8D70FFFFFF	-9.76403
00000000000000000020000000	-9.76427
0FBE4D10	-9.76432
7661725F323700	-9.76491
0FBF45F6	-9.76521
8FFEFFFF	-9.76593
7FDFFFFE9	-9.76594
488B8548FFFFFF483B8540FFFFFF0F8	-9.76665
488B8D08FFFFFF	-9.76719
48837DE0000F84	-9.76731
4040000000000002A0000000	-9.76819
F6FFFFE900000000	-9.76841
0FB78D7EFFFFFF	-9.76847
83C002668945	-9.76915
E90A0000000FBE45F	-9.76918
8B45AC	-9.76921
8B8D58FFFFFF	-9.76938
7661725F323800	-9.76963
00000000000000000033010000	-9.76976
48634D90	-9.77016
807D10000F84	-9.77023
03FFFFFF	-9.77025
0F9FC024010FB6C0	-9.77133
1BFFFFFF	-9.77243
000000000000000000F3000000	-9.77251
3200	-9.77269
0FB64D9	-9.7729
4803	-9.77347
83F9000F95C180E1010FB6C939C80F8D	-9.77396
480B	-9.77494
4869C9404C0E004801C8	-9.77512
00000000000000000082000000	-9.77599
83C0028845	-9.77635
0F9DC024010FB6C0	-9.77665
2DD	-9.77671
83E9014863C98A040824010FB6C0	-9.7773
84000000	-9.77746
4869C9202C01004801C8	-9.77776
32000000	-9.77837
89854CFDFFFF	-9.77849
93FEFFFF	-9.77852
4869C9203403004801C8	-9.77862
0CFCFFFF	-9.77863
8B45BC	-9.77863
488B4DD84883E901	-9.7787
7661725F3431007661725F343200	-9.77874
BFDFFFF80E1010FB6C9	-9.77879
3BFFFFFF	-9.77923
79000000	-9.77929
2D7	-9.77929
8A8D57FFFFFF80E1010FB6C9	-9.77942
480FBE4DE6	-9.77943
6172725F31353	-9.77948
81F	-9.77954
48638D74FFFFFF	-9.78007
0700	-9.78084
E90E000000488B8528FFFFFF488985	-9.7809
8B8D40FFFFFF	-9.78134
56000000	-9.78149
488B8DF0000000	-9.78276
8B8D1CFFFFFF	-9.78287
480FBE4D8F	-9.78293
4189F88B7D	-9.78294
480FBE4D9	-9.78377
898510FEFFFF	-9.78413
0090000	-9.7843
76FDFFFF	-9.78442
4869C900E204004801C8	-9.78463
83C001668945	-9.78489
898564FDFFFF	-9.78592
807DFF000F84	-9.78626
339C80F8D	-9.78634
0F9CC024010FB6C0	-9.78656
89852CFDFFFF	-9.78674
2D0000000000002A0000003	-9.78682
982900004801C8	-9.78695
0FBF400	-9.78718
87FDFFFF	-9.78743
48698D70FFFFFF	-9.78745
1F0000000000002A0000003	-9.78759
34FCFFFF	-9.78778
E90E000000488B8520FFFFFF488985	-9.78786
8B8D38FFFFFF	-9.78867
48B85	-9.78878
4869C944BE01004801C8	-9.78894
5FFEFFFF	-9.78901
2040000000000002A0000000	-9.7894
1040000000000002A0000000	-9.79006
833C88	-9.79042
3300	-9.79053
4869C908320A004801C8	-9.79056
2D6	-9.79066
0000000000000000003A010000	-9.79112
8570010000488B85	-9.79135
2FFEFFFF	-9.79162
FFDFFFFE9	-9.79177
86FDFFFF	-9.79202
134801C8	-9.79245
0FBE4540	-9.79263
6040000000000002A0000000	-9.7936
7661725F3433007661725F343400	-9.79377
10000488B8578010000488B	-9.7939
6172725F3600	-9.79392
000000000000000000000000A	-9.79394
54000000	-9.7942
95C024010FB6C0	-9.79424
20030000	-9.79437
0040000000000002A0000000	-9.7944
898554FDFFFF	-9.79444
DFFFFFF	-9.79458
488B4D18	-9.79462
180000000000002A0000003	-9.79469
898540FFFFFF8B8540FFFFFF	-9.79495
0000000000000000000000008	-9.79495
80100000000000078000000000000000	-9.79503
837DFC000F84	-9.79552
0FB645B	-9.79574
B6FDFFFF	-9.79613
488985D	-9.79658
32FEFFFF	-9.79661
480FBF4DF0	-9.79689
C040000000000002A0000000	-9.79743
89858CF	-9.79784
200000000000002A0000003	-9.7981
89853CFDFFFF	-9.7982
8985FCF	-9.79834
29000000	-9.79846
0FB64DC	-9.79852
01000FB785	-9.79866
4869C988BD17004801C8	-9.79873
89855CFDFFFF	-9.79895
4801C18B85	-9.7993
4801	-9.79952
000000000000000000FA000000	-9.79961
240000	-9.79991
83C0018845	-9.80021
1FFEFFFF	-9.80028
898538FFFFFF8B8538FFFFFF	-9.80044
E90A0000000FB645F	-9.80053
480FBE4DEE	-9.80056
488B8DF8000000	-9.80085
0FBF459	-9.80111
4869C922DF00004801C8	-9.80112
88010000488B85800	-9.80163
898544FDFFFF	-9.80221
488985C8FCFFFF	-9.80337
4823	-9.80403
100001000000000000000	-9.80405
DBFEFFFF	-9.80427
0A4801C8	-9.80495
4869C9	-9.80548
8A4D8780E1010FB6C9	-9.80604
89851CFDFFFF	-9.80644
E040000000000002A0000000	-9.807
00000000000000000089000000	-9.80724
0FB64DA	-9.80752
898540FEFFFF	-9.8078
06FDFFFF	-9.80833
898528FFFFFF8B8528FFFFFF	-9.80849
6689458	-9.80851
48837DE8	-9.80857
2D5	-9.80875
0E4801C8	-9.80899
668B55	-9.8092
898508FEFFFF	-9.80928
3500	-9.80938
486B4DB0	-9.80971
488B85E8010000	-9.80975
01C883F8000F95C024018845	-9.80976
48C1E20	-9.8099
0FB745FA	-9.81013
8A8D8	-9.81031
A8FAFFFF	-9.81058
E9000000000FB685	-9.81096
58FAFFFF	-9.81104
83E9014863C90FB60408	-9.81104
488B8538FFFFFF483B8530FFFFFF0F8	-9.81198
8A45DD24010FB6C0	-9.81219
D8000000	-9.81225
40000000000000D000000	-9.81237
000000000000000000000000C	-9.81259
7661725F3434007661725F343500	-9.81269
664489C	-9.81275
3F0000	-9.81282
0FBF45FC	-9.81287
A040000000000002A0000000	-9.81309
2401	-9.8131
5EFDFFFF	-9.81317
486B	-9.81334
8B45B4	-9.81335
488B4	-9.81343
8985F8FDFFFF	-9.81347
488985C0FCFFFF	-9.81361
E90A0000000FB745F	-9.81361
0FBE4	-9.81364
0FB64DB3	-9.81373
4869C9004014004801C8	-9.81423
FDFFFF24010FB6C0	-9.81471
4869C980981C004801C8	-9.81481
0FB64DD5	-9.81481
4889852	-9.81482
2D000000	-9.81488
D040000000000002A0000000	-9.81509
6172725F313200	-9.81528
38FAFFFF	-9.81558
00000000000000000041010000	-9.81571
83C0038845	-9.81574
E9000000000FB785	-9.81596
E91E000000	-9.81617
2DB	-9.81648
898528FEFFFF	-9.81677
5040000000000002A0000000	-9.8168
EFFFFFFE9	-9.81685
24FCFFFF	-9.81694
0FB64D10	-9.81695
0E0F8D	-9.81727
898530FEFFFF	-9.81739
FFFFFFF	-9.81768
0FBF45E6	-9.81779
488B050000000048694DD0	-9.81793
C2FDFFFF	-9.81816
898530FFFFFF8B8530FFFFFF	-9.81836
08FAFFFF	-9.8187
0FB74538	-9.81919
3FFFFFF	-9.81954
0D0F83	-9.8196
02FEFFFF	-9.81964
66FDFFFF	-9.81975
8040000000000002A0000000	-9.81994
46000000	-9.82004
0FBE45D	-9.82022
10000000000000	-9.82027
1D0000	-9.82055
66837D10000F84	-9.8206
D0000000	-9.82061
76000000	-9.82095
488985E0FCFFFF	-9.82208
4088C	-9.8224
48898530FFFFFF488B8530FFFFFF	-9.82294
0FBE4D18	-9.82337
898508FFFFFF8B8508FFFFFF	-9.82384
4869C922FA03004801C8	-9.82416
E90F000000	-9.8243
4AFEFFFF	-9.82438
00000000000000000001010000	-9.82595
4869C9041703004801C8	-9.82609
2D1	-9.82611
0FB645C	-9.82638
BFEFFFFE9	-9.82645
488B050000000066C7000100	-9.8265
26FDFFFF	-9.82764
8A8D77FFFFFF80E1010FB6C9	-9.82791
2DC	-9.82895
8B4D28	-9.829
8A45FD24010FB6C0	-9.82905
8985FCFCFFFF	-9.82907
8B8D34FFFFFF	-9.82909
000000000010	-9.82918
898520FFFFFF8B8520FFFFFF	-9.82929
7661725F323900	-9.82949
9040000000000002A0000000	-9.82965
09D1	-9.82994
2D3	-9.83005
8985F4F	-9.83008
898524FDFFFF	-9.83013
0FB745DE	-9.83015
0FB6459	-9.83084
89C089C1488B0500000000	-9.83084
83C2034863D2	-9.83102
2FFFFFF	-9.83141
8A4DD680E1010FB6C9	-9.83144
7040000000000002A0000000	-9.83162
2DA	-9.83214
6F9FFFF	-9.83221
8B8DD4FEFFFF	-9.8324
EF9FFFF	-9.8324
89C948D3E0	-9.83256
8985D0FDFFFF	-9.83337
884DE	-9.83417
0FB74DBA	-9.83428
87000000	-9.83474
898510FFFFFF8B8510FFFFFF	-9.83484
488B8DE0FEFFFF	-9.83486
FBFEFFFF	-9.83495
14FCFFFF	-9.83535
100100004C8B8	-9.83635
F4FBFFFF	-9.8364
83EA0189D2	-9.83663
B040000000000002A0000000	-9.83672
3040000000000002A0000000	-9.83673
00000000000000000090000000	-9.83674
898518FFFFFF8B8518FFFFFF	-9.83687
2E000000	-9.83689
480FBF4DB2	-9.83699
0F0F83	-9.83721
220000	-9.83776
488985D0FCFFFF	-9.83779
48634D80	-9.83834
00000385	-9.83844
5AFEFFFF	-9.83877
00000000000000000048010000	-9.83878
43000000	-9.83882
48898518FFFFFF488B8518FFFFFF	-9.83956
480FBF8D7EFFFFFF	-9.83971
0A0F83	-9.84024
C00000004801C8	-9.84096
48B8FFFFFFFFFFFFFF7F	-9.84111
0C000000000000	-9.84151
885408	-9.84186
8985C0FDFFFF	-9.84197
F3FEFFFF	-9.84219
8985B8FDFFFF	-9.8422
E8000000	-9.84222
99F77D	-9.84269
48638D7CFFFFFF	-9.84289
0EFDFFFF	-9.84306
8B4DFC	-9.84322
F040000000000002A0000000	-9.84334
480FBE4D87	-9.8437
8985DCF	-9.84374
48837D10000F84	-9.84393
8B8D2CFFFFFF	-9.8441
100F83	-9.8444
8985F0FDFFFF	-9.84452
0000000000E8	-9.84482
CFFDFFFF	-9.84492
4869C9828B01004801C8	-9.84501
488B4DC84883E901	-9.8452
42000000	-9.84545
48C7C1	-9.84553
8985ECF	-9.84611
898534FDFFFF	-9.84637
7BFEFFFF	-9.84653
4889859	-9.84665
83F1FF488B05000000008908	-9.84675
E9FFFF	-9.84688
48898520FFFFFF488B8520FFFFFF	-9.84705
8B8D30FFFFFF	-9.84726
E90E000000488B8510FFFFFF488985	-9.84732
837D10000F84	-9.84737
00100004C8B8D	-9.84745
837DF4000F84	-9.84747
0000000000008010000	-9.84749
0D0F8D	-9.84751
0FB755D	-9.84753
FCFBFFFF	-9.84765
4869C900C409004801C8	-9.84804
0FB645FB	-9.8482
0FB74D9	-9.84821
3B85D	-9.84828
488B85F8010000	-9.8485
89850CFDFFFF	-9.84891
2AFEFFFF	-9.84904
66448B	-9.84926
4801D1480FBE95	-9.85053
4883FA000F45C1	-9.85086
488B85F0010000	-9.851
488B4DD04883E901	-9.85114
6172725F313600	-9.8514
48638D54FFFFFF	-9.85152
4080E70140887DF	-9.85163
3D000000	-9.85179
4869C980B004004801C8	-9.8518
0FB74DF6	-9.85181
FCFFFF24010FB6C0	-9.85186
0F4801C8	-9.85232
000000000020	-9.85234
3FEFFFFE9	-9.85284
E930000000	-9.85321
0B0F8D	-9.85343
4869C9405802004801C8	-9.85411
488B8DC8FEFFFF	-9.85426
C4000000	-9.85435
0FB64540	-9.85465
2E0000000000002A0000003	-9.85465
2B000000	-9.85474
8B45B8	-9.85477
480FBE8D77FFFFFF	-9.85561
0FBF45FA	-9.85571
7661725F3435007661725F343600	-9.85608
4EFDFFFF	-9.85617
488985A0FCFFFF	-9.85682
0FB64D20	-9.85735
0F840D000000B0018885	-9.85746
0FB68D6FFFFFFF	-9.85762
39C80F8D0F0000000FBE45	-9.85772
0FB60C0831C029C8	-9.85803
898524F	-9.85804
0FB70C4831C029C8	-9.85947
83C20189D2	-9.85951
488B8D00010000	-9.85993
00000000000000000097000000	-9.86007
898514F	-9.86043
6AFEFFFF	-9.86055
8B4D10	-9.86059
480FBE4DEF	-9.86093
8EFDFFFF	-9.86113
2DE	-9.86124
488B050000000048C70001000000	-9.86133
0A0F8D	-9.86228
8985B0FDFFFF	-9.86231
83E91	-9.86274
000000000000000000000000D	-9.86277
0FB745F2	-9.86288
B00000004801C8	-9.86303
039C80F8D	-9.86323
10000000486345	-9.86352
898504FDFFFF	-9.86357
4869C9008028004801C8	-9.86386
401F00004801C8	-9.86446
488B0500000000C70001000000	-9.86451
E90E000000488B8518FFFFFF488985	-9.86458
0FB68408	-9.86471
8985DCFCFFFF	-9.86491
00000004C8B85	-9.86497
488B44C808	-9.86504
488985B0FCFFFF	-9.86513
480FBF8D76FFFFFF	-9.86521
8A853	-9.86535
0100004C8B8DF	-9.8654
6FFFFFF	-9.86549
C0F9FFFF	-9.86594
0B0F83	-9.86645
8A852	-9.86667
0FBF0C4831C029C8	-9.86747
0000000000000000004F010000	-9.86768
2D4	-9.86814
BBFEFFFF	-9.8682
7661725F3437007661725F343800	-9.86832
898514FDFFFF	-9.86837
8985D8FDFFFF	-9.86855
0E0F83	-9.86864
668B45FE	-9.8687
0B000000	-9.8688
81C1	-9.86911
80040000	-9.86917
80E101884DE	-9.8694
8B8D28FFFFFF	-9.86946
48837DE0	-9.8696
A3FEFFFF	-9.86971
170000000000002A0000003	-9.8705
0000000000000000000F010000	-9.87054
898598FDFFFF	-9.8709
0FB64DEC	-9.87112
0D4801C8	-9.87174
6172725F3400	-9.87183
48898568FFFFFF488B8570FFFFFF48	-9.87196
110F83	-9.87205
80FA000F45C1	-9.87231
B3FEFFFF	-9.87244
DEFCFFFF	-9.8731
0C0F83	-9.87342
C8B4D684C8B4D604C8B4D584C8B4D504	-9.87363
7661725F333100	-9.87379
898538FEFFFF	-9.87379
10FAFFFF	-9.87382
0D00000031C08985	-9.87392
8A4DEA80E1010FB6C9	-9.87475
8A4DD580E1010FB6C9	-9.87487
6172725F3500	-9.87558
2FFDFFFF	-9.87616
E90B000000486345	-9.87651
8985C0F	-9.87671
2D2	-9.87673
3B85C	-9.87702
82000000	-9.87711
80E101	-9.87796
0FB64D18	-9.87817
66000000	-9.87827
488B8DA0FEFFFF	-9.87834
6B000000	-9.87857
0FB64408	-9.87865
E0010000	-9.87885
48698D30FFFFFF	-9.87899
8985D4F	-9.87926
3B855	-9.87932
488B8528FFFFFF483B8520FFFFFF0F8	-9.8796
04C8B8DD80	-9.87997
4C000000	-9.88006
4869C988E80F004801C8	-9.88014
8A859	-9.8806
0FB64DAB	-9.88066
5D000000	-9.88163
480FBE4DD6	-9.88178
488985B8FCFFFF	-9.88192
8985A8FDFFFF	-9.882
8985B4F	-9.8822
89C180E201488B0500000000881408	-9.88253
FCFFFF8A85	-9.88275
0FBF4D10	-9.8831
63000000	-9.8833
62000000	-9.8834
0FB6458	-9.88474
A9000000	-9.88481
0FB78D66FFFFFF	-9.88493
480FBE4DEA	-9.88561
48638D5CFFFFFF	-9.8859
8985E4F	-9.88629
74000000	-9.88661
0FBE4D28	-9.88666
8985CCF	-9.88717
4869C9627200004801C8	-9.88761
0FB68D47FFFFFF	-9.88791
48898508FFFFFF488B8508FFFFFF	-9.88826
48837D18000F84	-9.88869
4801D1480FBF95	-9.88889
8985ECFCFFFF	-9.88893
0000000000000000009E000000	-9.88953
B001837D	-9.88987
8A4DED80E1010FB6C9	-9.89021
8B55A	-9.89026
408875F	-9.89063
31000000	-9.89093
00000000000000000016010000	-9.89099
00000000000000000056010000	-9.89108
8985E4FCFFFF	-9.89163
0FBF4DE6	-9.89174
4869C9F90295004801C8	-9.89191
BFDFFFF24010FB6C0	-9.89196
09C883F8	-9.89293
9C000000	-9.89371
48898510FFFFFF488B8510FFFFFF	-9.89375
44000000	-9.894
6172725F3700	-9.89412
E90A0000008B45	-9.89415
8B8DF4FEFFFF	-9.8942
140F83	-9.89424
488985D8FCFFFF	-9.89437
0FB645EB	-9.89449
8A45FE24010FB6C0	-9.8945
3B85E	-9.89492
7661725F313300	-9.89503
898518FEFFFF	-9.89536
08010000	-9.89569
480FBF4DE0	-9.8958
95C024010FB6C8	-9.89602
48634DA0	-9.89674
0FBE4D20	-9.89702
8985F0FEFFFF8B85F0FEFFFF	-9.89717
39C80F8E0F0000000FBE45	-9.89733
52FEFFFF	-9.8975
C745CC	-9.89753
8985E0FDFFFF	-9.89771
4A000000	-9.89811
48898598FCFFFF	-9.89819
8A040824010FB6C831C029C8	-9.8995
8A851	-9.89953
4869C9082E06004801C8	-9.89985
0FBF4538	-9.90002
0FBE45C	-9.90004
E90E000000488B8500FFFFFF488985	-9.90015
8B0C88	-9.90018
48698D28FFFFFF	-9.90027
48698D00FFFFFF	-9.90028
4863D248	-9.90057
48698D40FFFFFF	-9.90063
83C1014863C90FB60408	-9.90103
000004C8B8DD	-9.90112
6172725F313100	-9.90131
7661725F3436007661725F343700	-9.9015
BCFBFFFF	-9.90283
67FDFFFF	-9.90284
7EFDFFFF	-9.90305
8985F4FCFFFF	-9.9031
280000000000002A0000002	-9.90371
E934000000	-9.90382
4869C9406806004801C8	-9.90405
FF9FFFF	-9.90406
89850CFFFFFF8B850CFFFFFF	-9.90466
480FBF4DF2	-9.90487
D8000000000000000	-9.9049
898580FDFFFF	-9.90505
150F8D	-9.9052
83C8	-9.9053
400200004801C8	-9.90538
0FBF4D18	-9.90614
A000000FCFFFFFFFFFFFFFF002E	-9.90644
488B8DB8FEFFFF	-9.90652
E8F9FFFF	-9.90666
8985A0FDFFFF	-9.90667
BFFFFFFE9	-9.90668
0FBE45FB	-9.90679
8B45D4	-9.90683
480FBE4DC3	-9.90766
FDFFFF80E1010FB6C9	-9.90779
0FB64D87	-9.90782
8B8D24FFFFFF	-9.90813
36FDFFFF	-9.90815
120F8D	-9.9085
83EA034863D2	-9.90894
0000000000000000005D010000	-9.90899
77000000	-9.90903
0F0F8D	-9.90906
48898590FCFFFF	-9.90907
2D0	-9.90938
0C0F8D	-9.90952
42FEFFFF	-9.90955
89850CF	-9.90956
4829D14839C80F8D	-9.90972
3B852	-9.91028
3B851	-9.9104
000000000000000000A5000000	-9.91052
83C0048845	-9.91072
E1000000	-9.91079
130F8D	-9.91109
488B4DE04883E901	-9.91129
E910000000	-9.9114
4883C103	-9.91218
8B45C8	-9.91268
488B8DD0FEFFFF	-9.9129
29D1	-9.9131
4869C980D00C004801C8	-9.91319
83F0	-9.9133
4839	-9.91365
E90E000000488B8508FFFFFF488985	-9.91405
66837D18000F84	-9.91455
83E9014863C90FB70448	-9.91466
C8B8DE000000	-9.91467
130F83	-9.91491
33FFFFFF	-9.91505
3FDFFFF24010FB6C0	-9.91518
668B4DF	-9.9153
0FBEC8	-9.91571
837DEC000F84	-9.91635
0FB645FD	-9.91663
81E99	-9.91671
48898570FCFFFF	-9.91683
0000000000000000001D010000	-9.91745
0C0000000000002A0000002	-9.91816
889408	-9.91816
898514FFFFFF8B8514FFFFFF	-9.91818
83F0FF6689C1488B0500000000668908	-9.91823
04FCFFFF	-9.91828
70FAFFFF	-9.91854
8B8D50FFFFFF	-9.91872
4883C004	-9.91875
010000004883BD	-9.91894
488985F8FEFFFF488B85F8FEFFFF	-9.91895
39C80F8E120000000FBE85	-9.91912
66837D20000F84	-9.91913
837DF0000F84	-9.91924
8B8D60FFFFFF	-9.9193
8985BCF	-9.9202
48898500FFFFFF488B8500FFFFFF	-9.92078
8B8D04FFFFFF	-9.92098
AAFDFFFF	-9.9215
00100000000000048	-9.92191
21D1	-9.92226
120F83	-9.92237
E90B000000488B45D8	-9.92265
668B4D	-9.92271
807D20000F84	-9.92346
210000	-9.92367
24010FB6C04898	-9.92378
150F83	-9.92399
000000000038	-9.92467
8A45EA24010FB6C0	-9.92468
3B857	-9.92504
0100000083BD	-9.92584
100F8D	-9.92616
E90E000000488B85F8FEFFFF488985	-9.92622
1D0000000000002A0000001	-9.92631
6172725F3200	-9.9264
8B4DF8	-9.92655
010FBE85	-9.92662
170F83	-9.92664
DCFBFFFF	-9.92686
897DFC	-9.92706
8985C4F	-9.92718
39C80F8D120000000FBE85	-9.92719
30491	-9.92738
E90E00000031C0488985	-9.92817
7661725F333000	-9.92836
80000004C8B85	-9.92858
488B4DF8	-9.92873
0200000000000000000000000000000	-9.92974
83F0FF88C1488B05000000008808	-9.93025
83E9014863C90FBE0408	-9.93059
0FB78D5EFFFFFF	-9.93088
EFFFFFF	-9.93109
6172725F313700	-9.93112
8A85A	-9.93144
488B8500020000	-9.93145
81E9E	-9.93149
000000000000000000AC000000	-9.93191
4801D1486395	-9.9321
88010000	-9.93231
48634D98	-9.93255
81E9A	-9.93287
FFFDFFFF	-9.93312
488B8D18FFFFFF	-9.93336
2F0000000000002A0000003	-9.9334
8945E88B45E8	-9.9337
898564F	-9.93371
48898588FCFFFF	-9.93387
488985A8FCFFFF	-9.93391
81C	-9.93406
E92F000000	-9.93406
55000000	-9.93419
8B8DE4FEFFFF	-9.93439
00000000000000000064010000	-9.93443
7C000000	-9.93524
28FAFFFF	-9.93526
7A000000	-9.93527
110F8D	-9.93546
898504F	-9.93546
488B8518FFFFFF483B8510FFFFFF0F8	-9.93556
8F2FFFF	-9.93564
4863C9489948F7F9	-9.93572
4883F8000F95C08885	-9.93604
E050000000000002A0000000	-9.9361
898570FDFFFF	-9.93677
00A0000	-9.93686
6172725F3800	-9.93707
3B856	-9.93723
48638D64FFFFFF	-9.93752
807D18000F84	-9.93901
48837D28000F84	-9.93913
898520FEFFFF	-9.93917
ABFEFFFF	-9.93955
CFFFF0FB78D	-9.93962
45000000	-9.93989
0FB74DCC	-9.94052
81E9B	-9.94068
57FDFFFF	-9.941
8985FCFEFFFF8B85FCFEFFFF	-9.94102
6172725F313800	-9.94125
E935000000	-9.94135
0FBF4	-9.94135
89C948	-9.94154
837D18000F84	-9.94156
0FB74DD8	-9.9416
00000000000000000024010000	-9.94162
4869C9409C00004801C8	-9.94321
000F95C034FF24010FB6C8	-9.94327
4801D18A55	-9.94383
8B45B0	-9.94398
8A45BF24010FB6C0	-9.94421
8985C4FCFFFF	-9.94436
8945D88B	-9.94532
86000000	-9.94557
5040000	-9.94606
898590FDFFFF	-9.9461
E943000000	-9.94613
0FBF4DF6	-9.94634
E90D0000000FB645	-9.9467
898588FDFFFF	-9.94677
898568FDFFFF	-9.9471
E3FEFFFF	-9.94714
8985CCFCFFFF	-9.94742
6172725F323000	-9.94745
31C0837D	-9.94753
0FBE0C0831C029C8	-9.94777
5A000000	-9.94806
3050000000000002A0000000	-9.9481
0000000000000000000000006	-9.94822
0F97C024010FB6C0	-9.94843
3B853	-9.94854
8E000000	-9.94874
47FDFFFF	-9.94885
81E98	-9.94919
0FB755C	-9.94941
9050000000000002A0000000	-9.94955
8B4D40	-9.94976
48898558FFFFFF488B8560FFFFFF48	-9.94976
0FBF4530	-9.94979
52000000	-9.94983
48C1E1144801C8	-9.94991
083E80183F8000F95C024018885	-9.95023
4869C900A200004801C8	-9.9506
8985D4FCFFFF	-9.95067
80100000000000048	-9.95078
6A000000	-9.95107
0F2FFFF	-9.95107
70000000	-9.95116
8A45B724010FB6C0	-9.95118
0A000000	-9.95122
2050000000000002A0000000	-9.95155
AFFFFFF	-9.95173
3B854	-9.95178
0FBF4D20	-9.952
898584F	-9.9521
4869C9008802004801C8	-9.95226
A040000	-9.95228
8050000000000002A0000000	-9.95253
50000000	-9.95295
4869C985513E004801C8	-9.95354
89856CF	-9.95357
E90D0000000FBE45	-9.95374
0FB64DEE	-9.95396
8A850	-9.95401
81E9D	-9.95419
24010FB6C089C1488B0500000000	-9.95432
C050000000000002A0000000	-9.95432
0FBF4DB	-9.95472
13000000000000	-9.95504
6172725F313000	-9.95509
140F8D	-9.95529
8845EF	-9.95545
160F83	-9.95575
F050000000000002A0000000	-9.95576
75000000	-9.9559
81E9F	-9.95609
8B8D14FFFFFF	-9.95671
488B050000000048694DE0	-9.95693
6172725F3900	-9.95708
898578FDFFFF	-9.9573
83C10139C80F8D	-9.95737
4883EA02	-9.95738
0F96C024010FB6C0	-9.95764
E920000000	-9.95782
0000000000000000006B010000	-9.95783
E4010000	-9.95786
53000000	-9.95807
39C80F	-9.95858
E4FBFFFF	-9.95864
480FBF4DCC	-9.9594
E91F000000	-9.95952
8B8DDCFEFFFF	-9.9597
0FBF45EC	-9.95977
6172725F313900	-9.96
881300004801C8	-9.96023
4869C9F73562004801C8	-9.96024
C745D0	-9.9604
6172725F323100	-9.96062
0F92C024010FB6C0	-9.96063
BFFFFFF	-9.96079
8985BCFCFFFF	-9.96133
000000000000000000B3000000	-9.96209
4869C9008813004801C8	-9.96216
9FFDFFFF	-9.96237
7661725F3438007661725F343900	-9.96245
8B5518	-9.96257
488985E0FEFFFF488B85E0FEFFFF	-9.9626
0FB68D5FFFFFFF	-9.96261
01C88845E	-9.96281
E933000000	-9.96287
F8000000	-9.96287
89D0	-9.96319
4801D1486355	-9.96336
66837D28000F84	-9.96379
4801D1480FBE55	-9.96397
4863C9480FAFC1	-9.96409
250000	-9.96425
2D8	-9.96447
8B45C4	-9.96451
0FBF4D9	-9.9647
807DE	-9.96474
0FB645E3	-9.96482
48898548FFFFFF488B8550FFFFFF48	-9.96488
68000000	-9.96489
901	-9.96491
8A45F524010FB6C0	-9.96507
48837D20000F84	-9.96513
E90D0000000FB745	-9.96527
E90B000000488B45F0	-9.96572
880000004801C8	-9.96611
8A85F	-9.96616
488985F0FEFFFF488B85F0FEFFFF	-9.9666
000000000000000000000000E	-9.96677
56FDFFFF	-9.96705
4869C9204E00004801C8	-9.96706
0FB64D28	-9.96738
7661725F3530007661725F353100	-9.9676
48C1E1	-9.96781
8A8D6FFFFFFF80E1010FB6C9	-9.96809
48898560FCFFFF	-9.96878
61000000	-9.96882
83BC88	-9.96888
0F93C024010FB6C0	-9.96891
E924000000	-9.96899
3EFDFFFF	-9.96923
FEFFFF8A85	-9.96937
E921000000	-9.96946
0FB645FE	-9.97013
8A45E924010FB6C0	-9.97041
0AFEFFFF	-9.9705
0FB745F4	-9.97051
8B45A4	-9.97117
3AFEFFFF	-9.97163
488B8D08010000	-9.97168
81E9C	-9.97185
7E000000	-9.97248
488B8D78FEFFFF	-9.97251
48898580FCFFFF	-9.97269
48898578FCFFFF	-9.97294
488985D0FEFFFF488B85D0FEFFFF	-9.97296
FF7F0000	-9.97299
0000000000000000002B010000	-9.97335
48837DF0	-9.97343
8985B4FCFFFF	-9.97351
488B8D10010000	-9.97392
488B8508FFFFFF483B8500FFFFFF0F8	-9.97484
33FEFFFF	-9.97488
8B8D10FFFFFF	-9.97491
50000000000000D000000	-9.97516
A0FAFFFF	-9.97516
3B85A	-9.97545
E90D000000B8	-9.97554
8A45E224010FB6C0	-9.97569
4801D1480FBF55	-9.97576
48698D20FFFFFF	-9.9761
B050000000000002A0000000	-9.97614
49000000	-9.97618
83C1014863C98A040824010FB6C0	-9.97623
480560	-9.97623
898504FFFFFF8B8504FFFFFF	-9.9768
E936000000	-9.97684
324801C8	-9.97686
C040000	-9.9769
00000000000000000000000050	-9.97722
AFFDFFFF	-9.97735
FFFFFF000FBE85	-9.97737
900100004801C8	-9.97786
00000000000000000072010000	-9.97802
81000000	-9.97812
898500FEFFFF	-9.97816
08000000	-9.97886
E90E000000488B85F0FEFFFF488985	-9.97887
48638D78FFFFFF	-9.97924
E90A0000000FBF45F	-9.97944
480520	-9.97959
300000000000002A0000003	-9.97993
590010000488B85	-9.97994
83E9024863C9488B04C8	-9.9803
000000000000000000BA000000	-9.98048
AA000000	-9.98092
4869C9004401004801C8	-9.98094
482B	-9.98149
488945E8	-9.98189
010FB685	-9.98193
FFFF4881C4	-9.98313
E90D0000000FBF45	-9.98325
10000488B8598010000488B8	-9.98332
280000	-9.98377
8A85D	-9.98411
4863C94801C8	-9.98415
180E101488B05000000008808	-9.98423
480FBE8D7FFFFFFF	-9.98426
5050000000000002A0000000	-9.98426
480FBF4D8E	-9.9846
8A858	-9.9848
FAFDFFFF	-9.98487
48898550FCFFFF	-9.98491
FF7F	-9.98495
4050000000000002A0000000	-9.98535
8845E7	-9.98549
4883E	-9.98552
7661725F333200	-9.98627
E40100004801C8	-9.98635
488B8D98FEFFFF	-9.98638
6FFDFFFF	-9.98647
FEFFFF008A85	-9.98657
0FBF4DA	-9.98665
881000004801C8	-9.98698
898540FDFFFF	-9.9871
DE80000004	-9.98718
488B8D70FEFFFF	-9.98729
80FAFFFF	-9.98791
48698D18FFFFFF	-9.98856
89F0488BB5	-9.98866
16FDFFFF	-9.98867
4863C94829C8	-9.98895
0C4801C8	-9.98941
95000000	-9.98965
0FBE4DDF	-9.99006
4FFDFFFF	-9.99024
7661725F3439007661725F353000	-9.99042
4189F88BBD	-9.99048
21C883F8	-9.99058
488B55E0	-9.9909
89858CFCFFFF	-9.99138
8C000000	-9.99187
1AFEFFFF	-9.99191
486B4DA0	-9.99197
24018845D	-9.99238
48C1E21	-9.99285
A8010000488B85A00	-9.99302
898548FDFFFF	-9.99306
8985F4FEFFFF8B85F4FEFFFF	-9.99308
088480	-9.99367
E90E000000488B85E0FEFFFF488985	-9.99375
837D20000F84	-9.99382
488B8D90FEFFFF	-9.99415
0FB64DD6	-9.99416
1050000000000002A0000000	-9.99429
486945	-9.99435
0FBE8408	-9.99435
8985C8FDFFFF	-9.99468
290000000000002A0000002	-9.99499
8A4DE480E1010FB6C9	-9.99504
7FFDFFFF	-9.9959
807D28000F84	-9.99624
0FB64D8B	-9.99662
7050000000000002A0000000	-9.99677
DAFDFFFF	-9.99679
B8F9FFFF	-9.99694
8985E8FDFFFF	-9.99698
D6FCFFFF	-9.99708
4869C988C901004801C8	-9.99756
3FFFFFFE9	-9.99759
E90E000000488B85E8FEFFFF488985	-9.99845
00000000000000000032010000	-9.99851
898560FDFFFF	-9.99895
668B4528	-9.99935
8A45D624010FB6C0	-9.99964
6172725F323300	-10
83E9	-10.0002
50010000	-10.0007
1040000	-10.0011
488945D8488B45D8	-10.0013
8B8D18FFFFFF	-10.0018
480FBE8D6FFFFFFF	-10.0019
A00000004801C8	-10.0021
60FAFFFF	-10.0022
3600	-10.003
0FB645DF	-10.0039
3400	-10.004
6050000000000002A0000000	-10.0041
48698D10FFFFFF	-10.0042
0FB64DF7	-10.0048
160F8D	-10.005
E927000000	-10.0053
B0F9FFFF	-10.0055
83F8000F95C024018885	-10.0059
00000000004001000000000000	-10.0062
488B8D20FEFFFF	-10.0064
0FBE4D30	-10.0066
B4000000	-10.0066
837D28000F84	-10.0067
160000000000002A0000003	-10.0068
0600	-10.0071
E2FDFFFF	-10.0073
A0F9FFFF	-10.0075
2E4801C8	-10.0077
488B8D68FEFFFF	-10.0078
488BBD	-10.0081
8A4DF780E1010FB6C9	-10.0081
488B8508020000	-10.0082
48B9F	-10.0083
1C1	-10.009
480FBF4DAA	-10.0093
80FFFFFF	-10.0097
8985E4FEFFFF8B85E4FEFFFF	-10.0097
FBFFFF80E1010FB6C9	-10.0101
E90E000000488B85D8FEFFFF488985	-10.0101
8B8DECFEFFFF	-10.0103
8985ACFCFFFF	-10.0103
7FBFFFF24010FB6C0	-10.0106
48638D24FFFFFF	-10.0109
48898568FCFFFF	-10.0111
4869C9C4E400004801C8	-10.0112
8A4DEE80E1010FB6C9	-10.0112
CCFBFFFF	-10.0113
4801C10FB685	-10.0114
0FBF4DEE	-10.0115
488985D8FEFFFF488B85D8FEFFFF	-10.012
00000000000000000079010000	-10.0121
0050000000000002A0000000	-10.0124
898584FCFFFF	-10.0125
480FBE4DE2	-10.0126
48B90	-10.0133
000000000000000000C1000000	-10.0149
0FB7401	-10.0154
488985C8FEFFFF488B85C8FEFFFF	-10.0158
0FB64DF1	-10.0161
C745E4	-10.0162
817D	-10.0163
0FB68D0FFFFFFF	-10.0165
1A4801C8	-10.017
0FB78D6EFFFFFF	-10.0172
B000000FCFFFFFFFFFFFFFF002E	-10.0172
B4FBFFFF	-10.0173
000066C785	-10.0173
480FBE4DDD	-10.0174
8945E08B	-10.0175
8945D08B	-10.0175
17FDFFFF	-10.0176
0080FFFF	-10.018
8A85B	-10.0183
0010000488BB5	-10.0188
8A000000	-10.0188
83C1024863C9488B04C8	-10.0196
48833CC8	-10.0196
480FBF8D66FFFFFF	-10.0198
FFFF7F	-10.0198
D050000000000002A0000000	-10.0201
8985DCFEFFFF8B85DCFEFFFF	-10.0204
482B45	-10.0205
F5FFFFE900000000	-10.0209
48898538FFFFFF488B8540FFFFFF48	-10.0213
8A85E	-10.0215
83E9014863C90FBF0448	-10.0219
E040000	-10.0219
6172725F323600	-10.0222
0FB78D76FFFFFF	-10.0226
488985C0FEFFFF488B85C0FEFFFF	-10.0227
180E1010FB6C9	-10.0228
270000	-10.0228
040000488B85	-10.0229
83C1014863C90FB70448	-10.0231
894DD	-10.0234
8985ECFEFFFF8B85ECFEFFFF	-10.0235
48898540FCFFFF	-10.024
EFEFFFF24010FB6C0	-10.0241
30000000000002A0000005	-10.0242
898558FDFFFF	-10.0243
480FBE4DA	-10.025
8A85C	-10.0251
4801D0486995	-10.0253
310000000000002A0000003	-10.0256
B90100004801C8	-10.0257
F2000000	-10.0258
8B55F	-10.026
0F5FFFFE90E000000488B85	-10.0264
E923000000	-10.0269
8A4DE980E1010FB6C9	-10.0272
898530FDFFFF	-10.0276
83C1014863C90FBE0408	-10.0276
89855CF	-10.0276
8985CCFEFFFF8B85CCFEFFFF	-10.028
704801C8	-10.028
000F8412000000	-10.0281
48638D6CFFFFFF	-10.0281
4863C94809C8	-10.0281
00000000000000000039010000	-10.0283
1FCFFFF	-10.0283
0FBF4D28	-10.0284
0FBF4D8	-10.0285
B80000004801C8	-10.0285
39C80F8	-10.0294
C8030000	-10.0294
73FEFFFF	-10.0296
898554F	-10.03
FC000000	-10.0301
8945DC8B	-10.0301
30010000	-10.0302
83000000	-10.0302
8F3FFFF	-10.0303
52010000	-10.0309
8A4DAB80E1010FB6C9	-10.0311
A80000004801C8	-10.0311
3B859	-10.0312
4488C84	-10.0312
8FFDFFFF	-10.0313
8985A4FCFFFF	-10.0313
9F2	-10.0317
898550FDFFFF	-10.0319
71000000	-10.032
0FBF45EA	-10.0322
4883F8000F95C024010FB6C0	-10.0323
E922000000	-10.0325
C745C4	-10.0326
12FEFFFF	-10.0326
488985E8FEFFFF488B85E8FEFFFF	-10.0326
D0F9FFFF	-10.0328
F01	-10.033
2A4801C8	-10.0331
8A040824010FB6C8	-10.0331
0FB745C6	-10.0342
0FBE45FD	-10.0349
E911000000B801000000488985	-10.0349
C745BC	-10.0349
0FB74DA2	-10.035
3000	-10.0356
FEFFFF24010FB6C083F8010F8D	-10.0357
000000000008	-10.0362
20060000	-10.0363
8A4DF180E1010FB6C9	-10.0364
3BFEFFFF	-10.0368
0FB645A	-10.0371
7661725F333300	-10.0371
0FB645F3	-10.0375
48898530FCFFFF	-10.0382
0FB78D46FFFFFF	-10.0383
48634D88	-10.0384
C740	-10.0385
898538FDFFFF	-10.0386
0FB78D4EFFFFFF	-10.0387
000000000000000000C8000000	-10.0388
89859CFCFFFF	-10.0388
48898538FCFFFF	-10.039
018A85	-10.039
8A45B	-10.0391
4D000000	-10.0392
170F8D	-10.0393
4488C84C8B8D	-10.0399
898518FDFFFF	-10.0406
0FB745D6	-10.0412
FEFCFFFF	-10.0412
701	-10.0417
2B0000000000002A0000004	-10.0418
0F3FFFF	-10.0418
4883C201	-10.0426
00004839C80F83	-10.043
77FDFFFF	-10.0433
4869C951AA15004801C8	-10.0433
4839C80F94C024010FB6C0	-10.0439
0FB745E8	-10.044
4869C9008079004801C8	-10.0441
8985D4FEFFFF8B85D4FEFFFF	-10.0448
0FBF4DDE	-10.0453
0FBF4DCE	-10.0455
488B8D18FEFFFF	-10.0457
0FBF0C48	-10.0459
2A0000000000002A0000002	-10.0461
2EFDFFFF	-10.0464
488985B8FEFFFF488B85B8FEFFFF	-10.0469
50FAFFFF	-10.047
00000000000000000080010000	-10.0472
668945DE	-10.0473
FAFFFF80E1010FB6C9	-10.0479
00010000	-10.048
4869C943C825004801C8	-10.0485
0FB64548	-10.0488
43FEFFFF	-10.0495
8945EC	-10.0495
80E1010FB6C939C80F8D16000000	-10.0496
8A45F624010FB6C0	-10.0497
E932000000	-10.0497
7661725F3532007661725F353300	-10.0502
89859CF	-10.0504
4D1	-10.0505
4869C960A34E004801C8	-10.0505
11000000B801000000488985	-10.0508
200100004C8B8	-10.0515
488B85E8FEFFFF483B85E0FEFFFF0F8	-10.0517
7661725F313200	-10.0519
FFBFFFF24010FB6C0	-10.0521
6040000	-10.0524
4BFEFFFF	-10.0526
486B4DA8	-10.0531
4898483B45	-10.0531
E967000000	-10.0537
8B8DACFEFFFF	-10.0537
0FFDFFFF	-10.0537
8B459C	-10.0543
8A4DDA80E1010FB6C9	-10.0547
488B85F8FEFFFF483B85F0FEFFFF0F8	-10.0549
B040000	-10.055
2BFEFFFF	-10.0554
ACFBFFFF	-10.0555
0FBF4540	-10.0558
83FA000F45C1	-10.0563
48898558FCFFFF	-10.0565
894DF0	-10.0566
89C	-10.057
A050000000000002A0000000	-10.0572
898528FDFFFF	-10.0573
2C0000000000002A0000004	-10.0575
00000000000000000040010000	-10.0577
0FBF45F2	-10.0579
0FB6C9	-10.0587
0FB64DF	-10.059
83E0	-10.0592
E926000000	-10.0596
270000000000002A0000004	-10.0598
88020000	-10.06
53FEFFFF	-10.0603
480FBF4DD8	-10.0607
898520FDFFFF	-10.0608
48698D08FFFFFF	-10.0622
020000C685	-10.0625
480FBE4DD	-10.0625
488B55D8	-10.0627
89853CF	-10.0629
89854CF	-10.0631
4889856	-10.0632
000000000000000000CF000000	-10.0636
8080000	-10.0636
898508FDFFFF	-10.0636
FBFDFFFF	-10.0637
7661725F333400	-10.0637
480FBF4DBA	-10.0642
7661725F3531007661725F353200	-10.0642
684801C8	-10.0648
E90E000000488B85C8FEFFFF488985	-10.065
488985A8FEFFFF488B85A8FEFFFF	-10.0651
488B8D38FEFFFF	-10.0651
CB2	-10.0654
3050000	-10.0655
4040000	-10.0655
8A4DBB80E1010FB6C9	-10.0656
480FBE4D8	-10.0661
4889855	-10.0662
8985D8F	-10.0663
0FBE45E	-10.0665
C80D0000	-10.0668
898510FDFFFF	-10.0668
488B8D80FEFFFF	-10.0671
48898548FCFFFF	-10.0672
488B8D20010000	-10.0675
31D2F775	-10.068
8A45F124010FB6C0	-10.0684
6D000000	-10.0685
F040000	-10.0688
488B8D88FEFFFF	-10.0692
800C0000	-10.0696
9CFBFFFF	-10.0697
48898528FFFFFF488B8530FFFFFF48	-10.0697
486BD2164801D1	-10.0701
5BFEFFFF	-10.0702
290000000000002A0000004	-10.0705
C1E	-10.0705
7661725F333500	-10.0705
94000000	-10.0706
FEFFFF0FBE85	-10.0706
89857CFCFFFF	-10.0707
48698D38FFFFFF	-10.0707
66448B5	-10.0709
94FBFFFF	-10.0711
83E80	-10.0712
89856CFCFFFF	-10.0716
E90D000000	-10.0717
8A459F24010FB6C0	-10.0721
C4FBFFFF	-10.0721
0FBF45F4	-10.0722
63FEFFFF	-10.0724
833C88000F95C08885	-10.0728
480FBE8D67FFFFFF	-10.0729
0FB745DC	-10.0732
9FCFFFF	-10.0733
0FB74540	-10.0734
0FB64DE1	-10.0736
89855CFCFFFF	-10.0737
0FBE45FE	-10.0737
81B	-10.0739
80E1010FB6C939C80F8E16000000	-10.074
E931000000	-10.0741
0000D3E0	-10.0741
8B8D20FFFFFF	-10.0741
0FB745E4	-10.0744
0FB74D8	-10.0748
8D000000	-10.0749
0FBF8	-10.075
4869C95DAA05004801C8	-10.0752
110200004801C8	-10.0753
1E0000000000002A0000001	-10.0753
480FBE8D57FFFFFF	-10.0753
48837D30000F84	-10.0757
4B000000	-10.0757
48898528FCFFFF	-10.0758
E92E000000	-10.0761
898544F	-10.0763
85000000	-10.0769
3B85B	-10.077
230000	-10.0772
8B4594	-10.0776
0488948	-10.0777
000080	-10.0781
8985BCFEFFFF8B85BCFEFFFF	-10.0786
480FBE4DB3	-10.0789
898534F	-10.0789
00000000000000000087010000	-10.0791
8B8DFCFEFFFF	-10.0794
8985B4FEFFFF8B85B4FEFFFF	-10.0801
486B4D98	-10.0802
0FB78D3EFFFFFF	-10.0802
6FEFFFF24010FB6C0	-10.0804
486BD2184801D1	-10.0804
898594FCFFFF	-10.0805
A0000000000002A0000006	-10.0809
DFBFFFF	-10.0814
8A45AF24010FB6C0	-10.0819
480FBF4DC2	-10.0826
0FB74DFE	-10.0827
9A000000	-10.0827
84FBFFFF	-10.0828
48898520FCFFFF	-10.0828
000000000000000000D6000000	-10.083
4889850	-10.0834
898544FCFFFF	-10.0837
0FBFC983C10	-10.084
A3000000	-10.0842
8A4DEC80E1010FB6C9	-10.0856
8985F8FCFFFF	-10.0857
488985B0FEFFFF488B85B0FEFFFF	-10.0867
4839C80F95C024010FB6C0	-10.0869
4188C	-10.0869
7B000000	-10.0869
8A8D37FFFFFF80E1010FB6C9	-10.0871
8985C4FEFFFF8B85C4FEFFFF	-10.0874
0FBF45DE	-10.0884
8F5FFFFE90E000000488B85	-10.0884
4869C900D430004801C8	-10.0888
00000000000000000047010000	-10.0889
8985D8FCFFFF	-10.0891
4869C94F960B004801C8	-10.0899
898570F	-10.0899
300000000000002A0000004	-10.0903
22FEFFFF	-10.0905
0FB78D56FFFFFF	-10.0907
E90E000000488B85D0FEFFFF488985	-10.0909
51000000	-10.0911
2D0000000000002A0000004	-10.0912
488B8D18010000	-10.0912
898564FCFFFF	-10.0913
8985E0FCFFFF	-10.0916
58000000	-10.0918
48898518FCFFFF	-10.0926
6172725F323700	-10.0928
FEFFFF24010FB6C08A8D	-10.0933
898500FFFFFF8B8500FFFFFF	-10.0935
88F9FFFF	-10.0936
8B8DB4FEFFFF	-10.0936
E928000000	-10.0937
4863C94821C8	-10.0938
1EFDFFFF	-10.0941
9883E8	-10.0941
83E	-10.0947
8B8D94FEFFFF	-10.0948
93000000	-10.0953
0FBEC983C10	-10.0957
83C1024863C98B0488	-10.0958
0FBF044883F0FF	-10.0961
2A0000000000002A0000004	-10.0961
8B4598	-10.0966
898574FCFFFF	-10.0972
4869C9803801004801C8	-10.0976
9040000	-10.0976
898500FDFFFF	-10.0977
96000000	-10.0981
5E000000	-10.0982
3B850	-10.0983
4863C94831C8	-10.0983
40FAFFFF	-10.0985
480FBF8D4EFFFFFF	-10.0988
0FB74DB2	-10.0992
48898510FCFFFF	-10.0992
83F8090F8D	-10.1001
C1E000	-10.1001
4801C1488B95	-10.1007
E01	-10.1007
48833CC8000F95C08885	-10.1011
0000000000000000008E010000	-10.1019
48698DD8FEFFFF	-10.1021
70000000000002A0000006	-10.1023
59000000	-10.1024
0FB60408668985	-10.1025
C050000	-10.1027
8BFEFFFF	-10.103
31C92B4D	-10.1035
57000000	-10.1037
30FAFFFF	-10.1041
4889854	-10.1042
31C048837D	-10.1049
488B050000000048694DC8	-10.1051
80E201	-10.1054
20FAFFFF	-10.1056
39C80F8D13000000	-10.1064
0000D3F8	-10.1065
B00148837D	-10.1066
4C8	-10.1066
4801C10FB785	-10.1073
0FB7C983C10	-10.1073
8F9FFFF483B85	-10.1075
6172725F323800	-10.1076
0FBE0C08	-10.1076
000000000000000000000000B	-10.1084
01000000488B85	-10.1089
68FAFFFF	-10.1089
83E8014863D0	-10.109
E90E000000488B85C0FEFFFF488985	-10.1091
89852CF	-10.1095
01C685	-10.1097
83C1014863C90FBF0448	-10.1098
8A8D5FFFFFFF80E1010FB6C9	-10.1098
73000000	-10.11
48898500FCFFFF	-10.1106
000000000000000000DD000000	-10.1107
B01	-10.1111
48898518FFFFFF488B8520FFFFFF48	-10.1114
8B8DC8FEFFFF	-10.1117
B001807D	-10.1118
6CFBFFFF	-10.1119
0000000000000000004E010000	-10.1124
48898590FEFFFF488B8590FEFFFF	-10.1128
488B8DA8FEFFFF	-10.1129
83F0FF4863C8488B0500000000488908	-10.113
800400004801C8	-10.113
8B8DBCFEFFFF	-10.1133
4801D1486B95	-10.1133
448945F4	-10.1135
0FB755B	-10.1138
83F8000F95C1	-10.1139
83E80148984869C0	-10.114
8B8D48FFFFFF	-10.1144
A4FBFFFF	-10.1147
C745D4	-10.1149
89859CFEFFFF8B859CFEFFFF	-10.115
2B45	-10.1156
8A45A724010FB6C0	-10.1165
48898598FEFFFF488B8598FEFFFF	-10.1165
489948F77D	-10.1165
486B4D90	-10.117
30000000000002A0000006	-10.1171
0080	-10.1175
8985A4FEFFFF8B85A4FEFFFF	-10.1176
89854CFCFFFF	-10.118
8B8D84FEFFFF	-10.1183
894DC	-10.1186
668B4530	-10.1186
8B4584	-10.1186
C6000000	-10.1187
83E9024863C98B0488	-10.1188
0FB64D30	-10.1189
64FBFFFF	-10.1191
0FBE0408668985	-10.1192
280000000000002A0000004	-10.1193
898524FCFFFF	-10.1194
EEFCFFFF	-10.1201
00000000000000000095010000	-10.1202
0FBE4DA	-10.1205
FE000000	-10.1209
224801C8	-10.1213
FDFFFF8A85	-10.1214
350000	-10.1215
8A4DE180E1010FB6C9	-10.1217
D7FCFFFF	-10.1218
8B559	-10.1218
81E97	-10.1223
0066C785	-10.1224
668945E6	-10.1224
0FB78D7AFFFFFF	-10.1227
60000000000000D000000	-10.1228
48D3E0	-10.1228
C0010000	-10.1229
00000000004801000000000000	-10.1229
D2FDFFFF	-10.1234
488B55D0	-10.1236
7040000	-10.124
7D000000	-10.124
48638D4CFFFFFF	-10.1243
2E0000000000002A0000004	-10.1252
8A45D324010FB6C0	-10.1255
6172725F31363	-10.1262
00000000000000000055010000	-10.1263
64408	-10.1268
8985ACF	-10.127
3B858	-10.1272
0FBE45A	-10.1273
0FB6040883F0FF	-10.1276
E90E000000488B85B0FEFFFF488985	-10.1276
0FB78DEEFEFFFF	-10.1276
C0060000	-10.1278
898554FCFFFF	-10.1279
89851CF	-10.1282
6172725F323900	-10.1288
320000000000002A0000003	-10.1288
C6FCFFFF	-10.1293
E95A000000	-10.1301
488B85D8FEFFFF483B85D0FEFFFF0F8	-10.1301
8B8DC4FEFFFF	-10.1302
898564FEFFFF8B8564FEFFFF	-10.1302
0FBF401	-10.1302
48898508FCFFFF	-10.1303
8985C8F	-10.1305
898584FEFFFF8B8584FEFFFF	-10.1306
0FB74DAA	-10.1311
488B8DB0FEFFFF	-10.1315
48698DF0FEFFFF	-10.1318
488985F8FBFFFF	-10.1318
8F000000	-10.1319
2F0000000000002A0000004	-10.1322
6FFFFFF24010FB6C0	-10.1323
488B8D40FEFFFF	-10.1327
66837DFC000F84	-10.1327
000000000000000000E4000000	-10.1327
B0000000000002A0000006	-10.1328
6689C2488B050000000048698D	-10.1328
488B8510020000	-10.1328
898534FCFFFF	-10.1332
668B1448	-10.1338
6683BC48	-10.1338
37FDFFFF	-10.1344
3040000	-10.1346
486B8D78FFFFFF	-10.1352
200A0000	-10.1352
8A040824010FB6C0668985	-10.1353
4863C931D248F7F1	-10.1355
668B	-10.1355
0FB7C083E8	-10.1359
488B8D58FEFFFF	-10.1359
60000000000002A0000006	-10.136
0FBF4DFC	-10.1361
8985ACFEFFFF8B85ACFEFFFF	-10.1362
83FEFFFF	-10.1363
C745B4	-10.1364
8010000488BB5	-10.1365
480FBF8D16FFFFFF	-10.1367
8945D48B	-10.1369
488B8D28010000	-10.1369
E925000000	-10.1372
0FAF	-10.1373
BAFDFFFF	-10.1374
4881	-10.1377
8985F8FEFFFF8B85F8FEFFFF	-10.1378
66C704480000	-10.1379
83E93	-10.138
24010FB6C083F8010F8D	-10.1386
7661725F3534007661725F353500	-10.1387
83E802	-10.1391
0FB7C883E9	-10.1392
4C894DE0	-10.1393
6172725F333000	-10.1394
480FBE4DBB	-10.1395
668B4510	-10.1402
3060000000000002A0000000	-10.1409
C7048800000000	-10.141
FEFFFFC685	-10.141
0FBE4DEF	-10.1412
488B8D00FEFFFF	-10.1412
89858CFEFFFF8B858CFEFFFF	-10.1414
31C0807D	-10.1415
E90E000000488B85B8FEFFFF488985	-10.1416
D040000	-10.1416
7661725F333600	-10.142
8A040824010FB6C083F0FF	-10.1424
4869C920D51C004801C8	-10.1427
3FFDFFFF	-10.1427
89852CFCFFFF	-10.1428
6689C1488B05000000006689084881C4	-10.1431
4869C9E03408004801C8	-10.1434
803C08000F8410000000B8	-10.1436
F9FFFF8A85	-10.1439
8985C0FCFFFF	-10.1439
4801C1486985	-10.1443
488B0CC8488B0500000000488908	-10.1449
0FBE45DF	-10.145
6172725F323200	-10.1452
10030000	-10.1454
48634	-10.1456
80000000000002A0000006	-10.1459
0FB655C	-10.146
898594FEFFFF8B8594FEFFFF	-10.147
67000000	-10.1471
8A8D4FFFFFFF80E1010FB6C9	-10.1478
E92B000000	-10.1484
330000000000002A0000003	-10.1484
48898508FFFFFF488B8510FFFFFF48	-10.1487
000044898D	-10.1488
1060000000000002A0000000	-10.1491
8A45A	-10.1491
E939000000	-10.1492
66837D30000F84	-10.1495
488985E8FBFFFF	-10.1495
310000000000002A0000004	-10.1496
7661725F3533007661725F353400	-10.1502
E3FDFFFF	-10.1502
81E96	-10.1503
60010000	-10.1503
2060000000000002A0000000	-10.1504
2A0000	-10.151
000000000000000000EB000000	-10.151
8985B8FCFFFF	-10.1513
488B85B8FEFFFF483B85B0FEFFFF0F8	-10.1514
0000000000000000009C010000	-10.1516
C80300004801C8	-10.1516
A060000000000002A0000000	-10.1519
0000000000000000005C010000	-10.1519
E93A000000	-10.1521
290000	-10.1521
488985F0FBFFFF	-10.1524
E929000000	-10.1539
488985D0FBFFFF	-10.154
7CFBFFFF	-10.1541
66837DF6000F84	-10.1541
488985E0FBFFFF	-10.1543
E90E000000488B85A0FEFFFF488985	-10.1547
83E92	-10.1548
4869C9A08601004801C8	-10.1548
200A00004801C8	-10.1551
488B85C8FEFFFF483B85C0FEFFFF0F8	-10.1551
0FBE040883F0FF	-10.1552
B1000000	-10.1555
4060000000000002A0000000	-10.1556
8F4FFFF488B85	-10.1557
7DFFFFFF	-10.1558
8985E8FCFFFF	-10.156
8A8D47FFFFFF80E1010FB6C9	-10.156
E94F000000	-10.1561
8B45A0	-10.1565
8B8D00FFFFFF	-10.1568
488985A0FEFFFF488B85A0FEFFFF	-10.1569
0FBFC883E9	-10.157
0060000000000002A0000000	-10.1571
9060000000000002A0000000	-10.1572
8B5538	-10.158
0FB68D37FFFFFF	-10.158
F8FFFF24010FB6C0	-10.1581
EAFDFFFF	-10.1581
833C88000F8410000000B8	-10.1582
0FBE8	-10.1584
A4050000	-10.1589
6BC000	-10.1593
93FDFFFF	-10.16
6FEFFFF80E1010FB6C9	-10.16
6F000000	-10.1602
81E93	-10.1603
0FBE45EB	-10.1603
8985F0FCFFFF	-10.1607
8985C8FCFFFF	-10.1609
27FDFFFF	-10.1609
58020000	-10.161
0FB745DA	-10.1615
0FBEC883C10	-10.1617
837D10	-10.1619
807D30000F84	-10.1623
1E4801C8	-10.1624
488985C8FBFFFF	-10.1634
89853CFCFFFF	-10.1634
4C8945E0	-10.1636
0FB68DDFFEFFFF	-10.1637
260000000000002A0000004	-10.1642
784801C8	-10.1642
B6FCFFFF	-10.1655
89851CFCFFFF	-10.1655
4883E801	-10.1655
1D1	-10.1657
0FBEC983C11	-10.1657
66894DE	-10.1657
0FAFCA	-10.1658
837DFC	-10.1658
F8010000	-10.1662
81E95	-10.1662
000F8411000000B8	-10.1665
803C08000F95C08885	-10.1665
6172725F333100	-10.1668
FCFFFF80E1010FB6C9	-10.167
69000000	-10.167
488B8D48FEFFFF	-10.1672
6FDFFFFE9	-10.1676
0FBE4DF7	-10.1678
66833C48000F8410000000B8	-10.1679
89857CFEFFFF8B857CFEFFFF	-10.1679
5060000000000002A0000000	-10.1684
10020000	-10.1684
0F4FFFF488B85	-10.1684
CEFCFFFF	-10.1684
84040000	-10.1686
8985D0FCFFFF	-10.1693
81E	-10.1694
0E00000031C0488985	-10.1695
88C1488B050000000088084881C4	-10.17
4869C900CC03004801C8	-10.1703
8B458C	-10.1706
0FB645ED	-10.1707
E937000000	-10.1708
001200004801C8	-10.1709
480FBF4D92	-10.1711
66833C48000F95C08885	-10.1711
000000000000000000F2000000	-10.1712
020000004883BD	-10.1714
89000000	-10.1717
4869C91B7502004801C8	-10.1718
0FB645CF	-10.1723
7060000000000002A0000000	-10.1727
AEFCFFFF	-10.1729
48B9E	-10.173
83E95	-10.173
0FB78D0EFFFFFF	-10.173
E90E000000488B85A8FEFFFF488985	-10.1734
180F83	-10.1734
C745B8	-10.1741
70020000	-10.1749
488985D8FBFFFF	-10.175
8A8D67FFFFFF80E1010FB6C9	-10.175
6172725F323500	-10.1753
B060000000000002A0000000	-10.1754
C745AC	-10.1756
D060000000000002A0000000	-10.1759
480FBE55C	-10.1769
0FB64D93	-10.1771
6172725F3300	-10.1776
E95F000000	-10.1777
F2FDFFFF	-10.1779
240000000000002A0000004	-10.178
1EFCFFFF	-10.1781
894594E9	-10.1784
7661725F3536007661725F353700	-10.1787
0FB74DFC	-10.1789
E060000000000002A0000000	-10.1793
480FBE4DE1	-10.1795
78F9FFFF	-10.1797
4CFBFFFF	-10.1799
8A459	-10.1799
8985E0FEFFFF8B85E0FEFFFF	-10.18
48898588FEFFFF488B8588FEFFFF	-10.18
8A4D9380E1010FB6C9	-10.1803
0FB68D27FFFFFF	-10.1803
48C745D0	-10.1804
0000000000B801000000000000	-10.1806
1BFEFFFF	-10.1807
8985A8FCFFFF	-10.1809
8985E8FEFFFF8B85E8FEFFFF	-10.1813
00000000000000000063010000	-10.1813
A2000000	-10.1813
898574FEFFFF8B8574FEFFFF	-10.1816
C6400	-10.1818
F060000000000002A0000000	-10.1831
0FB78D06FFFFFF	-10.1832
8985ECFBFFFF	-10.1832
8060000000000002A0000000	-10.1835
8945C88B	-10.1836
8B857CFFFFFF3B8578FFFFFF0F8	-10.1838
20020000	-10.184
0000480385	-10.1842
81E94	-10.1843
89856CFEFFFF8B856CFEFFFF	-10.1844
88130000	-10.1845
31C929C1488B05000000008908	-10.1846
E95B000000	-10.1847
7661725F333800	-10.1848
120000000FBE45	-10.1852
C060000000000002A0000000	-10.1854
601	-10.1855
902	-10.1855
8945EC8B45EC	-10.1858
0FBE1408	-10.1858
FFFFFFFFFFFF7F	-10.186
6E000000	-10.186
E92D000000	-10.1862
E942000000	-10.1868
48698DE0FEFFFF	-10.1868
0000000000D001000000000000	-10.1878
480FBE8D4FFFFFFF	-10.1882
83E001	-10.1882
48C1E	-10.1888
0FB74DF4	-10.1889
48698DF8FEFFFF	-10.1893
5C4801C8	-10.1894
89F88B7D	-10.1897
80010000	-10.1899
8985B0FCFFFF	-10.1906
0000000000D801000000000000	-10.1906
486B4DE8	-10.1906
40010000	-10.1909
48634DF	-10.1911
488B8D30010000	-10.1914
0FB78D2EFFFFFF	-10.1915
BFCFFFF80E1010FB6C9	-10.1915
320000000000002A0000004	-10.1919
E92C000000	-10.1921
8CFBFFFF	-10.1926
0FB64DDA	-10.1929
0FBE459	-10.1932
6060000000000002A0000000	-10.1933
488985F8FEFFFF488B8500FFFFFF48	-10.1934
FFFCFFFF	-10.1944
0FB68DBFFEFFFF	-10.1946
480FBE8DF7FEFFFF	-10.1949
FEFFFF0FB685	-10.195
488B0CD148BA	-10.1951
488B85A8FEFFFF483B85A0FEFFFF0F8	-10.1953
D3E289D1	-10.1955
2FEFFFFE9	-10.1959
8A4DF380E1010FB6C9	-10.1961
448945E8	-10.1961
83E94	-10.1966
10000000488B4518488985	-10.1967
898504FCFFFF	-10.1973
000000000000000000F9000000	-10.1974
340000000000002A0000004	-10.1975
01000000C785	-10.198
0FB645EE	-10.1983
E7FCFFFF	-10.1984
DC30000000000000	-10.1985
3B85F	-10.1986
F6FCFFFF	-10.1989
480FBE4DED	-10.1991
10010000	-10.1992
92000000	-10.1994
668945EC	-10.1997
8A45CB24010FB6C0	-10.1998
000000000000000000A3010000	-10.2
48638D3CFFFFFF	-10.2004
837D30000F84	-10.2008
898534FEFFFF8B8534FEFFFF	-10.2008
0FB645DB	-10.2008
89C9	-10.2008
0FBE4DE7	-10.2008
408A75	-10.2009
0FBF4D30	-10.201
8A4DE880E1010FB6C9	-10.2012
48898570FEFFFF488B8570FEFFFF	-10.2014
66837D	-10.2016
31C929C1	-10.2018
8985E4FCFFFF8B85E4FCFFFF	-10.2018
48897DF8	-10.2029
CC000000	-10.2035
8B4004	-10.2038
0FB7044883F0FF	-10.2039
837D38000F84	-10.2043
8B4D48	-10.2044
E949000000	-10.2045
4801D0486955	-10.2046
48898578FEFFFF488B8578FEFFFF	-10.205
4801C14881C1	-10.2052
7661725F3535007661725F353600	-10.2056
488B4008	-10.2057
39C80F8E13000000	-10.2058
E0000000000002A0000006	-10.2058
89857CF	-10.2058
664489C84	-10.2058
89855CFEFFFF8B855CFEFFFF	-10.2063
18010000	-10.2064
488B8D60FEFFFF	-10.2065
B8FFFFFFFF	-10.2066
44010000	-10.2067
8A458F24010FB6C0	-10.2069
480510	-10.2069
975	-10.207
48698DE8FEFFFF	-10.2071
898514FCFFFF	-10.2071
E90E000000488B8598FEFFFF488985	-10.2072
D4000000	-10.2073
488985B0FBFFFF	-10.2073
0FB7C983E9	-10.2078
EFDFFFFE9	-10.2081
807DF7000F84	-10.2081
8B7D	-10.2083
C745E8	-10.2085
0B0000008B45	-10.2091
488B8518020000	-10.2092
0FBF1448	-10.2094
200F00004801C8	-10.2098
0FB74D30	-10.2099
264801C8	-10.21
40060000	-10.21
0000000000000000006A010000	-10.2101
BF000000	-10.2102
99000000	-10.2105
488985E8FEFFFF488B85F0FEFFFF48	-10.2107
E90B000000488B45E8	-10.2111
668975F	-10.2111
AFEFFFFE9	-10.2112
0FBE45F3	-10.2113
EFFFFFF24010FB6C0	-10.2114
488B8DD8FDFFFF	-10.2114
898510F	-10.2116
500100004C8B8	-10.2117
0FB64DE4	-10.2119
89850CFCFFFF	-10.212
C8F9FFFF	-10.212
8B5528	-10.2122
FDFFFF39C80F8E120000000FB685	-10.2122
13FEFFFF	-10.2124
0FB745F0	-10.2127
48C78570FFFFFF	-10.2127
48B98	-10.2129
350000000000002A0000004	-10.2131
4883B8	-10.2131
0FB78DFEFEFFFF	-10.2133
00000000003801000000000000	-10.2138
8A45EC24010FB6C0	-10.2142
080900004801C8	-10.2143
48B9A	-10.2145
8985F4FBFFFF	-10.2146
150000000000002A0000003	-10.215
598000000	-10.2151
1CFBFFFF	-10.2152
8B000000	-10.2154
0FB60C08	-10.2156
48B99	-10.2158
488985B8FBFFFF	-10.2159
10000000488B4510488985	-10.216
6172725F333200	-10.2163
D2000000	-10.2164
4801D1486B55	-10.2165
07FDFFFF	-10.2166
21010000	-10.2168
6172725F323400	-10.2168
F7000000	-10.2168
C745A4	-10.217
8B4570	-10.2171
B801000000B9	-10.2171
000000488B85F8000000	-10.2174
813	-10.2176
7661725F333900	-10.2177
48C704C800000000	-10.2177
200300004801C8	-10.2178
4833	-10.2185
92FDFFFF	-10.2185
31C989CA48F775	-10.2186
00000000000000000042000000	-10.2187
00000000000020010000000000000	-10.2189
7661725F333700	-10.219
88C20FB685	-10.219
3C0000	-10.2191
00000000009801000000000000	-10.2192
480345D0488945D0E9	-10.2192
C745E0	-10.2193
8B448804	-10.2195
00000000005801000000000000	-10.2198
8B8DCCFEFFFF	-10.2202
54FBFFFF	-10.2203
330000000000002A0000004	-10.2205
488B8DE8FDFFFF	-10.2206
8B8D08FFFFFF	-10.2207
2B0000000000002A0000002	-10.2207
230000000000002A0000004	-10.2208
6172725F333300	-10.2211
6BFEFFFF	-10.2212
8B8DC0FEFFFF	-10.2212
48898598FBFFFF	-10.2212
48898580FEFFFF488B8580FEFFFF	-10.2213
E6FCFFFF	-10.2216
180F8D	-10.2218
83F8000F95C034FF24010FB6C8	-10.222
0FBF4DE2	-10.2221
837DF0	-10.2222
A6FCFFFF	-10.2223
24010FB6C8B8	-10.223
68010000	-10.2232
0FB655B	-10.2234
85B0010000488B85	-10.2237
8B8574FFFFFF3B8570FFFFFF0F8	-10.2238
8B8D90FEFFFF	-10.2238
E941000000	-10.2241
488B4DC04883E901	-10.2247
65000000	-10.2247
A0020000	-10.2251
480FBF8D46FFFFFF	-10.2251
488B8D10FEFFFF	-10.2255
89853CFEFFFF8B853CFEFFFF	-10.2255
8985FCFBFFFF	-10.2262
48898588FBFFFF	-10.2275
48B97	-10.2276
FDFFFF24010FB6C08A8D	-10.2278
00C0000	-10.2278
B2FDFFFF	-10.2281
F4FFFFE900000000	-10.2282
48898550FEFFFF488B8550FEFFFF	-10.2282
668945EA	-10.2285
480FBF8D6EFFFFFF	-10.2287
89854CFEFFFF8B854CFEFFFF	-10.2289
A8F9FFFF	-10.229
8985A8F	-10.2291
898590FCFFFF	-10.2292
48898568FEFFFF488B8568FEFFFF	-10.2293
8985B0FEFFFF8B85B0FEFFFF	-10.2294
F7FCFFFF	-10.2303
10000000488B45F8488985	-10.2303
0FB68D17FFFFFF	-10.2305
48B9C	-10.2305
AFFCFFFF	-10.2306
E90B000000488B45F8	-10.2309
668B4518	-10.2309
0FBE4550	-10.231
6172725F333400	-10.2312
8985A0FCFFFF	-10.2313
5B8010000488B	-10.2314
0FB6C983C10	-10.2317
488985A0FBFFFF	-10.2318
0030000488B85	-10.2319
48B91	-10.232
8985D8FEFFFF8B85D8FEFFFF	-10.2322
97000000	-10.2322
10000000488B4528488985	-10.2323
4869C9F2052A014801C8	-10.2325
488985C0FBFFFF	-10.2328
10000488B85C0010000488B8	-10.233
000000000000000000000000F	-10.2332
8030000488B85	-10.2333
8A4DCE80E1010FB6C9	-10.2337
0FB70C48	-10.2339
0000000000F801000000000000	-10.2342
C745DC	-10.2343
0000000000E001000000000000	-10.2343
440100004801C8	-10.2344
E947000000	-10.2345
48B96	-10.2346
9B000000	-10.2346
89852CFEFFFF8B852CFEFFFF	-10.2348
48B9B	-10.2349
7661725F3538007661725F353900	-10.2351
48638D50FFFFFF	-10.2355
D2020000	-10.2361
8B856CFFFFFF3B8568FFFFFF0F8	-10.2361
210100004801C8	-10.2366
80020000	-10.2368
8F5FFFF488985	-10.2371
000000000000000000AA010000	-10.2374
898588FCFFFF	-10.2376
81E91	-10.2376
898544FEFFFF8B8544FEFFFF	-10.2377
8A4DFF80E1010FB6C9	-10.2378
00000000000000000071010000	-10.2378
D0010000488B85C80	-10.2383
48B9D	-10.2383
8985D4FCFFFF8B85D4FCFFFF	-10.2384
81E90	-10.239
EFEFFFF80E1010FB6C9	-10.239
10000000488B4520488985	-10.2393
872F00004801C8	-10.2395
B9000000	-10.2399
80E10188	-10.2403
488B55C0	-10.2405
0008885	-10.2405
486BD2144801D1	-10.2405
00000000000000000000000007010000	-10.2407
8985A4F	-10.2407
220000000000002A0000004	-10.2408
488985B8	-10.2409
8985ACFCFFFF8B85ACFCFFFF	-10.241
488B0CC8	-10.2411
488B8D50FEFFFF	-10.2412
8985D0F	-10.2412
250000000000002A0000004	-10.2413
000F95C180E1010FB6C9	-10.2414
5B000000	-10.2416
F6C2010F45C1	-10.2416
8985E4FBFFFF	-10.2417
488985D8FEFFFF488B85E0FEFFFF48	-10.2419
0000000000000000003B000000	-10.2423
89C231C02B0491	-10.2424
837DE8000F84	-10.2425
0F0000000FBE45F	-10.2425
8985C8FEFFFF8B85C8FEFFFF	-10.2426
0FB74D9A	-10.2427
EBFDFFFF	-10.243
8A4DA380E1010FB6C9	-10.2431
3100	-10.2431
48638D30FFFFFF	-10.2431
8845DF	-10.2433
48898560FEFFFF488B8560FEFFFF	-10.2433
488B8588FEFFFF483B8580FEFFFF0F8	-10.2434
0FB68	-10.2436
0FBFC983C11	-10.2436
8A45E424010FB6C0	-10.2443
4C8945F0	-10.2443
8855E	-10.2444
8B8574FFFFFF	-10.2445
E8030000	-10.2446
4FFFFE90C0000008B85	-10.2447
4801C1486945	-10.2448
48FAFFFF	-10.2452
120000000FBF45	-10.2452
5CFBFFFF	-10.2454
837DEC	-10.2455
89D2	-10.2456
0FB64550	-10.2461
48B93	-10.2462
B0000008B45E88945	-10.2468
0F0000000FB645F	-10.2469
42FDFFFF	-10.248
FFFFFF39C80F8E120000000FBE85	-10.248
BE000000	-10.2482
897DF	-10.2484
3CFBFFFF	-10.2485
898598F	-10.2488
483345	-10.2491
310000	-10.2491
8B8D7CFEFFFF	-10.2493
E940000000	-10.2495
00000000009001000000000000	-10.2495
486955	-10.2496
898578FCFFFF	-10.2499
898580FCFFFF	-10.2499
83F8000F85	-10.25
83C0014863D0	-10.2502
1FFDFFFF	-10.2502
E93D000000	-10.251
E90E000000488B8580FEFFFF488985	-10.251
39C80F8E110000008B85	-10.2516
8985ACFDFFFF8B85ACFDFFFF	-10.2516
83C10	-10.2517
66448B55	-10.2519
23FEFFFF	-10.2522
488B8520020000	-10.2524
0FB745E2	-10.2525
8B8D6CFEFFFF	-10.2525
FFFFFF000FB685	-10.2525
544801C8	-10.2526
8B8D64FEFFFF	-10.2527
48897DF88975F4	-10.2528
5EFCFFFF	-10.253
8B0C88488B05000000008908	-10.2532
488985F8	-10.2534
4829D1D3E0	-10.2535
8985C4FBFFFF	-10.2538
340000000000002A0000003	-10.254
8985B8FEFFFF8B85B8FEFFFF	-10.254
01C88845	-10.2542
C80D00004801C8	-10.2542
48898558FEFFFF488B8558FEFFFF	-10.2546
0FBF4DDC	-10.2546
2FFFFFFE9	-10.2549
91000000	-10.255
FCFFFF0FB785	-10.2551
FFFFFF39C80F8D120000000FBE85	-10.2553
00000000000000000078010000	-10.2554
8B45CC	-10.2556
48638D0CFFFFFF	-10.2561
8985BCFCFFFF8B85BCFCFFFF	-10.2567
8B45488A4540	-10.2568
89D0488B95	-10.2571
6985	-10.2571
0FBFC983E9	-10.2572
837D30	-10.2578
6172725F333700	-10.2578
E90E000000488B8590FEFFFF488985	-10.258
A2FDFFFF	-10.2588
0FBF4DD6	-10.2588
4898482D	-10.2589
81E92	-10.2589
00000000000000000049000000	-10.259
488B4DE04883C101	-10.2592
E90A0000000FB745E	-10.2594
8985B8F	-10.2598
488B8D38010000	-10.2599
488985A8FBFFFF	-10.2599
898550FCFFFF	-10.26
190F83	-10.2603
E938000000	-10.2607
83E96	-10.261
400006000500554889E54488C0	-10.2612
E93C000000	-10.2615
0000000000000000000E010000	-10.2622
8985C0FEFFFF8B85C0FEFFFF	-10.2623
38010000	-10.2624
894DE8	-10.2624
E93B000000	-10.2627
8985CCFCFFFF8B85CCFCFFFF	-10.2632
8985C4FCFFFF8B85C4FCFFFF	-10.2635
C745C8	-10.2636
8A459724010FB6C0	-10.2638
4050000	-10.2639
83F8010F	-10.264
5FBFFFF	-10.2643
74FBFFFF	-10.2643
AF000000	-10.2645
8B8D74FEFFFF	-10.2646
B6000000	-10.2647
66C704480100	-10.2649
C745A8	-10.2651
48B94	-10.2652
8985D0FEFFFF8B85D0FEFFFF	-10.2652
480B45	-10.2653
83EE0	-10.2658
48638D34FFFFFF	-10.2661
488B8D08FEFFFF	-10.2661
668945EE	-10.2666
6172725F333500	-10.267
0FB745CE	-10.2672
04FBFFFF	-10.2673
980000004801C8	-10.2674
E90E000000488B8588FEFFFF488985	-10.2674
48898548FEFFFF488B8548FEFFFF	-10.2676
8B0C9181E9	-10.2676
88C2488B050000000048698D	-10.2676
488B8D30FEFFFF	-10.2678
48898590FBFFFF	-10.2683
244801C8	-10.2685
E2000000	-10.2687
FEFFFF24010FB6C0	-10.269
480FBF8D5EFFFFFF	-10.2691
FDFFFF39C80F8D120000000FB685	-10.2692
0BFEFFFF	-10.2693
89C231C0482B04D1	-10.2694
8985A8FEFFFF8B85A8FEFFFF	-10.2698
898598FCFFFF	-10.2698
898554FEFFFF8B8554FEFFFF	-10.2702
AFFFFFFE9	-10.2705
C4FAFFFF	-10.2708
48C78558FFFFFF	-10.2708
0FB68D2FFFFFFF	-10.2713
EFFCFFFF	-10.2718
8A45F224010FB6C0	-10.272
8B45D0	-10.2723
E96D000000	-10.2724
0FBE4D38	-10.273
488B55C8	-10.2732
FCFAFFFF	-10.2733
C08	-10.2735
E93F000000	-10.2736
8B857CFFFFFF	-10.2737
A3FDFFFF	-10.2738
8985D4FBFFFF	-10.2741
668B4538	-10.2743
000000000000000000B1010000	-10.2746
0000000000B001000000000000	-10.2748
3800	-10.275
898548FCFFFF	-10.2753
0000000000A001000000000000	-10.2756
8B4590	-10.2756
480FBE8DFFFEFFFF	-10.2766
31C0B9	-10.2769
C745B0	-10.2769
7661725F343000	-10.2772
A6000000	-10.2775
486BD2304801D1	-10.2777
83C00148984869C0	-10.2779
11020000	-10.2781
0000000000A801000000000000	-10.2781
330000	-10.2781
898560FCFFFF	-10.2784
4839C80F8	-10.2787
898528F	-10.2789
0D000000488B45C8488945	-10.2789
488B8DF0FDFFFF	-10.2791
E90E000000488B8578FEFFFF488985	-10.2791
8985DCFBFFFF	-10.2791
0F5FFFF488985	-10.2792
48837D38000F84	-10.2794
8B4020	-10.2796
9F000000	-10.2796
4805A0	-10.2802
83F0FF83F0FF	-10.2805
E9090000008B45DC	-10.281
8B8564FFFFFF3B8560FFFFFF0F8	-10.2814
8B5520	-10.2822
480B00004801C8	-10.2835
CD000000	-10.2839
00000000000000000050000000	-10.284
FBFFFF24010FB6C0	-10.2844
6683FA00480F45C1	-10.2846
7661725F3537007661725F353800	-10.285
380000	-10.2854
8A040834FF24010FB6C0	-10.2854
898558FCFFFF	-10.2855
488B8598FEFFFF483B8590FEFFFF0F8	-10.2856
0FB745D2	-10.2857
DC000000	-10.2861
00000000000000000015010000	-10.2861
8A040824018845	-10.2863
00000000007801000000000000	-10.2863
140000000000002A0000003	-10.2864
260000	-10.2865
0FB68D57FFFFFF	-10.287
D0020000	-10.2875
0800	-10.2877
101	-10.2879
48634DF0	-10.288
898568FCFFFF	-10.2883
8985ACFBFFFF	-10.2884
C7459C	-10.2885
486BD2644801D1	-10.2889
31C929C131C029C8	-10.2889
8B8DF0FEFFFF	-10.289
320000	-10.2891
D8010000	-10.2891
48B92	-10.2892
48898510	-10.2895
48984883F8000F84	-10.2895
0FB645D7	-10.2904
488B8D28FEFFFF	-10.2906
8B855CFFFFFF3B8558FFFFFF0F8	-10.2906
80FA00480F45C1	-10.291
690100004801C8	-10.2911
668945F2	-10.2912
C745C0	-10.2913
6BC0	-10.2915
C40900004801C8	-10.2917
480B0000	-10.2917
898504FEFFFF8B8504FEFFFF	-10.292
E90E000000488B8570FEFFFF488985	-10.2921
9AFDFFFF	-10.2924
486BC01	-10.2924
44894DE8	-10.2927
00000000000000000034000000	-10.2929
00090000	-10.2931
898594FCFFFF8B8594FCFFFF	-10.2931
480FBF55C	-10.2932
48E801004801C8	-10.2936
00000000004002000000000000	-10.2942
120000000FB645	-10.2942
00000000008801000000000000	-10.2943
480FBE4D9B	-10.2944
48898568FBFFFF	-10.2945
8A8D2FFFFFFF80E1010FB6C9	-10.2946
0000000000000000007F010000	-10.2948
05F	-10.2953
898524FEFFFF8B8524FEFFFF	-10.2959
E95D000000	-10.296
8985BCFBFFFF	-10.2961
83C0024863C8488B0500000000	-10.2961
120000000FB745	-10.2962
48898540FEFFFF488B8540FEFFFF	-10.2966
8B4580	-10.2977
480FBE8D17FFFFFF	-10.2977
CF5FFFF	-10.2982
C74598	-10.2985
F4FAFFFF	-10.2985
BFCFFFF24010FB6C0	-10.2987
488B8DB8FDFFFF	-10.2987
C745D8	-10.2989
48898580FBFFFF	-10.299
48698DD0FEFFFF	-10.2994
898540FCFFFF	-10.2996
486BD22C4801D1	-10.2996
89859CFBFFFF	-10.2996
62FDFFFF	-10.2997
8985B0F	-10.3
0200000083BD	-10.3
48898570FBFFFF	-10.3006
E961000000	-10.3006
A90000004801C8	-10.3009
0E0000008B45EC8985	-10.301
000000000000000000B8010000	-10.3011
C74594	-10.3012
3C4801C8	-10.3014
0000000000000000001C010000	-10.3016
E0F9FFFF	-10.3018
624010FB6C0	-10.302
89858CFBFFFF	-10.3021
FFFFFFC785	-10.3023
0FBF4DEA	-10.3024
89859CFCFFFF8B859CFCFFFF	-10.3024
898574FBFFFF	-10.3025
8985E4FDFFFF8B85E4FDFFFF	-10.3025
48898560FBFFFF	-10.3026
0000000000F001000000000000	-10.303
8A401	-10.3031
8A45D524010FB6C0	-10.3032
80100000000000060000000000000000	-10.3032
82FDFFFF	-10.3033
96FCFFFF	-10.3035
668B45FC	-10.3037
48698DA0FEFFFF	-10.304
48898578FBFFFF	-10.3042
0FB645C7	-10.3044
664489C84C8B8D	-10.3046
6172725F333600	-10.305
8985CCFBFFFF	-10.3051
0FB645E6	-10.3051
8985BCFDFFFF8B85BCFDFFFF	-10.3051
A1000000	-10.3052
28010000	-10.3054
C40000004801C8	-10.3056
0FB745E0	-10.3056
83F9000F95C180F1FF80E1010FB6C9	-10.3059
4080E601408875F	-10.3059
4080E601400FB6F6	-10.3061
480FBE8D47FFFFFF	-10.3062
34D	-10.3068
668B4520	-10.307
1050000	-10.3071
9070000000000002A0000000	-10.3072
00000000001002000000000000	-10.3075
0FBF4DFA	-10.3077
794801C8	-10.3077
488985C8FEFFFF488B85D0FEFFFF48	-10.3079
894DB	-10.3082
6172725F343000	-10.3085
898578F	-10.3088
0FB64D38	-10.3088
48698DC8FEFFFF	-10.3092
898514FEFFFF8B8514FEFFFF	-10.3092
898584FBFFFF	-10.3095
8985F8F	-10.3096
8985B4FBFFFF	-10.3098
0FB6C8	-10.3102
C745A0	-10.3111
8B55DC	-10.3112
8B4588	-10.3118
898570FCFFFF	-10.312
480FBE8D5FFFFFFF	-10.3122
B9F	-10.3123
E10000004801C8	-10.3124
F3FDFFFF	-10.3129
48C78550FFFFFF	-10.313
6172725F373400	-10.3133
01C888853	-10.3133
CAFDFFFF	-10.3133
89851CFEFFFF8B851CFEFFFF	-10.314
380000000000002A0000004	-10.314
8985A0F	-10.3142
020000C785	-10.3145
4869C9C0469D004801C8	-10.3146
03FEFFFF	-10.3147
F0F9FFFF	-10.3152
482345	-10.3157
710200004801C8	-10.3159
7661725F3630007661725F363100	-10.316
8945CCE9	-10.3163
093D00004801C8	-10.3167
E945000000	-10.3168
80E1010FB6C983E9014863C9	-10.3168
66837DEE000F84	-10.3169
48C704C801000000	-10.3169
486BD2604801D1	-10.3175
898590FEFFFF8B8590FEFFFF	-10.3176
00000000000000000086010000	-10.3176
807DEF000F84	-10.3178
AC000000	-10.3183
00488B0500000000488908	-10.3183
8B8DF8FEFFFF	-10.3184
8945DCE9	-10.3189
00000000004802000000000000	-10.3191
7661725F343200	-10.3192
486345F8	-10.3193
E944000000	-10.3196
00000000002002000000000000	-10.3197
8090000	-10.3199
486B4D88	-10.3199
A5000000	-10.32
8985ECFDFFFF8B85ECFDFFFF	-10.32
8A8D3FFFFFFF80E1010FB6C9	-10.3204
88D0	-10.3206
31D229C2	-10.3208
A4000000	-10.321
B7FCFFFF	-10.321
668945D6	-10.3212
0FBE40	-10.3213
00000000000000000057000000	-10.3218
84030000	-10.3228
488B8578FEFFFF483B8570FEFFFF0F8	-10.323
48898538FEFFFF488B8538FEFFFF	-10.3232
83C101	-10.3232
48898508FEFFFF488B8508FEFFFF	-10.3238
8A857FFFFFFF24010FB6C0	-10.3239
0000000000C001000000000000	-10.3248
9E000000	-10.3249
08070000	-10.3253
4883C1	-10.3254
898580FEFFFF8B8580FEFFFF	-10.3255
02000FBF85	-10.3257
00000000006001000000000000	-10.326
0FB74DBC	-10.3263
48898520FEFFFF488B8520FEFFFF	-10.3265
C3000000	-10.3267
0000000000C801000000000000	-10.3269
0FB6F0	-10.3271
480FBE45	-10.3273
8B8D04FEFFFF	-10.3276
C81600004801C8	-10.3276
4C8B85900000004C8B85880000004	-10.3276
8B55E0	-10.3277
00000000006801000000000000	-10.328
7661725F343100	-10.3281
480345D8488945D8E9	-10.3285
00000000000000000023010000	-10.3285
387C0100	-10.3286
00100000000000060000000000000000	-10.3293
898510FCFFFF	-10.3296
66837D38000F84	-10.3296
B7000000	-10.3297
8A55D	-10.3297
48898530FEFFFF488B8530FEFFFF	-10.3308
0FB74DFA	-10.3312
0FB68DF7FEFFFF	-10.3314
89857CFCFFFF8B857CFCFFFF	-10.3316
6172725F3137	-10.3318
01C888854	-10.3321
8845D7	-10.3327
898598FEFFFF8B8598FEFFFF	-10.3328
0F00	-10.3331
00000000008001000000000000	-10.3332
8A8577FFFFFF24010FB6C0	-10.3332
48898510FEFFFF488B8510FEFFFF	-10.3332
898528FCFFFF	-10.3332
48898518FEFFFF488B8518FEFFFF	-10.3332
4805B0	-10.3333
058	-10.3334
6050000	-10.3335
E90B000000488B45E0	-10.3337
0FBE4408	-10.3338
8985A0FEFFFF8B85A0FEFFFF	-10.3338
A070000000000002A0000000	-10.3341
370000000000002A0000004	-10.3343
0FBF4DE4	-10.3344
83E8024863C8488B0500000000	-10.3346
40887DF	-10.3348
000F95C02401	-10.335
807DFF	-10.335
4EFCFFFF	-10.3351
898590F	-10.3353
8985DCFDFFFF8B85DCFDFFFF	-10.3355
48638D04FFFFFF	-10.3355
488B8D48010000	-10.3357
4801D08B95	-10.3357
2D2400004801C8	-10.3359
898538FCFFFF	-10.336
050	-10.3363
8985D4FDFFFF8B85D4FDFFFF	-10.3365
01C888857	-10.3369
8985A4FCFFFF8B85A4FCFFFF	-10.3369
8985FCFDFFFF8B85FCFDFFFF	-10.337
89C2488B05000000004805	-10.3373
0FBEC9	-10.3373
8985A4FBFFFF	-10.3375
83C801	-10.3377
DB000000	-10.338
668B75	-10.338
2070000000000002A0000000	-10.338
00020000	-10.3381
C7458C	-10.3381
0000000000000000008D010000	-10.3382
0FB78D36FFFFFF	-10.3382
0FB74D8A	-10.3386
480FBE4DE4	-10.3387
898530FCFFFF	-10.3393
0FBF4D38	-10.3393
E93E000000	-10.3393
0FB74448	-10.3395
0D000000488B45E8488945	-10.3398
488B8D40010000	-10.34
000000000000000000BF010000	-10.3407
837DF4	-10.3407
898588FEFFFF8B8588FEFFFF	-10.341
8B4010	-10.3411
807D38000F84	-10.3413
89856CFCFFFF8B856CFCFFFF	-10.3414
200F0000	-10.3415
486BD2284801D1	-10.3415
C7048801000000	-10.3417
2CFBFFFF	-10.3417
83F0FF89C0	-10.3418
90070000	-10.3419
8B45A8	-10.3419
00000000001802000000000000	-10.3419
448B4D18448B4D10	-10.3422
C8B85800000004C8B45784C8B45704	-10.3423
83F0FF83F8	-10.3423
00000000000802000000000000	-10.3424
8A458724010FB6C0	-10.3424
E90C0000008B8560FFFFFF8985	-10.3426
898520FCFFFF	-10.3428
2F0000	-10.3428
72030000	-10.3429
F6000000	-10.343
8B8554FFFFFF3B8550FFFFFF0F8	-10.3432
8A80	-10.3436
89F8488BBD	-10.3436
E070000000000002A0000000	-10.3442
480345C8488945C8E9	-10.3444
05000000	-10.3444
E94B000000	-10.3452
486B8D68FFFFFF	-10.3453
0000000000000000002A010000	-10.3454
8985C4FDFFFF8B85C4FDFFFF	-10.346
488B4DD84883E902	-10.3462
8008885	-10.3464
350000000000002A0000003	-10.3466
664189C	-10.3466
6172725F333800	-10.3466
BEFCFFFF	-10.3469
0070000000000002A0000000	-10.347
4881C100	-10.3472
480FBE4DDA	-10.3472
E955000000	-10.3472
FEFFFF39C80F8E120000000FB685	-10.3479
000000488B8500010000	-10.3479
48638D70FFFFFF	-10.3479
90F9FFFF	-10.3483
31D248F734F1	-10.3486
0FBFC8	-10.3486
3A0000	-10.3491
488B8590FEFFFF48	-10.3492
898550F	-10.3492
89856CFBFFFF	-10.3493
4070000000000002A0000000	-10.3496
800C00004801C8	-10.3497
68408	-10.3497
8985CCFDFFFF8B85CCFDFFFF	-10.3502
668B45F4	-10.3502
80BC08	-10.3503
8B854CFFFFFF3B8548FFFFFF0F8	-10.3505
837D40	-10.3509
8985F8FBFFFF	-10.3517
50000000000002A0000004	-10.3518
83F8000F8411000000B8	-10.3519
ECFAFFFF	-10.3521
FFBFFFF80E1010FB6C9	-10.3522
387C01004801C8	-10.3522
89850CFEFFFF8B850CFEFFFF	-10.3523
E20400004801C8	-10.3527
8985E8FBFFFF	-10.3528
B9A	-10.3529
44FBFFFF	-10.3529
83EA024863D24869D2	-10.353
48B80000000000000080	-10.353
00000000007001000000000000	-10.3533
7FBFFFF80E1010FB6C9	-10.3533
0FBE4DD7	-10.3536
020FBE85	-10.3536
370000	-10.354
E4000000	-10.3541
898574FCFFFF8B8574FCFFFF	-10.3542
48638D68FFFFFF	-10.3544
898520F	-10.3545
83F000	-10.3546
FD000000	-10.3547
89853CFCFFFF8B853CFCFFFF	-10.3549
488985B8FEFFFF488B85C0FEFFFF48	-10.3549
48898578	-10.355
4C8945E8	-10.3555
B3FDFFFF	-10.3562
89854CFCFFFF8B854CFCFFFF	-10.3563
7661725F3539007661725F363000	-10.3563
8945A08B	-10.3566
EE000000	-10.3567
0FB74D10	-10.3572
E8FFFF	-10.3576
2C0000000000002A0000002	-10.358
B2000000	-10.3583
3FCFFFF24010FB6C0	-10.3584
48C78578FFFFFF	-10.3585
8945A4E9	-10.3592
83C2024863D24869D2	-10.3593
FA000000	-10.3597
86FCFFFF	-10.36
D3FA89D1	-10.3601
488985F8FDFFFF488B85F8FDFFFF	-10.3602
E90A0000000FB645E	-10.3606
8A8D7BFFFFFF80E1010FB6C9	-10.3606
66837DFA000F84	-10.3613
488985E8	-10.3614
898564FBFFFF	-10.3614
8B8DA8FEFFFF	-10.3614
18FAFFFF	-10.3615
01C888856	-10.3616
34FBFFFF	-10.3617
7661725F3632007661725F363300	-10.3617
48C745C0	-10.3618
60000000000002A0000004	-10.3625
010000008B	-10.3626
00000000000000000031010000	-10.3628
0FB745D4	-10.3631
0FB64DF2	-10.3632
20F9FFFF	-10.3634
81C9	-10.3634
48638D28FFFFFF	-10.3637
486BD2584801D1	-10.3638
99F73CB1	-10.3642
83F9	-10.3648
48898598FEFFFF488B85A0FEFFFF48	-10.3649
D3E083F8000F84	-10.3649
02000066C785	-10.365
31C04883F9008885	-10.3652
8B55D8	-10.3653
8A8567FFFFFF24010FB6C0	-10.3659
837DE4000F84	-10.3659
480FBF4DF4	-10.3659
0FB68D07FFFFFF	-10.3665
8B8564FFFFFF	-10.3667
E9090000008B45F8	-10.3667
48C78540FFFFFF	-10.3667
898568FEFFFF8B8568FEFFFF	-10.3668
0FB68DCFFEFFFF	-10.3669
48C78548FFFFFF	-10.3669
DCFAFFFF	-10.367
0FB78D16FFFFFF	-10.367
488B8D98FDFFFF	-10.3673
E050000	-10.368
C070000000000002A0000000	-10.3681
FDFFFF008A85	-10.3681
48898528FEFFFF488B8528FEFFFF	-10.3682
00360000	-10.3682
8945A88B	-10.3684
898574F	-10.3684
4869C9C817A8044801C8	-10.3684
0000000000000000005E000000	-10.3685
898560FEFFFF8B8560FEFFFF	-10.3685
28F9FFFF	-10.3686
8000000488B45D0	-10.3687
488B8DB0FDFFFF	-10.369
8985F4FDFFFF8B85F4FDFFFF	-10.369
89854CFBFFFF	-10.3691
8B5510	-10.3692
48C78568FFFFFF	-10.3693
E9000000	-10.3694
0000000000E801000000000000	-10.3695
4869C9EE6BC4004801C8	-10.3697
0FB645D3	-10.3698
E90E000000488B8568FEFFFF488985	-10.3698
48898528FBFFFF	-10.37
B3000000	-10.3701
C74590	-10.3702
898594FBFFFF	-10.3704
24010FB6C8488B0500000000	-10.3707
48898548FBFFFF	-10.3708
8945B08B	-10.3709
488B8560FEFFFF483B8558FEFFFF0F8	-10.3712
FDFFFF39C80F8E120000000FBE85	-10.3713
E90A0000000FBF45E	-10.3713
B0014883F9008885	-10.3716
39C80F8D110000008B85	-10.3716
480FBE55B	-10.3717
8945B4E9	-10.372
91C	-10.372
FDFFFFE9000000008A85	-10.3721
8A140880E2010FB6D2	-10.3723
9D000000	-10.3723
8B55E4	-10.3725
898564FCFFFF8B8564FCFFFF	-10.3726
8B4D50	-10.3728
4869C944A956004801C8	-10.3729
8EFCFFFF	-10.373
8AFDFFFF	-10.3731
CD1	-10.3733
6BFDFFFF	-10.3734
488B45F048B9	-10.3734
390000000000002A0000004	-10.3743
1C4801C8	-10.3745
8B4488	-10.3746
4898488B0D00000000	-10.3747
480FBE4DF1	-10.3747
BA000000	-10.3756
0FBED0	-10.3757
89855CFCFFFF8B855CFCFFFF	-10.3759
0FB74D20	-10.3763
9050000	-10.3763
48898538FBFFFF	-10.3763
FBFFFF8A85	-10.3765
000000000000000000C6010000	-10.377
00000000000000000038010000	-10.3771
8A8DFFFEFFFF80E1010FB6C9	-10.3775
898574FDFFFF8B8574FDFFFF	-10.3777
48898550FBFFFF	-10.3778
3070000000000002A0000000	-10.3779
83F0FF88C2	-10.378
48898500FEFFFF488B8500FEFFFF	-10.3786
B95	-10.3786
384801C8	-10.3786
E2FCFFFF	-10.3789
BD000000	-10.379
2DFFFFFF	-10.3791
8A8DE7FEFFFF80E1010FB6C9	-10.3792
2C0000	-10.3794
0FB68D73FFFFFF	-10.3795
16FCFFFF	-10.3797
5070000000000002A0000000	-10.3798
488985F0FDFFFF488B85F0FDFFFF	-10.3799
2050000	-10.38
FBFFFF0F84	-10.3804
D0010000	-10.3808
8985E8F	-10.3808
668B45F6	-10.3808
C1E00	-10.3809
B99	-10.3811
898518FCFFFF	-10.3814
48898558FBFFFF	-10.3818
360000000000002A0000004	-10.3819
89851CFCFFFF8B851CFCFFFF	-10.3824
4801D08A95	-10.3825
486345FC	-10.3826
8985B4FDFFFF8B85B4FDFFFF	-10.3828
000900004801C8	-10.383
98F9FFFF	-10.383
A7000000	-10.3832
059	-10.3832
8985F0FBFFFF	-10.3834
A050000	-10.3834
488B8558FEFFFF483B8550FEFFFF0F8	-10.3838
89857CFBFFFF	-10.3844
898544FCFFFF8B8544FCFFFF	-10.3845
480FBE4DE9	-10.3846
D120000000FBF85	-10.3846
488B8568FEFFFF483B8560FEFFFF0F8	-10.3847
220400004801C8	-10.385
9EFCFFFF	-10.385
08020000	-10.3851
4F5FFFF	-10.3852
4869C90C2197004801C8	-10.3853
F8FFFF8A85	-10.3854
89459CE9	-10.3857
0FB64D83	-10.3857
00000000000000000094010000	-10.3858
6683780	-10.3862
E90C0000008B8558FFFFFF8985	-10.3862
E963000000	-10.3864
837D60000F84	-10.3864
486955D8	-10.3864
8985F4FAFFFF	-10.3866
488B8528020000	-10.3869
8945B88B	-10.3869
8070000000000002A0000000	-10.3871
030000C685	-10.3874
98290000	-10.3875
8945988B	-10.3876
6689C20FB685	-10.3876
0FBF4DF4	-10.3877
48C1E1154801C8	-10.3881
898594FDFFFF8B8594FDFFFF	-10.3882
10000000488B4530488985	-10.3882
C3FDFFFF	-10.3883
0FBE4D40	-10.3886
0FB74DD0	-10.3888
488B8DD0FDFFFF	-10.3889
89852CFCFFFF8B852CFCFFFF	-10.3892
480304D1	-10.3892
FAFFFF24010FB6C0	-10.3894
70F9FFFF	-10.3899
89855CFBFFFF	-10.3899
8985F4FBFFFF8B85F4FBFFFF	-10.3899
488B55E8	-10.39
898554FBFFFF	-10.39
448A4D	-10.3902
7EFCFFFF	-10.3906
B80A00004801C8	-10.391
0FB74596	-10.3912
83E803	-10.3915
FFFFFF39C80F8E120000000FB685	-10.3921
83CA	-10.3923
190F8D	-10.3925
486B8D60FFFFFF	-10.3926
BCFAFFFF	-10.3926
48C745A0	-10.3928
488B8D80FDFFFF	-10.3931
42020000	-10.3933
898554FCFFFF8B8554FCFFFF	-10.3933
488985E0FDFFFF488B85E0FDFFFF	-10.3934
B4FAFFFF	-10.3935
F9FFFF898D	-10.394
8A45E124010FB6C0	-10.3941
720300004801C8	-10.3944
6689C20FB785	-10.3945
00D80000	-10.3946
48698DB8FEFFFF	-10.3949
480FBF4D9	-10.395
898524FCFFFF8B8524FCFFFF	-10.395
1070000000000002A0000000	-10.3953
8B8544FFFFFF3B8540FFFFFF0F8	-10.3955
894DA	-10.3958
F3FFFFE900000000	-10.3959
0FB64DF3	-10.3961
C91	-10.3963
E90C0000008B8568FFFFFF8985	-10.3964
6172725F333900	-10.3964
668955FA	-10.3965
480FBE8D27FFFFFF	-10.3968
C2000000	-10.3969
488985D0FDFFFF488B85D0FDFFFF	-10.3973
4869C9A2542B004801C8	-10.3974
668945F4	-10.3979
E90E000000488B8558FEFFFF488985	-10.398
898508FCFFFF	-10.3981
898544FBFFFF	-10.3983
8A8DDFFEFFFF80E1010FB6C9	-10.3984
898540F	-10.3987
E948000000	-10.3988
2B0000	-10.3989
480FBF8D56FFFFFF	-10.399
898514FCFFFF8B8514FCFFFF	-10.3991
8A8D07FFFFFF80E1010FB6C9	-10.3992
48898570	-10.3996
89853CFBFFFF	-10.3999
5BFDFFFF	-10.4002
0000B9	-10.4002
C2010000	-10.4002
EA000000	-10.4005
898530F	-10.4005
6172725F343100	-10.4006
898500FCFFFF	-10.401
10F9FFFF	-10.4011
8A45C324010FB6C0	-10.4011
E90C0000008B8570FFFFFF8985	-10.4012
00000000000000000065000000	-10.4012
E90C0000008B8578FFFFFF8985	-10.4013
8A8D17FFFFFF80E1010FB6C9	-10.4014
898538F	-10.4014
48698DC0FEFFFF	-10.4019
056	-10.402
B00148833CD1008885	-10.4021
010000488B85E0010000488B8	-10.4022
6172725F343300	-10.4024
8985FCFBFFFF8B85FCFBFFFF	-10.4026
668945E2	-10.4026
0FB78D62FFFFFF	-10.4034
8B8DE8FEFFFF	-10.4039
80E2018855E	-10.4039
4869C9E40B54024801C8	-10.4041
5D8010000488B85	-10.4041
83E000	-10.4043
8985ECFBFFFF8B85ECFBFFFF	-10.4044
898578FEFFFF8B8578FEFFFF	-10.4044
0FBFD0	-10.4046
0000000000000000003F010000	-10.4046
0FB745F8	-10.405
FDFFFF000FB685	-10.405
00000000000050010000000000000	-10.4052
D070000000000002A0000000	-10.4052
0100004C8B8D2	-10.4052
8B558	-10.4057
486355C	-10.406
898548F	-10.4062
C9000000	-10.4063
48C78530FFFFFF	-10.4064
89856CFDFFFF8B856CFDFFFF	-10.4065
24FBFFFF	-10.4066
C7857CFFFFFF	-10.4067
CF000000	-10.4069
F645FF010F84	-10.407
65FFFFFF	-10.407
88C1488B05000000008808E900000000	-10.4074
0E0000008B45F88985	-10.4074
8A5	-10.4074
80A0000	-10.4075
C1F8	-10.4078
31C02B45F	-10.4079
56FCFFFF	-10.4082
488945C8488B45D0483B45C80F83	-10.4084
0C00	-10.4085
89850CFCFFFF8B850CFCFFFF	-10.4087
E90E000000488B8560FEFFFF488985	-10.4087
898558FEFFFF8B8558FEFFFF	-10.4092
00F0000	-10.4097
898534FCFFFF8B8534FCFFFF	-10.4098
0100000048B8	-10.41
C74588	-10.41
48898510FBFFFF	-10.4101
401F0000	-10.4102
FCFFFF0F85	-10.4106
8B8D80FEFFFF	-10.4107
4869C940AA39004801C8	-10.4108
8B8D44FEFFFF	-10.4113
080700004801C8	-10.4113
E6000000	-10.4113
8A4538	-10.4114
360000000000002A0000003	-10.4114
4C4801C8	-10.4115
4869C9DCD788014801C8	-10.4117
3A0000000000002A0000004	-10.4119
488B8D78FDFFFF	-10.412
81E1	-10.4121
0FB78DE6FEFFFF	-10.4121
FCFFFFE9000000008A85	-10.4121
B9010000	-10.4122
7070000000000002A0000000	-10.4122
480FBFC0	-10.4125
0FB74D38	-10.4132
488B4DD0488B04C8	-10.4133
8A8D1FFFFFFF80E1010FB6C9	-10.4134
48C78538FFFFFF	-10.4135
E946000000	-10.4137
3900	-10.4138
0FB745B6	-10.4139
908	-10.414
00B0000	-10.4145
000000000000000000CD010000	-10.4147
48C1E2044801D1	-10.4148
4889D08B95	-10.415
8B45E089C1488B0500000000	-10.4152
400006000500554889E5448945	-10.4156
5050000	-10.4156
8985A4FDFFFF8B85A4FDFFFF	-10.4157
E90C0000008B8550FFFFFF8985	-10.4157
B050000	-10.4161
802	-10.4161
898570FEFFFF8B8570FEFFFF	-10.4167
AB000000	-10.4167
3B4D	-10.4169
898508F	-10.4172
488985A8FEFFFF488B85B0FEFFFF48	-10.4172
48634DE0488B0500000000	-10.4172
894DF4	-10.4176
8B856CFFFFFF	-10.4176
0FBEF0	-10.4177
48638D44FFFFFF	-10.4178
6AFDFFFF	-10.418
8985ECFAFFFF	-10.4181
0FB645DE	-10.4183
4883F8000F8410000000B8	-10.4185
E90E000000488B8548FEFFFF488985	-10.4187
2E0000	-10.4188
344801C8	-10.4189
30F9FFFF	-10.4191
0FBF45F8	-10.4194
0FB68D3FFFFFFF	-10.4197
F3000000	-10.4201
A4020000	-10.4203
480FBF8D0EFFFFFF	-10.4205
4869D2400200004801D1	-10.421
C5000000	-10.421
48898530FBFFFF	-10.4211
FBFFFF0F85	-10.4211
B001803C11008885	-10.4213
7050000	-10.4214
4829D1D3F8	-10.4215
E95C000000	-10.422
B001833C91008885	-10.4222
4889C88B8D	-10.4224
48638DBCFEFFFF	-10.4226
480FBE8D1FFFFFFF	-10.4226
FB000000	-10.4228
F070000000000002A0000000	-10.4231
48C7	-10.4233
894D9	-10.4236
488B8D38FDFFFF	-10.4236
83F001	-10.4236
48898518FBFFFF	-10.4237
48638DF4FEFFFF	-10.4238
00030000	-10.4239
98010000	-10.4242
4869D2E40100004801D1	-10.4242
E120000000FBF85	-10.4243
39D10F95C180E1010FB6C9	-10.4244
668B8448	-10.4248
8A0C08488B05000000008808	-10.4248
00000000000000000046010000	-10.4252
05C	-10.4255
0000000000000040000000000000005	-10.4256
B070000000000002A0000000	-10.4256
FEFF	-10.4259
488985E8FDFFFF488B85E8FDFFFF	-10.4259
55FFFFFF	-10.4265
480FBE4D93	-10.4265
668B45F8	-10.4266
18020000	-10.4266
92C	-10.4268
7661725F3634007661725F363500	-10.4268
8B8DD8FEFFFF	-10.4269
00004C8B8D400	-10.4269
0FBE458	-10.427
8B853CFFFFFF3B8538FFFFFF0F8	-10.4274
4869C91446F9004801C8	-10.4279
0FB6D0	-10.428
B5000000	-10.4282
486BD2504801D1	-10.4284
0FB7458	-10.4286
48698D98FEFFFF	-10.4287
68FFFFFF488B8568FFFFFF	-10.4289
48C78528FFFFFF	-10.4289
6172725F343200	-10.4293
E90E000000488B8550FEFFFF488985	-10.4293
00000000003002000000000000	-10.4296
8945888B	-10.4299
48638DECFEFFFF	-10.43
EF000000	-10.4302
4869C974A916004801C8	-10.4303
87FCFFFF	-10.4303
10050000	-10.4306
80200004C8B85	-10.4311
F8FFFF898D	-10.4312
8A8557FFFFFF24010FB6C0	-10.4312
8B8D24FEFFFF	-10.4312
488945C8488B45D0483B45C80F86	-10.4313
45FFFFFF	-10.4316
F070000	-10.4317
48C745B0	-10.4323
0FB64DA3	-10.4324
400600004801C8	-10.4326
488B8DE0FDFFFF	-10.4328
89859CFDFFFF8B859CFDFFFF	-10.4331
898534FBFFFF	-10.4331
E950000000	-10.4338
C74584	-10.4338
89D6	-10.4338
66895448	-10.4342
89852CFBFFFF	-10.4342
80F9FFFF	-10.4345
8B8554FFFFFF	-10.4347
48E80100	-10.4349
4188C2	-10.4349
3FCFFFF80E1010FB6C9	-10.435
8B8DD0FEFFFF	-10.4357
488B85E0FEFFFF48	-10.4359
100004C8B8D3	-10.4359
8FFFF0F8	-10.4362
0000000000000000009B010000	-10.4362
8945C0E9	-10.4362
8A1408B8	-10.4364
0FB78DB6FEFFFF	-10.4366
5FFFFFF80E1010FB6C9	-10.4367
AD000000	-10.4368
0FB68D4FFFFFFF	-10.4369
8845BF	-10.4371
01C888855	-10.4373
F6400	-10.4374
8985D8FBFFFF	-10.4376
2F0D00004801C8	-10.4377
E94D000000	-10.4378
0000000000000000006C000000	-10.4378
48C745B8	-10.4383
898550FEFFFF8B8550FEFFFF	-10.4385
BC000000	-10.4387
89858CFDFFFF8B858CFDFFFF	-10.4389
48638D14FFFFFF	-10.439
898504FCFFFF8B8504FCFFFF	-10.439
7661725F3631007661725F363200	-10.4392
898584FDFFFF8B8584FDFFFF	-10.4394
AE000000	-10.4394
370000000000002A0000003	-10.4397
6070000000000002A0000000	-10.4398
700100004C8B8	-10.4398
44894DE0	-10.4399
8A8DCFFEFFFF80E1010FB6C9	-10.4402
488B8DA8FDFFFF	-10.4403
4B0000000000002A000000	-10.4405
4829D148	-10.4406
4869C9B8AF11034801C8	-10.4409
FDFFFF24010FB6C083F8010F8D	-10.4409
0FB68D1FFFFFFF	-10.441
444801C8	-10.4411
898554FDFFFF8B8554FDFFFF	-10.4411
D3FDFFFF	-10.4411
48698D90FEFFFF	-10.4412
DFFCFFFF	-10.4413
8985E4FBFFFF8B85E4FBFFFF	-10.4413
8B852CFFFFFF3B8528FFFFFF0F8	-10.4414
0FB6458F	-10.4417
8985E0FBFFFF	-10.4417
8945C08B	-10.442
0FB74D82	-10.4421
488B05000000008A008845E	-10.4424
E9090000008B45E4	-10.4425
0000000488BB5	-10.4427
C645F	-10.4428
99F7F98995	-10.4429
50000000000002A0000005	-10.4429
0FB68D63FFFFFF	-10.4431
00488B05000000008908	-10.4433
488B8D50010000	-10.4437
83E80189C0	-10.4438
488B8550FEFFFF48	-10.4438
0000000000000000004D010000	-10.4438
000F95C1	-10.4438
D3000000	-10.4439
8B5530	-10.4441
E7000000	-10.4444
8845EB	-10.4446
1000000FCFFFFFFFFFFFFFF002E	-10.4453
488B05000000000FBE00	-10.4454
8845F7	-10.4456
FEFFFF39C80F8D120000000FB685	-10.4459
F4000000	-10.446
482B04D1	-10.4461
0FB6459F	-10.4462
CE000000	-10.4464
488B8548FEFFFF483B8540FEFFFF0F8	-10.4466
48C1E1174801C8	-10.4466
0FB74D28	-10.4467
8985ACFAFFFF	-10.4469
8985DCFBFFFF8B85DCFBFFFF	-10.4473
05A	-10.4473
48C78560FFFFFF	-10.4473
C00600004801C8	-10.4474
48898520FBFFFF	-10.4475
8A4530	-10.4477
8985B0FBFFFF	-10.448
0FB78D1EFFFFFF	-10.4484
8B8D4CFEFFFF	-10.4484
9BFDFFFF	-10.4487
872F0000	-10.4488
F9000000	-10.4489
C7000000	-10.4489
480FBE8D3FFFFFFF	-10.449
E9090000008B45888985	-10.4492
0FBE4548	-10.4492
7661725F343400	-10.4496
00000000003001000000000000	-10.4498
898548FEFFFF8B8548FEFFFF	-10.4499
488B0500000000668B00668945E	-10.4503
010066C785	-10.4504
89857CFDFFFF8B857CFDFFFF	-10.4506
7661725F343300	-10.4506
4839C80F93C024010FB6C0	-10.4507
486B8D48FFFFFF	-10.451
488945D048837DD0	-10.451
0FB74DC4	-10.4515
488B8DF8FDFFFF	-10.4515
F0010000488B85E8	-10.4516
FDFFFF000FBE85	-10.4524
80B0000	-10.4526
CFFCFFFF	-10.4531
48C78520FFFFFF	-10.4531
0FB74550	-10.4533
6172725F343400	-10.4533
0FB745AE	-10.4535
36FCFFFF	-10.4543
950800004801C8	-10.4544
4869C90AA37C004801C8	-10.4545
488985D8FDFFFF488B85D8FDFFFF	-10.4546
0FBF45E4	-10.4548
000F95C280F2FF	-10.4549
39D10F94C180E1010FB6C9	-10.4555
898518F	-10.4556
311300004801C8	-10.4558
8985A0FBFFFF	-10.4561
000000000000000000D4010000	-10.4564
0FB74D18	-10.4565
FFCFFFFE9	-10.4568
01D1	-10.457
FCFFFF0F84	-10.4571
480FBF8D7AFFFFFF	-10.4571
8A4DDC80E1010FB6C9	-10.4579
4869C90000F3004801C8	-10.4579
E90C0000008B8548FFFFFF8985	-10.4583
7FAFFFF24010FB6C0	-10.4584
837D40000F84	-10.4584
8A45DA24010FB6C0	-10.4586
898528FEFFFF8B8528FEFFFF	-10.4586
0FB74D92	-10.4587
8985B8FBFFFF	-10.4587
48898540FBFFFF	-10.4588
8B8578FFFFFF	-10.4592
668B400	-10.4595
BBFDFFFF	-10.4595
668B0C48488B0500000000668908	-10.4596
488B00	-10.4596
48898508FBFFFF	-10.4596
898504FBFFFF	-10.4597
0FB7F0	-10.4599
8985C0FBFFFF	-10.4602
48C74588	-10.4607
FFAFFFF24010FB6C0	-10.4611
DA000000	-10.4613
97FCFFFF	-10.4615
000000000000000000A2010000	-10.4615
48FFFFFF488B8548FFFFFF	-10.4618
89851CFBFFFF	-10.4619
0FB655F	-10.4619
E9090000008B45908985	-10.462
7661725F323	-10.462
D010F84	-10.4625
CB1A00004801C8	-10.4629
8B8DB8FEFFFF	-10.463
83F0FF6689C2	-10.4632
840400004801C8	-10.4634
0FBF4DDA	-10.4637
8985E0F	-10.4639
83F1FF31C029C8	-10.4643
05D	-10.4644
8B8D8CFEFFFF	-10.465
488B8DC0FDFFFF	-10.4653
E9090000008B45A08985	-10.4653
0FB64DF5	-10.4656
CEFBFFFF	-10.4656
898530FEFFFF8B8530FEFFFF	-10.4658
3700	-10.4661
B9E	-10.4662
BFFFF0FB78D	-10.4666
0FB745BE	-10.4667
480FBEC0	-10.4669
8A856FFFFFFF24010FB6C0	-10.4672
9FFCFFFF	-10.4672
057	-10.4672
480FBF4DA2	-10.4675
8985BCFBFFFF8B85BCFBFFFF	-10.4676
AFFFF0F8D110000008B85	-10.4679
57FCFFFF	-10.4679
00000000000000000054010000	-10.468
D050000	-10.4681
520100004801C8	-10.4681
00000000000068010000000000000	-10.4683
430000	-10.4684
898524FBFFFF	-10.4685
31C048833CD1008885	-10.4686
80E2010FB6D283C2014863D2	-10.4686
4869D2900100004801D1	-10.4687
898520FEFFFF8B8520FEFFFF	-10.469
6172725F383300	-10.4693
0FB645F5	-10.4694
E9090000008B45E0	-10.4695
FEFFFF39C80F8D120000000FBE85	-10.4695
8A458	-10.4698
9CFAFFFF	-10.4699
488B8538FEFFFF483B8530FEFFFF0F8	-10.4701
30020000	-10.4702
0FB78DF6FEFFFF	-10.4705
488B458848	-10.4705
CB1A0000	-10.4707
00000000003802000000000000	-10.4709
83C60	-10.4709
8985B4FAFFFF	-10.4709
FDFFFF39C80F8D120000000FBE85	-10.4712
4869C986904B004801C8	-10.4712
0FBFC883C10	-10.4713
C1000000	-10.4716
00200004C8B85	-10.4716
00000000005001000000000000	-10.4717
C1F	-10.4717
BB000000	-10.4722
C7FCFFFF	-10.4724
488B4DC8488B04C8	-10.4724
0FBFF0	-10.473
448945EC	-10.4731
4869C99E2C17004801C8	-10.4732
0F4FFFFE90E000000488B85	-10.4733
8A4DF080E1010FB6C9	-10.4734
837D18	-10.4736
480FBE45F	-10.4737
01C88885F	-10.4737
4881C2	-10.474
0FB64DDC	-10.4741
A8440000	-10.4742
8985C4FAFFFF	-10.4743
CFEFFFF39C80F8E120000000FB785	-10.4745
DBFDFFFF	-10.4746
FFFFFF39C80F8D120000000FB685	-10.4746
4869C900A861004801C8	-10.4747
48C745C8	-10.4748
0FB78D26FFFFFF	-10.4748
6172725F343500	-10.4749
8945908B	-10.4751
488B55F	-10.4753
130000000000002A0000003	-10.4753
4869D2C80000004801D1	-10.4754
448945F0	-10.4755
66897DFE	-10.4757
0FB78D9EFEFFFF	-10.4759
8B4018	-10.4761
D3F84898	-10.4762
484801C8	-10.4764
4801D00FB755	-10.4765
C78574FFFFFF	-10.4769
48837D40000F84	-10.4769
83C800	-10.4773
8945D4E9	-10.4774
8A45F7	-10.4778
488B8518FEFFFF483B8510FEFFFF0F8	-10.478
668955E	-10.4781
6172725F363400	-10.4781
CB000000	-10.4782
E90E000000488B8540FEFFFF488985	-10.4782
2AFDFFFF	-10.4783
0A00	-10.4785
E010F84	-10.4788
2D0000000000002A0000002	-10.4791
480FBE8D2FFFFFFF	-10.4791
488985C8FDFFFF488B85C8FDFFFF	-10.4794
89854CFDFFFF8B854CFDFFFF	-10.4795
E90E000000488B8538FEFFFF488985	-10.4796
FFFFC785	-10.4797
4188C0	-10.4798
488B8528FEFFFF483B8520FEFFFF0F8	-10.4803
FFFFFF24010FB6C0	-10.4804
48837DF8	-10.4804
489948F73CF1	-10.481
480FBF4DBC	-10.481
FEFFFF39C80F8E120000000FBE85	-10.4811
CCFAFFFF	-10.4813
898514FBFFFF	-10.4813
488B8530020000	-10.4815
83F8000F	-10.4817
8985B4FBFFFF8B85B4FBFFFF	-10.4817
48638DF8FEFFFF	-10.4818
48C1E1164801C8	-10.4818
0FB74DB4	-10.4819
668945F6	-10.4821
488B4DD8488B04C8	-10.4823
E9090000008B45A88985	-10.4826
360000	-10.4826
4869C9E8522D004801C8	-10.4831
0FB64DC5	-10.4831
7661725F343500	-10.4832
4060000	-10.4832
4801C8488B4DB0	-10.4833
89852CFDFFFF8B852CFDFFFF	-10.4834
8985CCFBFFFF8B85CCFBFFFF	-10.4837
40B600004801C8	-10.4837
0FBF4DEC	-10.4838
4869C9C06910004801C8	-10.4838
E90A0000000FB745D	-10.4839
900100004C8B8	-10.4839
8985ACFBFFFF8B85ACFBFFFF	-10.484
488985C0FDFFFF488B85C0FDFFFF	-10.4844
89850CFBFFFF	-10.4844
89855CFDFFFF8B855CFDFFFF	-10.4845
E90C0000008B8540FFFFFF8985	-10.4846
000000000000000000A9010000	-10.4849
488B0500000000480500	-10.485
0FB645B7	-10.4852
E94A000000	-10.4853
D3E04898	-10.4855
C070000	-10.4855
60000000000002A0000005	-10.4857
6172725F343700	-10.4858
0FBE45D7	-10.4858
486345D	-10.4859
01C883F8000F95C02401	-10.486
8985C8FBFFFF	-10.4861
200600004801C8	-10.4861
44894DFC	-10.4861
48898588FEFFFF488B8590FEFFFF48	-10.4865
F5000000	-10.4868
0FB64DCD	-10.4869
7661725F3636007661725F363700	-10.487
00000000000000000019000000	-10.487
400006000500554889E54088F0	-10.487
8985D0FBFFFF	-10.4871
486BD2194801D1	-10.4872
31C0482B	-10.4875
D7000000	-10.4879
FFFFFFC685	-10.4879
8B8514FFFFFF3B8510FFFFFF0F8	-10.4882
8B851CFFFFFF3B8518FFFFFF0F8	-10.4882
488B8DA0FDFFFF	-10.4882
0B1488891488	-10.4884
0EFCFFFF	-10.4888
00000000002802000000000000	-10.4889
8985C4FBFFFF8B85C4FBFFFF	-10.4891
E94C000000	-10.4893
66837D40000F84	-10.4894
4883C2014869D2	-10.4896
3DFFFFFF	-10.4896
4869C980D320004801C8	-10.4897
F645	-10.4897
8985D4FBFFFF8B85D4FBFFFF	-10.4898
63FDFFFF	-10.4899
0FBE45E3	-10.4899
4869D2900000004801D1	-10.4902
898538FEFFFF8B8538FEFFFF	-10.4902
58FFFFFF488B8558FFFFFF	-10.4904
0CFBFFFF	-10.4905
480530	-10.4906
8A8D27FFFFFF80E1010FB6C9	-10.4907
898540FEFFFF8B8540FEFFFF	-10.4907
9CC024010FB6C0	-10.4907
8985A8FBFFFF	-10.4911
898580FBFFFF	-10.4912
8B8D34FEFFFF	-10.4916
CFEFFFF39C80F8D120000000FB785	-10.4921
8BB5	-10.4922
31C066833C51008885	-10.4922
D4FAFFFF	-10.4924
31C066837D	-10.493
E3000000	-10.4931
00000000000000000073000000	-10.4932
0B0000008B45F08945	-10.4933
E4FAFFFF	-10.4934
0000000000000000002D000000	-10.4937
488B8520FEFFFF483B8518FEFFFF0F8	-10.494
8B855CFFFFFF	-10.4943
0FB645F6	-10.4944
898510FEFFFF8B8510FEFFFF	-10.4945
6DFFFFFF	-10.4946
E90B000000488B45D0488985	-10.4946
8B8DFCFDFFFF	-10.4949
1FEFFFFE900000000	-10.4949
01C86689854	-10.495
480FBF8D3EFFFFFF	-10.495
50F9FFFF	-10.4951
89853CFDFFFF8B853CFDFFFF	-10.4952
0E0000008B45F08985	-10.4955
480FBE4DDC	-10.4956
448B4D18448A4D10	-10.4962
9EC024010FB6C0	-10.4963
0FB755F	-10.4965
0FB755A	-10.4965
480500004801C8	-10.4968
A060000	-10.4968
898598FBFFFF	-10.4969
D6000000	-10.497
8985E4FAFFFF	-10.4971
837DE8	-10.4971
06FCFFFF	-10.4972
488B050000000089084881C4	-10.4976
F050000	-10.4982
99F7F94898	-10.4984
E90E000000488B8528FEFFFF488985	-10.4987
6EFCFFFF	-10.4989
5A0000	-10.4991
668B45F2	-10.4992
14FBFFFF	-10.4993
31C0803C11008885	-10.4995
330500004801C8	-10.5001
7FCFFFFE9	-10.5002
60FFFFFF488B8560FFFFFF	-10.5002
6172725F343800	-10.5002
F9FFFF24010FB6C0	-10.5002
000F8416000000	-10.5003
50000000000002A0000006	-10.5007
0FAFC8	-10.5007
8B8534FFFFFF3B8530FFFFFF0F8	-10.5007
4801D00FB695	-10.5007
8B8D60FEFFFF	-10.5007
71020000	-10.5013
000000000000000000DB010000	-10.5013
8B8504FFFFFF3B8500FFFFFF0F8	-10.5014
83F8000F8412000000	-10.5015
50FFFFFF488B8550FFFFFF	-10.5017
C7856CFFFFFF	-10.5021
B0010000	-10.5025
8B8DA4FEFFFF	-10.5032
8B55E8	-10.5032
488B8D68FDFFFF	-10.5038
7661725F343600	-10.5039
000F95C08845	-10.5039
486B4D80	-10.5039
807D40000F84	-10.5039
ED000000	-10.5041
837DF8	-10.5042
488985D8FAFFFF	-10.5042
668B4510668985	-10.5042
900700004801C8	-10.5043
4869C9808D3A014801C8	-10.5044
38FFFFFF488B8538FFFFFF	-10.5046
E90E000000488B8520FEFFFF488985	-10.5047
8FFCFFFF	-10.5047
000000000000000000B0010000	-10.5051
8A45F924010FB6C0	-10.5057
E9090000008B45988985	-10.5059
48638D00FFFFFF	-10.5062
488945B048837DB0	-10.5062
60F9FFFF	-10.5062
390000	-10.5063
69010000	-10.5065
4FEFFFF39C80F8E120000000FB785	-10.5069
0FB745A6	-10.5069
30530000	-10.5071
0FBF14	-10.5074
0000000000000000005B010000	-10.5074
0FBE45EE	-10.5076
488985B0FDFFFF488B85B0FDFFFF	-10.5076
0FB61408	-10.5078
480FBE8DC7FEFFFF	-10.5079
1FBFFFF	-10.5079
E9090000008B45808985	-10.5081
8F4FFFFE90E000000488B85	-10.5081
00000000005002000000000000	-10.5083
488B8D58010000	-10.5083
DD000000	-10.5084
0FB64587	-10.5085
8B8D9CFEFFFF	-10.5085
70000000000002A0000005	-10.5089
89C948D3F8	-10.5089
8A45CE24010FB6C0	-10.509
0FBF45E2	-10.509
48C78518FFFFFF	-10.509
6689D0	-10.5092
4869C9BA540B004801C8	-10.5092
D3F883F8000F84	-10.5092
898568FBFFFF	-10.5093
480FBF55B	-10.5094
8A45B324010FB6C0	-10.5094
48898500FBFFFF	-10.5102
83E9014863C9486BC9164801C8	-10.5107
E9090000008B45EC	-10.5107
0900	-10.511
89856CFBFFFF8B856CFBFFFF	-10.5111
480B14C8488914C8	-10.5111
8985E8FCFFFF8B85E8FCFFFF	-10.5111
80E101884DD	-10.5113
FEFFFFE9000000008A85	-10.5114
5FFCFFFF	-10.5117
051	-10.5117
E968000000	-10.5118
898508FEFFFF8B8508FEFFFF	-10.512
D9000000	-10.5121
48C78510FFFFFF	-10.5123
0FB7458E	-10.5125
CA000000	-10.5127
8A8DA7FEFFFF80E1010FB6C9	-10.5131
7661725F3638007661725F363900	-10.5132
898584FBFFFF8B8584FBFFFF	-10.5133
48837DD8000F84	-10.5135
488B8D58FDFFFF	-10.5135
89C948D3E8	-10.5136
6172725F343600	-10.5138
668B45E	-10.514
89855CFAFFFF	-10.514
8985FCFAFFFF	-10.514
88C20FB645	-10.5143
4801D00FB655	-10.5145
0000000000000040000000000000009	-10.5145
4883F2FF	-10.5147
8A45EF	-10.5148
1C2	-10.5149
F6FFFF488B8D	-10.5151
4869C93C592E004801C8	-10.5151
89C089C148B8	-10.5152
7661725F313100	-10.5155
488B8D60010000	-10.5157
4883EA014869D2	-10.5158
7AFDFFFF	-10.516
E0FFFF	-10.5166
48833CC8000F8410000000B8	-10.5168
89858CFBFFFF8B858CFBFFFF	-10.5168
A01	-10.5174
0FB7C983C11	-10.5174
898524FDFFFF8B8524FDFFFF	-10.5177
055	-10.518
B00166833C51008885	-10.5181
488B55B0	-10.5186
898584FAFFFF	-10.5187
83FDFFFF	-10.5188
48898598FDFFFF488B8598FDFFFF	-10.519
480FBF8D26FFFFFF	-10.5191
02000FB785	-10.5192
78020000	-10.5193
8985A4FAFFFF	-10.5193
0FBF40	-10.5193
01C88885D	-10.5194
D1000000	-10.5196
488985F8FAFFFF	-10.5196
6172725F3135006172725F313600	-10.5201
668B4540	-10.5202
440800004801C8	-10.5202
0FBF4550	-10.5203
898500F	-10.5203
898564FDFFFF8B8564FDFFFF	-10.5204
0B45	-10.5205
C74580	-10.5205
488B557	-10.5207
480FBF8DE6FEFFFF	-10.5208
8B8D5CFEFFFF	-10.5209
C060000	-10.5211
FF000039C80F8D	-10.5213
420200004801C8	-10.5214
480FBE8D4BFFFFFF	-10.5215
E40600004801C8	-10.5221
48638DD4FEFFFF	-10.5223
F1000000	-10.5224
8A4540	-10.5227
420000	-10.5227
00120000	-10.5228
E954000000	-10.523
053	-10.5231
F0F8FFFF	-10.5232
01C88885C	-10.5232
400000	-10.5234
486345F4	-10.5234
0FB64558	-10.5234
486345EC	-10.5234
E9090000008B45B08985	-10.5235
488B8DC8FDFFFF	-10.5235
8985A4FBFFFF8B85A4FBFFFF	-10.5238
486BD2154801D1	-10.524
08090000	-10.524
480FBE8D37FFFFFF	-10.5242
0FB78D5EFEFFFF	-10.5242
88990000	-10.5243
89859CFAFFFF	-10.5244
8B8D98FEFFFF	-10.5246
B41	-10.5246
480FBE4DAB	-10.5248
300000000000002A0000005	-10.525
231488891488	-10.5251
006C0000	-10.5252
480FBF8DCEFEFFFF	-10.5257
F2FFFFE900000000	-10.5259
0000000000000000007A000000	-10.5272
3B8588FEFFFF0F8	-10.5273
8B8544FFFFFF	-10.5274
4869C98852AD004801C8	-10.5275
480FBF8D1EFFFFFF	-10.5276
488B05000000008B008945E	-10.5276
488B8D68010000	-10.5276
488985F0FAFFFF	-10.5277
482314C8488914C8	-10.528
30FFFFFF488B8530FFFFFF	-10.5282
898504FDFFFF8B8504FDFFFF	-10.5285
46FCFFFF	-10.5286
488985E8FAFFFF	-10.5288
0FB7559	-10.5297
83C10489C9	-10.5301
8A45FB	-10.5304
8985D4FAFFFF	-10.5307
0FBF4DF2	-10.531
488B45A8	-10.5311
0D000000488B45F0488945	-10.5314
24F40000	-10.5322
488985A0FDFFFF488B85A0FDFFFF	-10.5322
83E90489C9	-10.5327
6060000	-10.5328
E94E000000	-10.5328
000F8413000000	-10.5328
8985CCFAFFFF	-10.5329
83C000	-10.5329
90000000000002A0000006	-10.533
488B8508FEFFFF483B8500FEFFFF0F8	-10.5331
898588FBFFFF	-10.5334
488B55B8	-10.5339
894D8	-10.534
6172725F343900	-10.5341
488945D0488B45D8483B45D00F86	-10.5341
480FBE8D73FFFFFF	-10.5343
0FBF44480	-10.5345
F8F9FFFF	-10.5347
8B00	-10.5349
486B8D70FFFFFF	-10.5349
486355B	-10.535
E5000000	-10.5352
66C740	-10.5355
60020000	-10.5359
488B459848	-10.536
89859CFBFFFF8B859CFBFFFF	-10.536
052	-10.5361
5080000	-10.5363
E90E000000488B8530FEFFFF488985	-10.5363
0FB64D40	-10.5365
E951000000	-10.5366
488B55A8	-10.5369
4801C1480FBE85	-10.5369
40FFFFFF488B8540FFFFFF	-10.537
0FBF4DBE	-10.537
E90E000000488B8510FEFFFF488985	-10.5373
000000000000000000E2010000	-10.5375
8A4DF680E1010FB6C9	-10.5378
48638D60FFFFFF	-10.5378
E90E000000488B8518FEFFFF488985	-10.5379
1CBE0000	-10.5382
FDFFFFC685	-10.5383
48C745A8	-10.5385
A0010000	-10.5386
0FB78D96FEFFFF	-10.5387
6172725F3134006172725F313500	-10.5388
B00166837D	-10.539
488B05000000008B008945D	-10.5392
00000000000000000062010000	-10.5392
05B	-10.5392
898534FDFFFF8B8534FDFFFF	-10.5394
0FBF4DC6	-10.5395
6172725F3136006172725F313700	-10.5398
6172725F363700	-10.5398
BFDFFFFE9	-10.5403
E90C0000008B8538FFFFFF8985	-10.5403
200100004801C8	-10.5404
486355DC	-10.5409
89851CFDFFFF8B851CFDFFFF	-10.541
02000000488B85	-10.5413
488945C0488B45C8483B45C00F83	-10.5413
8B8D68FEFFFF	-10.5418
10F	-10.542
C78554FFFFFF	-10.5421
4801D08B55	-10.5422
0FBF45F0	-10.5422
0FBF4D40	-10.5423
3B0000000000002A0000004	-10.5423
488985B8FDFFFF488B85B8FDFFFF	-10.5425
8845F3	-10.5429
01C86689850	-10.5429
4883E904	-10.5432
488985C0FAFFFF	-10.5433
0FB64DFB	-10.5439
8B8D40FEFFFF	-10.544
01C86689458	-10.5444
48638D48FFFFFF	-10.5444
28FFFFFF488B8528FFFFFF	-10.5447
898560F	-10.5447
83E9014863C948833CC8000F84	-10.5447
6172725F353000	-10.5449
4080E601408875	-10.545
488B8580FEFFFF48	-10.5451
000FB785	-10.5452
898590FBFFFF	-10.5453
C04C01004801C8	-10.5454
4839C80F92C024010FB6C0	-10.5455
4AFDFFFF	-10.5456
12FDFFFF	-10.5456
0E0000008B45188985	-10.5462
488B04C889C1488B05000000008908	-10.5463
31130000	-10.5468
8985F8FDFFFF8B85F8FDFFFF	-10.5469
880200004801C8	-10.547
0E0000008B45288985	-10.5471
480FAF45	-10.5472
8B8DF4FDFFFF	-10.5473
000004C8B85B	-10.5475
8B8D88FEFFFF	-10.5477
D4801	-10.5477
AFFFF0F8E110000008B85	-10.5477
054	-10.5478
486955D0	-10.548
C7855CFFFFFF	-10.5482
01C88845D	-10.5482
898544FDFFFF8B8544FDFFFF	-10.5484
83F8000F8D	-10.5488
48634DDC488B0500000000	-10.5489
8BBD	-10.549
837D20	-10.5491
301	-10.5491
48634510	-10.5498
0080000000000002A0000000	-10.5499
0FBF45D6	-10.5501
8A45DC24010FB6C0	-10.5501
88C1488B0500000000	-10.5505
3C0000000000002A0000004	-10.5508
04C8B85B80	-10.5515
8B8D3CFEFFFF	-10.5515
0FB714	-10.5517
480FBE4DEC	-10.5517
486B8D50FFFFFF	-10.5517
F8FFFF48898D	-10.5517
488945C0488B45C8483B45C00F86	-10.5519
00000000000000000069010000	-10.5519
E95E000000	-10.552
8985DCFCFFFF8B85DCFCFFFF	-10.552
99F7F983F8000F84	-10.5522
8A45FF2401	-10.5525
48837D10	-10.5525
0000000000F000000000000000	-10.5527
4863C94883C11	-10.5529
EB000000	-10.553
48C78508FFFFFF	-10.5531
448B5510	-10.5531
9000039C80F8D	-10.5532
889900004801C8	-10.5535
66FCFFFF	-10.5537
8945CC8B	-10.5537
8985F0FCFFFF8B85F0FCFFFF	-10.5538
83F8000F95C034FF24010FB6C04898	-10.5538
83E9014863C966833C48000F84	-10.5539
488B85C0FEFFFF48	-10.554
83FE000F45CA	-10.5543
9FC024010FB6C0	-10.5543
8B8DA0FEFFFF	-10.5545
898518FEFFFF8B8518FEFFFF	-10.5548
4869C90050C3004801C8	-10.5549
898568F	-10.5549
E7FFFF	-10.5552
898554FBFFFF8B8554FBFFFF	-10.5552
6172725F383800	-10.5554
48C745D8	-10.5554
83F8080F8D	-10.5555
880100004801C8	-10.5555
0FB655A	-10.5557
05E	-10.556
4839C80F96C024010FB6C0	-10.5568
31D2F734B1	-10.5569
E9090000008B4528	-10.5569
80A	-10.5569
0FBE45ED	-10.5572
EC000000	-10.5572
2345	-10.5575
0FBE45A7	-10.5575
48898588FDFFFF488B8588FDFFFF	-10.5577
4869C918422E014801C8	-10.5578
8B8524FFFFFF3B8520FFFFFF0F8	-10.5582
6172725F383700	-10.5583
2F0000000000002A0000005	-10.5587
6683781	-10.5588
340000	-10.5589
DE000000	-10.5594
488945B0E9	-10.5595
3AFDFFFF	-10.5595
58D600004801C8	-10.5596
2C010000	-10.5597
488B85F0FDFFFF483B85E8FDFFFF0F8	-10.5599
CBFDFFFF	-10.5601
0FBE14	-10.5602
488985A8FDFFFF488B85A8FDFFFF	-10.5603
4801D00FB795	-10.5604
898588F	-10.5606
3345	-10.5609
48698D50FEFFFF	-10.5612
6CFAFFFF	-10.5618
E9090000008B4510	-10.5618
898594FBFFFF8B8594FBFFFF	-10.5618
8985F4FCFFFF8B85F4FCFFFF	-10.562
AF9FFFF	-10.5621
B8010000	-10.5624
0FBE4DFB	-10.5625
4869C9288CF2014801C8	-10.5625
FCFFFFFF	-10.5626
488985A0FAFFFF488B85A0FAFFFF	-10.5628
4839C80F97C024010FB6C0	-10.5632
8B8D50FEFFFF	-10.5632
18FFFFFF488B8518FFFFFF	-10.5634
488B8D90FDFFFF	-10.5634
80000000000002A0000005	-10.5638
8B85ECFEFFFF3B85E8FEFFFF0F8	-10.564
4869C900A741004801C8	-10.5641
8B8570FFFFFF	-10.5643
0FBF45DC	-10.5644
4869C90000CC034801C8	-10.5645
488B45F04883F0FF	-10.5645
898514FDFFFF8B8514FDFFFF	-10.5646
0FB70C5181E9	-10.5647
0E0000008B45108985	-10.5648
000000000000000000B7010000	-10.5649
48C745E0	-10.565
668B4528668985	-10.5652
93C024010FB6C0	-10.5653
0FB68D7FFEFFFF	-10.5658
70010000	-10.5658
8B8D54FEFFFF	-10.5659
C78578FFFFFF	-10.5661
488B8	-10.5662
8A400124010FB6C0	-10.5663
480FBE8DD7FEFFFF	-10.5664
0FB64DD2	-10.5666
BFFFF0F83110000008B85	-10.5666
90C	-10.5672
898560FBFFFF	-10.5674
520000	-10.5676
48898548FEFFFF488B8550FEFFFF48	-10.5676
488B050000000048694DC0	-10.5678
01C86689852	-10.5678
6172725F3138	-10.5678
380000000000002A0000003	-10.568
486375	-10.5683
4801C1486345	-10.5683
29C883F8000F84	-10.5684
4863C94839C80F94C024010FB6C0	-10.5684
0FBE45AF	-10.5685
486B8D58FFFFFF	-10.5689
A7FCFFFF	-10.569
0FB7C8	-10.569
8945808B	-10.5691
8B45D889C1488B0500000000	-10.5691
0FB645E5	-10.5694
89458CE9	-10.5696
06689480	-10.5697
488945D0488B45D8483B45D00F83	-10.5701
4869C9001B75024801C8	-10.5701
480FBF8D36FFFFFF	-10.5702
8985DCFAFFFF	-10.5706
486955E0	-10.5708
48C78500FFFFFF	-10.5708
0D000000488B45E0488945	-10.5709
898558FBFFFF	-10.5712
B2FCFFFF	-10.5712
F645EF010F84	-10.5712
89855CFBFFFF8B855CFBFFFF	-10.5713
00000000006002000000000000	-10.5715
80C	-10.5717
488B85B0FEFFFF48	-10.5718
96C024010FB6C0	-10.5721
83E9014863C9486BC9184801C8	-10.5723
83C1014863C9486BC9164801C8	-10.5723
F1FFFF488B85	-10.5724
488985C8FAFFFF	-10.5724
00000000007002000000000000	-10.5724
48634518	-10.5725
A080000000000002A0000000	-10.5726
488B8538020000	-10.5726
48698D18FEFFFF	-10.5728
E90A0000000FBE45E	-10.5728
6172725F353100	-10.5729
6689C1488B0500000000668948	-10.5729
20FFFFFF488B8520FFFFFF	-10.573
448A55	-10.5732
488985E0FAFFFF	-10.5732
2EFCFFFF	-10.5732
92C024010FB6C0	-10.5733
94C	-10.5736
668B55F	-10.5737
4869C936EA04004801C8	-10.5737
488B44C810	-10.5739
4FEFFFF39C80F8D120000000FB785	-10.574
A4FAFFFF	-10.574
898574FBFFFF8B8574FBFFFF	-10.5743
3D0000000000002A0000004	-10.5743
48898580FDFFFF488B8580FDFFFF	-10.575
898544FBFFFF8B8544FBFFFF	-10.575
480FBE8D8FFEFFFF	-10.575
7080000000000002A0000000	-10.575
66448945FE	-10.5753
030000004883BD	-10.5754
0B00	-10.5756
488B0500000000C600FF	-10.5757
83E81	-10.5758
8A45FE	-10.5759
3B45C00F	-10.5762
0FB74DC0	-10.5763
6644894DFE	-10.5763
9DC024010FB6C0	-10.5763
488945B8E9	-10.5765
488B0500000000668B00668945D	-10.5766
0FBF4DAE	-10.5767
448A5D	-10.5768
4883FA	-10.577
90F	-10.5773
3080000000000002A0000000	-10.5777
8985E0FDFFFF8B85E0FDFFFF	-10.5777
4801C1480FBE45	-10.5779
97C024010FB6C0	-10.5779
48898590FDFFFF488B8590FDFFFF	-10.5779
C785F8FEFFFF	-10.578
DF000000	-10.578
83E9014863C9486BC9144801C8	-10.5781
76FCFFFF	-10.5781
45010000	-10.5781
A24010FB6C0	-10.5782
D5000000	-10.5785
0FB78DAEFEFFFF	-10.5788
01C883F8000F95C024018845D	-10.5796
00000000000000000070010000	-10.58
4869C90000E6014801C8	-10.5802
01C86689851	-10.5802
8845C7	-10.5804
00000000000000000081000000	-10.5805
C78564FFFFFF	-10.5805
8A4DA	-10.5809
668B45FA	-10.581
48638D18FFFFFF	-10.581
E9090000008B4518	-10.581
8B8D0CFEFFFF	-10.5811
01C88885E	-10.5812
09000000	-10.5815
9F1	-10.5816
75FFFFFF	-10.5817
898548FBFFFF	-10.5818
E959000000	-10.5819
24018845	-10.582
03459	-10.5823
488B8520FEFFFF48	-10.5823
8A45FD	-10.5824
B000039C80F8D	-10.5824
D000039C80F8D	-10.5826
668B45E6	-10.5827
000000000000000000E9010000	-10.5827
F000039C80F8D	-10.5828
BFFCFFFF	-10.5829
7060000	-10.583
8985D0FDFFFF8B85D0FDFFFF	-10.583
3E010000	-10.5839
83EE014863F6	-10.584
5CFAFFFF	-10.5841
2C0000000000002A0000005	-10.5842
488985D0FAFFFF	-10.5843
8B8DDCFDFFFF	-10.5843
3FFFFE90C0000008B85	-10.5844
488B85F8FDFFFF483B85F0FDFFFF0F8	-10.5848
898564FBFFFF8B8564FBFFFF	-10.5848
448B5D	-10.5849
8985FCFCFFFF8B85FCFCFFFF	-10.5854
1080000000000002A0000000	-10.5856
8845CF	-10.586
D0FEFFFF488B85D0FEFFFF	-10.586
488B05000000008A008845D	-10.5864
E80300004801C8	-10.5864
48638D40FFFFFF	-10.5866
0FB64DF9	-10.5867
48698D70FEFFFF	-10.5867
4869C9801A06004801C8	-10.5868
488985A8FAFFFF	-10.5873
488B55A0	-10.5874
0FBE4DAF	-10.5875
0FBE4DA7	-10.5878
40F9FFFF	-10.588
0300000083BD	-10.5882
0FB78D6EFEFFFF	-10.5882
0AFDFFFF	-10.5883
8985ECFCFFFF8B85ECFCFFFF	-10.5883
00B001004801C8	-10.5884
488B556	-10.5884
480FBE8DA7FEFFFF	-10.5885
E90C0000008B8528FFFFFF8985	-10.5886
668B45FE668985	-10.5887
E953000000	-10.589
486BD2174801D1	-10.5893
488B8540020000	-10.5894
89854CFAFFFF	-10.5895
0FB68DAFFEFFFF	-10.5895
8B45E489C1488B0500000000	-10.5897
8B4D58	-10.5897
488B8D50FDFFFF	-10.5897
89857CFBFFFF8B857CFBFFFF	-10.5898
A84400004801C8	-10.5899
39C80F85	-10.59
81C18	-10.5902
6FFFFE90D0000000FB785	-10.5903
2C6B0000	-10.5904
488955F0894DEC	-10.5904
488B050000000066C70448	-10.5906
39C80F95C024010FB6C8	-10.5906
D080000000000002A0000000	-10.5906
488B8570FEFFFF48	-10.5906
4801C1486385	-10.5907
ACFAFFFF	-10.5908
898534FBFFFF8B8534FBFFFF	-10.5909
0FB74DA	-10.591
89854CFBFFFF8B854CFBFFFF	-10.591
8B8D78FEFFFF	-10.5912
8945E0837DE0	-10.5914
0FB64D9B	-10.5916
488B4DD04883E902	-10.5919
3E0000	-10.5921
8B854CFFFFFF	-10.5922
6172725F383900	-10.5924
8A4DD	-10.5926
48898558FDFFFF488B8558FDFFFF	-10.5926
DDFEFFFF	-10.5928
0F850D000000837D	-10.5932
37010000	-10.5934
00000000000038010000000000000	-10.5938
4883F8000F95C024018885	-10.5939
0FB68DE7FEFFFF	-10.5941
8B8DB0FEFFFF	-10.5942
01C888852	-10.5943
E9090000008B4520	-10.5944
8B85F4FEFFFF3B85F0FEFFFF0F8	-10.5944
00FFFFFF488B8500FFFFFF	-10.5945
10FFFFFF488B8510FFFFFF	-10.5946
488B8D48FDFFFF	-10.5948
488B85B00000004805	-10.5951
0FB645A7	-10.5956
ABFDFFFF	-10.5959
000000000000000000F0010000	-10.5959
1DFFFFFF	-10.596
8B8D1CFEFFFF	-10.5963
4BFDFFFF	-10.5964
89F18BB5	-10.5965
83E97	-10.5966
8B8578FFFFFF3B8574FFFFFF0F8	-10.5967
488B85A80000004805	-10.5969
6172725F373100	-10.5971
8985F0FDFFFF8B85F0FDFFFF	-10.5973
94FAFFFF	-10.5974
8985D8FDFFFF8B85D8FDFFFF	-10.5975
4869C900300F004801C8	-10.5979
488945B8488B45C0483B45B80F86	-10.598
488B85E0FDFFFF483B85D8FDFFFF0F8	-10.5982
488945A048837DA0	-10.5983
3060000	-10.5985
488B05000000004889084881C4	-10.5987
488985B0FAFFFF	-10.5988
83FA	-10.5988
F20000004801C8	-10.5988
48898570FDFFFF488B8570FDFFFF	-10.5991
480FBF8D3AFFFFFF	-10.5992
4869C9805473004801C8	-10.5993
488B8D70010000	-10.5997
C0FEFFFF488B85C0FEFFFF	-10.6
E5FEFFFF	-10.6001
4863C94839C80F95C024010FB6C0	-10.6003
48698D80FEFFFF	-10.6003
8A4D28	-10.6004
FBFFFFE9000000008A85	-10.6004
0FB649	-10.6006
0E0000008B45FC8985	-10.6006
8A8547FFFFFF24010FB6C0	-10.6009
898500FEFFFF8B8500FEFFFF	-10.6009
2E0000000000002A0000002	-10.601
B060000	-10.6011
6172725F3133006172725F313400	-10.6012
8B8D20FEFFFF	-10.6012
4801D10FBF95	-10.6018
4FFCFFFF	-10.6019
B080000000000002A0000000	-10.602
4869C978B25C004801C8	-10.6023
488B8D88FDFFFF	-10.6024
488985F0	-10.6027
5080000000000002A0000000	-10.6028
6689C	-10.603
488B45A048	-10.6031
488B4DB84883E901	-10.6031
8A8DEFFEFFFF80E1010FB6C9	-10.6033
448A5510	-10.6033
44080000	-10.6035
8985B0FDFFFF8B85B0FDFFFF	-10.6035
8985E8FDFFFF8B85E8FDFFFF	-10.6038
0FBF4548	-10.6039
488B8D70FDFFFF	-10.604
80F1FF80E1010FB6C9	-10.6041
898568FDFFFF8B8568FDFFFF	-10.6043
0FBFC9	-10.6045
48698DA8FEFFFF	-10.6045
E95B000000C785	-10.6046
8B55D4	-10.6046
7661725F343900	-10.6047
488945C8488B45D0483B45C80F8D	-10.6049
0FBE4558	-10.605
F080000000000002A0000000	-10.6051
E9090000008B45C08985	-10.6052
48898538FEFFFF488B8540FEFFFF48	-10.6053
488985B8FAFFFF	-10.6056
488B4DB04883E901	-10.6057
E9000000000FB645	-10.606
0F840D000000837D	-10.6062
C745EC	-10.6064
89851CFBFFFF8B851CFBFFFF	-10.6064
0E0000008B45208985	-10.6068
7661725F3633007661725F363400	-10.6069
8B8D70FEFFFF	-10.607
6172725F353200	-10.607
C20100004801C8	-10.607
6172725F363500	-10.6071
3B45800F8	-10.6073
8B5580	-10.6073
0FB6401	-10.6073
4F0000	-10.6077
8945DC837DDC	-10.6078
310000000000002A0000005	-10.6079
8A44080	-10.6079
83E9014863C9833C88000F84	-10.6081
26FCFFFF	-10.6081
00000000000000000088000000	-10.6084
020000008B85	-10.6086
48894598E9	-10.6088
224010FB6C0	-10.6088
8A854FFFFFFF24010FB6C0	-10.6089
C080000000000002A0000000	-10.609
480FBF8D2EFFFFFF	-10.6093
8B85FCFEFFFF3B85F8FEFFFF0F8	-10.6093
488B85B80000004805	-10.6095
C8FEFFFF488B85C8FEFFFF	-10.6097
8B49	-10.6097
6172725F3137006172725F313800	-10.6099
4C894DE8	-10.61
4869C900601E004801C8	-10.6102
070000488B85	-10.6105
8000000488B45D8	-10.6106
6172725F393000	-10.6106
DAFCFFFF	-10.6106
8985BCFAFFFF	-10.611
4801D10FBE95	-10.6114
488B4DE0488B04C8	-10.6115
E000039C80F8D	-10.6116
4801F2486	-10.6116
9F6	-10.612
84FAFFFF	-10.612
40887DFF	-10.6122
E8FEFFFF488B85E8FEFFFF	-10.6123
070000000000000D000000	-10.6125
000F95C034FF34FF24010FB6C0	-10.6127
480345C0488945C0E9	-10.6129
E90E000000488B8500FEFFFF488985	-10.613
83E2	-10.6131
35FFFFFF	-10.6131
898540FBFFFF	-10.6133
0FB614	-10.6135
D8F9FFFF	-10.6136
8985C0FDFFFF8B85C0FDFFFF	-10.6139
90000000000002A0000005	-10.614
FF010000	-10.6142
48638DE4FEFFFF	-10.6142
48898560FDFFFF488B8560FDFFFF	-10.6143
E060000	-10.6143
E9090000008B45FC	-10.6145
807C08	-10.6145
48638DFCFEFFFF	-10.6146
0FB775	-10.6147
39D1	-10.6149
66837C48	-10.615
480FBF8DDEFEFFFF	-10.6151
480FBF4DC4	-10.6155
488B85C80000004805	-10.6155
FFFBFFFF	-10.6156
00000000000000000077010000	-10.6156
000000000000000000BE010000	-10.6156
0FB78DD6FEFFFF	-10.6157
FFFF66C785	-10.6158
4C010000	-10.616
89852CFBFFFF8B852CFBFFFF	-10.6162
898598FDFFFF8B8598FDFFFF	-10.6163
448B4D184C8B4D10	-10.6165
0FB68DD7FEFFFF	-10.617
480FBF55A	-10.6173
8F8FFFF488B8D	-10.6174
3B45880F8	-10.6175
2080000000000002A0000000	-10.6178
C8010000	-10.6179
4869C900A086014801C8	-10.6181
6FFCFFFF	-10.6182
127A00004801C8	-10.6184
48C78	-10.6188
8A4D8	-10.6188
668B45EE	-10.6189
6010F84	-10.619
6172725F363600	-10.619
48698D60FEFFFF	-10.6192
75D	-10.6193
F8FEFFFF488B85F8FEFFFF	-10.6194
668B45	-10.6195
668B4518668985	-10.6195
E9090000008B45B88985	-10.6196
000000000000000000F7010000	-10.6197
8B402	-10.6197
88100000	-10.6197
A0000000000002A0000005	-10.6198
0FBE4DEB	-10.6201
8985F0F	-10.6201
4801D0480FBF95	-10.6202
488985A0FAFFFF	-10.6204
E90E000000488B8508FEFFFF488985	-10.6206
48F9FFFF	-10.6207
0FB74548	-10.6209
44894DF0	-10.6215
7661725F3730007661725F373100	-10.6215
488B85C00000004805	-10.6216
C78568FFFFFF	-10.6217
48898568FDFFFF488B8568FDFFFF	-10.6217
898538FBFFFF	-10.6218
480FBE8DEFFEFFFF	-10.6218
8B8D00FEFFFF	-10.622
83E80183F8000F95C024018845D	-10.6221
9FEFFFFE900000000	-10.6222
0FB68D2BFFFFFF	-10.6223
D8FEFFFF488B85D8FEFFFF	-10.6223
0FB645F9	-10.6227
0FB68DFFFEFFFF	-10.6229
E9090000008B45C88985	-10.623
0D00	-10.6232
83E87	-10.6233
5DFFFFFF	-10.6238
488945A848837DA8	-10.6239
00000000005802000000000000	-10.6239
A0FEFFFF488B85A0FEFFFF	-10.6239
898528FBFFFF	-10.6242
6172725F3138006172725F313900	-10.6245
10000000488B4538488985	-10.6248
8A8D73FFFFFF80E1010FB6C9	-10.6249
4C894DD8	-10.625
0FB7C9	-10.625
898568F8FFFF	-10.6252
3E0000000000002A0000004	-10.6256
83C1014863C9803C08000F84	-10.6256
83C1014863C966833C48000F84	-10.6257
4869C9400D03004801C8	-10.6257
68F9FFFF	-10.6258
6689C20FB645	-10.626
01C888851	-10.6261
FBFFFFC685	-10.6263
28020000	-10.6263
8B4028	-10.6263
31D22	-10.6265
01C86689853	-10.6265
C78570FFFFFF	-10.6267
00000000000080010000000000000	-10.6268
898514FBFFFF8B8514FBFFFF	-10.6268
0FBE4DEE	-10.627
E9090000008B45E8	-10.6273
13000000488B8580FDFFFF488985	-10.6273
58010000	-10.6277
0FB78DDEFEFFFF	-10.6277
74FAFFFF	-10.6282
837D28	-10.6282
8A4DC	-10.6284
480FBE8DAFFEFFFF	-10.6291
8B850CFFFFFF3B8508FFFFFF0F8	-10.6292
FAFFFF8A85	-10.6293
83C1014863C9486BC9184801C8	-10.63
488B4DE04883E902	-10.6301
0FB74DA4	-10.6303
3EFCFFFF	-10.6306
488945C8488B45D0483B45C80F8E	-10.6309
9080000000000002A0000000	-10.6311
8B8DE0FEFFFF	-10.6314
8A8D5BFFFFFF80E1010FB6C9	-10.6315
7661725F343700	-10.6316
E90C0000008B8530FFFFFF8985	-10.6318
83E85	-10.6318
8985A8FDFFFF8B85A8FDFFFF	-10.6319
807DFB000F84	-10.632
89853CFBFFFF8B853CFBFFFF	-10.6321
0100004C8B8D5	-10.6321
480FBF4D8A	-10.6322
FAFFFF0F84	-10.6323
0FBE459F	-10.6324
8B5540	-10.6326
90020000	-10.6327
E952000000	-10.6327
00000000007802000000000000	-10.6327
0000000000000000008F000000	-10.6329
88FEFFFF488B8588FEFFFF	-10.633
8A4D8B80E1010FB6C9	-10.6333
25FFFFFF	-10.6333
000000000000000000C5010000	-10.6333
BFBFFFF24010FB6C0	-10.6334
1E0000000000002A0000004	-10.6335
460000	-10.6336
486355A	-10.6336
48898540FDFFFF488B8540FDFFFF	-10.6337
3FDFFFFE9	-10.6338
03FDFFFF	-10.6341
00FA00004801C8	-10.6343
480FBE8D63FFFFFF	-10.6344
C0020000	-10.6346
120000000000002A0000003	-10.6347
488B85A0FEFFFF48	-10.6348
BEFBFFFF	-10.6349
668B4448	-10.6349
9060000	-10.635
B8FEFFFF488B85B8FEFFFF	-10.6351
2060000	-10.6351
48898580FAFFFF	-10.6352
8945B8E9	-10.6352
E0100	-10.6355
83F0FF4863D0	-10.6357
4801C1480FBF85	-10.6359
8A4D9B80E1010FB6C9	-10.6359
01C88885A	-10.6359
E9090000008B45F4	-10.636
4080000000000002A0000000	-10.6361
0DFFFFFF	-10.6363
8CFAFFFF	-10.6364
83E83	-10.6364
E080000000000002A0000000	-10.6364
08FFFFFF488B8508FFFFFF	-10.6365
480D	-10.6366
0FB7459E	-10.6367
488945D0488B45D8483B45D00F8D	-10.6368
E4060000	-10.6369
B0FEFFFF488B85B0FEFFFF	-10.637
486BD2134801D1	-10.6371
0FBE45F6	-10.6371
C78544FFFFFF	-10.6374
0000000000000000007E010000	-10.6375
98FEFFFF488B8598FEFFFF	-10.6375
E0FEFFFF488B85E0FEFFFF	-10.6376
488985E0	-10.6376
FAFFFF0F85	-10.6379
4488C94188C1	-10.638
48898588	-10.6384
898580F	-10.6389
E90E000000488B85E8FDFFFF488985	-10.6389
48898590FAFFFF	-10.639
390000000000002A0000003	-10.6391
320000000000002A0000005	-10.6392
00000000006802000000000000	-10.6393
48837D48000F84	-10.6395
8A4548	-10.6396
8B8568FFFFFF	-10.6397
48898540FAFFFF488B8540FAFFFF	-10.6398
8985B4FCFFFF8B85B4FCFFFF	-10.64
448845FF	-10.6403
01C88885B	-10.6404
488B8D00FDFFFF	-10.6405
898578FBFFFF	-10.6405
83F8000F841600000048B8	-10.6405
48FEFFFF488B8548FEFFFF	-10.6406
0E0000008B45F48985	-10.6412
0FB71448	-10.6412
89850CFBFFFF8B850CFBFFFF	-10.6414
28FEFFFF488B8528FEFFFF	-10.6415
CBFCFFFF	-10.6416
840300004801C8	-10.6416
EFDFFFF24010FB6C0	-10.6417
0FBE4DDB	-10.642
38FEFFFF488B8538FEFFFF	-10.6423
898580F8FFFF	-10.6423
83C00183F8000F95C024018845C	-10.6423
48898598FAFFFF	-10.6425
488B85E8FDFFFF483B85E0FDFFFF0F8	-10.6427
44884DFF	-10.6428
0FB78D32FFFFFF	-10.6428
448845F	-10.6433
6172725F353300	-10.6434
48898580FAFFFF488B8580FAFFFF	-10.644
8B8DA4FDFFFF	-10.6442
8985B8FDFFFF8B85B8FDFFFF	-10.6444
440000	-10.6446
380000000000002A0000005	-10.6447
1AFDFFFF	-10.6448
6172725F353600	-10.6448
0F95C024010FB6C04898	-10.6448
0FB745CA	-10.645
8B7D18	-10.6453
000F8410000000B8010000008985	-10.6453
8080000000000002A0000000	-10.6456
48898528FEFFFF488B8530FEFFFF48	-10.6456
48050080	-10.6458
F645E7010F84	-10.6458
668B4520668985	-10.6459
80FEFFFF488B8580FEFFFF	-10.6459
7CFAFFFF	-10.6461
488B4DC84883E902	-10.6462
48634528	-10.6465
F7FFFF24010FB6C0	-10.6467
48898550FAFFFF488B8550FAFFFF	-10.6468
31C083BD	-10.647
04010000	-10.6473
488B85A00000004805	-10.6478
72FDFFFF	-10.6483
C0000000000002A0000007	-10.6485
83B8	-10.6487
488B0500000000C60408	-10.6488
48898578FDFFFF488B8578FDFFFF	-10.6489
88C20FB785	-10.649
95C2	-10.6494
4FEFFFF39C80F8D120000000FBF85	-10.6495
8A853FFFFFFF24010FB6C0	-10.6497
480FBE75	-10.6499
0FB645AF	-10.6499
488B0500000000C70488	-10.6501
29C1	-10.6502
50FEFFFF488B8550FEFFFF	-10.6502
488B85D8FDFFFF483B85D0FDFFFF0F8	-10.6504
8B45DC89C1488B0500000000	-10.6506
4801D0486395	-10.6507
00000000000000000085010000	-10.6511
A8FEFFFF488B85A8FEFFFF	-10.6514
39C80F94C024010FB6C8	-10.6517
83EA0289D2	-10.6519
00000000002001000000000000	-10.6522
100500004801C8	-10.6522
0E0000008B45E88985	-10.6523
8A8537FFFFFF24010FB6C0	-10.653
668B4548	-10.6531
48638DB4FEFFFF	-10.6532
18F9FFFF	-10.6532
F1FFFFE900000000	-10.6532
9FBFFFF	-10.6533
00000000000008010000000000000	-10.6535
3010F84	-10.6539
668B4558	-10.6541
898524FBFFFF8B8524FBFFFF	-10.6541
4869C900A9E6004801C8	-10.6544
30FEFFFF488B8530FEFFFF	-10.6544
486BD20E4801D1	-10.6551
898504FBFFFF8B8504FBFFFF	-10.6553
01C86689855	-10.6555
0000000000E800000000000000	-10.6558
8A8D97FEFFFF80E1010FB6C9	-10.656
B00183BD	-10.6561
8A4D30	-10.6562
4801C1480FBF45	-10.6563
3000039C80F8D	-10.6563
898558F8FFFF	-10.6563
682101004801C8	-10.6563
6172725F393500	-10.6565
8945C4837DC4	-10.6565
90FEFFFF488B8590FEFFFF	-10.6566
00000000000000000096000000	-10.6568
E90B000000488B4598488985	-10.657
4869D2C80300004801D1	-10.6572
898558F	-10.6573
488945A8E9	-10.6573
8B8DC0FDFFFF	-10.6574
898578FDFFFF8B8578FDFFFF	-10.6578
C05500004801C8	-10.6579
488B45E848B9	-10.6579
8985FCFAFFFF8B85FCFAFFFF	-10.6581
E0020000	-10.6581
898530FBFFFF	-10.6584
8945CC837DCC	-10.6584
668945DA	-10.6585
C000039C80F8D	-10.6587
E90C0000008B8518FFFFFF8985	-10.6587
48B80000	-10.6588
78FEFFFF488B8578FEFFFF	-10.6592
6172725F353400	-10.6594
66837DF4000F84	-10.6594
83E9014863C9803C08000F84	-10.6596
A7FBFFFF	-10.6598
480FBF4D82	-10.6601
488B4DA84883E901	-10.6602
889D08B55	-10.6602
83FA000F84	-10.6602
898570FBFFFF	-10.6603
C0100	-10.6604
E956000000	-10.6609
340000000000002A0000005	-10.6609
6172725F3231006172725F323200	-10.661
4829C1	-10.6612
48898550FDFFFF488B8550FDFFFF	-10.6613
480FBF75	-10.6614
0FB68D23FFFFFF	-10.6616
39C80F8E0C0000000FB745	-10.6616
6172725F3139006172725F323000	-10.6618
480FBE8D07FFFFFF	-10.662
31C92B0C	-10.6624
486B8D38FFFFFF	-10.6625
8000000000000000D000000	-10.6626
486BF61	-10.6629
2B0000000000002A0000005	-10.663
0FB745DE89C1488B0500000000	-10.6633
483304D1	-10.6633
6080000000000002A0000000	-10.6634
486BD20D4801D1	-10.6635
83C20289D2	-10.6637
8985C8FDFFFF8B85C8FDFFFF	-10.6637
E90B000000488B45F0488985	-10.6638
E9090000008B45D08985	-10.6638
0FB78D3AFFFFFF	-10.6639
488985B0	-10.6639
408A	-10.6642
48898580	-10.6643
48698D78FEFFFF	-10.6643
00000000002801000000000000	-10.6645
480FBF8DD6FEFFFF	-10.6647
4863C94839C80F8	-10.6652
5A010000	-10.6652
0F850E00000066837D	-10.6652
898570FDFFFF8B8570FDFFFF	-10.6653
0FB64597	-10.6654
48634DE8488B0500000000	-10.6657
00E0000	-10.6659
000000000000000000CC010000	-10.666
898590FDFFFF8B8590FDFFFF	-10.6661
7000039C80F8D	-10.6662
58F9FFFF	-10.6667
310000000488B4590488985	-10.6668
C78560FFFFFF	-10.6669
48898568FAFFFF488B8568FAFFFF	-10.667
8985F4FAFFFF8B85F4FAFFFF	-10.6671
F0FDFFFF488B85F0FDFFFF	-10.6671
48634DE4488B0500000000	-10.6672
3D0000	-10.6672
0000000000000000009D000000	-10.6673
89850CFDFFFF8B850CFDFFFF	-10.6673
0F840E00000066837D	-10.6673
00000000000080	-10.6675
4863F6	-10.6675
0F840D000000807D	-10.6677
8078	-10.6678
8B45288A4520	-10.668
6172725F353900	-10.6683
00F9FFFF	-10.6684
DFEFFFF80E1010FB6C9	-10.6684
4869C96CD409004801C8	-10.6684
8945D8E9	-10.6685
0FB78DCEFEFFFF	-10.6685
488B8D78010000	-10.6686
83E86	-10.6687
48898560FAFFFF488B8560FAFFFF	-10.6689
FCFFFFC685	-10.6689
488B85D0FDFFFF483B85C8FDFFFF0F8	-10.6691
5000000000000000D000000	-10.6691
919	-10.6692
83E84	-10.6695
8B8D8CFDFFFF	-10.6697
60FEFFFF488B8560FEFFFF	-10.6697
66C78	-10.6698
6172725F353500	-10.6702
8B8D6CFDFFFF	-10.6703
8A4D8380E1010FB6C9	-10.6703
3C0000000000002A0000005	-10.6704
10008885	-10.6706
00000000008002000000000000	-10.6707
7BFDFFFF	-10.6709
E958000000	-10.671
39C80F92C024010FB6C0	-10.6715
A000039C80F8D	-10.6717
1D0000000000002A0000004	-10.6719
52FDFFFF	-10.6719
A0F8FFFF	-10.6721
48898588FAFFFF	-10.6722
4C8B5D	-10.6723
83C6014863F6	-10.6726
08FEFFFF488B8508FEFFFF	-10.6726
0FB78D52FFFFFF	-10.6726
360000000000002A0000005	-10.6731
E0F8FFFF	-10.6731
488B8D20FDFFFF	-10.6731
3B45CC0F	-10.6732
99F7	-10.6733
03458	-10.6733
10FEFFFF488B8510FEFFFF	-10.6733
10FDFFFF488B8510FDFFFF	-10.6734
8A8D23FFFFFF80E1010FB6C9	-10.6735
90000000000002A0000007	-10.6737
040000C685	-10.6738
D060000	-10.6739
1FFCFFFF	-10.674
C8FDFFFF488B85C8FDFFFF	-10.6741
898550F8FFFF	-10.6741
D0FCFFFF488B85D0FCFFFF	-10.6741
4DFFFFFF	-10.6744
4FEFFFF39C80F8E120000000FBF85	-10.6746
48C74590	-10.6746
807D18	-10.6747
90F8FFFF	-10.6749
83FA000F45C8	-10.6749
489948F7F94889C1	-10.6749
9000000000000000D000000	-10.6751
480FBE4DD5	-10.6757
0FB645F	-10.6757
2B0491	-10.6758
486BD2114801D1	-10.6759
E90A0000000FB645D	-10.6761
40C0000000000002A0000001	-10.6761
786900004801C8	-10.6761
89857C	-10.6762
48638D94FEFFFF	-10.6762
D0FDFFFF488B85D0FDFFFF	-10.6764
0FB745C2	-10.6765
48898548FAFFFF488B8548FAFFFF	-10.6767
48898538	-10.6768
898560F8FFFF	-10.6768
0FB68D43FFFFFF	-10.6769
7C0000	-10.6771
70B0000000000002A0000001	-10.6772
F0FEFFFF488B85F0FEFFFF	-10.6773
488B05000000008948	-10.6774
48638D08FFFFFF	-10.6775
39C80F8D0C0000000FB745	-10.6776
006C00004801C8	-10.6776
E9090000008B45948985	-10.6777
2E0000000000002A0000005	-10.6777
48898570FAFFFF488B8570FAFFFF	-10.6779
488975F08855EF	-10.678
4863C94881E9	-10.6783
4801D0480FBE95	-10.6788
0FB78D72FFFFFF	-10.6789
7661725F343800	-10.6789
807DFE000F84	-10.6793
66837D48000F84	-10.6793
0000000000000000008C010000	-10.6796
488B8D40FDFFFF	-10.6798
48698D88FEFFFF	-10.6799
E90C0000008B8510FFFFFF8985	-10.6801
6172725F353800	-10.6801
486345C	-10.6804
E90B000000488B4510	-10.6808
4869C9009807004801C8	-10.681
8B8DC4FDFFFF	-10.6813
8B850CFFFFFF	-10.6816
00000000008802000000000000	-10.682
01C888459	-10.6821
E90C0000008B8520FFFFFF8985	-10.6822
8B8DD8FDFFFF	-10.6824
78FDFFFF488B8578FDFFFF	-10.6826
0FBF45E8	-10.683
1060000	-10.6831
0FB74D40	-10.6833
43FDFFFF	-10.6834
48C74598	-10.6837
6FDFFFF24010FB6C0	-10.6838
00200000000000078000000000000000	-10.6839
E8FDFFFF488B85E8FDFFFF	-10.6844
488B8540FEFFFF48	-10.6844
8985DCFAFFFF8B85DCFAFFFF	-10.6846
A40200004801C8	-10.6847
7661725F3635007661725F363600	-10.6848
8A45BB24010FB6C0	-10.685
0FB64DFE	-10.6851
6172725F373200	-10.6854
A8020000	-10.6854
89C089C1	-10.6856
01C888859	-10.6858
B0B0000000000002A0000001	-10.6862
E90E000000488B85F8FDFFFF488985	-10.6865
98020000	-10.6866
0FB645C3	-10.6878
0F94C024010FB6C04898	-10.688
898588FDFFFF8B8588FDFFFF	-10.688
817	-10.6881
488B555	-10.6881
486B8D30FFFFFF	-10.6884
110000008B850CFFFFFF8985	-10.6886
48898548FDFFFF488B8548FDFFFF	-10.6888
48638D58FFFFFF	-10.6889
C7854CFFFFFF	-10.689
91B	-10.6892
0FBE45DB	-10.6893
898518FBFFFF	-10.6893
668B45EC	-10.6894
0FB645CB	-10.6894
8A4D9E80E1010FB6C9	-10.6894
39C80F84	-10.6895
000000000000000000FE010000	-10.6895
898580FDFFFF8B8580FDFFFF	-10.6896
0FB745BA	-10.6899
C8FCFFFF488B85C8FCFFFF	-10.6901
48837DD8	-10.6902
E8F8FFFF	-10.6903
64FAFFFF	-10.6904
488945B8488B45C0483B45B80F83	-10.6906
CFFBFFFF	-10.6906
6172725F3132006172725F313300	-10.6907
4C8945D8	-10.6908
0FBEC083E80	-10.6908
668945CE	-10.6909
880E1010FB6C9	-10.6909
0FBE45CF	-10.691
8985D4FAFFFF8B85D4FAFFFF	-10.6914
58FEFFFF488B8558FEFFFF	-10.6915
B9C	-10.6916
E8FCFFFF488B85E8FCFFFF	-10.6918
80FDFFFF488B8580FDFFFF	-10.6919
01C88845C	-10.692
898584FCFFFF8B8584FCFFFF	-10.6922
8A4DF280E1010FB6C9	-10.6924
8945C4E9	-10.6925
4801D0486355	-10.6925
2D0000000000002A0000005	-10.6933
4CFAFFFF	-10.6933
480345E0488945E0E9	-10.6934
5FEFFFF80E1010FB6C9	-10.6935
F9FFFF48898D	-10.6936
8B44880	-10.6937
48898530FDFFFF488B8530FDFFFF	-10.6942
4829D148D3E0	-10.6943
6000039C80F8D	-10.6944
6172725F393600	-10.6946
94C024010FB6C0	-10.6948
B0000000000002A0000007	-10.6951
48898520FAFFFF488B8520FAFFFF	-10.6955
480FBF559	-10.6957
F8FDFFFF488B85F8FDFFFF	-10.696
4D0000	-10.696
4869D2800400004801D1	-10.6961
488945C0488B45C8483B45C00F8E	-10.6962
8985A4	-10.6964
482304D1	-10.6967
8A8DB7FEFFFF80E1010FB6C9	-10.6967
8B85C4FEFFFF3B85C0FEFFFF0F8	-10.6968
22FDFFFF	-10.6968
2000039C80F8D	-10.697
E9090000008B45D88985	-10.697
B9B	-10.6972
53010000	-10.6972
000004C8B85D	-10.6975
488B85F0FEFFFF48	-10.6976
31C029C888C1488B05000000008808	-10.6976
20FEFFFF488B8520FEFFFF	-10.6977
488945A0E9	-10.6977
8A45F024010FB6C0	-10.6978
48898570FAFFFF	-10.6978
7000000000000000D000000	-10.6978
8945C8837DC8	-10.6979
48698DB0FEFFFF	-10.698
60FDFFFF488B8560FDFFFF	-10.6982
AFFFF0F83110000008B85	-10.6983
04C8B85D80	-10.6983
F4010000	-10.6984
83E82	-10.6985
898594FAFFFF	-10.6985
0FBE45E6	-10.6985
A0000000000002A0000007	-10.6987
330000000000002A0000005	-10.6988
50FDFFFF488B8550FDFFFF	-10.699
370000000000002A0000005	-10.6991
486355E0	-10.6993
488945D0488B45D8483B45D00F8E	-10.6993
B8FDFFFF488B85B8FDFFFF	-10.6994
000000000000000000D3010000	-10.6994
4000039C80F8D	-10.6997
5010F84	-10.6998
C0B0000000000002A0000001	-10.6998
48898560FAFFFF	-10.6999
3A0000000000002A0000003	-10.7
B0FDFFFF488B85B0FDFFFF	-10.7001
980E1010FB6C9	-10.7004
48898568FAFFFF	-10.7005
8F6FFFF488B85	-10.7005
000000000000B0010000000000000	-10.7006
48898530FAFFFF488B8530FAFFFF	-10.701
448945FC	-10.701
668945F	-10.701
70FEFFFF488B8570FEFFFF	-10.7012
39C80F94C024010FB6C04898	-10.7014
60C0000000000002A0000001	-10.7015
610000000488B4588488985	-10.7016
8A4DF580E1010FB6C9	-10.7017
898574FAFFFF	-10.7018
8985E4FAFFFF8B85E4FAFFFF	-10.7022
486B8D10FFFFFF	-10.7023
488B45C8	-10.7024
8B85E4FEFFFF3B85E0FEFFFF0F8	-10.7027
6000000000000000D000000	-10.7027
0FBE4DFE	-10.7027
E960000000	-10.7029
305300004801C8	-10.7029
48FDFFFF488B8548FDFFFF	-10.7031
58FDFFFF488B8558FDFFFF	-10.7031
8B8D7CFDFFFF	-10.7033
610000000488B4590488985	-10.7037
10B0000000000002A0000001	-10.7037
00FDFFFF488B8500FDFFFF	-10.7039
000000000000000000A4000000	-10.7042
350000000000002A0000005	-10.7043
8985B4FAFFFF8B85B4FAFFFF	-10.7044
66C745F	-10.7044
F0010000	-10.7047
482DF	-10.7047
8A8D6BFFFFFF80E1010FB6C9	-10.7048
D2FCFFFF	-10.7052
8845EE	-10.7052
88C1488B050000000088480	-10.7053
4889459848837D98	-10.7055
02FDFFFF	-10.7056
6172725F353700	-10.7058
48894590E9	-10.706
480FBF8DC6FEFFFF	-10.706
486BD20F4801D1	-10.7064
488B85C8FDFFFF483B85C0FDFFFF0F8	-10.7066
0FB74586	-10.7069
F0B0000000000002A0000001	-10.7071
486345E8	-10.7073
02000048C785	-10.7073
3000000000000000D000000	-10.7073
48898578FAFFFF	-10.7077
48634520	-10.7077
89856CFAFFFF	-10.7078
20FDFFFF488B8520FDFFFF	-10.7078
480FBF8D06FFFFFF	-10.708
48898528FDFFFF488B8528FDFFFF	-10.708
8985ECFAFFFF8B85ECFAFFFF	-10.7082
0FB64DFD	-10.7083
488B45F02D	-10.7083
0FAF45	-10.7086
50D0000000000002A0000001	-10.7086
39C80F97C024010FB6C0	-10.7088
B97	-10.7089
88FDFFFF488B8588FDFFFF	-10.7089
F0FCFFFF488B85F0FCFFFF	-10.7089
480FBE4DF2	-10.709
81C19	-10.7093
488B8D10FDFFFF	-10.7094
131C929D1	-10.7094
488B44C8	-10.7095
E90C0000008B8500FFFFFF8985	-10.7101
0F3FFFF488B85	-10.7102
D20200004801C8	-10.7103
488B8D28FDFFFF	-10.7107
480FBE4DF0	-10.7107
AFEFFFF24010FB6C0	-10.7108
8945B0E9	-10.711
8B55EC	-10.711
48C785C8FEFFFF	-10.7111
0FB78DBEFEFFFF	-10.7112
8945E0E9	-10.7112
48898518	-10.7113
E90E000000488B85F0FDFFFF488985	-10.7115
68FEFFFF488B8568FEFFFF	-10.7115
807DFD000F84	-10.7118
40FEFFFF488B8540FEFFFF	-10.712
480FBE8DE7FEFFFF	-10.712
39C80F93C024010FB6C0	-10.7121
18008885	-10.7123
0FB745D689C1488B0500000000	-10.7124
C04C0100	-10.7124
488B8548020000	-10.7125
8B85CCFEFFFF3B85C8FEFFFF0F8	-10.7126
8B852CFFFFFF	-10.7126
E90A0000000FB745A	-10.7127
F060000	-10.7128
898564FAFFFF	-10.7129
8A4DD980E1010FB6C9	-10.7131
1C0000000000002A0000004	-10.7132
D8020000	-10.7132
99F7F989C1	-10.7133
8B85DCFEFFFF3B85D8FEFFFF0F8	-10.7134
483B45F00F	-10.7136
5AFDFFFF	-10.7139
486B8D40FFFFFF	-10.714
13010000	-10.714
8845E3	-10.7142
48898520FDFFFF488B8520FDFFFF	-10.7143
E90C0000008B856CFFFFFF8985	-10.7144
20B0000000000002A0000001	-10.7145
00000000000098010000000000000	-10.7145
00480F45	-10.7145
48C785B8FEFFFF	-10.7147
1000039C80F8D	-10.7148
8A456	-10.7149
127A0000	-10.7149
A8FDFFFF488B85A8FDFFFF	-10.715
8B8D34FDFFFF	-10.715
100300004801C8	-10.7151
488B85A8FDFFFF483B85A0FDFFFF0F8	-10.7151
0FB675	-10.7152
0FB68D7BFFFFFF	-10.7152
48898508FEFFFF488B8510FEFFFF48	-10.7153
83C1014863C9486BC9144801C8	-10.7153
38F9FFFF	-10.7154
0020000488B85F8010000	-10.7155
0E5F00004801C8	-10.7159
480FBE4DA3	-10.7161
A0A0000000000002A0000001	-10.7162
66448B4D	-10.7163
68020000	-10.7165
8B85D4FEFFFF3B85D0FEFFFF0F8	-10.7166
30FDFFFF488B8530FDFFFF	-10.7172
4801F2	-10.7173
898550FBFFFF	-10.7173
7FFCFFFF	-10.7176
98FDFFFF488B8598FDFFFF	-10.7177
4869D2710200004801D1	-10.7178
78FCFFFF488B8578FCFFFF	-10.7179
00000000000000000093010000	-10.718
A0FDFFFF488B85A0FDFFFF	-10.718
E9090000008B45CC8985	-10.7181
898538FDFFFF8B8538FDFFFF	-10.7181
8945BCE9	-10.7183
48C74580	-10.7192
001B0000	-10.7194
E90C0000008B8564FFFFFF8985	-10.7194
0FBE4DF3	-10.7196
F3FCFFFF	-10.7196
3FBFFFF24010FB6C0	-10.7197
488B8D30FDFFFF	-10.7198
D0000000000002A0000007	-10.7198
C0FDFFFF488B85C0FDFFFF	-10.7201
48898508FDFFFF488B8508FDFFFF	-10.7201
488B8D78FFFFFF4883E90	-10.7202
80C0000000000002A0000001	-10.7202
480345B8488945B8E9	-10.7202
C78558FFFFFF	-10.7202
8A4DC680E1010FB6C9	-10.7203
B0FCFFFF488B85B0FCFFFF	-10.7204
837D48	-10.7207
00000000009002000000000000	-10.7207
E8010000	-10.7207
8B8DECFDFFFF	-10.7207
24F400004801C8	-10.7211
E90E000000488B85D8FDFFFF488985	-10.7212
E0C0000000000002A0000001	-10.7213
6172725F3234006172725F323500	-10.7213
60A0000	-10.7213
FAFCFFFF	-10.7214
390000000000002A0000005	-10.7214
894DF0448945EC	-10.7219
488B8530FEFFFF48	-10.7222
01004805	-10.7223
84010000	-10.7223
40B0000000000002A0000001	-10.7223
48898540FAFFFF	-10.7225
48C785D8FEFFFF	-10.7227
488945B0488B45B8483B45B00F83	-10.7228
E0FDFFFF488B85E0FDFFFF	-10.7228
80FCFFFF488B8580FCFFFF	-10.723
A080000	-10.7233
8985CCFAFFFF8B85CCFAFFFF	-10.7233
0FB645EA	-10.7235
894598E9	-10.7238
76010000	-10.7239
0FBE4DFD	-10.724
488B8D80010000	-10.7241
83C00183F8000F95C024018845D	-10.7242
6172725F393900	-10.7243
898550FDFFFF8B8550FDFFFF	-10.7246
8985A0FDFFFF8B85A0FDFFFF	-10.7249
0100004C8B85F	-10.725
8985BCFAFFFF8B85BCFAFFFF	-10.7251
4180E001448845FF	-10.7251
00FEFFFF488B8500FEFFFF	-10.7251
27FCFFFF	-10.7252
89459C8B	-10.7252
488B05000000008A008845C	-10.7252
488B8D60FDFFFF	-10.7253
480FBE8D0FFFFFFF	-10.7255
0F95C180E1010FB6C9	-10.726
8A4DD480E1010FB6C9	-10.7262
8B8560FFFFFF3B855CFFFFFF0F8	-10.7263
488B8DC8FCFFFF	-10.7264
641	-10.7264
38FDFFFF488B8538FDFFFF	-10.7264
83C1014863C9833C88000F84	-10.7269
010000488B0500000000488B00488985	-10.727
FDFFFFFF	-10.7271
3B0000000000002A0000005	-10.7273
0000000000F800000000000000	-10.7276
90FDFFFF488B8590FDFFFF	-10.7276
8A8527FFFFFF24010FB6C0	-10.7277
6172725F3230006172725F323100	-10.7278
7661725F353000	-10.7279
4A0000	-10.728
0000000000000000009A010000	-10.7281
13000000488B8578FDFFFF488985	-10.7281
96FBFFFF	-10.7282
FFFFFF24010FB6C083F8010F8D	-10.7282
80E2010FB6D2486BD21	-10.7284
6FDFFFF80E1010FB6C9	-10.7285
0FB6559	-10.7287
89857CFAFFFF	-10.7288
83C1014863C948833CC8000F84	-10.7291
480FBE4DE8	-10.7292
310000000488B4588488985	-10.7292
18FEFFFF488B8518FEFFFF	-10.7294
5060000	-10.7296
D0000000000002A0000005	-10.7299
486955C8	-10.7307
8A8D9FFEFFFF80E1010FB6C9	-10.7307
05010000	-10.7308
8985D0FAFFFF	-10.7309
50C0000000000002A0000001	-10.7313
8985ACFAFFFF8B85ACFAFFFF	-10.7313
8A45FA24010FB6C0	-10.7315
488945E0488B45E0	-10.7316
488985F0F9FFFF488B85F0F9FFFF	-10.7318
80E1010FB6D131C929D1	-10.7319
488945C0488B45C8483B45C00F8D	-10.7319
F8FCFFFF488B85F8FCFFFF	-10.732
8F3FFFF488B85	-10.7321
0FAFFFF0F8313000000488B85	-10.7322
6172725F3232006172725F323300	-10.7325
8A45AB24010FB6C0	-10.7325
898588F8FFFF	-10.733
C0030000	-10.733
8F8FFFF483B85	-10.7331
E90B000000488B4518	-10.7331
4883C20	-10.7331
0F94C180E1010FB6C9	-10.7332
1000000000000000D000000	-10.7334
80000000000002A0000007	-10.7336
40FDFFFF488B8540FDFFFF	-10.7337
60030000	-10.7337
F8FFFFFF	-10.7337
7661725F353100	-10.7339
668B044888C1488B05000000008808	-10.7339
01000000837D	-10.7342
8845E6	-10.7343
EBFCFFFF	-10.7343
66448B45	-10.7346
E957000000	-10.7349
486BC03	-10.7349
488B85B0FDFFFF483B85A8FDFFFF0F8	-10.7349
0F850D000000807D	-10.7349
38F7FFFF	-10.7356
000000000000000000AB000000	-10.7357
030000C785	-10.7361
0FAFC183F8000F84	-10.737
95488	-10.7371
E90E000000488B85E0FDFFFF488985	-10.7373
D8FDFFFF488B85D8FDFFFF	-10.7376
29C84898	-10.7379
6172725F373600	-10.7381
1488	-10.7385
4801D0480FBF55	-10.7385
668945C6	-10.7386
E0FCFFFF488B85E0FCFFFF	-10.7386
CFEFFFF39C80F8E120000000FBF85	-10.739
39C80F8D0C0000000FB645	-10.7391
8985A4FAFFFF8B85A4FAFFFF	-10.7391
6172725F373500	-10.7391
8845B7	-10.7392
FBFFFF0FB685	-10.7392
400000000000002A0000004	-10.7392
0FB74558	-10.7393
8985C8FAFFFF	-10.7393
610000000488B45A0488985	-10.7393
668B4530668985	-10.7395
488B85C0FDFFFF483B85B8FDFFFF0F8	-10.7398
C4090000	-10.7399
6172725F363000	-10.7399
D7FBFFFF	-10.74
001B00004801C8	-10.7402
18FDFFFF488B8518FDFFFF	-10.7402
448945E0	-10.7402
8A4518	-10.7404
B001F645	-10.7406
0000000000A002000000000000	-10.7408
488B0500000000668B00668945C	-10.7411
488B4DF048BA	-10.7413
488B8D08FDFFFF	-10.7414
000F95C034FF24010FB6C831C029C8	-10.7414
FCFFFF24010FB6C08A8D	-10.7416
889C88B4D	-10.7417
17FCFFFF	-10.7417
480FBE45FF	-10.7418
00C0000000000002A0000001	-10.7418
898574	-10.7419
0F6FFFF488B85	-10.7422
48898518FAFFFF	-10.7424
99F7F989C18B85	-10.7425
488B85B8FDFFFF483B85B0FDFFFF0F8	-10.7426
488945B0488B45B8483B45B00F86	-10.7426
8A0C0880E101488B05000000008808	-10.7426
00000000000000000005020000	-10.7427
32FDFFFF	-10.7427
8A8D6FFEFFFF80E1010FB6C9	-10.7428
10C0000000000002A0000001	-10.7428
3FFCFFFF	-10.7429
488B4DD04883C10	-10.7433
480B04D1	-10.7434
7661725F353200	-10.7435
8B8DECFCFFFF	-10.7436
0FBE45F9	-10.7437
668945F0	-10.7437
A40500004801C8	-10.7437
20C0000000000002A0000001	-10.7438
0FB64DCE	-10.7442
8B8D28FEFFFF	-10.7444
898540F8FFFF	-10.7444
470000	-10.7447
39C80F96C024010FB6C0	-10.7448
90C0000000000002A0000001	-10.7448
D0B0000000000002A0000001	-10.7448
E962000000	-10.7452
8FAFFFF0F8613000000488B85	-10.7452
BF9FFFF	-10.7452
8945948B	-10.7454
70FDFFFF488B8570FDFFFF	-10.7454
81F1	-10.7454
[...]
