<unk>	0
0000000000000000	-3.26166
FCFFFFFFFFFFFFFF	-3.88334
1000000000000000	-3.89251
4869C9	-4.32384
488B0500000000	-4.46712
48	-4.55939
000000000000000	-4.77042
00000000	-5.0107
000000002A000000	-5.18495
E9	-5.25538
8B05000000008808	-5.57785
4	-5.5897
E900000000	-5.85407
6	-5.88192
11000000	-5.88722
0	-5.8971
8A	-5.93969
E	-5.96076
0500000000668908	-5.98165
83E9014863C9	-5.98715
8	-6.00123
24010FB6C0	-6.02332
85	-6.06702
E90C000000	-6.07517
83C1014863C9	-6.0764
04000000	-6.09296
4869D2	-6.13902
D	-6.14688
66	-6.21015
03000000	-6.22874
37472746162002E7	-6.23996
83F8000F84	-6.26328
80E1010FB6C9	-6.28866
3	-6.29919
6689C1488B	-6.30805
40000	-6.33913
0FB68D	-6.34192
C	-6.38971
8B0488	-6.39799
4805	-6.40328
489848	-6.43447
89C1488B	-6.45131
88C148	-6.46898
8B05000000008908	-6.47871
60000	-6.49051
0FB78D	-6.49099
63	-6.53959
30000	-6.56144
30000000000002A0	-6.57786
8A8D	-6.58467
0500000000488908	-6.60177
000000000	-6.63367
FAFFFF	-6.65406
0000000000002A0	-6.66394
50000000000002A0	-6.68548
C785	-6.69826
A	-6.71082
F	-6.7161
000000000000004	-6.71927
0000000000	-6.72794
488B04C848	-6.73303
3000000010000000	-6.73463
E1010FB6C9	-6.73581
7	-6.73717
488908	-6.74762
480FBE8D	-6.75113
480FBF8D	-6.75212
B	-6.78121
0FB685	-6.79001
70000000000002A0	-6.79344
39C80F8D	-6.81294
5	-6.81367
000000000000080	-6.81706
DFFFF	-6.82057
C685	-6.83667
B8	-6.84277
2	-6.85548
66C785	-6.85596
0000000000000009	-6.86312
80000000000002A0	-6.86704
90000000000002A0	-6.88282
0000000000000018	-6.88522
BFFFF	-6.89716
0000000000040000	-6.89875
9	-6.901
4000000000000000	-6.90226
0000000020000000	-6.90291
7F454	-6.90601
C4602	-6.90625
1003E000	-6.90647
6000500554889E5	-6.90759
96D	-6.90851
000F84	-6.91682
0000012000	-6.91818
00F1FF0000	-6.91836
0101000	-6.9198
A0000000000002A0	-6.92812
00000003000000	-6.92984
3687	-6.93198
002E737	-6.93299
746162002E7	-6.93314
2656C	-6.93325
65787	-6.93326
612E74	-6.93333
83C1024863C9	-6.93632
0100000006	-6.93696
89C1	-6.9371
0FBF8D	-6.93724
1000000020000000	-6.93933
2E63007465737400	-6.94005
66756E	-6.94017
0200000008	-6.94094
00000040000000	-6.94314
20000000000002A0	-6.95119
8000000000000000	-6.95447
8000000000000001	-6.95577
000000000D000000	-6.95861
83E9024863C9	-6.96083
0FBE8D	-6.96836
1B00000004	-6.97088
B0000000000002A0	-6.97192
39C80F8E12000000	-6.97522
0000	-6.98187
0000000014000000	-6.98333
39C80F8D12000000	-6.99925
0FBE85	-7.00319
88	-7.00557
C0000000000002A0	-7.01346
50000	-7.02016
8A040824010FB6C0	-7.02405
01000000	-7.0412
D0000000000002A0	-7.04973
488914C8	-7.05324
10000000000002A0	-7.05477
CFFFF	-7.06922
05000000	-7.07557
100	-7.07585
000000001B000000	-7.08686
34FF24010FB6C0	-7.08857
E0000000000002A0	-7.10513
7661725F313	-7.10641
66891448	-7.10942
E90B000000	-7.12572
F0000000000002A0	-7.14701
0FB60408	-7.15331
E1010FB6C94869C9	-7.1554
488B8580000000	-7.16157
05000000004869C9	-7.16313
00	-7.17298
488B8588000000	-7.17997
0000000	-7.1825
00000000000002A0	-7.18784
0FB70448	-7.20534
05000000008908	-7.21597
891488	-7.22026
70000	-7.22705
F9FFFF	-7.22951
881408	-7.23257
06000000	-7.24049
488B8590000000	-7.24687
0FBE0408	-7.25337
488B95	-7.26621
8B95	-7.26763
488B8598000000	-7.28113
44	-7.28635
95C180E10148	-7.29012
1	-7.31527
83F0FF	-7.31679
E90D0000000FB785	-7.31955
89C2	-7.32786
E910000000B8	-7.33393
007661725F323	-7.33424
488B85	-7.34039
89	-7.34459
488B85A0000000	-7.34536
98	-7.34858
83C001	-7.35179
80000	-7.35604
0000000026	-7.35622
24010FB6C8	-7.3605
488B4578	-7.37131
488B4570	-7.37773
6689C2	-7.37873
488B85A8000000	-7.38228
0FBF0448	-7.38575
FF	-7.38727
8A85	-7.39495
488B4568	-7.39569
01C8	-7.40201
88C2	-7.40669
EFFFF	-7.41106
83C002	-7.41375
488B4560	-7.42114
13000000	-7.42779
488B85B0000000	-7.43956
90000	-7.45218
E90B000000488B45	-7.47777
E90D0000000FBF85	-7.4924
AFFFF	-7.49468
488B4558	-7.4987
488B85B8000000	-7.50218
83C003	-7.50406
10000000B8	-7.50704
0000000022000000	-7.50727
A0000	-7.5101
F0000	-7.513
18	-7.51369
488B4550	-7.52257
8D	-7.52554
83C004	-7.54397
488B85C0000000	-7.55614
B9	-7.56296
488B04C8	-7.58006
E90E000000	-7.59018
488B85C8000000	-7.59509
488B8D	-7.59797
28	-7.60505
CFFFFE90E000000	-7.60587
40	-7.60939
07000000	-7.61012
10	-7.61956
488B4548	-7.62348
80	-7.62502
B0000	-7.62723
D0000	-7.63307
4801D1	-7.63913
DFFFFE90E000000	-7.64429
488B85D0000000	-7.64534
E90D0000000FB685	-7.66828
833C88000F84	-7.66925
000000100000004	-7.67298
4C	-7.68318
80E2010FB6D2	-7.68512
8B00	-7.68675
E0000	-7.68935
4801C1	-7.69026
4863	-7.69285
C0000	-7.69355
BFFFFE90E000000	-7.69563
F8FFFF	-7.69695
48833CC8000F84	-7.70147
31C029C8	-7.70725
C8	-7.71478
000F95C180E10148	-7.71606
488B4540	-7.71703
0FBF	-7.72177
83C1034863C9	-7.72215
488B85D8000000	-7.72381
66833C48000F84	-7.72446
803C08000F84	-7.73246
10000000	-7.73338
E8	-7.73856
E9090000008B45	-7.73882
488B	-7.744
2007661725F3	-7.74993
4869C0	-7.75334
38	-7.7548
488B85E0000000	-7.76274
58	-7.76494
83F8000F95C02401	-7.76711
0F000000	-7.76861
4007661725F3	-7.77121
D8	-7.77682
0007661725F3	-7.7774
00000	-7.77765
6007661725F3	-7.77949
83E9034863C9	-7.78487
F5FFFF	-7.78541
5DC30000000	-7.78752
4863C8488B	-7.78966
C700	-7.79629
48B8	-7.79705
0300000000000000	-7.80028
2D	-7.8024
95C024018885	-7.80363
9FFFF	-7.80506
0000000100000004	-7.80579
000000D000000	-7.8082
486BC9164801C8	-7.81033
488B85E8000000	-7.81201
10000	-7.81737
0000009000000	-7.82178
AFFFFE90E000000	-7.82395
488B4DD8	-7.82735
10000000000	-7.83176
486BC9184801C8	-7.83296
20000	-7.83536
000000A000000	-7.8404
900000004801C8	-7.84866
488B85F0000000	-7.86937
0FB7	-7.87059
45	-7.87068
BA	-7.87084
F8	-7.87582
0000000029000000	-7.88316
488B4538	-7.88381
898D	-7.88416
488B0048	-7.88826
6689	-7.89536
68	-7.89848
20	-7.89875
30	-7.89947
400200004801C8	-7.90436
EFFFFE90E000000	-7.90456
488B85F8000000	-7.90849
0000008000000	-7.90979
486BC9144801C8	-7.91025
4801D0	-7.91069
8007661725F3	-7.91534
4898	-7.92241
E90D0000000FBE85	-7.9244
78	-7.92605
9FFFFE90E000000	-7.92678
83E8	-7.9339
000000B000000	-7.93611
E90A0000000FB745	-7.94344
8A0024010FB6C0	-7.94348
000000C000000	-7.94559
E40100004801C8	-7.94807
000000E000000	-7.94813
48694DD8	-7.95105
A8	-7.95718
8B8	-7.96108
488B8500010000	-7.96554
48694DD0	-7.97065
05	-7.97394
8B	-7.97849
486BC9304801C8	-7.97863
488B4DD0	-7.97932
0000010000000	-7.98199
50	-7.98305
000	-7.99086
E0	-7.99119
5DC30000	-7.99507
C80000004801C8	-7.99686
488B8508010000	-8.00054
C0	-8.00208
39C80F8	-8.00858
486BC9284801C8	-8.01504
486BC9644801C8	-8.01611
0FBF45	-8.01945
E90A0000000FBF45	-8.02279
01C883F8000F	-8.0246
000000F000000	-8.03475
0000007000000	-8.03526
900100004801C8	-8.03938
F7FFFF	-8.04493
898578FFFFFF	-8.04521
898570FFFFFF	-8.04524
01C88885	-8.04949
83F8010F8D	-8.05273
81E9	-8.0585
24010FB6C0489848	-8.0638
7F	-8.06632
5FFFF	-8.06793
83	-8.06829
486BC92C4801C8	-8.07209
F0	-8.07278
4883C1014869C9	-8.07494
898568FFFFFF	-8.07805
12000000	-8.07993
14	-8.08174
486BC9604801C8	-8.08371
488B8510010000	-8.09025
486BC9584801C8	-8.09396
08	-8.09631
480500	-8.0987
898560FFFFFF	-8.0995
90	-8.10198
8A008885	-8.10364
E90A0000000FB645	-8.10903
0000011000000	-8.11263
80E201881408	-8.11311
486BC9504801C8	-8.11351
8FFFFE90E000000	-8.11787
668B00668985	-8.12121
488B050000000048	-8.12329
898548FFFFFF	-8.12542
0000012000000	-8.12603
800400004801C8	-8.12626
83EA014863D2	-8.13374
488B4DE0	-8.13461
FC	-8.13579
FE	-8.13681
83F8000F95C0	-8.13762
08000000	-8.13795
488B8518010000	-8.14698
37000000	-8.1476
898558FFFFFF	-8.14897
0F	-8.14956
668B0448668985	-8.14964
0FBE	-8.1513
0000014000000	-8.15576
04	-8.15659
898538FFFFFF	-8.15701
84	-8.15785
60	-8.15999
0FBEC8488B	-8.16153
0000013000000	-8.16244
488B8520010000	-8.1626
4FFFF	-8.16331
0FB700	-8.16356
3FFFF	-8.16691
898550FFFFFF	-8.17076
0000015000000	-8.17295
0FB6C8488B	-8.173
898540FFFFFF	-8.17586
F6FFFF	-8.17693
486BC9194801C8	-8.17905
39C80F83	-8.17997
08488B	-8.18338
488B8528010000	-8.18588
898528FFFFFF	-8.18757
0FBFC8488B	-8.18866
93	-8.19154
486395	-8.19184
01	-8.19303
898530FFFFFF	-8.19333
8007661725F3139	-8.19335
E90D000000	-8.19422
E90A0000000FBE45	-8.19468
0FBE4D	-8.19901
898520FFFFFF	-8.20482
05000000000FBE00	-8.20752
0000006000000	-8.20928
CFFFFFF	-8.20931
81C1	-8.20987
05000000000FB600	-8.21269
488B4530	-8.21457
FFFFFFFF	-8.2152
486BC9174801C8	-8.21836
DC	-8.22004
EC	-8.22233
24010FB6C089C1	-8.22537
0000016000000	-8.22654
488B4DC8	-8.22684
BC	-8.22874
AC	-8.23239
898518FFFFFF	-8.23252
05000000000FBF00	-8.23493
C9	-8.23494
0000017000000	-8.23885
898510FFFFFF	-8.23993
200300004801C8	-8.2423
898508FFFFFF	-8.24278
9C	-8.24907
83E9	-8.25038
0FB6	-8.25131
83C2014863D2	-8.25197
CC	-8.25235
48694DE0	-8.25445
C80300004801C8	-8.2545
B0	-8.25525
0100	-8.25576
00000000000026	-8.2562
0FB7C8	-8.25766
488B8530010000	-8.25782
48898D	-8.25842
94	-8.2595
8B45F8	-8.25968
E4	-8.26038
FA	-8.26132
03	-8.26395
488B4528	-8.2661
003600004801C8	-8.2669
0000018000000	-8.27155
8C	-8.27166
898500FFFFFF	-8.27536
EE	-8.27582
8A95	-8.28617
F7	-8.28846
89C048	-8.28876
48694DC8	-8.29135
486BC9154801C8	-8.294
0000000048	-8.29516
A0	-8.29604
EA	-8.29759
F3FFFF	-8.29988
8B0	-8.30019
25	-8.30205
F4	-8.30472
0000019000000	-8.30692
8FFFF	-8.3084
4883F8000F84	-8.3097
488B8538010000	-8.31052
8985E0FEFFFF	-8.3129
4D	-8.31366
EF	-8.31428
0FB745	-8.31656
83F8000F	-8.31669
8985E8FEFFFF	-8.31673
70	-8.31898
8985F8FEFFFF	-8.31949
710200004801C8	-8.32004
83C00183F8000F	-8.32026
0FB695	-8.32322
488B45F0	-8.32537
54	-8.32681
48C1E1044801C8	-8.32816
E9110000008A85	-8.32905
8985F0FEFFFF	-8.32935
C4	-8.33084
5C	-8.33132
4881C1	-8.33132
83F8000F95C034FF	-8.33366
8B4DE0	-8.33385
486BC9134801C8	-8.33448
49	-8.33461
000001A000000	-8.3354
8985D8FEFFFF	-8.33867
E6	-8.33869
7800000000000000	-8.34146
D0	-8.34209
0FB795	-8.34214
CA	-8.34643
480FBF95	-8.34651
110200004801C8	-8.35169
F6	-8.35219
488B8540010000	-8.35417
982900004801C8	-8.35475
486BC9124801C8	-8.35692
486BC9114801C8	-8.35929
8985D0FEFFFF	-8.36016
8985C8FEFFFF	-8.36029
CF	-8.36228
F00	-8.3652
0007661725F3231	-8.36524
BF	-8.36546
000001B000000	-8.36726
7D	-8.36747
B4	-8.37116
385	-8.3757
6FFFF	-8.37583
0C000000	-8.37592
31C0	-8.37842
83C1	-8.37979
F4FFFF	-8.3798
55	-8.38071
BE	-8.38313
75	-8.38351
D6	-8.38422
F60408010F84	-8.38518
8B45F4	-8.38597
E7	-8.38656
B80000004801C8	-8.38742
8B45FC	-8.38827
C600	-8.38879
35	-8.38895
A4	-8.38937
000001C000000	-8.39058
4863D0	-8.39115
D4	-8.39203
8E	-8.39245
8985C0FEFFFF	-8.39335
DFFFFE90C000000	-8.39429
C6	-8.39479
B90100004801C8	-8.39822
8985B8FEFFFF	-8.39863
486BC90C4801C8	-8.40728
8985A8FEFFFF	-8.40963
8B4DE4	-8.40984
488B8548010000	-8.41028
8985A0FEFFFF	-8.41127
000F95C0	-8.41394
4883C101	-8.41395
4881C4	-8.41419
8985B0FEFFFF	-8.41601
3D	-8.41887
486BC90D4801C8	-8.41893
16	-8.42339
C7	-8.42378
898598FEFFFF	-8.42403
0000020000000	-8.42829
000001D000000	-8.4288
73	-8.43019
0B000000	-8.4327
8A04088885	-8.43389
000001E000000	-8.43872
898588FEFFFF	-8.44019
488B4DC0	-8.44153
4829C848	-8.44204
53	-8.44393
CFFFFE90C000000	-8.44522
B00000004801C8	-8.44548
898590FEFFFF	-8.44711
3C	-8.44714
9007661725F323	-8.45018
CE	-8.45075
B5	-8.45257
488B8550010000	-8.45311
000F95C034FF	-8.45326
B6	-8.45661
7FFFFE90E000000	-8.45675
3F	-8.45765
FB	-8.46
34	-8.46016
8B45EC	-8.46099
C00000004801C8	-8.46129
A80000004801C8	-8.46156
AF	-8.46447
898578FEFFFF	-8.46539
401F00004801C8	-8.46549
898568FEFFFF	-8.46702
4883E901	-8.46813
898580FEFFFF	-8.47224
24010FB6C08A8D	-8.47594
898570FEFFFF	-8.4779
000001F000000	-8.47807
77	-8.47887
7FFFF	-8.47904
0F85	-8.47911
D7	-8.48354
E91600000048B8	-8.48516
486BC90F4801C8	-8.4852
400	-8.48767
06	-8.48794
5A	-8.48865
B7	-8.49079
486BC90A4801C8	-8.49433
210100004801C8	-8.4944
97	-8.49506
C60001	-8.49776
8B4510	-8.49932
FD	-8.50156
480FBE95	-8.50196
4881E9	-8.5022
DE	-8.50479
0FB655	-8.50573
486BC92E4801C8	-8.50754
898560FEFFFF	-8.50864
690100004801C8	-8.51289
AA	-8.51366
486BC90E4801C8	-8.51395
488B8578FFFFFF48	-8.51409
500	-8.5155
99F7F9	-8.51611
488B8558010000	-8.51614
24	-8.51948
7C	-8.52109
898550FEFFFF	-8.52503
486BC90B4801C8	-8.52574
F9	-8.52804
488B8568FFFFFF48	-8.52847
488B8570FFFFFF48	-8.5318
26	-8.53262
898548FEFFFF	-8.53273
89856CFFFFFF	-8.53299
BD	-8.53319
A90000004801C8	-8.53436
79	-8.53438
486BC95C4801C8	-8.53439
440100004801C8	-8.53472
898528FEFFFF	-8.53634
980000004801C8	-8.53825
7A	-8.53847
69	-8.53964
24010FB6C083E801	-8.54017
13	-8.54051
E90000000048	-8.54087
0000021000000	-8.54119
0FBEC0	-8.54248
A0000000	-8.54327
898558FEFFFF	-8.54328
5007661725F313	-8.54382
0000005000000	-8.54393
488B45E8	-8.54465
0D	-8.54519
5B	-8.54921
898540FEFFFF	-8.54948
898574FFFFFF	-8.5496
AE	-8.55075
486BC9324801C8	-8.55095
488B8560010000	-8.5515
000000	-8.55411
83F8000F95C2	-8.55651
0000022000000	-8.55717
488B4520	-8.55735
1C	-8.55882
8945E0	-8.55883
898538FEFFFF	-8.55909
880000004801C8	-8.56111
EB	-8.56534
6C	-8.56538
9E	-8.5659
46	-8.56638
A6	-8.56694
0C	-8.56774
4869	-8.56852
0000023000000	-8.56904
200	-8.56915
482D	-8.57014
89857CFFFFFF	-8.57091
898520FEFFFF	-8.57125
900	-8.57378
0FB7C0	-8.57436
8B4518	-8.57469
8B4DDC	-8.57664
000000003E000000	-8.57739
57	-8.57756
488B8560FFFFFF48	-8.57776
F5	-8.57924
15	-8.57992
BB	-8.58094
95	-8.58293
A7	-8.58325
0FB7C02D	-8.58332
DF	-8.58421
898530FEFFFF	-8.58501
89855CFFFFFF	-8.58726
A00000004801C8	-8.58744
0000024000000	-8.58777
23	-8.58985
488B8568010000	-8.59094
67	-8.59122
7007661725F313	-8.59199
80100004C8B8D	-8.59272
898518FEFFFF	-8.59375
8B4DE8	-8.59602
F2	-8.59998
488B8558FFFFFF48	-8.60058
8A4D	-8.60152
76	-8.60297
7B	-8.60535
0F84	-8.60541
898564FFFFFF	-8.60727
0000025000000	-8.60828
0308488B	-8.6107
486BC9544801C8	-8.61132
7E	-8.61194
1600000048B8	-8.61284
17	-8.61301
8B4520	-8.61583
6F	-8.61639
2C	-8.61655
8908	-8.61879
898510FEFFFF	-8.61897
488B4DB8	-8.61978
64	-8.62011
E10000004801C8	-8.62066
48C1E1084801C8	-8.62178
87	-8.62192
800	-8.62385
83C10189C9	-8.62396
E911000000B8	-8.62399
898508FEFFFF	-8.62417
0000026000000	-8.63181
0FB7C881E9	-8.63255
48C1E1054801C8	-8.63485
898500FEFFFF	-8.6349
59	-8.63597
4839C80F8D	-8.63656
6B	-8.63733
8985F0FDFFFF	-8.63768
8985E0FDFFFF	-8.63787
881300004801C8	-8.63893
8985F8FDFFFF	-8.63922
96	-8.63948
56	-8.64096
1F	-8.64097
E20400004801C8	-8.641
4883E9014869C9	-8.64174
5F	-8.64216
881000004801C8	-8.64609
8985E8FDFFFF	-8.64629
488B8550FFFFFF48	-8.64634
4F	-8.65013
9A	-8.65162
8B4528	-8.6551
220400004801C8	-8.65519
486BC9224801C8	-8.65642
600	-8.65676
0D000000B0018885	-8.65692
488B8548FFFFFF48	-8.65855
8B45F0	-8.66085
898524FFFFFF	-8.66118
488B4518	-8.66295
4007661725F313	-8.66367
300	-8.66436
872F00004801C8	-8.6688
C40000004801C8	-8.66936
488B8540FFFFFF48	-8.67025
48C1E1074801C8	-8.67059
486BC9444801C8	-8.67226
700	-8.67369
898554FFFFFF	-8.67585
8985B8FDFFFF	-8.676
8985D0FDFFFF	-8.67612
48C1E1064801C8	-8.67761
488B8538FFFFFF48	-8.67833
488B8570010000	-8.67922
74	-8.67938
DA	-8.67968
0FB7C981E9	-8.68096
8985D8FDFFFF	-8.68222
898514FFFFFF	-8.68268
0000000045000000	-8.68275
AB	-8.6835
ED	-8.68367
0000027000000	-8.68488
65	-8.68557
5E	-8.68648
6007661725F313	-8.68703
488B8578010000	-8.68832
89854CFFFFFF	-8.6888
8985C8FDFFFF	-8.68901
F2FFFF	-8.69051
486BC9244801C8	-8.69237
486BC94C4801C8	-8.69367
486BC9264801C8	-8.69381
86	-8.69615
83F0FF83F8000F84	-8.69624
488B45F048	-8.69711
488B8530FFFFFF48	-8.69722
8F	-8.69924
093D00004801C8	-8.70023
486BC9484801C8	-8.7005
83C0	-8.70067
8985C0FDFFFF	-8.70245
09000000	-8.70264
0FB6C0	-8.7027
A5	-8.70399
8B8574FFFFFF	-8.70411
43	-8.70454
8985B0FDFFFF	-8.7056
B00	-8.70592
2007661725F3233	-8.70669
486BC91E4801C8	-8.70682
2D2400004801C8	-8.70744
898504FFFFFF	-8.7077
486995	-8.70895
DD	-8.70973
900700004801C8	-8.71036
486BC92A4801C8	-8.71045
3007661725F313	-8.7107
898544FFFFFF	-8.71276
CD	-8.71361
1B	-8.71458
8945D8	-8.71563
8945D0	-8.71578
C80D00004801C8	-8.71581
440800004801C8	-8.7164
CB	-8.7164
89850CFFFFFF	-8.71707
0B	-8.71718
000002A000000	-8.71975
0000028000000	-8.72063
48694DC0	-8.72158
AD	-8.72207
47	-8.72232
89853CFFFFFF	-8.7229
89851CFFFFFF	-8.72589
6A	-8.72898
9B	-8.72931
E5	-8.7307
33	-8.731
8985A0FDFFFF	-8.73144
0000029000000	-8.73168
48634DE0	-8.73207
488B8528FFFFFF48	-8.73264
488B4DE8	-8.73267
8B45E8	-8.73273
8B4DD4	-8.73319
D3E0	-8.73391
C5	-8.73519
8B4530	-8.73824
480FBF55	-8.73936
48634DDC	-8.7402
C40900004801C8	-8.74058
8945C0	-8.74183
8985A8FDFFFF	-8.74323
8B4DD8	-8.74346
2006172725F3	-8.74513
0000000028000000	-8.7458
37	-8.74679
A00	-8.74686
8B8578FFFFFF	-8.74751
488B8580010000	-8.74826
4B	-8.74914
99	-8.74967
5D	-8.74977
E40600004801C8	-8.75084
0200	-8.75208
0A000000	-8.75302
0500000000881408	-8.75323
8B857CFFFFFF	-8.75359
200F00004801C8	-8.7536
840400004801C8	-8.75428
D20200004801C8	-8.75434
898598FDFFFF	-8.75488
311300004801C8	-8.75488
898588FDFFFF	-8.75554
488B4DA8	-8.75626
720300004801C8	-8.75816
488B45E0	-8.75827
9F	-8.75834
2A	-8.7594
02000000	-8.76196
488B8520FFFFFF48	-8.76218
000002B000000	-8.76419
898534FFFFFF	-8.76463
8B8564FFFFFF	-8.76469
001200004801C8	-8.76542
488B4510	-8.76553
000000004C000000	-8.76635
19	-8.76693
6E	-8.76861
486BC91A4801C8	-8.76975
898590FDFFFF	-8.77029
83E90189C9	-8.7705
488B8588010000	-8.77067
D5	-8.77225
4839C80F83	-8.77281
8985F4FEFFFF	-8.77393
DB	-8.7754
898578FDFFFF	-8.77541
898580FDFFFF	-8.77591
41	-8.77616
8985ECFEFFFF	-8.77679
8985FCFEFFFF	-8.77805
89852CFFFFFF	-8.77921
16000000	-8.78016
2FFFF	-8.78064
488B8518FFFFFF48	-8.78162
4006172725F3	-8.7822
C00600004801C8	-8.78516
8B8570FFFFFF	-8.78594
07	-8.7864
837	-8.78643
486B4DD0	-8.78674
000000002F000000	-8.78715
0006172725F3	-8.78718
4863048848	-8.78854
488B4DB0	-8.78915
D9	-8.79026
000002C000000	-8.79094
4883C1024869C9	-8.79139
4A	-8.79423
488B8510FFFFFF48	-8.79481
420200004801C8	-8.79491
EFFFFF	-8.79559
A9	-8.79606
486BC9344801C8	-8.79609
C81600004801C8	-8.79694
0000000021000000	-8.79712
898568FDFFFF	-8.7974
DC30000000000000	-8.79782
898570FDFFFF	-8.7986
000900004801C8	-8.80151
36	-8.80174
0FBE55	-8.80194
400600004801C8	-8.80263
8A0024018885	-8.80339
8985DCFEFFFF	-8.80368
8B856CFFFFFF	-8.80433
8985E4FEFFFF	-8.80716
C70488	-8.81282
8985D4FEFFFF	-8.8137
898560FDFFFF	-8.81423
898550FDFFFF	-8.81468
09	-8.81508
39	-8.81514
2B	-8.81622
488B8508FFFFFF48	-8.81643
2F	-8.81656
894580	-8.81751
898558FDFFFF	-8.81815
898538FDFFFF	-8.8213
29	-8.8217
8B45E4	-8.82347
4E	-8.8235
4DCF80E1010FB6C9	-8.82602
BFFFFE90C000000	-8.82637
A40500004801C8	-8.82882
833C88000F95C0	-8.83005
486BC9384801C8	-8.832
0FFFF	-8.83255
000002D000000	-8.833
8985CCFEFFFF	-8.83731
200100004801C8	-8.83748
8B8568FFFFFF	-8.83858
950800004801C8	-8.83893
486BC91C4801C8	-8.83901
48833CC8000F95C0	-8.84138
0000000053000000	-8.84147
080900004801C8	-8.84243
2007661725F313	-8.84244
C00	-8.84284
488B8500FFFFFF48	-8.84299
885	-8.84346
898548FDFFFF	-8.8443
898540FDFFFF	-8.84452
486B4DD8	-8.84529
000000000000	-8.84726
8B8558FFFFFF	-8.84807
8985C4FEFFFF	-8.84937
0E	-8.84998
C20100004801C8	-8.85002
480B00004801C8	-8.85042
898530FDFFFF	-8.8513
488B85F8FEFFFF48	-8.85346
D00	-8.85442
27	-8.85806
803C08000F95C0	-8.85877
100500004801C8	-8.85907
486BC9794801C8	-8.85933
200A00004801C8	-8.8617
8985BCFEFFFF	-8.86199
488B8590010000	-8.86235
01C866	-8.8643
8B8560FFFFFF	-8.86487
C2	-8.86557
488B84C8	-8.86613
488B8598010000	-8.86729
000002E000000	-8.86845
898528FDFFFF	-8.86852
898520FDFFFF	-8.87167
EFFFF24010FB6C0	-8.87268
8B855CFFFFFF	-8.87322
8B8554FFFFFF	-8.87354
C60408	-8.87419
486BC9684801C8	-8.87431
8985B4FEFFFF	-8.87789
89859CFEFFFF	-8.87873
48694DB8	-8.88016
66833C48000F95C0	-8.88156
488B45F8	-8.88235
9D	-8.88397
8B8544FFFFFF	-8.88402
8B4DCC	-8.88493
6D	-8.88502
CB1A00004801C8	-8.88517
486BC9704801C8	-8.88745
488B85F0FEFFFF48	-8.88747
8A0C1180E1010FB6	-8.88988
880200004801C8	-8.89036
898594FEFFFF	-8.89092
8985A4FEFFFF	-8.8911
D3F8	-8.89176
488B85E8FEFFFF48	-8.89229
31C8	-8.89273
48C1E1094801C8	-8.89306
3A	-8.8939
F1FFFF	-8.89441
000002F000000	-8.89478
89858CFEFFFF	-8.89497
8006172725F3	-8.89528
8A45FF24010FB6C0	-8.89601
FF000000	-8.89667
0D000000	-8.89679
898518FDFFFF	-8.8977
000000005A000000	-8.89867
DFFFF24010FB6C0	-8.9
4869F6	-8.90169
83F1FF	-8.9043
488B85E0FEFFFF48	-8.90436
898510FDFFFF	-8.90564
1A	-8.90717
488B4DA0	-8.90805
520100004801C8	-8.9083
4883E902	-8.90914
8B8550FFFFFF	-8.90973
800C00004801C8	-8.91085
A40200004801C8	-8.91139
0000030000000	-8.91374
6006172725F3	-8.91388
486BC93C4801C8	-8.9146
488B45E848	-8.91578
8B8548FFFFFF	-8.91694
E80300004801C8	-8.91787
0A	-8.91897
898508FDFFFF	-8.92084
1FFFF	-8.92227
2E	-8.92336
330500004801C8	-8.92399
100300004801C8	-8.92408
1E	-8.92497
0000000036000000	-8.92603
0FB64D	-8.92804
8985ACFEFFFF	-8.92818
8985F8FCFFFF	-8.92929
E00	-8.93086
0000031000000	-8.93284
F0FFFF	-8.93297
48634DD4	-8.93343
02	-8.93446
F20000004801C8	-8.93498
8985F0FCFFFF	-8.93614
8B8524FFFFFF	-8.93619
89857CFEFFFF	-8.93716
8B8540FFFFFF	-8.93902
8B854CFFFFFF	-8.93962
480500004801C8	-8.94028
8985D8FCFFFF	-8.94046
898500FDFFFF	-8.94051
894588	-8.94189
48C1E10C4801C8	-8.94192
0FB64DCF	-8.94241
8B853CFFFFFF	-8.94487
488B4578488B4570	-8.94563
0FBF55	-8.94627
8B4DD0	-8.94885
8B8488	-8.94945
488B85D0FEFFFF48	-8.95065
11000000B8	-8.95199
0000032000000	-8.95234
488B85D8FEFFFF48	-8.9534
0B08488B	-8.9568
8B8534FFFFFF	-8.9572
898584FEFFFF	-8.9578
898574FEFFFF	-8.95912
0FB755	-8.95969
11	-8.96064
488B85A0010000	-8.9614
80E101	-8.96175
89856CFEFFFF	-8.96387
FAFFFFE900000000	-8.96443
4007661725F3235	-8.96456
8985E8FCFFFF	-8.9652
0FB645FF	-8.96534
488B85C8FEFFFF48	-8.96568
8985C8FCFFFF	-8.96615
8B8514FFFFFF	-8.96652
8985E0FCFFFF	-8.96731
0000033000000	-8.96759
1F000000	-8.9679
8B4DEC	-8.96838
17000000	-8.96845
24018885	-8.96982
8945CC	-8.97013
4DD780E1010FB6C9	-8.97103
2F0D00004801C8	-8.97118
8945DC	-8.9712
FDFFFFE900000000	-8.97181
8A45E724010FB6C0	-8.97184
89854CFEFFFF	-8.97348
B8000000	-8.97425
0000000061000000	-8.97431
8985D0FCFFFF	-8.97566
48C1E10B4801C8	-8.97568
8A45DF24010FB6C0	-8.97795
89855CFEFFFF	-8.9802
F3	-8.98286
486B	-8.98292
8B8538FFFFFF	-8.98341
000000003D000000	-8.98426
898554FEFFFF	-8.98477
200600004801C8	-8.98494
8985A0FCFFFF	-8.98519
1A000000	-8.98623
0000000068000000	-8.98639
8B4538	-8.98657
8985C0FCFFFF	-8.98683
488B45E048	-8.98753
488B85B0FEFFFF48	-8.98761
E90	-8.98962
1C000000	-8.99418
898564FEFFFF	-8.99481
880100004801C8	-8.99616
488B85A8FEFFFF48	-8.99695
C6040801	-8.99889
840300004801C8	-8.99898
D1	-8.99899
488B85B8FEFFFF48	-8.99901
3B	-8.99981
488B85C0FEFFFF48	-9.0032
8B852CFFFFFF	-9.00331
488B85A8010000	-9.00511
1B000000	-9.00536
8985A8FCFFFF	-9.00622
88000000	-9.00648
080700004801C8	-9.00673
000000001A000000	-9.00715
8945C8	-9.00725
8945BC	-9.00793
0FB74DDE	-9.00848
8B8530FFFFFF	-9.01036
83C1044863C9	-9.0114
898590FCFFFF	-9.01144
24010FB6C083C001	-9.01245
E9000000008A85	-9.0126
898544FEFFFF	-9.01345
8B8504FFFFFF	-9.01427
0000034000000	-9.01433
89851CFEFFFF	-9.01547
48634DD8	-9.01666
488B85B0010000	-9.01692
48E801004801C8	-9.01802
89853CFEFFFF	-9.01869
0FAFC188C148	-9.02053
488B4D90	-9.02089
894590	-9.02134
83C10289C9	-9.02197
898534FEFFFF	-9.02249
137007661725F313	-9.02268
48C704C8	-9.02593
488B4D98	-9.02756
8B8528FFFFFF	-9.02777
6644	-9.02907
24F400004801C8	-9.02931
488B85A0FEFFFF48	-9.02933
83F0FF489848	-9.02965
8B851CFFFFFF	-9.0298
48C1E10A4801C8	-9.03129
486BC9784801C8	-9.03185
8985B0FCFFFF	-9.03239
488B8D58FFFFFF	-9.03343
8985B8FCFFFF	-9.0337
239007661725F333	-9.0347
0E5F00004801C8	-9.03513
29C86689C1488B	-9.03816
000000006F000000	-9.04031
488B8588FEFFFF48	-9.04031
898524FEFFFF	-9.04065
24010FB6D0	-9.04131
488B4D80	-9.04256
000FBE85	-9.04374
89852CFEFFFF	-9.04378
C3	-9.04404
898598FCFFFF	-9.04425
0FB74DDA	-9.04446
8B850CFFFFFF	-9.04725
0000035000000	-9.04735
83E9044863C9	-9.04736
486B95	-9.04744
83E90289C9	-9.04835
1E000000	-9.04875
488B8580FEFFFF48	-9.05069
8B8520FFFFFF	-9.05071
0000004000000	-9.05097
387C01004801C8	-9.05134
48694DB0	-9.05244
80000000	-9.05287
8945E8	-9.05358
898588FCFFFF	-9.05472
0000036000000	-9.05706
00100004C8B8D	-9.05724
00000000D8000000	-9.05774
B80A00004801C8	-9.05782
8B8518FFFFFF	-9.06008
6FFFFE90E000000	-9.06294
89850CFEFFFF	-9.06328
331007661725F333	-9.06424
31C888C148	-9.06562
898580FCFFFF	-9.0659
488B0D00000000	-9.06639
1D000000	-9.06718
488B8590FEFFFF48	-9.06757
8B8508FFFFFF	-9.0688
92	-9.06935
4DA780E1010FB6C9	-9.07106
FFFFF	-9.07162
488B8598FEFFFF48	-9.07444
898570FCFFFF	-9.07528
29C888C148	-9.07548
488B8568FEFFFF48	-9.07855
83C2024863D2	-9.07859
898560FCFFFF	-9.07881
83C10189C94869C9	-9.08002
127A00004801C8	-9.08011
8B8500FFFFFF	-9.08034
FCFFFFE900000000	-9.08042
83F8	-9.08068
19000000	-9.08126
486B4DC8	-9.08144
488B8D70FFFFFF	-9.08148
898568FCFFFF	-9.08213
0000000076000000	-9.08255
01C888C148	-9.0829
8A45EF24010FB6C0	-9.08308
006C00004801C8	-9.08499
0000000044000000	-9.08511
488B8570FEFFFF48	-9.08531
48694DA8	-9.08554
1007661725F313	-9.08557
100000004	-9.08582
488B45D048	-9.08803
20000000	-9.0881
12	-9.08921
898590FBFFFF	-9.09013
898514FEFFFF	-9.09015
60A600004801C8	-9.09069
006172725F313	-9.09107
001B00004801C8	-9.09137
39C80F8E16000000	-9.09165
05FFFFFF7F	-9.0924
8985E4FDFFFF	-9.09258
4863C94839C80F	-9.09476
48B80	-9.09553
803E00004801C8	-9.09646
8985ECFDFFFF	-9.09671
8945D4	-9.09719
488B8D68FFFFFF	-9.09764
894598	-9.0982
488B8578FEFFFF48	-9.0991
0000037000000	-9.1004
488B85B8010000	-9.10074
0FB6C02D	-9.10103
898578FCFFFF	-9.1012
682101004801C8	-9.10213
898558FCFFFF	-9.10232
8945B0	-9.10322
FBFFFFE900000000	-9.10351
01C86689C1488B	-9.10522
898504FEFFFF	-9.10526
1CBE00004801C8	-9.10546
898538FCFFFF	-9.10603
898548FCFFFF	-9.10631
8B8510FFFFFF	-9.10708
8985FCFDFFFF	-9.10749
D2	-9.10824
B001	-9.10894
0FB74DE6	-9.10954
0FB64DDB	-9.1097
0FB64520	-9.10978
8B4DC4	-9.1104
98000000	-9.11074
0000038000000	-9.11077
488B8560FEFFFF48	-9.11158
B49000004801C8	-9.11161
B801000000	-9.11232
39C80F8D16000000	-9.11237
330848	-9.11301
48634	-9.11312
8985F4FDFFFF	-9.11524
5A4800004801C8	-9.11625
0FB64518	-9.11738
898540FCFFFF	-9.11757
486B4DE0	-9.11791
48050000	-9.1185
C44C00004801C8	-9.11985
48694DE8	-9.12083
488B8D78FFFFFF	-9.12301
EFFFFE90C000000	-9.12355
83EA024863D2	-9.12443
488B8D88000000	-9.1266
1D	-9.12713
898550FCFFFF	-9.12904
0FB64510	-9.12912
000000007D000000	-9.13032
48694D90	-9.13058
898570FBFFFF	-9.13077
8B85FCFEFFFF	-9.13085
3E	-9.13158
010F84	-9.1317
488B8D80000000	-9.1323
0000039000000	-9.13273
8B85ECFEFFFF	-9.13413
4803	-9.13421
66FFFFFF	-9.13437
898530FCFFFF	-9.13444
83E90189C94869C9	-9.13509
24010FB6C848	-9.1357
8985D4FDFFFF	-9.13571
E1F505004801C8	-9.13588
8985DCFDFFFF	-9.1362
C04C01004801C8	-9.1365
0300	-9.13659
488B8550FEFFFF48	-9.13694
8B85E8FEFFFF	-9.1372
48837DF0000F84	-9.14007
0007661725F313	-9.14081
0FB74DE4	-9.1411
898518FCFFFF	-9.14113
60FFFFFF	-9.14213
18000000	-9.14255
8B85F4FEFFFF	-9.14269
000000004B000000	-9.1432
83F8000F95C08885	-9.14371
48634DE4	-9.14393
8985B4FDFFFF	-9.144
488B45D848	-9.14429
8B4DAC	-9.14532
333007661725F333	-9.14678
007D00004801C8	-9.14682
488B4568488B4560	-9.14693
8B85DCFEFFFF	-9.1481
000003A000000	-9.14812
B2	-9.14837
82	-9.14868
622600004801C8	-9.15067
8B85F0FEFFFF	-9.15073
76FFFFFF	-9.15088
0000000078	-9.1519
8985BCFDFFFF	-9.15366
0FB74DEA	-9.15493
E911000000	-9.1554
488B85C0010000	-9.15627
898520FCFFFF	-9.15751
A800000000000000	-9.15894
00B001004801C8	-9.1594
89D08B95	-9.16083
0FB6C983E9	-9.16271
39C80F8D0F000000	-9.16343
8985CCFDFFFF	-9.16432
8B85F8FEFFFF	-9.16582
8B8590FEFFFF	-9.1671
488B8D38FFFFFF	-9.16764
963500004801C8	-9.16798
8B4DC8	-9.17064
0000000084000000	-9.17082
8985C4FDFFFF	-9.17088
898510FCFFFF	-9.17235
8B8D6CFFFFFF	-9.17249
8B4540	-9.17301
800D00004801C8	-9.17319
488B8538FEFFFF48	-9.17365
5EFFFFFF	-9.17394
488B8558FEFFFF48	-9.17531
3007661725F323	-9.17565
F1FF80E1010FB6C9	-9.17598
A2	-9.17599
83B	-9.17697
214504004801C8	-9.17826
8A040824018885	-9.17843
8B85D4FEFFFF	-9.17875
109303004801C8	-9.18057
0000000060000000	-9.18122
898528FCFFFF	-9.18219
8985ACFDFFFF	-9.18278
95C024010FB6C0	-9.18348
00D800004801C8	-9.18359
E90A000000	-9.1837
8945B8	-9.18376
4883C102	-9.1842
488B8548FEFFFF48	-9.18472
80E201488B	-9.18584
8B85E4FEFFFF	-9.18673
8B85E0FEFFFF	-9.18902
488B8D50FFFFFF	-9.18935
000003B000000	-9.18962
489848B9	-9.19005
898530FBFFFF	-9.19053
28FFFFFF	-9.19156
889900004801C8	-9.19172
898558FBFFFF	-9.192
08488B0500000000	-9.1936
898508FCFFFF	-9.19422
22	-9.1945
0000000052000000	-9.19659
2D0	-9.19691
5E0	-9.19907
AFFFFE90C000000	-9.1996
3006172725F3	-9.19975
8985A4FDFFFF	-9.20018
EEFFFF	-9.20318
24018845	-9.20319
898500FCFFFF	-9.20328
0FB64DD7	-9.20355
488B8520FEFFFF48	-9.20422
8B85CCFEFFFF	-9.20424
2C6B00004801C8	-9.20432
4EFFFFFF	-9.20436
000000008B000000	-9.20438
305300004801C8	-9.20449
5E1A00004801C8	-9.2076
8985F0FBFFFF	-9.20832
14000000	-9.20855
488B8540FEFFFF48	-9.20911
F9FFFFE900000000	-9.20915
000F8410000000B8	-9.21075
0FB74DD6	-9.21079
7007661725F323	-9.21269
898540FBFFFF	-9.21297
C60000	-9.21381
8945E4	-9.2139
8985C8FBFFFF	-9.21421
29C8	-9.21427
89C089C1488B	-9.21439
488B4D70	-9.21502
0FAFC16689C1488B	-9.21506
488B8518FEFFFF48	-9.21532
40B600004801C8	-9.21604
8B85BCFEFFFF	-9.2161
000003C000000	-9.21616
4829D14839C80F83	-9.21777
48FFFFFF	-9.21779
B1F702004801C8	-9.21807
21000000	-9.21897
48634DCC	-9.21954
94829C1488B	-9.21977
8B85B4FEFFFF	-9.22013
898584FDFFFF	-9.22097
48898578FFFFFF	-9.22261
8B85D8FEFFFF	-9.2227
8B8570FEFFFF	-9.22339
50FFFFFF	-9.22349
8945A0	-9.22355
488B85F8FDFFFF48	-9.22359
F1	-9.22361
4DDF80E1010FB6C9	-9.22492
E3	-9.22643
C0000000	-9.22709
8B85D0FEFFFF	-9.22783
00000080	-9.22793
48694D98	-9.22881
3B8570FFFFFF0F8	-9.22967
488B8528FEFFFF48	-9.22977
8007661725F323	-9.22978
40FFFFFF	-9.23053
335007661725F333	-9.23069
48634DD0	-9.23078
EEFEFFFF	-9.23188
89858CFDFFFF	-9.23255
0000000092000000	-9.2326
3B8560FFFFFF0F8	-9.23274
414601004801C8	-9.23285
001005004801C8	-9.23297
83C001668985	-9.23307
8B859CFEFFFF	-9.23375
8985D0FBFFFF	-9.2339
488B8508FEFFFF48	-9.23404
488B4D68	-9.23407
8985E8FBFFFF	-9.23411
488B8510FEFFFF48	-9.23422
48C1E10D4801C8	-9.23432
898594FDFFFF	-9.23503
48634DE8	-9.23667
488B85F0FDFFFF48	-9.23677
8945A8	-9.23694
8985F8FBFFFF	-9.23775
480580	-9.23827
205B00004801C8	-9.23876
8985D8FBFFFF	-9.23967
570	-9.23995
45C8483B45C00F8	-9.23995
8B45E0	-9.24021
488B4D78	-9.2413
0000000059000000	-9.24136
8985C0FBFFFF	-9.24142
FFFFFF7F	-9.24162
488B8D90000000	-9.24178
8B8588FEFFFF	-9.24182
30FFFFFF	-9.24244
898508FBFFFF	-9.24261
F8FEFFFF	-9.24304
488B8530FEFFFF48	-9.24309
89859CFDFFFF	-9.24373
8985B8FBFFFF	-9.2442
488B85C8010000	-9.24485
902D00004801C8	-9.24609
3CFFFFFF	-9.24654
480FBF4DDE	-9.24663
8B85C4FEFFFF	-9.24711
D0000000	-9.24726
488B8500FEFFFF48	-9.24781
83F80F0F8D	-9.24805
A00F00004801C8	-9.24809
8985B0FBFFFF	-9.24821
8B4DBC	-9.24821
898538FBFFFF	-9.24862
4DBF80E1010FB6C9	-9.24867
0000004	-9.24917
6007661725F3237	-9.24932
8985E0FBFFFF	-9.24939
24010FB6C088C148	-9.25077
58D600004801C8	-9.25081
83FA000F45C1	-9.25089
2A1100004801C8	-9.25114
488B85D0010000	-9.25152
898528FBFFFF	-9.2517
90000000	-9.25301
0FB64DE7	-9.25377
00FA00004801C8	-9.25404
8B85A4FEFFFF	-9.25406
89857CFDFFFF	-9.25478
929C148	-9.25505
83F8150F8D	-9.25524
000003D000000	-9.25636
8B85C0FEFFFF	-9.25705
898518FBFFFF	-9.25727
E02A00004801C8	-9.25813
8B8560FEFFFF	-9.25838
E2	-9.25871
70FFFFFF	-9.2595
164801C8	-9.26012
0FBE45FF	-9.26097
8B85ACFEFFFF	-9.26105
898520FBFFFF	-9.26241
898574FDFFFF	-9.26321
898564FDFFFF	-9.2634
8B85B8FEFFFF	-9.26346
22000000	-9.26364
5006172725F3	-9.26405
000003E000000	-9.26449
8985A0FBFFFF	-9.26479
83C002668985	-9.26493
6007661725F323	-9.2653
D3	-9.26584
3EFFFFFF	-9.26729
8B85C8FEFFFF	-9.26769
8B85B0FEFFFF	-9.26817
0000000099000000	-9.26854
488B45C048	-9.26908
488B4D88	-9.26924
8985A8FBFFFF	-9.27095
8B8594FEFFFF	-9.27114
8B8568FEFFFF	-9.27199
000003F000000	-9.27219
488B4D60	-9.27347
3B8568FFFFFF0F8	-9.27374
486355	-9.27374
6EFFFFFF	-9.27467
0000040000000	-9.2748
89856CFDFFFF	-9.27678
8A040824010FB6C8	-9.27681
52	-9.27702
C645D	-9.27773
542200004801C8	-9.27825
B3	-9.27896
0FAFC1	-9.27925
48694DA0	-9.27929
0FB64DDF	-9.27931
B90	-9.28007
135007661725F313	-9.28111
8B8598FEFFFF	-9.28182
0000041000000	-9.28339
83E80183F8000F	-9.28359
74FFFFFF	-9.28467
8985F0FAFFFF	-9.28486
000F95C2	-9.28487
8B8D74FFFFFF	-9.28491
7F000000	-9.28495
898554FDFFFF	-9.28514
48898568FFFFFF	-9.28521
488B4D58	-9.2856
89855CFDFFFF	-9.28667
8B8D64FFFFFF	-9.28686
701	-9.28693
C1C500004801C8	-9.28885
982D	-9.29052
0FBFC881E9	-9.29099
B0000000	-9.29175
8A4	-9.29259
83F8130F8D	-9.29274
0FBFC981E9	-9.29288
8945A4	-9.29418
4C8B8D980	-9.29425
898598FBFFFF	-9.29461
006172725F3	-9.29515
83C	-9.29548
8B8550FEFFFF	-9.29598
89854CFDFFFF	-9.29687
701500004801C8	-9.29715
89851CFDFFFF	-9.29768
56FFFFFF	-9.29773
8985F8FAFFFF	-9.29946
89C88B8D	-9.29976
14FFFFFF	-9.29997
83C004668985	-9.30133
8B4DE04869C9	-9.30134
480FBE4DC7	-9.30151
3B8558FFFFFF0F8	-9.30212
0007661725F323	-9.30264
A84400004801C8	-9.30279
8945C4	-9.30289
8985E0FAFFFF	-9.30328
89853CFDFFFF	-9.30489
0FBEC983C1	-9.30496
7CFFFFFF	-9.30507
8985D8FAFFFF	-9.30523
898524FDFFFF	-9.30531
8845D	-9.30557
8B4D9C	-9.30606
898544FDFFFF	-9.30614
46FFFFFF	-9.30683
4883E9	-9.30698
4883E9024869C9	-9.30724
83F8110F8D	-9.30759
5007661725F323	-9.30778
C645E	-9.30831
32	-9.30835
9FFFF0F8	-9.30838
08FFFFFF	-9.30928
8985C8FAFFFF	-9.3095
488B8D98000000	-9.30992
83F80C0F8D	-9.31008
8B85A8FEFFFF	-9.3111
109A01004801C8	-9.31154
488B85D8010000	-9.31469
8B4DB0	-9.31564
78FFFFFF	-9.31655
488B85E8FDFFFF48	-9.31695
8B858CFEFFFF	-9.31721
83C003668985	-9.31766
0E000000	-9.31774
337007661725F333	-9.31846
11FD01004801C8	-9.31877
48898508FFFFFF	-9.31919
8985D0FAFFFF	-9.31927
4883E8	-9.31947
48B9	-9.32142
7EFFFFFF	-9.32187
4DAF80E1010FB6C9	-9.32201
898588FBFFFF	-9.32211
89F08BB5	-9.32212
15000000	-9.32252
CC1400004801C8	-9.32256
8945C48B45C4	-9.32318
0FBE0408489848	-9.32378
83C0018885	-9.32432
8B85A0FEFFFF	-9.32467
8B857CFEFFFF	-9.32474
CFFFF24010FB6C0	-9.32487
660A00004801C8	-9.32572
488B85E0FDFFFF48	-9.326
898534FDFFFF	-9.32647
8985C0FAFFFF	-9.32787
8B4DB4	-9.32796
83F80B0F8D	-9.32872
8945D08B45D0	-9.32893
83F8160F8D	-9.3291
0000042000000	-9.33007
48694D80	-9.33031
488B85D0FDFFFF48	-9.33086
E915000000	-9.33217
18FFFFFF	-9.33221
401	-9.33247
C8000000	-9.33303
00000000A7000000	-9.33353
488B8DA0000000	-9.3341
8945D48B45D4	-9.33507
00000000000000	-9.33508
FCFEFFFF	-9.33537
10000000488B45D0	-9.33538
83F8140F8D	-9.33547
488B85C0FDFFFF48	-9.33622
3B8550FFFFFF0F8	-9.33629
10000000000000	-9.33639
898578FBFFFF	-9.33671
8B8574FEFFFF	-9.33753
0FB74DE2	-9.33771
488B85D8FDFFFF48	-9.33798
488B45F848	-9.33815
898560FBFFFF	-9.33916
4D9F80E1010FB6C9	-9.33926
6006172725F313	-9.33979
8985E8FAFFFF	-9.33984
EDFFFF	-9.34079
0000000067000000	-9.34104
8A45D724010FB6C0	-9.3412
005100004801C8	-9.34211
B80	-9.34291
94C024010FB6C0	-9.34318
786900004801C8	-9.34401
83E801	-9.34459
C05500004801C8	-9.34471
68FFFFFF	-9.34471
83F80A0F8D	-9.34538
0FBEC983E9	-9.34627
0FB70448489848	-9.34668
E9090000008B45D	-9.34705
8B8538FEFFFF	-9.34706
8985B8FAFFFF	-9.34711
898514FDFFFF	-9.34768
8A45E324010FB6C0	-9.34826
8B4DB8	-9.34838
0FB645EF	-9.34856
3F000000	-9.34975
540	-9.3504
488B45B048	-9.3505
FFFF	-9.35074
8B8520FEFFFF	-9.35081
83F80D0F8D	-9.35107
0FB64DEF	-9.3511
D00700004801C8	-9.35212
0FBF00	-9.35256
8B4DC0	-9.35265
31D2F7F1	-9.35277
8B85ECFDFFFF	-9.35281
24FFFFFF	-9.35298
83F8120F8D	-9.35305
898580FBFFFF	-9.35307
8985A8FAFFFF	-9.35361
8B8564FEFFFF	-9.3539
0FB60408489848	-9.3539
8945CC8B45CC	-9.354
39C80F94C0	-9.35427
83C0028885	-9.3545
8B8584FEFFFF	-9.35499
48898500FFFFFF	-9.35558
8945B48B45B4	-9.35721
8B856CFEFFFF	-9.35798
604801C8	-9.35898
8B8580FEFFFF	-9.36053
0000043000000	-9.36067
00000000AE000000	-9.36078
0FB64528	-9.3609
83F8100F8D	-9.36094
0FB600	-9.36181
0FB6400	-9.36283
44FFFFFF	-9.3635
488B45A048	-9.36362
3B8540FFFFFF0F8	-9.36379
8A45F724010FB6C0	-9.36401
89852CFDFFFF	-9.36429
7006172725F3	-9.3645
38FFFFFF	-9.36512
8985FCFCFFFF	-9.3659
48634DE04869C9	-9.36626
8006172725F313	-9.36659
21C8	-9.36663
488B451048	-9.36718
488B8D60FFFFFF	-9.36887
898568FBFFFF	-9.36935
8945BC8B45BC	-9.36972
5F000000	-9.37114
488BB5	-9.37236
8985A0FAFFFF	-9.37245
39C80F95C0	-9.3726
0D00000031C0	-9.3735
8B8554FEFFFF	-9.37357
898598FAFFFF	-9.37427
898590FAFFFF	-9.37453
8B854CFEFFFF	-9.37474
488B4D50	-9.37525
898588FAFFFF	-9.37532
8B855CFEFFFF	-9.37619
488B85A8FDFFFF48	-9.37788
31C02B45	-9.37797
4DC780E1010FB6C9	-9.37876
0FBE400	-9.37879
488B45C848	-9.38012
007102004801C8	-9.38076
C645C	-9.381
8945AC	-9.38163
488B85C8FDFFFF48	-9.38407
488B80	-9.38421
488B85E0010000	-9.38526
C745	-9.38565
8B8510FEFFFF	-9.38592
488B8DA8000000	-9.38606
8B85BCFDFFFF	-9.3866
BC3400004801C8	-9.38688
488B8598FDFFFF48	-9.38689
48C1E10F4801C8	-9.38722
8B8518FEFFFF	-9.38739
5F0	-9.38741
0000044000000	-9.38745
488B4558488B4550	-9.38759
488B8D30FFFFFF	-9.38826
3B8548FFFFFF0F8	-9.38856
5D000000	-9.38868
8B85F4FDFFFF	-9.3906
0FBE95	-9.39075
48C1E10E4801C8	-9.3908
48898518FFFFFF	-9.39164
00000000B5000000	-9.39171
58FFFFFF	-9.39173
8B85E0FDFFFF	-9.39233
184801C8	-9.39253
0CFFFFFF	-9.3936
3A000000	-9.39371
8B4548	-9.39397
0FB64DC7	-9.39407
00FFFFFF	-9.39425
488B85A0FDFFFF48	-9.39437
898560FAFFFF	-9.39443
09C8	-9.39482
8B8578FEFFFF	-9.39559
8B8508FEFFFF	-9.3957
8945B4	-9.39581
48898540FFFFFF	-9.39593
8B853CFEFFFF	-9.39698
48898520FFFFFF	-9.3975
FFFF0000	-9.39762
8B85E4FDFFFF	-9.39793
50000000	-9.39904
5D0	-9.39923
8B85FCFDFFFF	-9.39935
000000006E000000	-9.40047
898580FAFFFF	-9.40072
F6FEFFFF	-9.40129
488B85B0FDFFFF48	-9.40187
0000000080010000	-9.40256
89850CFDFFFF	-9.4032
45C0483B45B80F8	-9.40367
20FFFFFF	-9.40369
0FBF95	-9.40399
8B8D54FFFFFF	-9.40436
B8FEFFFF	-9.40445
1006172725F3	-9.40452
8945D88B45D8	-9.40471
102700004801C8	-9.40555
89C0	-9.40571
3B8538FFFFFF0F8	-9.40581
2EFFFFFF	-9.4059
0FB745EE	-9.40645
898548FBFFFF	-9.40663
33000000	-9.40725
8B8544FEFFFF	-9.4078
488B04C84883F0FF	-9.4092
0FBE0C11	-9.40927
8B45DC	-9.40974
1007661725F323	-9.41009
560	-9.41043
39000000	-9.4108
8B85DCFDFFFF	-9.41082
8B4D8C	-9.41262
898550FBFFFF	-9.41298
488B45A848	-9.4135
3B4	-9.41383
86FEFFFF	-9.41396
E918000000	-9.41425
F0000000	-9.41434
894584	-9.41451
488B8D08FFFFFF	-9.41482
488B85B8FDFFFF48	-9.41497
0000045000000	-9.41512
48837DE8000F84	-9.41538
898578FAFFFF	-9.4154
488B452048	-9.41583
5C0	-9.41607
E90D00000031C0	-9.41608
0000046000000	-9.41612
35000000	-9.41622
01010000	-9.41679
6689C1	-9.41741
0FB68D7FFFFFFF	-9.41746
4007661725F323	-9.41785
4863C8	-9.41811
980	-9.41835
480FBF4DDA	-9.41883
8B4550	-9.4189
584801C8	-9.41896
488B8590FDFFFF48	-9.41902
83F80E0F8D	-9.41973
898570FAFFFF	-9.42025
23000000	-9.42061
898504FDFFFF	-9.42146
0FBF0448489848	-9.4215
8945C88B45C8	-9.42157
F01	-9.42176
488B8588FDFFFF48	-9.42245
8985D4FCFFFF	-9.42279
488B45D8	-9.42311
2C000000	-9.42312
916F00004801C8	-9.42312
313900004801C8	-9.42328
2006172725F313	-9.42409
0FB645E7	-9.42459
83F8170F8D	-9.4249
36FFFFFF	-9.42526
00000000BC000000	-9.4257
8B85F0FDFFFF	-9.42592
83C0038885	-9.42716
8B85D8FDFFFF	-9.42722
8985F4FCFFFF	-9.42725
8B85E8FDFFFF	-9.42739
8B85D0FDFFFF	-9.42775
8985DCFCFFFF	-9.4284
488B8578FDFFFF48	-9.42849
48898550FFFFFF	-9.42871
898550FAFFFF	-9.4288
09C888C148	-9.42914
D10	-9.42919
8B851CFEFFFF	-9.42934
8985C4FCFFFF	-9.42957
E919000000	-9.42999
680	-9.43007
1EFFFFFF	-9.43055
27000000	-9.43096
89459C	-9.43124
69C0	-9.43158
8B8500FEFFFF	-9.43183
8985ECFCFFFF	-9.43191
48898570FFFFFF	-9.43222
26000000	-9.43269
488B459048	-9.43272
8B8534FEFFFF	-9.43312
8985BCFCFFFF	-9.43419
8985E4FCFFFF	-9.4343
0FBFC881C1	-9.43446
26FFFFFF	-9.43468
10000000488B45D8	-9.43507
36000000	-9.4351
34000000	-9.43541
5CFFFFFF	-9.43631
0000047000000	-9.43659
3B8528FFFFFF0F8	-9.43662
0000000075000000	-9.43673
D0FEFFFF	-9.43694
8945DC8B45DC	-9.43698
8B4DE44869C9	-9.43728
898558FAFFFF	-9.43904
24010FB6C04863D0	-9.43942
0006172725F313	-9.43946
0FBE4510	-9.43976
2B000000	-9.44009
8985ACFCFFFF	-9.44041
0FB645F7	-9.44046
3B8530FFFFFF0F8	-9.44094
9805	-9.44095
8C0	-9.44138
3B8520FFFFFF0F8	-9.44154
488994C8	-9.44176
E9090000008B45A	-9.44179
8B85B4FDFFFF	-9.44187
C0FEFFFF	-9.44244
24010FB6C04863C8	-9.4426
00000000C3000000	-9.44354
488B8570FDFFFF48	-9.44385
0F95C024010FB6C0	-9.4441
06FFFFFF	-9.44417
45B8483B45B00F8	-9.44429
488B8DB0000000	-9.44461
8B8540FEFFFF	-9.44592
488B85E8010000	-9.4461
488B8580FDFFFF48	-9.44656
0FB60C11	-9.44804
48698D78FFFFFF	-9.44836
ECFEFFFF	-9.44838
0FB745FE	-9.44839
590	-9.44931
8B85ACFDFFFF	-9.44994
0FBFC981C1	-9.45038
8B85D4FDFFFF	-9.45168
D00000000488B0	-9.45251
8B4DA8	-9.45265
488B8560FDFFFF48	-9.45272
2007661725F323	-9.45397
8B8548FEFFFF	-9.45562
CEFEFFFF	-9.45605
8945AC8B45AC	-9.45642
8B85F8FDFFFF	-9.45644
8985B4FCFFFF	-9.45681
898568FAFFFF	-9.45731
0FB64530	-9.45753
8A45EB24010FB6C0	-9.45759
8B85C8FDFFFF	-9.45808
4C8B8DB80	-9.45836
A3	-9.46008
050	-9.46067
8B4D98	-9.46105
304801C8	-9.46113
D30	-9.46171
8945A48B45A4	-9.46205
8B85B8FDFFFF	-9.46207
83C10289C94869C9	-9.46227
0000048000000	-9.4628
613000000488B857	-9.46295
89C089C2	-9.46329
898510FBFFFF	-9.46351
8945C08B45C0	-9.46433
5A0	-9.46435
000000007C000000	-9.46445
550	-9.46487
8B85C4FDFFFF	-9.46511
25000000	-9.46518
488B8568FDFFFF48	-9.46583
8B85CCFDFFFF	-9.46617
60000000	-9.4667
510	-9.46714
F0FEFFFF	-9.46758
8985A4FCFFFF	-9.46881
480FBF4DE6	-9.46893
8B8558FEFFFF	-9.46974
48898560FFFFFF	-9.47003
FEFEFFFF	-9.4704
4833	-9.4704
89459C8B459C	-9.47176
C8B8D800000004	-9.47284
8B850CFEFFFF	-9.47357
668B0448	-9.47361
898594FCFFFF	-9.47407
3FFFF8B85	-9.47416
488985E0FEFFFF	-9.47442
4883E903	-9.47511
8B852CFEFFFF	-9.47515
21C86689C1488B	-9.47518
898538FAFFFF	-9.47522
488945D0488B	-9.47552
488B8558FDFFFF48	-9.47593
48C1E1104801C8	-9.47604
488985C0FEFFFF	-9.47615
0FB64DEE	-9.47658
3B000000	-9.4778
28000000	-9.47788
3B8518FFFFFF0F8	-9.47834
5B0	-9.47856
89458C	-9.47898
21C888C148	-9.47914
488B4D48	-9.47942
81	-9.47951
89859CFCFFFF	-9.47959
2D000000	-9.47994
D70	-9.48027
8B4D94	-9.48134
0FB74DB6	-9.48303
E6FEFFFF	-9.48321
8007661725F313	-9.48343
313000000488B856	-9.48387
898540FAFFFF	-9.48395
339007661725F343	-9.48468
0FB64DB7	-9.4853
DB0	-9.48556
613000000488B856	-9.48592
2CFFFFFF	-9.48639
8B8524FEFFFF	-9.48642
488B451848	-9.48694
898528FAFFFF	-9.48781
313000000488B857	-9.48793
898548FAFFFF	-9.48827
00000000CA000000	-9.48848
24000000	-9.4886
8995	-9.4892
0000000090000000	-9.48952
E0010000	-9.48968
E80	-9.49021
488B8550FDFFFF48	-9.49076
8B85A8FDFFFF	-9.49078
83E90289C94869C9	-9.49088
488B8D48FFFFFF	-9.49116
486B4DC0	-9.49121
8985CCFCFFFF	-9.49135
BFFFF24010FB6C0	-9.49373
109600004801C8	-9.494
0FBE4520	-9.49436
0000000010010000	-9.49459
8945948B4594	-9.49506
83C0048885	-9.49533
520	-9.49556
8B4DD84869C9	-9.49627
0000000083000000	-9.49802
1C86689C1488B	-9.49831
E91300000048C7C0	-9.49877
000004A000000	-9.49919
0FBE4528	-9.49924
488985B8FEFFFF	-9.49952
3C000F84	-9.49987
488945C8488B	-9.49993
2A000000	-9.50022
3B8508FFFFFF0F8	-9.50133
4883F0FF48	-9.50161
8B85C0FDFFFF	-9.50194
89857CFCFFFF	-9.50205
89858CFCFFFF	-9.50231
4883FA000F45C1	-9.50287
8B85A4FDFFFF	-9.50325
24010FB6C06689C2	-9.50332
29000000	-9.50365
6007661725F3137	-9.50374
47FEFFFF	-9.50406
488B8548FDFFFF48	-9.50413
09C86689C1488B	-9.50426
0000049000000	-9.50522
8B8514FEFFFF	-9.50537
8B8530FEFFFF	-9.50558
660	-9.50637
38000000	-9.50688
0F8E11000000	-9.50755
C8B4D784C8B4D704	-9.5077
488B4D40	-9.50911
BEFEFFFF	-9.50915
000000002E000000	-9.50977
0400	-9.50986
0FBE4518	-9.5104
491	-9.51049
48898510FFFFFF	-9.51059
0FBF0C51	-9.51083
488B8540FDFFFF48	-9.5115
8B4558	-9.51222
4C8B8D880000004	-9.51228
48898528FFFFFF	-9.51313
10FEFFFF	-9.51318
8B859CFDFFFF	-9.51331
0FB74DC6	-9.51353
898518FAFFFF	-9.51377
898530FAFFFF	-9.51398
0000000035000000	-9.51415
898584FCFFFF	-9.51454
E0FEFFFF	-9.51467
898500FBFFFF	-9.51483
D6FEFFFF	-9.51535
40000000	-9.51536
DF000000	-9.51573
133007661725F313	-9.51579
6D0	-9.51581
480FBE4DDF	-9.51606
48898558FFFFFF	-9.51664
48000000	-9.51679
0FBE45F7	-9.51681
428A08004801C8	-9.51692
6CFFFFFF	-9.51736
42	-9.51783
2E000000	-9.51837
A8000000	-9.51859
BA0	-9.51868
48C7C0	-9.519
A6FEFFFF	-9.52002
431007661725F343	-9.52053
F8FFFFE900000000	-9.52086
04FFFFFF	-9.52113
34FFFFFF	-9.52125
45B0483B45A80F8	-9.52244
2B0	-9.52245
00000004C8B85	-9.52252
B6FEFFFF	-9.52261
4DDB80E1010FB6C9	-9.52268
4DD380E1010FB6C9	-9.52292
8B85B0FDFFFF	-9.52321
AEFEFFFF	-9.52374
DC0	-9.5242
2D1	-9.52479
480FBF4DC6	-9.5248
644801C8	-9.52488
E4FEFFFF	-9.52495
4FFFF8B	-9.52499
530	-9.52506
00000000D1000000	-9.52525
2B45	-9.52532
601	-9.52538
8A1408	-9.52548
9FFFFE90C000000	-9.52682
31C02B85	-9.52691
80100004C8B85	-9.52739
898508FAFFFF	-9.52756
488B8D10FFFFFF	-9.52854
488945C0488B	-9.52866
83F8180F8D	-9.52979
898520FAFFFF	-9.53002
488B8538FDFFFF48	-9.53019
83F9000F95C180	-9.53081
488B8DB8000000	-9.53122
39C80F9EC0	-9.53126
4863C848B8	-9.53127
48898538FFFFFF	-9.53275
898564FCFFFF	-9.53309
894594	-9.53375
89855CFCFFFF	-9.53412
8D77FFFFFF80	-9.53481
0FB70C51	-9.53485
10000000488B45E0	-9.53505
488B8DC0000000	-9.53528
8B4D84	-9.53535
31C029C8489848	-9.53546
0FB74DCE	-9.53621
4006172725F313	-9.5363
8B8504FEFFFF	-9.53675
0000000008010000	-9.5368
488B85F0010000	-9.53719
3B8510FFFFFF0F8	-9.53727
72	-9.53891
48634DBC	-9.53903
5FCFFFF	-9.53933
6B0	-9.53952
000000008A000000	-9.54024
4823	-9.54061
3B8500FFFFFF0F8	-9.54156
7006172725F313	-9.54199
8B858CFDFFFF	-9.54266
89856CFCFFFF	-9.54274
DF0	-9.54279
488B8528FDFFFF48	-9.54295
480FBE4DD7	-9.543
E8FEFFFF	-9.54307
488B8D18FFFFFF	-9.54338
B01	-9.54383
8B8528FEFFFF	-9.54398
DFFFF0FB78D	-9.54429
0EFFFFFF	-9.54527
690	-9.54567
62	-9.54602
B901000000	-9.54665
000000003C000000	-9.54756
08AF2F004801C8	-9.54768
0D000000B8	-9.54771
89851CFCFFFF	-9.5479
89854CFCFFFF	-9.54809
FFFFFFFFFFFFFF7F	-9.54818
6172725F3	-9.54883
89458C8B458C	-9.54914
580	-9.54933
C8B4D684C8B4D604	-9.54934
8945B08B45B0	-9.54962
480FBE040848	-9.5502
004401004801C8	-9.55144
898510FAFFFF	-9.55198
8945E08B45E0	-9.55355
39C80F9CC0	-9.55413
E912000000	-9.55453
C1	-9.55508
5007661725F3	-9.5552
6683F8000F84	-9.55536
8945B88B45B8	-9.55545
898500FAFFFF	-9.55565
8B857CFDFFFF	-9.55588
84D717004801C8	-9.55666
488985A8FEFFFF	-9.55673
480FBF044848	-9.55691
433007661725F343	-9.5573
2F0	-9.55745
EC0	-9.55771
070	-9.55797
54FFFFFF	-9.55804
488B8530FDFFFF48	-9.55813
898524FCFFFF	-9.55847
00000000A8	-9.55981
488B85F0FCFFFF48	-9.55984
48634DEC	-9.55992
488B8DF8FEFFFF	-9.56031
8B8590FDFFFF	-9.56041
30000000	-9.56043
D80	-9.56045
488B8D40FFFFFF	-9.56143
2F000000	-9.56255
FEFFFFFF	-9.5626
488B8500FDFFFF48	-9.563
8B8594FDFFFF	-9.56316
CCFEFFFF	-9.56319
48634DDC4869C9	-9.56377
8B8D7CFFFFFF	-9.56417
613000000488B855	-9.5665
488B8508FDFFFF48	-9.56693
000004C000000	-9.56704
488B8D28FFFFFF	-9.56753
488B8520FDFFFF48	-9.56863
DFCFFFF	-9.5687
D20	-9.56873
8985D0F9FFFF	-9.56897
0F94C024010FB6C0	-9.56923
DFFFF0FBF8D	-9.56983
488945A8488B	-9.56998
898544FCFFFF	-9.57014
8B8584FDFFFF	-9.57022
8B8598FDFFFF	-9.57037
B4FEFFFF	-9.57057
8985F0F9FFFF	-9.5708
83E8014863C8	-9.57084
8985B0FAFFFF	-9.57113
DEFEFFFF	-9.57114
480FBF4DE2	-9.57154
898554FCFFFF	-9.57191
8985E8F9FFFF	-9.57225
A80	-9.57247
DC300000000	-9.57294
8985F8F9FFFF	-9.57302
8B4D88	-9.57302
71	-9.57306
8B7D	-9.57425
3B85F0FEFFFF0F8	-9.57476
313000000488B855	-9.57505
488985F8FEFFFF	-9.57514
BCFEFFFF	-9.57533
D4FEFFFF	-9.57588
89852CFCFFFF	-9.57614
8985D8F9FFFF	-9.57689
39C80F9FC0	-9.57695
66C745B	-9.57727
41000000	-9.57734
56FEFFFF	-9.57764
0FBE45EF	-9.57816
64000000	-9.57909
F4FEFFFF	-9.57928
89F08B75	-9.57965
3D000000	-9.5802
3E000000	-9.58096
31C0482B45	-9.58108
45A8483B45A00F8	-9.58113
000004C8B8D9	-9.58199
488B85F8010000	-9.58244
39C80F9DC0	-9.58249
000004D000000	-9.58381
898574FCFFFF	-9.58396
899488	-9.58419
1CFFFFFF	-9.58421
2D2	-9.58445
8B85A0FDFFFF	-9.58528
8985E4FBFFFF	-9.58554
1300000048C7C0	-9.58578
8B4560	-9.58614
018A85	-9.5862
0000050000000	-9.58634
8B8578FDFFFF	-9.58646
FC0	-9.58673
488B8DC8000000	-9.58705
21	-9.58738
488B8510FDFFFF48	-9.58744
51	-9.58757
850	-9.58836
8B8564FDFFFF	-9.58837
488985F0FEFFFF	-9.58896
000004B000000	-9.59001
8B8588FDFFFF	-9.59006
194801C8	-9.59117
8B8580FDFFFF	-9.59198
E916000000	-9.59201
640	-9.59231
0000000091000000	-9.59245
E01	-9.59296
144801C8	-9.59328
000004F000000	-9.59329
0000000043000000	-9.59344
0FB74D96	-9.59375
10FFFFFF	-9.59419
480FBF8D7EFFFFFF	-9.59421
480FBE4DE7	-9.59456
4CFFFFFF	-9.59466
082922004801C8	-9.59476
2C4801C8	-9.59521
8945A88B45A8	-9.59559
E9090000008B45B	-9.5961
3B85F8FEFFFF0F8	-9.59735
4801CA	-9.59749
8B856CFDFFFF	-9.59751
32000000	-9.59779
8985E0F9FFFF	-9.59779
66FEFFFF	-9.59817
9006172725F3	-9.59822
3C000000	-9.59828
8B4DA4	-9.59884
613000000488B854	-9.59936
8985C8F9FFFF	-9.59944
0000000098000000	-9.59968
D40	-9.59981
8985C0F9FFFF	-9.59997
52FFFFFF	-9.60085
488B85F8FCFFFF48	-9.60094
80E10148	-9.60102
83C0014863C8	-9.60119
480FBF4DDE4869C9	-9.60238
00000000DF000000	-9.60291
31000000	-9.60325
80981C004801C8	-9.60328
8B853CFDFFFF	-9.60342
8945848B4584	-9.60383
12FFFFFF	-9.60417
00200A004801C8	-9.60439
488B8518FDFFFF48	-9.60485
24010FB6C088C2	-9.60513
89853CFCFFFF	-9.60594
0FB74DEE	-9.60625
48694D88	-9.60654
8B4DF0	-9.60716
C645B	-9.60734
313000000488B854	-9.6087
0FB74DBE	-9.60932
00000000E6000000	-9.60952
E917000000	-9.60989
613000000488B853	-9.61068
000004E000000	-9.61139
8B8568FDFFFF	-9.61196
8B8574FDFFFF	-9.61248
E9090000008B459	-9.61264
174801C8	-9.61351
008802004801C8	-9.61379
488945B8488B	-9.61413
D7FDFFFF	-9.61535
610	-9.61561
8985B8F9FFFF	-9.61588
480FBE4DCF	-9.61606
C645A	-9.6162
0FB745F6	-9.61632
3B85E0FEFFFF0F8	-9.61638
B81	-9.61686
89850CFCFFFF	-9.6169
00100004C8B85	-9.61694
0FB745E6	-9.6174
8B854CFDFFFF	-9.61769
000000009F000000	-9.61807
8B851CFDFFFF	-9.6185
313000000488B852	-9.6186
87000000	-9.61863
C8B4D584C8B4D504	-9.61865
66C745A	-9.61922
9FDFFFF	-9.61923
50FEFFFF	-9.61957
480FBF4DDC	-9.61993
48898548FFFFFF	-9.62
80FEFFFF	-9.62004
041905004801C8	-9.62019
4863C948	-9.6208
16FFFFFF	-9.62184
898534FCFFFF	-9.62197
C4FEFFFF	-9.6224
42000000	-9.62241
3BD	-9.62276
488B050000000023	-9.62282
0F8D11000000	-9.62312
8B8534FDFFFF	-9.62316
48634DD84869C9	-9.62351
6C0	-9.62381
E9090000008B45C	-9.62392
4AFFFFFF	-9.62427
9D0	-9.62462
4C8B8DD80	-9.62506
8B8570FDFFFF	-9.6261
488B85E8FCFFFF48	-9.62662
A4FEFFFF	-9.62693
4883C1034869C9	-9.6274
3000000000000	-9.62741
8B4DDC4869C9	-9.62746
4DE380E1010FB6C9	-9.62758
120	-9.62811
8A8408	-9.62835
A40	-9.62852
898514FCFFFF	-9.62865
72FFFFFF	-9.62904
480FBF4DCE	-9.62933
5EFEFFFF	-9.62961
8985B0F9FFFF	-9.62966
1006172725F313	-9.63005
4C8B8DA80	-9.63006
8985C4FBFFFF	-9.63032
8985ECFBFFFF	-9.63041
45A0483B45980F8	-9.63086
110	-9.63105
ACFEFFFF	-9.63126
9EFEFFFF	-9.63141
8B8544FDFFFF	-9.63148
340	-9.63155
8B8524FDFFFF	-9.63185
8A45CF24010FB6C0	-9.63208
488945B0488B	-9.63213
8B4D90	-9.63228
488B85D8FCFFFF48	-9.63244
88BD17004801C8	-9.6332
54FEFFFF	-9.63321
740	-9.63345
83E	-9.63403
0000000083BD	-9.63506
4C0	-9.63541
030	-9.63552
C2EB0B004801C8	-9.636
00A200004801C8	-9.63674
010	-9.63701
7F0000	-9.63773
38FEFFFF	-9.63773
404C0E004801C8	-9.638
101	-9.63807
8B8558FDFFFF	-9.63822
E8000000	-9.63838
488B8500020000	-9.63856
486B4DB8	-9.63867
00480385	-9.63877
350	-9.63894
5CFEFFFF	-9.63901
00000000ED000000	-9.63957
C40	-9.63957
435007661725F343	-9.63962
0FB74DEC	-9.63994
480FBF4DE4	-9.64013
190	-9.64015
8945A08B45A0	-9.64036
62EF05004801C8	-9.64095
250	-9.64137
270	-9.64158
488985E8FEFFFF	-9.64172
0000000048010000	-9.64211
00E204004801C8	-9.64219
BBFEFFFF	-9.64266
0B0	-9.64279
0FBF45F6	-9.64301
05000000004833	-9.64345
C8FEFFFF	-9.64398
5FFFFE90E000000	-9.64412
DCFEFFFF	-9.6448
CD0	-9.64499
24010FB6C04898	-9.64501
1AFFFFFF	-9.64581
8945EC	-9.64602
000000004A000000	-9.64605
898504FCFFFF	-9.64619
0FBF45FE	-9.64637
313000000488B851	-9.64659
9CFEFFFF	-9.64677
8B8D4CFFFFFF	-9.64702
DA0	-9.64717
20FEFFFF	-9.64785
48898590FEFFFF	-9.64813
488B85E0FCFFFF48	-9.64855
8B8554FDFFFF	-9.64863
26FEFFFF	-9.649
0000000027000000	-9.64964
8B4DD44869C9	-9.6501
410	-9.65011
F60	-9.65063
D50	-9.65073
488945A0488B	-9.6514
48B8E	-9.65168
64FFFFFF	-9.6525
480FBF4DD2	-9.65272
8985FCFBFFFF	-9.65304
8B8538FDFFFF	-9.65345
8B855CFDFFFF	-9.65396
31C04829C8	-9.65402
6FFDFFFF	-9.65428
8985A8F9FFFF	-9.65445
4E000000	-9.65484
00000000A6000000	-9.6555
0FBF4518	-9.6557
290	-9.65574
3B85D8FEFFFF0F8	-9.65574
488B85D0FCFFFF48	-9.65583
4598483B45900F8	-9.65592
3B85E8FEFFFF0F8	-9.65625
480FBF4DD6	-9.65636
8B1488	-9.65668
8B8548FDFFFF	-9.6568
3B85C8FEFFFF0F8	-9.65688
8B8550FDFFFF	-9.65804
4FAFFFF	-9.65805
00000000F4000000	-9.65813
8985B4FBFFFF	-9.65846
8CFEFFFF	-9.65852
8945988B4598	-9.65876
48B81	-9.65878
47000000	-9.65883
90010000	-9.65932
0FB64538	-9.65965
D13000000488B857	-9.65977
48B87	-9.65989
480FBF4DE0	-9.6603
8B0C91	-9.66047
233007661725F323	-9.66075
3D0	-9.66081
4B0	-9.6617
8985CCFBFFFF	-9.66192
313000000488B853	-9.66206
79000000	-9.66257
488B8DD0000000	-9.66324
C80	-9.66331
C6459	-9.66383
231007661725F323	-9.66392
D60	-9.66419
94FEFFFF	-9.66438
24FEFFFF	-9.6646
C4DE0B004801C8	-9.66482
AC0	-9.66511
060	-9.66521
8B8560FDFFFF	-9.66534
0FB74510	-9.66595
C01	-9.66596
C90	-9.66597
901	-9.66616
2BFFFFFF	-9.66647
0FB64D9F	-9.66684
488B85C8FCFFFF48	-9.66775
88FEFFFF	-9.66781
1C0	-9.66794
20010000	-9.66846
000004C8B8DA	-9.66868
488B85C0FCFFFF48	-9.6691
0000000038010000	-9.67012
78000000	-9.67053
330	-9.67099
4F000000	-9.67111
66899448	-9.67153
00000000AD000000	-9.67159
0F95C08885	-9.67207
A01	-9.67252
180	-9.67302
58FEFFFF	-9.67336
E13000000488B856	-9.6734
841411004801C8	-9.67427
44F407004801C8	-9.67459
0500000000891488	-9.67479
8A45E624010FB6C0	-9.67493
22FA03004801C8	-9.67514
28FEFFFF	-9.6756
1A0	-9.67656
ECFDFFFF	-9.6769
DD0	-9.67721
488B85B8FCFFFF48	-9.67726
130	-9.67787
488985D8FEFFFF	-9.67788
897DFC	-9.6786
DEFDFFFF	-9.67921
48B82	-9.68001
8985A0F9FFFF	-9.68007
8985ACFBFFFF	-9.68014
480540	-9.6804
88C1	-9.68063
DFFFF01C8668985	-9.68082
650	-9.68105
8B048883F0FF	-9.68121
8B8D5CFFFFFF	-9.68139
E9090000008B458	-9.68165
860	-9.68169
310	-9.68199
490	-9.68227
98FEFFFF	-9.68238
8B8D24FFFFFF	-9.68244
0FB64DBF	-9.68275
DE0	-9.68282
4DDE80E1010FB6C9	-9.68308
18FEFFFF	-9.68349
ECFFFF	-9.6842
440	-9.68453
B80100000048	-9.68453
1D0	-9.6852
D8FEFFFF	-9.68523
480FBF4DEC	-9.68653
1007661725F3	-9.68669
8B8520FDFFFF	-9.68679
0000051000000	-9.68719
C6FEFFFF	-9.6872
67FEFFFF	-9.68744
4829D14839C80F8D	-9.68747
83F2FF	-9.68768
33FFFFFF	-9.688
E40	-9.68819
48898530FFFFFF	-9.68842
488B459848	-9.68855
89859CFBFFFF	-9.68874
420	-9.68929
898598F9FFFF	-9.68939
8B8540FDFFFF	-9.68959
7FFFFFFF	-9.68975
48B8C	-9.68981
E914000000	-9.69036
0000000051000000	-9.69036
0FB745FC	-9.69069
3B0	-9.69083
828C02004801C8	-9.69088
48898570FEFFFF	-9.6914
8985F4FBFFFF	-9.69143
8985DCFBFFFF	-9.69181
613000000488B852	-9.69199
486B4DB0	-9.69235
710	-9.69343
00000000FB000000	-9.69346
0FB68D77FFFFFF	-9.6937
0FB745FA	-9.69374
F80000004C8B8	-9.69379
0FB64DEB	-9.69389
A2FEFFFF	-9.69396
08320A004801C8	-9.69417
990	-9.69437
488B8D00FFFFFF	-9.69444
4D0	-9.69486
201	-9.69518
1B0	-9.69521
8A0408	-9.69587
004014004801C8	-9.69591
460	-9.69615
0FBF4DE6	-9.69636
8985A4FBFFFF	-9.69643
437007661725F343	-9.69671
8B8514FDFFFF	-9.69712
8B85FCFCFFFF	-9.69763
3CFEFFFF	-9.69777
48B8D	-9.69804
B20	-9.6981
0000000002010000	-9.69948
6C000000	-9.6997
801	-9.6999
F80	-9.70042
9007661725F3	-9.70073
880	-9.70074
31C929D1	-9.70099
4A0	-9.70106
48898560FEFFFF	-9.70119
488B8DD8FEFFFF	-9.70151
40020000	-9.70166
8B8518FDFFFF	-9.70238
810	-9.70277
3B85D0FEFFFF0F8	-9.70359
F8000000	-9.70394
48898558FEFFFF	-9.70401
A8FEFFFF	-9.70401
61	-9.70402
8985D4FBFFFF	-9.70446
0FAFC183F8000F	-9.70504
09000000000000	-9.70512
2A0	-9.70513
488985D0FEFFFF	-9.70543
000F85	-9.70554
42FFFFFF	-9.70568
837DF8000F84	-9.70577
40FEFFFF	-9.70655
898588F9FFFF	-9.70679
D90	-9.70702
8B4DE84869C9	-9.70759
4C000000	-9.70785
00000000B4000000	-9.70788
27FEFFFF	-9.70805
E13000000488B857	-9.70808
0FB74DD2	-9.70845
46FEFFFF	-9.70851
488B85B0FCFFFF48	-9.70908
770	-9.70925
29C883F8000F	-9.70943
89D08B55	-9.70956
380	-9.7097
8B8530FDFFFF	-9.71001
FFFFFFE900000000	-9.71018
488B8D20FFFFFF	-9.71037
8B80	-9.71144
0FB74530	-9.71144
8B8D58FFFFFF	-9.71159
7E0	-9.71163
96FEFFFF	-9.71187
3EFEFFFF	-9.71251
62000000	-9.71294
8B8528FDFFFF	-9.71307
154801C8	-9.71322
008028004801C8	-9.71355
48698D70FFFFFF	-9.71394
BE0	-9.71421
160	-9.71465
898594FBFFFF	-9.71485
8985BCFBFFFF	-9.71489
489948F7F948	-9.71492
F40	-9.71496
0FB7003	-9.71496
2C0	-9.71498
63FFFFFF	-9.715
0FBE4530	-9.7152
910	-9.71548
0FB74518	-9.71553
80200004C8B8D	-9.71571
48B8B	-9.71648
1E0	-9.71673
280	-9.71712
9C000000	-9.71729
0000000488B4580	-9.71735
898580F9FFFF	-9.71815
48698D50FFFFFF	-9.7182
488B8598FCFFFF48	-9.71827
89855CFBFFFF	-9.71859
760	-9.71861
898590F9FFFF	-9.7188
F7FFFFE900000000	-9.71923
501	-9.71923
B40	-9.71927
8B850CFDFFFF	-9.71984
8B852CFDFFFF	-9.72106
4588483B45800F8	-9.72118
898570F9FFFF	-9.72134
0000052000000	-9.72191
9F0	-9.72261
488B8DD0FEFFFF	-9.72267
488B85A0FCFFFF48	-9.72354
828B01004801C8	-9.72363
8A45DE24010FB6C0	-9.72386
480FBF4DBE	-9.72389
950	-9.72411
313000000488B850	-9.72468
898584FBFFFF	-9.72513
504801C8	-9.72568
22DF00004801C8	-9.7264
0000000009010000	-9.72689
B0FEFFFF	-9.72751
0FB78D7EFFFFFF	-9.72763
4E0	-9.72766
D2FEFFFF	-9.728
488B8510020000	-9.72816
7D0	-9.72854
C60	-9.72867
898578F9FFFF	-9.7287
898568F9FFFF	-9.72984
48C1E1114801C8	-9.72994
405802004801C8	-9.72997
488B8508020000	-9.72997
49000000	-9.7303
613000000488B851	-9.7306
80D00C004801C8	-9.73082
E913000000	-9.731
48634DD44869C9	-9.73106
44000000	-9.73109
D3FEFFFF	-9.73122
0000000058000000	-9.73198
00000000B0010000	-9.7324
89858CFBFFFF	-9.73276
0AFFFFFF	-9.73298
230	-9.73326
480FBE55E	-9.73364
00000000BB000000	-9.73365
750	-9.73397
7C0	-9.73398
48B86	-9.73429
4590483B45880F8	-9.73448
F7FDFFFF	-9.73459
3B85A8FEFFFF0F8	-9.73473
0FBF45EE	-9.7356
488985C8FEFFFF	-9.73595
48B8A	-9.73632
00FEFFFF	-9.73674
820	-9.73687
8EFEFFFF	-9.73716
37FEFFFF	-9.73721
8FFFF0F8	-9.73722
4DB780E1010FB6C9	-9.73737
E1	-9.73746
488B8570FCFFFF48	-9.73762
BB0	-9.73764
3B85B8FEFFFF0F8	-9.73789
488B8588FCFFFF48	-9.73794
0D0	-9.73805
0FB645FB	-9.73805
08FEFFFF	-9.73862
613000000488B850	-9.7388
31D248F7F1	-9.73882
898558F9FFFF	-9.73926
88E80F004801C8	-9.73926
790	-9.74053
7B0	-9.74066
488B8DD8000000	-9.74095
10000000488B45E8	-9.74145
46000000	-9.74148
FE0	-9.74164
48898548FEFFFF	-9.74177
89C88B4D	-9.74237
66C7000000	-9.74247
9A0	-9.74249
8E000000	-9.74303
BF0	-9.74329
202607004801C8	-9.74404
430	-9.74416
45000000	-9.74428
48898530FEFFFF	-9.74432
3C0	-9.74441
0C4801C8	-9.74466
AFFFFFF	-9.74481
72000000	-9.74489
48634DB4	-9.74538
6F0	-9.74623
8B8510FDFFFF	-9.74652
150	-9.74742
450	-9.74754
48B83	-9.74757
43000000	-9.74774
0F8611000000	-9.74833
E50	-9.7485
C70	-9.74865
C6040800	-9.74881
70FEFFFF	-9.74893
8B4DA0	-9.74905
2DF	-9.74913
284801C8	-9.74935
9EC024010FB6C0	-9.74956
000004C8B8DB	-9.7497
409C00004801C8	-9.75063
670	-9.75097
488B8590FCFFFF48	-9.75147
9C0	-9.75161
898574FBFFFF	-9.75186
04000010000000	-9.75195
48894598488B	-9.75216
E70	-9.75225
0FB74DDA4869C9	-9.7523
898560F9FFFF	-9.75244
3B85B0FEFFFF0F8	-9.75274
8945908B4590	-9.75288
080	-9.75302
DFFDFFFF	-9.75316
A70	-9.7535
0FB74DCC	-9.75412
95C024010FB6C8	-9.75442
00000385	-9.7546
970	-9.75509
34FF24010FB6C8	-9.75517
8B85ACFCFFFF	-9.75582
68000000	-9.75592
24010FB6C0668985	-9.75624
0FB74DDC	-9.75651
00000000C2000000	-9.75682
9006172725F313	-9.75765
39C80F8E	-9.75792
488B85A8FCFFFF48	-9.75836
7A0	-9.75844
48B89	-9.75862
2DA	-9.75882
AD0	-9.75889
313000000488B85F	-9.75911
870	-9.75974
390	-9.76021
488B4580483B857	-9.76033
A60	-9.76076
8B85ECFCFFFF	-9.76093
2E0	-9.76097
E0000000	-9.7611
56000000	-9.76148
8B75	-9.76152
8C000000	-9.76161
8B85DCFCFFFF	-9.76172
CFFDFFFF	-9.76198
10000000488B45F0	-9.76201
FBFEFFFF	-9.76215
83F0FF88C148	-9.76215
4000000000000	-9.76223
0000000040010000	-9.76227
488B8DB8FEFFFF	-9.76262
0FB64DE6	-9.76277
B10	-9.76293
3B85C0FEFFFF0F8	-9.76293
9B0	-9.76359
EE0	-9.76367
6FFEFFFF	-9.76373
0F0	-9.76396
8B85E4FCFFFF	-9.76427
48634DC4	-9.76447
8B8D44FFFFFF	-9.76455
30FEFFFF	-9.76469
00C409004801C8	-9.76484
0FB745F2	-9.76491
90FEFFFF	-9.76544
03FFFFFF	-9.76548
B60	-9.76567
E13000000488B855	-9.76572
0000053000000	-9.7658
AB0	-9.76594
488B14C8	-9.76631
8B85A4FCFFFF	-9.76646
8B45D8	-9.76657
48898540FEFFFF	-9.76667
8945E48B45E4	-9.76699
31C883F8000F	-9.76703
5AFFFFFF	-9.76713
488B458048	-9.76758
8007661725F333	-9.76792
470	-9.76814
203403004801C8	-9.76832
488B8DE0FEFFFF	-9.76836
F90	-9.76854
960	-9.76855
2DE	-9.76875
620	-9.769
3E0	-9.76901
360	-9.76921
898540F9FFFF	-9.76985
32FFFFFF	-9.76994
00000000C9000000	-9.77016
48898568FEFFFF	-9.77018
CCFDFFFF	-9.77022
0000054000000	-9.77104
8B8504FDFFFF	-9.77117
70000000	-9.77131
8B8D3CFFFFFF	-9.77167
48B85	-9.77176
8B8D50FFFFFF	-9.77197
0FB745E4	-9.77198
8945808B4580	-9.77201
000000005F000000	-9.77227
8B85D4FCFFFF	-9.77305
D13000000488B856	-9.77306
CC0	-9.77367
D8FDFFFF	-9.77389
A50	-9.77392
C2FEFFFF	-9.77399
0000055000000	-9.77489
FF0	-9.77498
62FFFFFF	-9.775
235007661725F323	-9.77514
54000000	-9.77528
898550F9FFFF	-9.77543
DAFEFFFF	-9.77555
3007661725F3	-9.7758
6B000000	-9.77587
489948F7F9	-9.7761
36FEFFFF	-9.77621
8945888B4588	-9.77624
89856CFBFFFF	-9.7763
3FFFFE90E000000	-9.77654
488B4DD84883E901	-9.77681
3A0	-9.77692
930	-9.77704
210	-9.77704
008813004801C8	-9.77736
83FEFFFF	-9.77754
8A45E524010FB6C0	-9.77754
0FB74528	-9.77829
E91C000000	-9.77855
6E0	-9.77856
5FFDFFFF	-9.77857
4C8B8DC80	-9.77877
48698D68FFFFFF	-9.77894
6A0	-9.77936
488B8580FCFFFF48	-9.77941
74FEFFFF	-9.77952
0000000017010000	-9.77995
31C9	-9.78005
0FB64DE3	-9.7801
488B85800000008A	-9.78102
9DC024010FB6C0	-9.78125
4A000000	-9.78152
C4E400004801C8	-9.78208
488B8DF0FEFFFF	-9.78211
56FDFFFF	-9.78245
488B8578FCFFFF48	-9.78251
7AFFFFFF	-9.78306
730	-9.78313
8A55E	-9.7837
040	-9.78381
0FB74538	-9.78395
488B4D38	-9.78421
66000000	-9.78453
8B85D8FCFFFF	-9.78466
898564FBFFFF	-9.78502
AE0	-9.78533
E60	-9.78546
488B45B848	-9.78552
0C0	-9.7856
CB0	-9.78574
0FB74DDE4869C9	-9.78629
31	-9.78649
202C01004801C8	-9.7865
0FB64DF7	-9.78674
488B8D88FEFFFF	-9.78722
CE0	-9.78744
66C7458	-9.78752
48898550FEFFFF	-9.78783
E91A000000	-9.78786
8B8DDCFEFFFF	-9.78801
F50	-9.78817
80FFFF	-9.78826
3B85A0FEFFFF0F8	-9.78827
3F0	-9.78845
17FEFFFF	-9.7889
E10	-9.78932
EB0	-9.78935
090	-9.7904
920	-9.79053
FFFCFFFF	-9.79063
488945D8488B	-9.7909
170	-9.79114
B50	-9.79134
7F0	-9.79134
87FDFFFF	-9.79148
76FEFFFF	-9.79201
4DE780E1010FB6C9	-9.79223
0FBF4528	-9.79263
A0FEFFFF	-9.79265
1FFEFFFF	-9.79303
82000000	-9.79416
84FEFFFF	-9.7947
9CC024010FB6C0	-9.79492
8945F0	-9.79492
C6458	-9.79558
C8B4D484C8B4D40	-9.7956
488945B8	-9.79574
8B8508FDFFFF	-9.79582
8F0	-9.79607
C70000000000	-9.79645
68FEFFFF	-9.79676
77FEFFFF	-9.79678
D3E8	-9.79687
0FB645A	-9.79732
EAFFFF	-9.79815
E0FDFFFF	-9.79818
3B8590FEFFFF0F8	-9.79828
31C0482B85	-9.79872
F70	-9.7988
8B85F8FCFFFF	-9.79884
8B85C4FCFFFF	-9.79885
0FBE45C	-9.79904
488995	-9.79922
8B85B4FCFFFF	-9.79924
8B85E8FCFFFF	-9.79929
DCFDFFFF	-9.79937
B91	-9.79951
0FB74DAE	-9.79984
488B8DE0000000	-9.7999
439007661725F353	-9.80034
8A45EE24010FB6C0	-9.80039
E13000000488B854	-9.80062
488B45788A	-9.80132
E30	-9.80153
488985B0FEFFFF	-9.80264
001	-9.80267
8B8D70FFFFFF	-9.80278
0000000066000000	-9.80315
4801D14881C1	-9.80337
0000000078010000	-9.80369
370	-9.80385
89852CFBFFFF	-9.804
898538F9FFFF	-9.80443
3AFFFFFF	-9.80452
89857CFBFFFF	-9.80458
2DD	-9.80478
34FEFFFF	-9.8049
488B85880000008A	-9.8049
898528F9FFFF	-9.80504
F2FEFFFF	-9.80504
8B85BCFCFFFF	-9.80513
8B85D0FCFFFF	-9.80528
301	-9.80532
082E06004801C8	-9.80684
8B85C8FCFFFF	-9.80733
A10	-9.80748
48634DF0	-9.80777
0000056000000	-9.80814
898530F9FFFF	-9.80819
0FBE4538	-9.80875
F10	-9.80882
48B84	-9.80902
898548F9FFFF	-9.80916
66C7459	-9.80928
6AFFFFFF	-9.80936
83C10389C9	-9.8097
48698D58FFFFFF	-9.80984
7EFEFFFF	-9.80989
488B8568FCFFFF48	-9.81038
44BE01004801C8	-9.81073
28010000	-9.81082
488B8DC8FEFFFF	-9.81097
8B8D0CFFFFFF	-9.81168
613000000488B85D	-9.81197
EAFEFFFF	-9.81241
80FA000F45C1	-9.81249
48898538FEFFFF	-9.81272
2D3	-9.81299
3B8580FEFFFF0F8	-9.81308
3B8598FEFFFF0F8	-9.81309
B70	-9.8133
F90295004801C8	-9.8136
AA0	-9.81379
0FBF4520	-9.81396
480FAF	-9.81406
488B45708A	-9.81461
C81	-9.81507
96FDFFFF	-9.81562
898518F9FFFF	-9.81564
830	-9.81653
EF0	-9.81761
488B8DF0000000	-9.81777
2FFFF488B85	-9.81809
D13000000488B855	-9.81811
48634DA4	-9.8189
CFFFF0FB78D	-9.81896
8B8500FDFFFF	-9.81919
406806004801C8	-9.81923
8B4D80	-9.81944
E2FEFFFF	-9.8196
8B85CCFCFFFF	-9.8197
240	-9.81978
320	-9.82019
000000001E010000	-9.82034
000000006D000000	-9.82041
4DCB80E1010FB6C9	-9.82046
480FBE4DDB	-9.82047
4D9780E1010FB6C9	-9.82051
A20	-9.82093
8B85F4FCFFFF	-9.821
F30	-9.82223
488B45688A	-9.82267
000004C8B8DC	-9.82286
4B000000	-9.82312
8D000000	-9.82325
8B8D9CFEFFFF	-9.82342
ABFEFFFF	-9.82345
8B8D14FFFFFF	-9.82356
3006172725F313	-9.82363
613000000488B85E	-9.82413
488B8518020000	-9.82443
D13000000488B854	-9.82473
9E0	-9.82497
FA0	-9.82499
00004839C80F8D	-9.82521
06FEFFFF	-9.82576
486B4DA8	-9.82598
8B45D43B45D00F8	-9.82765
8B85A8FCFFFF	-9.82773
6A000000	-9.82802
613000000488B85F	-9.82809
83F8190F8D	-9.82823
8A000000	-9.82841
940	-9.82872
DFFFFFF	-9.82876
0000000013000000	-9.82892
48837DE0000F84	-9.82901
837DFC000F84	-9.82922
8B85F0FCFFFF	-9.8294
8D7FFFFFFF80	-9.82941
0FB64DFF	-9.82957
80B004004801C8	-9.83004
48C70000000000	-9.83039
8E0	-9.83051
8B85E0FCFFFF	-9.83055
488B8560FCFFFF48	-9.83081
61000000	-9.83086
CA0	-9.83095
4D1	-9.8311
8B8594FCFFFF	-9.83235
E91D000000	-9.83238
8FFEFFFF	-9.83245
50FDFFFF	-9.83258
0FBF4510	-9.83359
0000000025010000	-9.83373
E9000000008B45	-9.83379
8A45ED24010FB6C0	-9.83408
FEFFFF008A85	-9.83453
884DF	-9.83489
5E000000	-9.83495
48634DC8	-9.83517
A90	-9.83566
5BFFFFFF	-9.83577
AF0	-9.83603
480FBE4DC74869C9	-9.8362
48898508FEFFFF	-9.83641
84000000	-9.83656
04FEFFFF	-9.83665
4839C80F94C0	-9.83671
48898510FEFFFF	-9.83696
00000000D7000000	-9.83769
1AFEFFFF	-9.83805
150F83	-9.83822
D13000000488B853	-9.83847
02FFFFFF	-9.83858
F4FDFFFF	-9.83873
F20	-9.83947
F73562004801C8	-9.84021
488985F8FDFFFF	-9.84066
313000000488B85D	-9.84092
140	-9.84113
A9000000	-9.8412
898520F9FFFF	-9.84224
66FDFFFF	-9.8423
8A45DB24010FB6C0	-9.84231
77FFFFFF	-9.84249
627200004801C8	-9.84297
53000000	-9.84297
898554FBFFFF	-9.84307
0000039C80F8D	-9.84318
4883FA00480F45C1	-9.84335
64FEFFFF	-9.84338
8B8DE8FEFFFF	-9.84339
313000000488B85E	-9.84347
FD0	-9.84387
4883E9034869C9	-9.84439
89851CFBFFFF	-9.84478
6006172725F323	-9.84489
5006172725F313	-9.84552
8945A0488B45A048	-9.84584
000000004829C848	-9.84601
8B859CFCFFFF	-9.84644
4883EA01	-9.84697
0FB64540	-9.84714
48898518FEFFFF	-9.84719
48898580FEFFFF	-9.84726
2FFFF8B85	-9.84727
482B	-9.84753
488B8530FCFFFF48	-9.8476
60FEFFFF	-9.84772
D01	-9.84777
837D10000F84	-9.84801
480FBE8D37FFFFFF	-9.84813
8B4DCC4869C9	-9.84873
1FFFF488B85	-9.84875
486945	-9.8488
CAFEFFFF	-9.84968
CF0	-9.84972
613000000488B85C	-9.84995
95000000	-9.85178
48634DD04869C9	-9.85206
89853CFBFFFF	-9.85214
488B75	-9.8522
8B4DD04869C9	-9.85221
0FB74DF0	-9.85222
4D000000	-9.85231
3B8570FEFFFF0F8	-9.85254
488B8550FCFFFF48	-9.85276
488B458848	-9.85279
488B8DE8FEFFFF	-9.8529
4DBB80E1010FB6C9	-9.85292
8D0	-9.85304
C4FDFFFF	-9.85328
2007661725F333	-9.85333
488B8510FCFFFF48	-9.85351
488B85F8FBFFFF48	-9.85373
8B4D20	-9.85415
FB0	-9.85439
0FB74DB2	-9.85506
480FBE4D87	-9.85569
00000000DE000000	-9.85604
0000000074000000	-9.85635
B0FDFFFF	-9.85679
008079004801C8	-9.8568
0FB74DD4	-9.85685
898508F9FFFF	-9.85703
8B45E03B45DC0F8	-9.85761
C4000000	-9.85821
6FFFFFFF	-9.85828
EA0	-9.85832
0FB74520	-9.85837
63000000	-9.85854
B30	-9.85867
0FB64DCB	-9.859
8B858CFCFFFF	-9.85907
BD0	-9.8591
48898520FEFFFF	-9.85959
8A45F324010FB6C0	-9.86002
7007661725F3	-9.86053
8B85C0FCFFFF	-9.86126
114801C8	-9.86173
4080E601400FB6F6	-9.8618
488B8558FCFFFF48	-9.86188
000000002C010000	-9.86206
48C1E1134801C8	-9.86216
4883F8000F95C0	-9.86307
0000057000000	-9.86337
B3FEFFFF	-9.86362
851	-9.86368
C30	-9.86408
488985A0FEFFFF	-9.86443
A0FDFFFF	-9.86468
83F0FF6689C1488B	-9.86479
3B8588FEFFFF0F8	-9.86484
898510F9FFFF	-9.86553
F7FEFFFF	-9.86659
D13000000488B852	-9.86686
902	-9.86693
E13000000488B851	-9.86739
48B88	-9.86771
0FB6C8	-9.86823
488B8540FCFFFF48	-9.86836
D8000000	-9.86865
0E0	-9.86875
488B8DE8000000	-9.86928
020	-9.86929
2DB	-9.86952
480FBE4DD3	-9.86963
480FBF4D9E	-9.87013
FAFEFFFF	-9.87095
8B8DB4FEFFFF	-9.87169
488B8520020000	-9.87171
237007661725F323	-9.87173
6683FA000F45C1	-9.87202
48837DF8000F84	-9.87219
0FB64DDD	-9.87255
3AFEFFFF	-9.87262
00000000E5000000	-9.87327
E9FFFF	-9.87365
488B8DB0FEFFFF	-9.87365
488B8DC0FEFFFF	-9.87368
480FBE4DBF	-9.87397
8985F8F8FFFF	-9.87402
488B8548FCFFFF48	-9.87537
8B85B0FCFFFF	-9.87546
4801F1	-9.8759
78FEFFFF	-9.87594
6CFEFFFF	-9.87594
898524FBFFFF	-9.87597
28FDFFFF	-9.87622
0F8311000000	-9.877
9FFFFFF	-9.87756
5B000000	-9.87772
51000000	-9.87904
531007661725F353	-9.87921
2D9	-9.87959
488B55E0	-9.87972
89854CFBFFFF	-9.88003
898544FBFFFF	-9.88054
48898528FEFFFF	-9.88062
8B8564FCFFFF	-9.8811
8006172725F323	-9.88115
150F8D	-9.88122
C50	-9.88147
6EFEFFFF	-9.88149
488B8528FCFFFF48	-9.88153
0FB745EC	-9.88161
488985F0FDFFFF	-9.88165
B7FDFFFF	-9.8821
8B857CFCFFFF	-9.88243
48634DE44869C9	-9.88292
B8FDFFFF	-9.88299
5A000000	-9.88317
8B8D2CFFFFFF	-9.88324
7B000000	-9.88366
48FEFFFF	-9.88376
6BFEFFFF	-9.88409
260	-9.8841
A30	-9.88446
7A000000	-9.88474
86000000	-9.88508
E13000000488B852	-9.88545
837D18000F84	-9.88597
486B4DE8	-9.88637
C3FEFFFF	-9.88638
83C2034863D2	-9.88661
AFFFF24010FB6C0	-9.88663
48894590488B	-9.88706
A4FDFFFF	-9.88707
9AFEFFFF	-9.88756
55000000	-9.88778
8985C0F8FFFF	-9.88783
488B8538FCFFFF48	-9.88798
807DFF000F84	-9.88812
48894588E9	-9.88824
66837DFE000F84	-9.88836
0FB64DEA	-9.8885
93000000	-9.8885
89F88BBD	-9.88854
F0FDFFFF	-9.88954
8985D4FAFFFF	-9.88958
48698D60FFFFFF	-9.88982
8985F0F8FFFF	-9.88983
4883BCC8	-9.88992
890	-9.88997
BC0	-9.89031
F6FDFFFF	-9.89061
4006172725F323	-9.89117
887C03004801C8	-9.89133
488B45608A	-9.89184
480FBF8D6EFFFFFF	-9.89185
8B4DFC	-9.89189
E120000000FB785	-9.89196
8B4D30	-9.89199
F6FFFFE900000000	-9.89225
630	-9.89239
0A0	-9.89273
8945B8488B45B8	-9.89291
0FBF45FC	-9.89317
0FB74DF2	-9.89319
C1E000	-9.89322
8985E4FAFFFF	-9.89353
8B8590FCFFFF	-9.89358
C10	-9.89368
480FBF4DF0	-9.89407
C20	-9.89428
60A34E004801C8	-9.89472
0000000033010000	-9.89476
0FB74540	-9.8951
894580488B458048	-9.89555
1F0	-9.89562
59000000	-9.89568
102	-9.89577
613000000488B85B	-9.89606
0FB74DA6	-9.89657
8B8D48FFFFFF	-9.89693
488B85F0FBFFFF48	-9.89721
0FB74DE0	-9.89769
48C1E1124801C8	-9.89775
8B8554FCFFFF	-9.89802
8B856CFCFFFF	-9.89803
000000007B000000	-9.89819
898514FBFFFF	-9.89863
8985FCFAFFFF	-9.89903
0007661725F333	-9.89948
5FFEFFFF	-9.89978
83E90389C9	-9.89982
E6FDFFFF	-9.90008
0FBF4DFE	-9.90016
FEFDFFFF	-9.90088
3B8560FEFFFF0F8	-9.90104
4007661725F333	-9.90119
CC1	-9.9012
8A45FB24010FB6C0	-9.90131
05000000004805	-9.90133
0FB645C	-9.90151
48898598FEFFFF	-9.90194
80E201	-9.90207
488B8518FCFFFF48	-9.90227
48898500FEFFFF	-9.90246
780	-9.90252
0000058000000	-9.90265
3B8578FEFFFF0F8	-9.90293
8985DCFAFFFF	-9.90297
0FB64D20	-9.90357
53FFFFFF	-9.90374
D6FDFFFF	-9.90412
041703004801C8	-9.90419
22FEFFFF	-9.90427
48837D10000F84	-9.905
0FBE4540	-9.90508
488B45508A	-9.90522
58000000	-9.90525
0FB74DAA	-9.9055
EFFCFFFF	-9.90571
7E000000	-9.90588
A6FDFFFF	-9.9061
94000000	-9.90635
16FEFFFF	-9.90645
8B85A0FCFFFF	-9.90675
3B8550FEFFFF0F8	-9.90708
0C0F83	-9.90738
9FC024010FB6C0	-9.908
5EFDFFFF	-9.90879
8945B4E9	-9.90914
4CFEFFFF	-9.90926
8B8588FCFFFF	-9.90952
0FB64548	-9.90963
5C000000	-9.90965
48634DAC	-9.90968
8B855CFCFFFF	-9.90971
8985F4FAFFFF	-9.90975
898500F9FFFF	-9.90975
720	-9.90997
6007661725F333	-9.9102
3B8558FEFFFF0F8	-9.91053
48638D74FFFFFF	-9.91084
0FB78448	-9.911
8945A8488B45A848	-9.91173
E91B000000	-9.91185
4EFEFFFF	-9.91193
0FB74DE8	-9.91196
8985D8F8FFFF	-9.91206
2CFEFFFF	-9.91214
E13000000488B853	-9.91234
7CFEFFFF	-9.91242
480FBF8D76FFFFFF	-9.91256
48634DE84869C9	-9.91286
010FBE85	-9.9132
81000000	-9.91335
000F840F000000	-9.91383
7C000000	-9.91386
898534FBFFFF	-9.91409
0FBE45D	-9.91476
0D000000488B45E0	-9.91515
47FDFFFF	-9.91807
898504FBFFFF	-9.91845
68FDFFFF	-9.91894
8B8548FCFFFF	-9.91927
803801004801C8	-9.91984
E120000000FBF85	-9.92017
488B4548488B4540	-9.92077
8B8598FCFFFF	-9.921
37FDFFFF	-9.92108
0B45	-9.92158
0000059000000	-9.92184
2FFFFFFF	-9.92188
0FBE45FB	-9.92198
57000000	-9.92225
8B8D34FFFFFF	-9.92265
8B854CFCFFFF	-9.92327
0FBE0C0831C029C8	-9.92344
8B8574FCFFFF	-9.92361
ED0	-9.924
88C901004801C8	-9.92459
8985A4FAFFFF	-9.92486
4883F1FF	-9.92494
488B85D8FBFFFF48	-9.92536
00000000B8010000	-9.92541
48898578FEFFFF	-9.92562
44FEFFFF	-9.92595
8B4D40	-9.92606
807D18000F84	-9.9261
E1010FB6C98B0488	-9.92628
488B0CD1	-9.92633
0FB68D6FFFFFFF	-9.92634
B7FEFFFF	-9.92676
4C8B8D200	-9.9268
90FDFFFF	-9.92686
8A55F	-9.92726
488B85900000008A	-9.92731
488B4DD04883E901	-9.92737
2DC	-9.9274
488B8528020000	-9.92745
E1000000	-9.92756
000004C8B8DD	-9.92805
0A0F83	-9.92844
488B8508FCFFFF48	-9.92877
88FDFFFF	-9.92902
4D8F80E1010FB6C9	-9.92967
89858CFAFFFF	-9.92968
00000000F3000000	-9.92989
72FEFFFF	-9.93027
0FB64D10	-9.93106
837DF4000F84	-9.93124
488B85C8FBFFFF48	-9.93145
488945C8	-9.93202
AA000000	-9.93231
8B85B8FCFFFF	-9.93271
8985E8F8FFFF	-9.93291
06FDFFFF	-9.93334
00000000EC000000	-9.93336
B92	-9.93353
000000003A010000	-9.93354
52000000	-9.93669
8985A0F8FFFF	-9.93688
A2000000	-9.93761
A1	-9.9377
837D28000F84	-9.93805
0FB745F4	-9.93816
4007661725F3135	-9.93818
3B8578FFFFFF0F8	-9.9383
4839C80F95C0	-9.93905
4C1	-9.93914
A3000000	-9.93931
89850CFBFFFF	-9.94014
8B8578FCFFFF	-9.94132
894590488B459048	-9.94134
0000000082000000	-9.94145
CFFFF000F84	-9.94145
0FB78D26FFFFFF	-9.94182
48638D7CFFFFFF	-9.94232
3B8568FEFFFF0F8	-9.9424
0D000000488B45D8	-9.9427
D120000000FBF85	-9.94281
D120000000FB785	-9.94284
8B8544FCFFFF	-9.94302
8945C0488B45C0	-9.94316
313000000488B85B	-9.94318
8B8DECFEFFFF	-9.94381
488B4DF0	-9.94425
480FBF4DAE	-9.94433
8B852CFCFFFF	-9.94441
8945B0488B45B0	-9.94447
10030000	-9.94455
EBFEFFFF	-9.94476
8B8568FCFFFF	-9.94514
97FDFFFF	-9.94516
83F	-9.94523
B9F	-9.94533
D13000000488B851	-9.94541
0FB64DCF4869C9	-9.94555
0FB645FE	-9.94557
8945B0488B45B048	-9.94615
480FBE4DB7	-9.94619
488B8500FCFFFF48	-9.94625
0FBF4538	-9.94657
5FFFFFF	-9.9466
0CFEFFFF	-9.94667
488B8520FCFFFF48	-9.94668
8B8D78FFFFFF	-9.9467
8985BCFAFFFF	-9.9469
204E00004801C8	-9.94692
0000000068010000	-9.94718
486BF6	-9.94753
2EFDFFFF	-9.94762
EFFEFFFF	-9.94763
837DF0000F84	-9.94765
8985ECFAFFFF	-9.94805
9CFDFFFF	-9.94808
000005B000000	-9.94842
0A000000000000	-9.94864
894598488B459848	-9.94871
807	-9.94909
000005A000000	-9.94976
F8FDFFFF	-9.95002
2D5	-9.95006
48898588FEFFFF	-9.95023
488B8530020000	-9.95026
894588488B458848	-9.95136
613000000488B859	-9.95136
8985CCFAFFFF	-9.95159
78FCFFFF	-9.95189
52FEFFFF	-9.9522
8BFEFFFF	-9.95226
78FDFFFF	-9.95255
0FB64D18	-9.95299
8B45C0	-9.95299
160F83	-9.95309
8985B8F8FFFF	-9.95365
8B8560FCFFFF	-9.95372
0000000041010000	-9.9541
2EFEFFFF	-9.95413
1FFFF8B85	-9.95418
8B4D28	-9.95424
8985A8F8FFFF	-9.95433
89000000	-9.95474
F3FEFFFF	-9.95483
86FDFFFF	-9.95492
13FFFFFF	-9.95498
8B4568	-9.95553
91	-9.9562
F8010000	-9.95664
22FFFFFF	-9.95724
488985D8FDFFFF	-9.95736
8B45B4	-9.95783
BAFEFFFF	-9.95812
613000000488B85A	-9.95862
0FB74D9E	-9.95884
D13000000488B850	-9.95885
20FDFFFF	-9.95889
08FCFFFF	-9.95892
B4000000	-9.95892
8B8584FCFFFF	-9.9597
533007661725F353	-9.95972
4DED80E1010FB6C9	-9.95989
48894598	-9.9601
488945B0	-9.96011
0FB78D6EFFFFFF	-9.96022
486B4D98	-9.9604
898594FAFFFF	-9.96086
488985D0FDFFFF	-9.96088
94FDFFFF	-9.96091
73FFFFFF	-9.96118
9A000000	-9.96151
8985D0F8FFFF	-9.96156
4805C0	-9.96158
4801C848	-9.96178
83F1FF48	-9.962
3FFDFFFF	-9.96213
8985E0F8FFFF	-9.96272
6D000000	-9.96307
8B45D83B45D40F8	-9.96318
B00183F9008885	-9.96325
7D000000	-9.96354
9B000000	-9.96358
E967000000	-9.96407
07FEFFFF	-9.96427
8B45E43B45E00F8	-9.96478
8B8D20FFFFFF	-9.9651
70FDFFFF	-9.96521
E7FDFFFF	-9.96541
C91	-9.96554
4801D04805	-9.96564
480FBE4DE3	-9.96583
88010000	-9.96604
134801C8	-9.96612
000005C000000	-9.96624
8F000000	-9.96634
97FEFFFF	-9.96649
488B45588A	-9.96689
00000000E0010000	-9.96728
000F95C180E101	-9.96729
124801C8	-9.96741
48034D	-9.96744
4863D248	-9.96747
8945A8488B45A8	-9.96765
8985B4FAFFFF	-9.96818
66C7000100	-9.96845
1CFEFFFF	-9.96848
8B45C4	-9.96849
000004C8B8DE	-9.96855
488B8D78FEFFFF	-9.96855
B8F	-9.96898
3B8548FEFFFF0F8	-9.96904
488945A8	-9.96912
0FB64DD3	-9.96918
85000000	-9.96921
38FDFFFF	-9.96927
4D8780E1010FB6C9	-9.96975
69000000	-9.96977
488B55D8	-9.97007
8A8D67FFFFFF80	-9.97022
E4FDFFFF	-9.97038
31C083F9008885	-9.97065
7661725F323	-9.97077
CBFEFFFF	-9.97098
60FDFFFF	-9.97181
14FEFFFF	-9.97194
BFFDFFFF	-9.97197
8B8524FCFFFF	-9.97202
96000000	-9.97305
480FBE8D6FFFFFFF	-9.97317
130F8D	-9.97319
C70001000000	-9.97324
488B85E8FBFFFF48	-9.97333
313000000488B85C	-9.97359
93FEFFFF	-9.97407
82FEFFFF	-9.9743
480FBF4DEA	-9.97436
12FEFFFF	-9.97476
486B4DA0	-9.97502
488B8DF8000000	-9.97515
83EA034863D2	-9.97517
488B4D30	-9.97565
4DEB80E1010FB6C9	-9.97582
488B8DA0FEFFFF	-9.97587
6BC0	-9.97633
83BC88	-9.97649
0FBF45FA	-9.97655
894594E9	-9.97657
0FBE4D28	-9.97685
71000000	-9.97752
0000000089000000	-9.9777
20D51C004801C8	-9.97779
8B851CFCFFFF	-9.97779
8985C4FAFFFF	-9.97838
4F0	-9.97846
4801D10FB795	-9.97874
898578F8FFFF	-9.97882
8B8550FCFFFF	-9.97918
30010000	-9.97927
3B8538FEFFFF0F8	-9.97961
89459CE9	-9.98092
0F4801C8	-9.98118
898584FAFFFF	-9.98155
898588F8FFFF	-9.98191
E20	-9.98209
231006172725F323	-9.9821
83F0FF83F8000F	-9.98228
4F960B004801C8	-9.98236
488985E0FDFFFF	-9.98237
00000000FA000000	-9.98245
1000000000000	-9.98265
E13000000488B850	-9.98267
8B8534FCFFFF	-9.98267
D4FDFFFF	-9.98267
668B4D	-9.98361
488B85B8FBFFFF48	-9.9837
0FB74DC2	-9.98394
8B4DF4	-9.984
8B45D0	-9.98424
51AA15004801C8	-9.98435
8945ACE9	-9.98442
53FEFFFF	-9.98443
408A75	-9.9846
83000000	-9.98482
48837D18000F84	-9.98485
1FCFFFF	-9.98532
898590F8FFFF	-9.98566
0FB64D97	-9.98579
8985C8F8FFFF	-9.98587
C745E8	-9.9859
8985B0F8FFFF	-9.98619
488B85D0FBFFFF48	-9.98641
3B8540FEFFFF0F8	-9.9866
110F83	-9.9867
2D6	-9.98673
4FFDFFFF	-9.98687
89859CFAFFFF	-9.98695
40010000	-9.98696
0FB64D87	-9.98864
E81	-9.98872
80FFFFFF	-9.98888
48837DF0000F95C0	-9.98911
0D4801C8	-9.98914
051	-9.98922
97000000	-9.98936
0FB78D46FFFFFF	-9.98959
60010000	-9.98982
F6FCFFFF	-9.98983
8B85ECFBFFFF	-9.98999
840	-9.99021
A7FDFFFF	-9.99041
488985E8FDFFFF	-9.9905
8945C4E9	-9.99051
0FBF8448	-9.99094
898560F8FFFF	-9.99094
00200004C8B8D	-9.99119
80780	-9.99155
8B8518FCFFFF	-9.99159
0FB68408	-9.99194
48634D94	-9.99224
8B8540FCFFFF	-9.99357
8A4408	-9.99371
488B85E0FBFFFF48	-9.99393
48698D48FFFFFF	-9.99398
8845A	-9.99413
DFFEFFFF	-9.99588
9C1	-9.99623
0FB64DE5	-9.99656
4801D10FB695	-9.9966
85513E004801C8	-9.99722
31C04829C848	-9.99729
8B8580FCFFFF	-9.99732
0100004C8B8D0	-9.99752
8945E88B45E8	-9.99758
CEFDFFFF	-9.99777
8945A0488B45A0	-9.99833
92000000	-9.99864
0FB60C0831C029C8	-9.99883
4AFEFFFF	-9.99888
0D0F83	-9.99904
480FBE4DE5	-9.99905
E91E000000	-9.99933
B82	-9.99934
0F0F83	-9.99961
0FB78DE6FEFFFF	-9.99982
84FDFFFF	-9.99987
A3FEFFFF	-9.99993
313000000488B859	-9.99999
324801C8	-10.0001
0500000000480FAF	-10.0002
4FFFFE90E000000	-10.0003
488985C8FDFFFF	-10.0008
898598F8FFFF	-10.0009
8B8570FCFFFF	-10.0009
2006172725F323	-10.0011
8A45BF24010FB6C0	-10.0012
300100004C8B8	-10.0013
8985ACFAFFFF	-10.0013
73000000	-10.0023
65000000	-10.0024
0B0F83	-10.0025
535007661725F353	-10.003
00CC03004801C8	-10.0031
E7FEFFFF	-10.0032
4DB380E1010FB6C9	-10.0034
0000000097000000	-10.0035
0FBF45E6	-10.0037
31C989CA48F775	-10.0042
8945B8488B45B848	-10.005
0B4801C8	-10.0052
8B45C43B45C00F8	-10.0054
6CFDFFFF	-10.0055
6F000000	-10.0063
9EFDFFFF	-10.0071
8AFEFFFF	-10.0073
8B8514FCFFFF	-10.0075
0FB64DBB	-10.0076
8B8DCCFEFFFF	-10.0082
33FEFFFF	-10.0082
488B85C0FBFFFF48	-10.0085
48698D30FFFFFF	-10.0086
837D20000F84	-10.009
5C1	-10.009
488985C0FDFFFF	-10.0091
0FB6459	-10.0093
67000000	-10.0099
23FFFFFF	-10.01
480FBF4DC64869C9	-10.0108
89857CFAFFFF	-10.011
80010000	-10.0111
8B8558FCFFFF	-10.0116
0FB68D47FFFFFF	-10.0117
181	-10.0119
110F8D	-10.0121
C8FDFFFF	-10.0122
0FB6C939C80F8D	-10.0125
8A45FE24010FB6C0	-10.0125
95C180E1010FB6C9	-10.0127
AEFDFFFF	-10.0128
2A1	-10.0139
4189F88BBD	-10.0143
480FBE4DB	-10.0143
48C70001000000	-10.0143
00000000F0010000	-10.0144
898574FAFFFF	-10.0144
9007661725F333	-10.015
807D10000F84	-10.0158
898570F8FFFF	-10.0167
FCFDFFFF	-10.0173
89855CFAFFFF	-10.0174
00FDFFFF	-10.0178
1EFEFFFF	-10.0179
8A45FD24010FB6C0	-10.0179
0A0F8D	-10.0185
4801D1486995	-10.0194
83F0FF4863C8488B	-10.0195
2AFFFFFF	-10.0197
681	-10.0199
0FBF45F2	-10.0201
48898570FDFFFF	-10.0202
E9000000000FBE85	-10.0205
01000FBF85	-10.0208
488985A8FDFFFF	-10.0211
881	-10.0213
91000000	-10.0213
83F8000F85	-10.0214
140F8D	-10.0216
488B4DC84883E901	-10.0219
000000004F010000	-10.0222
C6FDFFFF	-10.0223
EFFDFFFF	-10.0231
8B853CFCFFFF	-10.0233
233006172725F323	-10.0234
48634DC0	-10.0235
898564FAFFFF	-10.0236
313000000488B858	-10.0239
2FFDFFFF	-10.0246
8B8520FCFFFF	-10.0248
8B850CFCFFFF	-10.0249
EEFDFFFF	-10.0258
170F83	-10.0259
96FCFFFF	-10.0262
480FBF4DE04869C9	-10.0266
D13000000488B85F	-10.0266
8B8538FCFFFF	-10.0266
0FB74DD64869C9	-10.0267
0EFEFFFF	-10.0271
4801D18A95	-10.0282
4BFEFFFF	-10.0282
8B8528FCFFFF	-10.0283
66837D10000F84	-10.0287
898580F8FFFF	-10.0288
160F8D	-10.0288
2E4801C8	-10.029
0FBE4D20	-10.0292
885408	-10.0293
0C0F8D	-10.0298
8B45D4	-10.0299
480FBE4DAF	-10.0302
00000000A8010000	-10.0306
3B8508FEFFFF0F8	-10.0311
000000000F010000	-10.0312
0000000028020000	-10.0314
8010000000000003	-10.0314
8B85E4FBFFFF	-10.0314
E13000000488B85F	-10.032
898550F8FFFF	-10.0329
89854CFAFFFF	-10.033
99000000	-10.0331
9007661725F313	-10.0335
8A0C1180	-10.0336
0FBE45E7	-10.0337
488B8DF0FDFFFF	-10.0341
FAF0848	-10.0346
2D4	-10.0346
89856CFAFFFF	-10.0349
6BFFFFFF	-10.0354
C51	-10.0354
3B8530FEFFFF0F8	-10.0355
8B8530FCFFFF	-10.0355
488B85A8FBFFFF48	-10.0356
0FFEFFFF	-10.0367
8B8504FCFFFF	-10.0369
0000000070010000	-10.038
4DEE80E1010FB6C9	-10.0382
613000000488B858	-10.0383
0FB64DA3	-10.0391
0D0F8D	-10.0392
48837D28000F84	-10.0393
98FDFFFF	-10.0396
0FB68D1FFFFFFF	-10.04
0006172725F323	-10.0401
8B4D18	-10.0406
F7FCFFFF	-10.0407
E90E00000031C048	-10.0408
4088	-10.041
BFFFFFF	-10.041
0FB70C4831C029C8	-10.0412
20030000	-10.0414
488B85980000008A	-10.0416
66837D18000F84	-10.0419
48837D20000F84	-10.042
4EFDFFFF	-10.0422
50010000	-10.0428
480FBF8D4EFFFFFF	-10.0428
0FB645B	-10.0429
000005D000000	-10.0433
48698D40FFFFFF	-10.0434
04C8B8DE80	-10.0436
3B8520FEFFFF0F8	-10.0436
8945A4E9	-10.0437
48634DB8	-10.0437
8945C8488B45C8	-10.0439
FFFDFFFF	-10.044
9BFEFFFF	-10.0442
000000009E000000	-10.0446
7AFEFFFF	-10.0453
488B8D08010000	-10.0455
6E000000	-10.0456
894598488B4598	-10.0457
DFFCFFFF	-10.0459
1FFDFFFF	-10.046
1C2	-10.0462
2D8	-10.0467
0FB64DAF	-10.0468
7FFFFFF	-10.0477
E930000000	-10.0478
120F8D	-10.0478
313000000488B85A	-10.049
E3FEFFFF	-10.0497
00D430004801C8	-10.0499
8B4DC84869C9	-10.0501
24010FB6C08885	-10.0501
DBFEFFFF	-10.0502
FF7F0000	-10.0503
48638D6CFFFFFF	-10.0507
898538F8FFFF	-10.0507
488B4DE04883E901	-10.0508
43C825004801C8	-10.0509
07FDFFFF	-10.0513
0FB655E	-10.0517
BFFEFFFF	-10.0518
480FBE4D97	-10.0519
488985B0FDFFFF	-10.0521
0FB645FD	-10.0528
FDFFFF0FB685	-10.0529
48634DCC4869C9	-10.054
488945D0	-10.0541
43FFFFFF	-10.0542
48894590	-10.0547
3B8528FEFFFF0F8	-10.055
8B000000	-10.0551
8845C	-10.0555
010FB685	-10.0557
67FDFFFF	-10.0559
47FFFFFF	-10.0562
31C02B0491	-10.0566
8B0C88	-10.0566
0FB74DEA4869C9	-10.057
5BFEFFFF	-10.057
8A45EA24010FB6C0	-10.057
3FFEFFFF	-10.0571
4DC380E1010FB6C9	-10.0571
37FFFFFF	-10.0573
F2000000	-10.0576
0FB70C48	-10.0578
807DE	-10.058
668B45FE	-10.0581
668945EE	-10.0584
21010000	-10.0588
000000488B45C848	-10.0588
807D20000F84	-10.0589
0FB78D0EFFFFFF	-10.0592
000000005D010000	-10.0596
480FBE4DDF4869C9	-10.0599
0000000016010000	-10.0599
FC000000	-10.0608
3B8518FEFFFF0F8	-10.0612
5C4801C8	-10.0613
000000001D010000	-10.0613
488B8590FBFFFF48	-10.0615
8B85C4FBFFFF	-10.0617
0FBF4DDE	-10.0621
488B85B0FBFFFF48	-10.0629
8B4D50	-10.0631
0FBF45F4	-10.0635
BA1	-10.0642
898558F8FFFF	-10.0653
889408	-10.0653
898568F8FFFF	-10.0654
2D7	-10.0657
140F83	-10.066
ACFDFFFF	-10.0665
8B4580	-10.0667
48898598FDFFFF	-10.0669
488B8578FBFFFF48	-10.0674
0FBE4DFF	-10.0685
0000000056010000	-10.0688
76000000	-10.0689
000005E000000	-10.0692
7FFEFFFF	-10.0693
4863C9489948F7F9	-10.0693
BCFDFFFF	-10.0693
488B8588FBFFFF48	-10.0698
00000000A5000000	-10.0698
488B85A00000008A	-10.0702
0FB68DB7FEFFFF	-10.0706
0FB745DE	-10.0712
1FFFFE90E000000	-10.0716
32FEFFFF	-10.0717
488B8580FBFFFF48	-10.0726
B1000000	-10.0734
0FB64D9F4869C9	-10.0736
83FA00480F45C148	-10.0738
0FB74DE24869C9	-10.0741
0FB68D4FFFFFFF	-10.0741
E934000000	-10.0743
48FDFFFF	-10.0743
480B	-10.0747
0E00000031C048	-10.0747
48C7C1	-10.0755
28020000	-10.0756
488985A0FDFFFF	-10.0757
034	-10.0766
FE000000	-10.0766
0FB64DD74869C9	-10.0767
0FB64DA7	-10.0769
66837D20000F84	-10.077
3BFFFFFF	-10.0772
486BC9164801C88A	-10.0772
8B4D38	-10.0776
488B8538020000	-10.0779
75000000	-10.0781
130F83	-10.0786
488B8D90FEFFFF	-10.0792
48638D24FFFFFF	-10.0798
48698D38FFFFFF	-10.0798
488B8D00010000	-10.08
0FBE4550	-10.0807
B1	-10.0811
0F9CC024010FB6C0	-10.0812
0FFFFFFF	-10.0813
E91	-10.0815
68010000	-10.0816
8B8DF8FEFFFF	-10.0818
48898548FDFFFF	-10.0818
2FFFFE90E000000	-10.0819
E0000008B45AC	-10.0821
480FBE4DC3	-10.0823
488B85A0FBFFFF48	-10.0825
8B45E83B45E40F8	-10.0827
488B4D28	-10.0827
100F83	-10.0833
B2FEFFFF	-10.0833
0FBE8408	-10.0836
AAFEFFFF	-10.0838
8A0	-10.0839
9FFEFFFF	-10.0845
480FBF4DF2	-10.0847
8B85CCFBFFFF	-10.0849
310000000488B45B	-10.0849
89458CE9	-10.0851
0B0F8D	-10.0855
77000000	-10.0856
898530F8FFFF	-10.0863
310000000488B45A	-10.0864
0FB78D4EFFFFFF	-10.0865
0E0F8D	-10.0869
8B8D28FFFFFF	-10.0872
BF000000	-10.0875
89852CFAFFFF	-10.0875
57FDFFFF	-10.0876
0FBF4D18	-10.088
8B85FCFBFFFF	-10.0883
0F8FFFF48	-10.0886
8B4D10	-10.0887
8A45D324010FB6C0	-10.0888
5E1	-10.0888
FFFEFFFF	-10.089
0BFFFFFF	-10.0891
48898558FDFFFF	-10.0893
80040000	-10.0895
8B8D04FFFFFF	-10.09
8B8510FCFFFF	-10.0907
00010000	-10.0911
08FDFFFF	-10.0916
00000000AC000000	-10.0918
AF000000	-10.0921
66837D28000F84	-10.0926
8A45DD24010FB6C0	-10.0932
480FBE4DCB	-10.0936
B8D	-10.0941
220	-10.0943
8B85F4FBFFFF	-10.0945
488B8570FBFFFF48	-10.0947
0FB64DF1	-10.0953
0FB645F3	-10.0953
D21	-10.0955
B9000000	-10.0957
D0FDFFFF	-10.0958
131007661725F313	-10.096
898504FAFFFF	-10.0961
0E0F83	-10.0965
898528F8FFFF	-10.0968
3345	-10.0968
898544FAFFFF	-10.0971
0000000024010000	-10.0974
610000000488B45A	-10.0976
8B1	-10.0978
0FB74DB64869C9	-10.0981
0FB64D28	-10.0982
0FBF0C4831C029C8	-10.0983
3B85E8FDFFFF0F8	-10.0985
8B45	-10.0988
8B45C8	-10.0989
8B85BCFBFFFF	-10.0991
A1000000	-10.0992
898518F8FFFF	-10.0994
1007661725F3232	-10.0994
8945C0488B45C048	-10.1004
CB1	-10.1007
C6000000	-10.1008
837DEC000F84	-10.1008
610000000488B45C	-10.1008
0A4801C8	-10.1011
0F0F8D	-10.1015
8B85B4FBFFFF	-10.1022
00000000E8010000	-10.1023
C8030000	-10.1023
7BFEFFFF	-10.1024
488B8598FBFFFF48	-10.1026
480FBE4DD5	-10.1033
30FDFFFF	-10.1033
A8FDFFFF	-10.1034
9F1	-10.1035
488985B8FDFFFF	-10.1036
488945A0	-10.1043
08010000	-10.1044
3B85F0FDFFFF0F8	-10.1045
006172725F323	-10.1046
0F9FC024010FB6C0	-10.1047
898548F8FFFF	-10.1048
898540F8FFFF	-10.1052
100F8D	-10.1056
64FDFFFF	-10.1057
C745D8	-10.1058
0000000064010000	-10.106
841	-10.1061
D2000000	-10.1064
488B85F8FAFFFF48	-10.1066
6AFEFFFF	-10.1069
8B85DCFBFFFF	-10.1072
0D000000488B45D0	-10.1075
0000000010020000	-10.1078
170F8D	-10.1078
48698D00FFFFFF	-10.1085
781	-10.1089
0FBF4540	-10.109
A08601004801C8	-10.1095
488B85E8FAFFFF48	-10.1096
8B8DD4FEFFFF	-10.1097
8955	-10.1097
E13000000488B85D	-10.11
4881C100	-10.1102
48897DF8	-10.1102
488B85E0FAFFFF48	-10.1105
2A4801C8	-10.1105
8FFDFFFF	-10.1106
EBFDFFFF	-10.1106
898514FAFFFF	-10.1106
3B8510FEFFFF0F8	-10.1108
83C8	-10.1108
486955D8	-10.111
411	-10.1114
898520F8FFFF	-10.1118
17FFFFFF	-10.112
48898590FDFFFF	-10.1125
CD000000	-10.1132
8B85E8FBFFFF	-10.1132
58FDFFFF	-10.1133
898534FAFFFF	-10.1142
87FCFFFF	-10.1145
537007661725F353	-10.1146
DC1	-10.1148
488B8550FBFFFF48	-10.1149
0FB645EE	-10.1151
CB2	-10.1155
488B8560FBFFFF48	-10.1155
0FB64DF5	-10.1155
E936000000	-10.1155
480FBF4DE64869C9	-10.1167
23FEFFFF	-10.1174
8B85E0FBFFFF	-10.1174
D13000000488B85D	-10.1177
E02	-10.118
488B8568FBFFFF48	-10.1182
8D6FFFFFFF80	-10.1182
898554FAFFFF	-10.1183
488B8D80FEFFFF	-10.1185
10010000	-10.1188
0FBF45EC	-10.119
9FFDFFFF	-10.1191
83E0	-10.1194
8B8500FCFFFF	-10.1197
E13000000488B85E	-10.1201
E92F000000	-10.1203
18010000	-10.1208
8B859CFBFFFF	-10.1209
8A45C724010FB6C0	-10.1212
E931000000	-10.1214
EEFCFFFF	-10.1219
0FB64550	-10.1222
D7FEFFFF	-10.1224
4FFFFFFF	-10.1232
5DAA05004801C8	-10.1236
48698DD8FEFFFF	-10.1239
48898560FDFFFF	-10.1241
8B85B8FBFFFF	-10.1241
000000488B45D848	-10.1242
C0FDFFFF	-10.1244
8B85ACFBFFFF	-10.125
8B8D1CFFFFFF	-10.125
E933000000	-10.1255
0FB64DA	-10.1256
F81	-10.1257
488B85F0FAFFFF48	-10.1267
4DE680E1010FB6C9	-10.1267
8B8DE4FEFFFF	-10.1267
36FDFFFF	-10.1268
4488C0	-10.1268
88459	-10.1269
10FDFFFF	-10.1275
0FB74D8E	-10.1283
8985DCF9FFFF	-10.1286
89850CFAFFFF	-10.1287
D81	-10.1289
8985FCF9FFFF	-10.1291
0FFFF488B85	-10.1292
488B8D68FEFFFF	-10.1292
E935000000	-10.1297
0FB68DFFFEFFFF	-10.1298
486B4D90	-10.1298
09C883F8000F	-10.1299
E92E000000	-10.1299
8B5530	-10.1303
E4010000	-10.1304
C71	-10.1304
05000000004823	-10.1305
807D28000F84	-10.1306
500100004C8B8	-10.1309
C745E0	-10.131
0FB7401	-10.1311
57FEFFFF	-10.1311
381	-10.1311
480FBE4DCF4869C9	-10.1313
8B8DD0FEFFFF	-10.1313
1B7502004801C8	-10.1322
488B8DA8FEFFFF	-10.1323
83BDB8F	-10.1328
6EFDFFFF	-10.1328
8DF7FEFFFF80	-10.1329
000000002B010000	-10.1334
46FDFFFF	-10.1337
89853CFAFFFF	-10.1342
8B8D68FFFFFF	-10.1345
8B85D4FBFFFF	-10.1346
CD1	-10.1347
120F83	-10.135
C1E00	-10.1352
BD1	-10.1373
610000000488B45B	-10.1374
0F9	-10.1375
0BFEFFFF	-10.1379
488B85C8FAFFFF48	-10.1379
E924000000	-10.138
48638D34FFFFFF	-10.138
88458	-10.1382
488945C0	-10.1382
486BD2164801D1	-10.1384
48898568FDFFFF	-10.1384
0FB645EB	-10.1385
9FCFFFF	-10.1386
539007661725F363	-10.1386
AB000000	-10.1389
0FB74DCA	-10.139
48898588FDFFFF	-10.1391
000005F000000	-10.1393
E926000000	-10.14
48898578FDFFFF	-10.1401
92FEFFFF	-10.1403
480FBF4DCE4869C9	-10.1403
0FBE4DF7	-10.1405
92C024010FB6C0	-10.1409
8B85A4FBFFFF	-10.1412
0FBE4548	-10.1414
2007661725F3133	-10.1415
4FFCFFFF	-10.1421
89851CFAFFFF	-10.1423
4DEA80E1010FB6C9	-10.1426
3B85F8FDFFFF0F8	-10.1429
43FEFFFF	-10.1431
894590488B4590	-10.1432
3FFFFFFF	-10.1432
8845B	-10.1433
0F9DC024010FB6C0	-10.1437
CC000000	-10.1439
8B85F0FBFFFF	-10.1443
5007661725F3136	-10.1443
AFFDFFFF	-10.1449
E8FDFFFF	-10.1453
0E4801C8	-10.1454
0FB64DE2	-10.1454
486B4D80	-10.1458
7C1	-10.1463
00000000B3000000	-10.1465
641	-10.1469
CF1	-10.1473
8B8584FBFFFF	-10.1474
D13000000488B85C	-10.1479
E90F000000	-10.1479
F8FCFFFF	-10.148
77FDFFFF	-10.149
F5FFFFE900000000	-10.1491
48898580FDFFFF	-10.1498
488B8548FBFFFF48	-10.1502
898508F8FFFF	-10.1506
894598E9	-10.1508
0FB78D7AFFFFFF	-10.151
8B8564FBFFFF	-10.1517
00000000F8010000	-10.1527
8A45A724010FB6C0	-10.1528
31C0482B04D148	-10.1533
2AFEFFFF	-10.1534
488B45488A	-10.1536
62FEFFFF	-10.154
8B8508FCFFFF	-10.1541
480FBE4D8F	-10.1542
F2FDFFFF	-10.1551
488B85D8FAFFFF48	-10.1552
581	-10.1552
0FBF4530	-10.1558
0FB64D30	-10.1567
3B85D0FDFFFF0F8	-10.1569
000000006B010000	-10.1571
E943000000	-10.1573
E921000000	-10.1573
C7FCFFFF	-10.1574
0FBE45FD	-10.1577
0FBF4DDC	-10.1581
4488C84C8B8D	-10.1586
898510F8FFFF	-10.1589
610000000488B459	-10.159
894588488B4588	-10.1591
A5000000	-10.1593
D13000000488B85E	-10.1594
9D1	-10.1594
8B85A0FBFFFF	-10.1597
74000000	-10.1597
73FEFFFF	-10.1599
9F2	-10.1601
8985A4F9FFFF	-10.1604
B7000000	-10.1607
444801C8	-10.1607
00004C8B8D400	-10.161
894D8	-10.1611
8006172725F333	-10.1614
941	-10.1619
0FBF4D10	-10.162
0F9EC024010FB6C0	-10.162
8B858CFBFFFF	-10.1622
8985F4F9FFFF	-10.1626
67FFFFFF	-10.1633
0066C785	-10.1633
0FBE040883F0FF	-10.1634
480FBE4DE74869C9	-10.1635
480FBE4DEF	-10.1635
8B85C8FBFFFF	-10.1638
4FFEFFFF	-10.1638
7006172725F323	-10.1643
8B856CFBFFFF	-10.1648
D8FCFFFF	-10.1648
8985CCF9FFFF	-10.1648
AFFEFFFF	-10.1654
8A45E224010FB6C0	-10.1654
480FBF4DB6	-10.1656
8985C4F9FFFF	-10.1658
408A7D	-10.166
8B85B0FBFFFF	-10.1666
704801C8	-10.1667
BAFDFFFF	-10.1668
EC1	-10.1668
48898540FDFFFF	-10.1671
0FFDFFFF	-10.1671
74FDFFFF	-10.1671
488B8D10010000	-10.1674
01C685	-10.1676
480FBE4DEC	-10.1677
88020000	-10.1683
488B85A80000008A	-10.1684
00000000BA000000	-10.1688
8B85F8FBFFFF	-10.1696
8985D4F9FFFF	-10.1696
99F77D	-10.1699
B6000000	-10.17
48698DF8FEFFFF	-10.17
8B8D60FFFFFF	-10.1701
FEFFFF000FB685	-10.1709
0F840D000000	-10.1709
0FB74DE64869C9	-10.1713
6C1	-10.1717
0FB64DD5	-10.1718
E923000000	-10.1719
09D1	-10.1719
0000063000000	-10.172
4829C8	-10.172
0FB78D56FFFFFF	-10.1722
141	-10.1723
488B8580FAFFFF48	-10.1723
488B8578FFFFFF	-10.1725
8B8D34FDFFFF	-10.1729
0080FFFF	-10.1731
488B8558FBFFFF48	-10.1732
310000000488B45C	-10.1733
480520	-10.1735
8B85C0FBFFFF	-10.1736
8A4DDF80	-10.1736
8B4D48	-10.1737
8B45B0	-10.1737
E2000000	-10.1738
8B8590FBFFFF	-10.1739
488B8530FBFFFF48	-10.174
480FBE8D7FFFFFFF	-10.1743
4883C2014869D2	-10.1743
BE000000	-10.1745
66C704480000	-10.175
000080	-10.175
0FB78D36FFFFFF	-10.1751
0000000032010000	-10.1751
0F850E000000	-10.1753
99F7F989C1	-10.1758
83F8090F8D	-10.1759
F7000000	-10.1759
0FBE4D18	-10.1762
0FBE45FE	-10.1765
486BD2184801D1	-10.1766
488B4D20	-10.1768
0000000039010000	-10.1769
0000060000000	-10.177
488B85B0FAFFFF48	-10.1772
488B85D0FAFFFF48	-10.1774
39C80F8E13000000	-10.1777
8985E4F9FFFF	-10.1778
310000000488B459	-10.1786
FF1	-10.1787
E927000000	-10.1792
80FDFFFF	-10.1794
3B8500FEFFFF0F8	-10.1794
1007661725F333	-10.1797
0FBE45F3	-10.1799
0FB74548	-10.1801
488B8540020000	-10.1805
48638D78FFFFFF	-10.1807
1C1	-10.181
8B45D03B45CC0F8	-10.181
48C1E1144801C8	-10.1812
E0000008B45BC	-10.1814
480560	-10.1815
0FBF044883F0FF	-10.1817
488B4D10	-10.1817
0000062000000	-10.1818
8CFDFFFF	-10.182
488B8D70FEFFFF	-10.182
0000061000000	-10.1823
684801C8	-10.1826
202	-10.1828
8985E8F7FFFF	-10.1828
27FDFFFF	-10.183
264801C8	-10.1831
89D0	-10.1832
884	-10.1832
3B85D8FDFFFF0F8	-10.1835
21C883F8000F	-10.1835
C745E4	-10.1839
83E90389C94869C9	-10.184
0FB64408	-10.1843
0FB64DD6	-10.1844
8845EF	-10.1849
4DCE80E1010FB6C9	-10.185
000000488B45D048	-10.1853
48898550FDFFFF	-10.1854
281	-10.1855
8945A8E9	-10.1856
CFFFF0FBF8D	-10.1857
89F0488BB5	-10.1857
9F000000	-10.1857
40FDFFFF	-10.1858
2CFDFFFF	-10.186
480FBF4DEC4869C9	-10.186
D4000000	-10.1861
0FB6C831C029C8	-10.1863
34FF24010FB6C848	-10.1868
A7FCFFFF	-10.1876
9D000000	-10.1877
80E2018855F	-10.1882
2FFEFFFF	-10.1882
0FB68DE7FEFFFF	-10.1886
8B855CFBFFFF	-10.1887
C817A8044801C8	-10.1888
8B4004	-10.1891
AC000000	-10.1892
480FBE8DBFFEFFFF	-10.1895
837DF8000F95C0	-10.1895
0FBF4DFC	-10.19
1E1	-10.1903
488B8540FBFFFF48	-10.1905
8EFDFFFF	-10.1908
34FDFFFF	-10.1908
40FCFFFF	-10.1911
480FBE4DE6	-10.1914
48898528FDFFFF	-10.1916
8B05000000008848	-10.1917
97C024010FB6C0	-10.1917
95C2	-10.1921
D3FDFFFF	-10.1929
83E80148984869C0	-10.1932
0FB64DDF4869C9	-10.1935
8B4DF8	-10.1937
C31	-10.1939
480FBF4DDC4869C9	-10.1943
480FBE4DEB	-10.1946
8B85D8FBFFFF	-10.1946
5DC	-10.1949
8B8594FBFFFF	-10.195
48634D9C	-10.1951
488B55C8	-10.1953
488B8538FBFFFF48	-10.1954
8B8DA8FEFFFF	-10.1957
96C024010FB6C0	-10.196
9E000000	-10.1963
0FB64DB3	-10.1963
8985B4F9FFFF	-10.1963
8AFDFFFF	-10.1964
480FBF4DDA4869C9	-10.1965
488B85C0FAFFFF48	-10.1972
8007661725F343	-10.1974
E910000000	-10.1978
8B4DC44869C9	-10.1981
0F840E000000	-10.1983
8B85D0FBFFFF	-10.1984
21D1	-10.1984
8B8598FBFFFF	-10.1984
488B8500FBFFFF48	-10.1985
480FBF4DE24869C9	-10.1986
E0000008B45B4	-10.1986
48698D20FFFFFF	-10.1987
A4000000	-10.199
F82	-10.1992
83BD98F	-10.1992
0FBF4DE2	-10.1993
B8010000	-10.1996
0FB64DED	-10.2001
48898520FDFFFF	-10.2003
480FBF4D86	-10.2004
48638D48FFFFFF	-10.2008
0000000072010000	-10.2009
E920000000	-10.2011
48634D84	-10.2017
488B4D18	-10.2027
D13000000488B85B	-10.2028
488B0	-10.2034
6006172725F333	-10.2037
488B8510FBFFFF48	-10.2037
0FB74DC64869C9	-10.204
8D1	-10.2042
521	-10.2042
0FBE4DEF	-10.2045
0000064000000	-10.2047
544801C8	-10.2054
B6FDFFFF	-10.2054
0FB6857FFFFFFF	-10.2057
488B8548020000	-10.2058
8985BCF9FFFF	-10.2059
8985C0F7FFFF	-10.2061
5D1	-10.2063
39C80F8E11000000	-10.2064
93C024010FB6C0	-10.2068
488B8528FBFFFF48	-10.2068
480345	-10.2068
897DFC8975F8	-10.2069
E03408004801C8	-10.2072
E922000000	-10.2073
898524FAFFFF	-10.2076
961	-10.2078
480FBE8DCFFEFFFF	-10.2079
01000FB785	-10.2083
0000000058020000	-10.2083
FFFFF24010FB6C0	-10.2083
C7FDFFFF	-10.2086
0FB645D	-10.2086
488B8D20010000	-10.2087
9883E8	-10.2087
0FB645DF	-10.2087
488B8D30FEFFFF	-10.2088
E10000000488B45C	-10.2092
6007661725F343	-10.2093
8985F0F7FFFF	-10.2094
4883EA014869D2	-10.2096
8B8574FBFFFF	-10.2097
B4FDFFFF	-10.2098
052	-10.2101
488B8598FAFFFF48	-10.2111
E9000000000FBF85	-10.2115
311	-10.2119
58FCFFFF	-10.2119
FC1	-10.212
A81	-10.212
58010000	-10.212
E91F000000	-10.2121
8D4FFFFFFF80	-10.2121
89C9	-10.2121
00000000C1000000	-10.2121
E13000000488B85C	-10.2124
0FB7C083E8	-10.2127
3B85B8FDFFFF0F8	-10.2129
E9000000000FB685	-10.213
721	-10.2131
480FBE8D57FFFFFF	-10.2131
48698D08FFFFFF	-10.2133
48837D30000F84	-10.2135
5007661725F333	-10.2137
8985ECF9FFFF	-10.2137
0FBF4DEE	-10.2143
486955D0	-10.2144
E0B0000008B45E	-10.2147
488B0CC8488B	-10.2151
488B8590FAFFFF48	-10.2157
0000000079010000	-10.2159
488B8508FBFFFF48	-10.2165
EE6BC4004801C8	-10.2168
0FB74DD8	-10.2171
4C8B8D600	-10.2174
4831C848	-10.2176
631007661725F363	-10.2177
48698DD0FEFFFF	-10.2182
44010000	-10.2185
100004C8B8D1	-10.2193
00004839C80F83	-10.2193
E6FCFFFF	-10.2194
668B	-10.2198
8DDFFEFFFF80	-10.2199
8B4DAC4869C9	-10.22
488B85B00000008A	-10.2201
D3000000	-10.2205
480FBE4D9F	-10.2206
898500F8FFFF	-10.2208
0FB745EA	-10.2208
981	-10.2213
0FBF45DE	-10.2219
8B459C	-10.222
0E0000008B45E0	-10.222
0FBE45B	-10.2224
0F850D000000	-10.2229
8985D0F7FFFF	-10.2233
DB000000	-10.2234
48898530FDFFFF	-10.2236
488B85A8FAFFFF48	-10.2238
9E1	-10.2239
57FFFFFF	-10.2242
5FFFFFFF	-10.2243
0FB7400	-10.2246
541	-10.2249
0FB68DD7FEFFFF	-10.2249
11020000	-10.2252
63FEFFFF	-10.2253
48898508FDFFFF	-10.2255
D10000000488B45A	-10.2257
837D30000F84	-10.2258
488B85B8FAFFFF48	-10.226
34FF34FF	-10.226
8A45D624010FB6C0	-10.2262
8B8568FBFFFF	-10.2264
48C704C800000000	-10.2268
0FBE4DE7	-10.2268
3B85C0FDFFFF0F8	-10.2269
00000000C8000000	-10.2271
DC000000	-10.2273
AE000000	-10.2276
451	-10.2278
83F0	-10.2279
CFFEFFFF	-10.2283
48638D44FFFFFF	-10.2286
E939000000	-10.2288
E13000000488B85B	-10.2289
351	-10.229
8A45F124010FB6C0	-10.2291
480FBE4DD74869C9	-10.2292
0FBF4DC6	-10.2292
7B1	-10.2292
0E0000008B45E4	-10.2293
24010FB6C089C2	-10.2293
15FFFFFF	-10.2297
9A1	-10.2298
3B85E0FDFFFF0F8	-10.2299
E40B54024801C8	-10.23
668945E6	-10.2302
488B8520FBFFFF48	-10.2303
00020000	-10.2303
97FCFFFF	-10.2305
8B85A8FBFFFF	-10.2306
C11	-10.2307
8955F0	-10.2309
E13000000488B85A	-10.231
7CFDFFFF	-10.2311
0000000047010000	-10.2317
6FFCFFFF	-10.2319
0000000098010000	-10.2322
486BC9144801C88A	-10.2331
3CFDFFFF	-10.2333
7007661725F3138	-10.2337
480FBF8D3EFFFFFF	-10.234
8985E0F7FFFF	-10.2341
802	-10.2342
10020000	-10.2345
8985F8F7FFFF	-10.2346
40060000	-10.2348
F3FDFFFF	-10.2348
4DDD80E1010FB6C9	-10.2351
4006172725F333	-10.2355
488B8DE0FDFFFF	-10.2359
8985C8F7FFFF	-10.2359
83F0FF83F0FF	-10.236
4F1	-10.2362
3007661725F333	-10.2363
AFFFF898D	-10.2364
3B85A8FDFFFF0F8	-10.2367
8B45B8	-10.237
872	-10.2372
D0020000	-10.2372
FAFDFFFF	-10.2376
488B55D0	-10.2378
8B45A8	-10.2379
44A956004801C8	-10.2381
C0010000	-10.2382
DFBFFFF	-10.2382
1BFEFFFF	-10.2382
85F	-10.2384
561	-10.2388
001B75024801C8	-10.2389
E90D000000B8	-10.2392
70010000	-10.2395
B3000000	-10.2397
751	-10.24
0FBE4408	-10.24
486BD2144801D1	-10.2403
D0FCFFFF	-10.2407
BD000000	-10.2407
8985D8F7FFFF	-10.2412
668B1448	-10.2414
0FBE4DCF	-10.2418
A0010000	-10.2419
6683BC48	-10.2421
171	-10.2421
83C00148984869C0	-10.2422
486BC9184801C88A	-10.2422
8B8D40FFFFFF	-10.2422
480FBF8D42FFFFFF	-10.2423
E9000000	-10.2423
0FBFC883E9	-10.2424
48898500FDFFFF	-10.2425
3B85C8FDFFFF0F8	-10.2431
8985B8F7FFFF	-10.2431
D02	-10.2431
224801C8	-10.2434
E40100004801C88A	-10.2434
488B8578FAFFFF48	-10.2435
E932000000	-10.2437
38010000	-10.2444
88FCFFFF	-10.2445
4821C848	-10.2454
C5000000	-10.2458
B2000000	-10.2468
2345	-10.247
31D2F775	-10.2476
2C1	-10.2476
488B8538FAFFFF48	-10.248
894590E9	-10.2481
D13000000488B85A	-10.2482
898590F7FFFF	-10.2482
00000000D6000000	-10.2486
A61	-10.2486
3EFDFFFF	-10.2487
58020000	-10.2489
0FBF4DF6	-10.249
6A1	-10.2491
31D248F7F148	-10.2492
8D5FFFFFFF80	-10.2494
0FBF401	-10.2498
00000000CF000000	-10.2501
A8FCFFFF	-10.2504
488B8D18010000	-10.2507
7FFFF0F8	-10.251
0FB74D86	-10.251
0FBE4D30	-10.2513
8B4D1866448B4D10	-10.2517
5FBFFFF	-10.2519
5AFEFFFF	-10.2521
E928000000	-10.2522
894580488B4580	-10.2524
D71	-10.2528
83F0FF6689C2	-10.253
2007661725F343	-10.2531
341	-10.2531
B9010000	-10.2532
57FCFFFF	-10.2533
A11	-10.2536
A7000000	-10.2537
0FB7044883F0FF	-10.2542
794801C8	-10.2546
A6000000	-10.2555
803	-10.2556
6006172725F343	-10.2556
00000000C8010000	-10.2558
C7048800000000	-10.2563
DA1	-10.2564
0FB68D53FFFFFF	-10.2572
0C000000000000	-10.2574
0FB68D67FFFFFF	-10.2575
7EFDFFFF	-10.2577
4B1	-10.258
F0FCFFFF	-10.258
480FBF4DBE4869C9	-10.2583
44FDFFFF	-10.259
5A1	-10.2591
000000004E010000	-10.2599
7007661725F333	-10.2599
D13000000488B858	-10.2599
6BC000	-10.2606
0FB68577FFFFFF	-10.2606
0FB74D82	-10.2607
4DEF80E1010FB6C9	-10.2608
B41	-10.261
488985E8FCFFFF	-10.2612
771	-10.2614
971	-10.2615
488B8588FAFFFF48	-10.2615
E929000000	-10.2617
702	-10.2622
7D1	-10.2624
CE000000	-10.2628
48C78578FFFFFF	-10.2632
F41	-10.2636
898598F7FFFF	-10.2638
76FDFFFF	-10.2639
E0FBFFFF	-10.2639
488B8518FBFFFF48	-10.264
0FB74DF6	-10.2643
8985ACF9FFFF	-10.2645
8B8DFCFEFFFF	-10.2646
48898518FDFFFF	-10.2647
4809C848	-10.2647
4080E70140887D	-10.2648
0000065000000	-10.2649
0B000000000000	-10.2652
B83	-10.2654
0000000055010000	-10.2654
FD000000	-10.2657
0FB745F0	-10.2658
488B85B80000008A	-10.2671
8B45BC	-10.2671
B9A	-10.2672
C3000000	-10.2674
0FBE4D38	-10.2675
8B45943B45900F8	-10.2679
BB000000	-10.2684
8B853CFBFFFF	-10.2688
E937000000	-10.2694
00FCFFFF	-10.2697
E8FFFF	-10.2698
488B4DC04883E901	-10.2698
9C2	-10.2699
3F1	-10.27
0000D3F8	-10.2703
FB1	-10.2703
000F95C024018885	-10.2705
1FFFFFFF	-10.2706
BC000000	-10.2707
2006172725F333	-10.2708
0007661725F343	-10.2713
621	-10.2721
48897DF88975F4	-10.2721
480FBE4D8	-10.2727
8985A8F7FFFF	-10.273
480FBE4DF3	-10.2732
8A4DD780	-10.2734
0FBF4DEC	-10.2735
898574F9FFFF	-10.2736
DC3	-10.2736
FDFFFF0FBE85	-10.2736
0700	-10.2742
8B852CFBFFFF	-10.2745
8A04082401	-10.2746
DD1	-10.2746
3B8598FDFFFF0F8	-10.2747
48898538FDFFFF	-10.2747
E10000000488B45A	-10.2751
C41	-10.2755
488378	-10.2758
488985B0FCFFFF	-10.2762
8A45F624010FB6C0	-10.2764
898544F9FFFF	-10.2767
48837DE8000F95C0	-10.2768
D61	-10.2768
898564F9FFFF	-10.2769
480FBF4DC2	-10.277
251	-10.277
C9000000	-10.2771
83F8000F8D	-10.2777
E95A000000	-10.2781
991	-10.2783
488985F8FCFFFF	-10.2783
3BFEFFFF	-10.2783
5F1	-10.2784
837DE8000F84	-10.2792
2BFEFFFF	-10.2794
54FDFFFF	-10.2795
8B8560FBFFFF	-10.2797
3B8590FDFFFF0F8	-10.2798
671	-10.28
F31	-10.2802
F91	-10.2806
0AFEFFFF	-10.2807
480FBF4DE8	-10.2809
C745CC	-10.281
FFFF7F	-10.2811
8B857CFBFFFF	-10.2811
8B8544FBFFFF	-10.2814
0FBF458	-10.2816
89859CF9FFFF	-10.2818
CBFDFFFF	-10.2824
83C10389C94869C9	-10.2824
16FDFFFF	-10.2824
E7FCFFFF	-10.2829
E10000000488B45B	-10.2829
3D1	-10.283
8B8D1CFEFFFF	-10.2831
C745D0	-10.2833
488B8558FAFFFF48	-10.2835
0010000000000003	-10.2837
041	-10.2837
3C1	-10.2837
0FBE1408	-10.2838
8A45CB24010FB6C0	-10.284
89D1	-10.2843
E13000000488B859	-10.2843
480FBE4DDD	-10.2843
081	-10.2844
DE1	-10.2847
ED1	-10.2849
0FB6F0	-10.2851
591	-10.2853
A71	-10.2854
488B85A0FAFFFF48	-10.2855
551	-10.286
E925000000	-10.286
8B8580FBFFFF	-10.2863
89856CF9FFFF	-10.2864
488B8D98FEFFFF	-10.2866
931	-10.2867
8985A0F7FFFF	-10.2867
66837DFC000F84	-10.2869
2401	-10.287
48638D18FFFFFF	-10.2872
8985B0F7FFFF	-10.2875
00000000D8010000	-10.2879
0FB64DE1	-10.2886
807D38000F84	-10.2887
4DE280E1010FB6C9	-10.2888
1D1	-10.2892
8D17FFFFFF80	-10.2894
7DFFFFFF	-10.2896
B5000000	-10.2903
45FFFFFF	-10.2905
488B8530FAFFFF48	-10.2905
010000000000009	-10.2906
0FB64DD2	-10.2907
D000039C80F8D	-10.2909
48698D18FFFFFF	-10.2909
000F8411000000B8	-10.2913
0FBF1448	-10.2914
288CF2014801C8	-10.2914
0FAF45	-10.2915
8B8D08FFFFFF	-10.2915
480FBE4DAB	-10.2917
488945D8	-10.2919
8B5528	-10.292
BB1	-10.292
48634DB0	-10.2921
E10000000488B459	-10.2922
741	-10.2925
7661725F3230	-10.2926
E4000000	-10.2926
0FBF45EA	-10.2929
83E90139C80F8D	-10.293
27FFFFFF	-10.293
0FB6040883F0FF	-10.293
08020000	-10.2937
FA000000	-10.294
6DFFFFFF	-10.2941
651	-10.2943
7E1	-10.2945
0000000087010000	-10.2946
DA000000	-10.2947
480FBE8D77FFFFFF	-10.2949
89853CF9FFFF	-10.295
F51	-10.295
48894580	-10.2957
4863C931D248F7F1	-10.2959
E8FCFFFF	-10.296
000000005C010000	-10.296
BA000000	-10.296
E0000008B45CC	-10.2962
0FBF4D30	-10.2962
8B8554FBFFFF	-10.2963
8945A0E9	-10.2964
00000000DD000000	-10.2964
448A	-10.2965
AFFCFFFF	-10.2967
0FB78D3EFFFFFF	-10.2969
EA1	-10.2972
AF1	-10.2974
AA1	-10.2983
8A45F524010FB6C0	-10.2983
CEFCFFFF	-10.2983
31C929C148	-10.2985
E51	-10.2989
807D30000F84	-10.299
371	-10.2992
784801C8	-10.2993
C6400	-10.2995
6E1	-10.3
B9E	-10.3002
48C745B0	-10.3005
EE000000	-10.3005
8A4DE380	-10.3007
488B8568FAFFFF48	-10.3007
8945C8488B45C848	-10.3008
8B851CFBFFFF	-10.3015
911	-10.3018
898578F7FFFF	-10.302
8945B0E9	-10.3026
89857CF9FFFF	-10.3027
48837D38000F84	-10.3029
0FBF400	-10.3038
A7FEFFFF	-10.3038
89855CF9FFFF	-10.3039
5B1	-10.3039
C02	-10.304
CFFFF01C8668985	-10.3043
46FCFFFF	-10.3046
26FDFFFF	-10.3046
BE1	-10.3051
E92D000000	-10.3051
C7FEFFFF	-10.3051
480FBF4D8E	-10.3052
8B8588FBFFFF	-10.3062
8B5520	-10.3063
14FDFFFF	-10.3065
8B448804	-10.3065
5001000000000000	-10.3068
D10000000488B45B	-10.3068
3E1	-10.3069
A41	-10.3072
8DFFFEFFFF80	-10.3074
391	-10.3076
488B8D28FEFFFF	-10.3077
D10000000488B45C	-10.3078
31C929C1	-10.3079
486BD2304801D1	-10.3081
48638D2CFFFFFF	-10.3082
488985D0FCFFFF	-10.3083
B8AF11034801C8	-10.3083
0010000488BBD	-10.3084
BEFDFFFF	-10.3085
A91	-10.3086
48634D98	-10.3091
0FB74DCE4869C9	-10.3095
231	-10.3097
8B458C	-10.31
0FB68D6BFFFFFF	-10.3102
F5FEFFFF	-10.3103
488B8D08FEFFFF	-10.3104
480FBF4DD24869C9	-10.3106
321	-10.3106
898584F9FFFF	-10.3106
4DBE80E1010FB6C9	-10.3107
000F95C180F1FF80	-10.3108
584	-10.3109
D9000000	-10.3109
E92B000000	-10.3112
C6FCFFFF	-10.3112
F5000000	-10.3115
0FB745F8	-10.3127
0FB78D66FFFFFF	-10.3127
8B8D00FFFFFF	-10.313
3B85A0FDFFFF0F8	-10.3134
7A1	-10.3137
9D2	-10.3139
10050000	-10.314
602	-10.3141
488B8528FAFFFF48	-10.3141
17FDFFFF	-10.3143
8B8524FBFFFF	-10.3144
471	-10.3147
39C80F8D13000000	-10.3148
0EFDFFFF	-10.3148
531	-10.3148
E95B000000	-10.3149
8B55E4	-10.315
FBFCFFFF	-10.3151
B93	-10.3157
8A45AF24010FB6C0	-10.3158
8A45E924010FB6C0	-10.3158
8B45E089C1	-10.316
48894580488B	-10.3163
8B8540FBFFFF	-10.3164
B51	-10.3164
13FEFFFF	-10.3165
898580F7FFFF	-10.3169
0006172725F343	-10.3172
431	-10.3173
8B45DC3B45D80F8	-10.3175
5006172725F323	-10.3176
B0FCFFFF	-10.3177
00000000A0010000	-10.318
480FBF8D36FFFFFF	-10.3181
8B45AC	-10.3184
486BD2644801D1	-10.3185
9B1	-10.3185
8B8578FBFFFF	-10.3187
282	-10.3187
633007661725F363	-10.3189
488985F0FCFFFF	-10.3193
DF1	-10.3195
8B45843B45800F8	-10.3196
D6FCFFFF	-10.3197
488B8560FAFFFF48	-10.3198
488B8D28010000	-10.3201
8B8570FBFFFF	-10.3202
344801C8	-10.3204
00601E004801C8	-10.3204
488B8D48FEFFFF	-10.3207
AD000000	-10.3208
480FBE4D83	-10.3211
83F0FF88C2	-10.3219
898504F9FFFF	-10.3219
488985E0FCFFFF	-10.3221
480FBF4DD64869C9	-10.3226
B61	-10.3228
02FEFFFF	-10.3229
1007661725F3132	-10.3234
4E1	-10.3238
0000000063010000	-10.324
486B4D88	-10.3241
488B8540FAFFFF48	-10.3242
FBFDFFFF	-10.3242
0FB78DFEFEFFFF	-10.3244
9FFCFFFF	-10.3246
480FBF4DEE	-10.325
4863451048	-10.3253
1A1	-10.3254
00A861004801C8	-10.3259
0000000020020000	-10.3264
8852AD004801C8	-10.3265
8010000488BBD	-10.3265
FE1	-10.3265
D28010000	-10.3265
542	-10.3268
E6000000	-10.327
0FBF4D28	-10.327
488B8548FAFFFF48	-10.3271
898554F9FFFF	-10.3273
000039C80F83	-10.3274
42FEFFFF	-10.3278
D0E0000008B45C	-10.3278
0D000000488B45E8	-10.3278
8378	-10.3278
0000F3004801C8	-10.3279
8B4598	-10.328
AC1	-10.328
488B8570FAFFFF48	-10.3282
480FBF4DA6	-10.3282
DCD788014801C8	-10.3283
83E8014863D0	-10.3285
3B8580FDFFFF0F8	-10.3288
000000008E010000	-10.3289
486B8D70FFFFFF	-10.3292
48638D6CFEFFFF	-10.3293
009807004801C8	-10.3294
66837DF6000F84	-10.3294
CE1	-10.3295
2B1	-10.3295
D51	-10.3297
8B8530FBFFFF	-10.3298
E961000000	-10.3298
83C0038845	-10.3303
89C089C1	-10.3304
D13000000488B859	-10.3305
E93A000000	-10.3308
A51	-10.3308
B9FFFFFFFF	-10.3311
8B0C8848	-10.3312
8B4D58	-10.3313
D11	-10.3317
8FFFFE90C000000	-10.3317
18020000	-10.3318
E13000000488B858	-10.3327
488B85C00000008A	-10.333
486BC9644801C88A	-10.3331
291	-10.3332
66837D30000F84	-10.3335
D10000000488B459	-10.3337
488975F08955EC	-10.3337
C0060000	-10.3339
691	-10.3341
89858CF9FFFF	-10.3343
4883C103486BC9	-10.3345
E1010FB6C94863C9	-10.3345
0FBF4DEA	-10.335
D41	-10.335
8A45E424010FB6C0	-10.3353
BC1	-10.3353
8006172725F343	-10.3355
48634DBC4869C9	-10.3355
3B85B0FDFFFF0F8	-10.3357
0FB64DDE	-10.3358
B8FFFFFFFF	-10.3364
441	-10.3365
3B1	-10.3365
8B854CFBFFFF	-10.3366
480FBF4DE44869C9	-10.3366
8A8D3FFFFFFF80	-10.3367
0FB74DF4	-10.3368
48898510FDFFFF	-10.3368
480FBF4D9E4869C9	-10.3368
488B8518FAFFFF48	-10.3372
E92A000000	-10.3374
0FBF4D9E	-10.3377
AAFDFFFF	-10.3377
48698D88FEFFFF	-10.338
000F8410000000	-10.3383
4DF080E1010FB6C9	-10.3383
486B8D78FFFFFF	-10.3386
488B8568FFFFFF	-10.3387
488B8520FAFFFF48	-10.3388
0AA37C004801C8	-10.3392
3FFCFFFF	-10.3392
4883F9000F95C180	-10.3393
0FB64DC3	-10.3396
8A45EC24010FB6C0	-10.3396
D0B0000008B45E	-10.3396
00000000EB000000	-10.3397
622	-10.3401
131	-10.3402
8B8DF4FEFFFF	-10.3408
C61	-10.3414
807DEF000F84	-10.3414
331	-10.3415
F6000000	-10.342
0FB6458	-10.3422
831	-10.3422
480FBE4DE9	-10.3423
A2FDFFFF	-10.3423
CB000000	-10.3428
78FBFFFF	-10.3428
00300F004801C8	-10.3435
488B8D50FEFFFF	-10.3435
3A1	-10.3437
A8FBFFFF	-10.3438
4801D0486995	-10.3438
E92	-10.3439
D7FCFFFF	-10.344
B71	-10.344
C0FCFFFF	-10.3441
E21	-10.3442
AD1	-10.3443
98010000	-10.3445
0080	-10.3447
86904B004801C8	-10.3452
0FB64D8F	-10.3456
8B8D14FEFFFF	-10.346
402	-10.3463
0FBE45A	-10.3464
A4020000	-10.3465
488B8D18FEFFFF	-10.3466
480FBF8DDEFEFFFF	-10.3468
488985C8FCFFFF	-10.3468
0FB645F6	-10.347
488B8550FAFFFF48	-10.348
93FDFFFF	-10.3483
0FBE4D10	-10.3485
0FBF45F8	-10.3488
0000000095010000	-10.3489
48894588488B	-10.3491
761	-10.3494
2001000000000000	-10.3494
E000039C80F8D	-10.3495
FCFCFFFF	-10.3503
01488B0500000000	-10.3503
0000000018020000	-10.3506
CA1	-10.3509
ED000000	-10.3511
511	-10.3511
C745BC	-10.3513
4BFFFFFF	-10.3518
06FCFFFF	-10.352
00000000F0	-10.3522
52010000	-10.3526
898514F9FFFF	-10.3527
031	-10.3527
488B8D20FEFFFF	-10.3529
83C000	-10.353
FF7F	-10.3531
571	-10.3533
48634D90	-10.3535
488B8D70FDFFFF	-10.3536
0FB74DA2	-10.3536
221	-10.3539
4DF380E1010FB6C9	-10.354
0C2197004801C8	-10.3543
5A4	-10.3544
89854CF9FFFF	-10.3545
03FEFFFF	-10.3545
4A1	-10.3545
791	-10.3551
0FB74DBA	-10.3552
3B8570FDFFFF0F8	-10.3552
E61	-10.3558
821	-10.3559
7F9FFFF	-10.356
EB1	-10.356
480FBE8D67FFFFFF	-10.3562
898594F9FFFF	-10.3565
83BD68F	-10.3567
E8030000	-10.3567
8B55E0	-10.3568
664489C84C8B8D	-10.3577
8B8DA4FEFFFF	-10.3578
83FDFFFF	-10.3578
00000000E4000000	-10.3579
48634DA0	-10.3579
E0E0000008B45D	-10.3582
E41	-10.3582
5EFCFFFF	-10.359
0A1	-10.3595
091	-10.36
8B8DBCFEFFFF	-10.36
48C78568FFFFFF	-10.3601
8B8558FBFFFF	-10.3601
488B8D38FEFFFF	-10.3602
8D47FFFFFF80	-10.3606
CFFCFFFF	-10.3609
898588F7FFFF	-10.3609
837D38000F84	-10.361
DB1	-10.361
000F8412000000	-10.3614
180F8D	-10.3618
87FEFFFF	-10.3623
C8B85800000004	-10.3627
488B8D60FEFFFF	-10.3628
88D0	-10.3631
10000000488B4510	-10.3633
8945EC8B45EC	-10.3636
668945E2	-10.3638
3007661725F3134	-10.3641
151	-10.3644
8A4DFF80E1010FB6	-10.3645
8E1	-10.3645
852	-10.3646
DFFBFFFF	-10.3647
8B8504FBFFFF	-10.3651
488B8558020000	-10.3653
8B8D4CFEFFFF	-10.3656
20020000	-10.366
4B2	-10.366
898570F7FFFF	-10.3661
83C20189D2	-10.3661
480FBF4D92	-10.3661
B9C	-10.3661
8B850CFBFFFF	-10.3667
898524F9FFFF	-10.3668
0FB78D5EFFFFFF	-10.3671
582	-10.3672
8B85FCFAFFFF	-10.3673
04C8B85880000004	-10.3674
5F2	-10.3674
8B8514FBFFFF	-10.3677
00000000F9000000	-10.3678
E949000000	-10.3678
811	-10.3678
8B8550FBFFFF	-10.3678
0FB7C883E9	-10.3682
1BFFFFFF	-10.3683
EA000000	-10.3687
5CFDFFFF	-10.3689
000000006A010000	-10.369
488B0CD148BA	-10.369
331006172725F333	-10.369
8B45C83B45C40F8	-10.3693
271	-10.3693
480FBE55D	-10.3694
CAFDFFFF	-10.3694
0FB64DE4	-10.3697
161	-10.37
8A459F24010FB6C0	-10.3701
B31	-10.3701
D91	-10.3702
DEFCFFFF	-10.3703
7FFDFFFF	-10.3704
DD000000	-10.3704
F9000000	-10.3707
0FB64DF6	-10.3709
83BD50F	-10.371
8B4594	-10.371
B801000000B9	-10.3712
A000039C80F8D	-10.3714
635007661725F363	-10.3718
BF1	-10.3722
D110000008B857	-10.3723
4805A0	-10.3726
2F1	-10.3727
0FB74DE44869C9	-10.3737
898560F7FFFF	-10.374
4006172725F343	-10.3741
4DE480E1010FB6C9	-10.3745
0FB68DEFFEFFFF	-10.3748
0FB64DE74869C9	-10.3749
8B55F0	-10.3755
100004C8B8D3	-10.3756
E7000000	-10.3756
0FBE4DDF	-10.3756
FEFCFFFF	-10.3758
EE1	-10.376
9BFDFFFF	-10.3761
4007661725F343	-10.3762
0000E6014801C8	-10.3765
7F8FFFF	-10.3767
488B8D58FEFFFF	-10.3769
08070000	-10.377
E92C000000	-10.377
0FB74550	-10.3771
71020000	-10.3772
68020000	-10.3773
0FBF4D20	-10.3774
D31	-10.3774
668B45FC	-10.3775
8B85DCFAFFFF	-10.3776
921	-10.3778
0000067000000	-10.3778
FFFFFF008A85	-10.3779
0DFFFFFF	-10.378
0000000040020000	-10.378
AE1	-10.3781
461	-10.3784
30020000	-10.3789
F83	-10.379
EF000000	-10.3794
B2FDFFFF	-10.3794
8B8DACFEFFFF	-10.3795
E96D000000	-10.38
48698DB8FEFFFF	-10.3802
ECFCFFFF	-10.3804
611	-10.3807
C745DC	-10.3811
5BFDFFFF	-10.3812
48634DB44869C9	-10.3814
8B8DE0FEFFFF	-10.3815
83EA0189D2	-10.3817
8B8548FBFFFF	-10.3817
C745C8	-10.3817
9E2C17004801C8	-10.3818
8B55E8	-10.3821
898568F7FFFF	-10.3826
488B8508FAFFFF48	-10.3828
66837DEE000F84	-10.3833
83BDE0F	-10.3834
8000039C80F8D	-10.3836
FFFF0F8	-10.3836
244801C8	-10.3842
488B8510FAFFFF48	-10.3844
0FB64558	-10.3851
3B8588FDFFFF0F8	-10.3852
0FB64DE9	-10.3854
480FBE8D27FFFFFF	-10.3855
488B85C80000008A	-10.3856
9FFFF24010FB6C0	-10.3857
8B8538FBFFFF	-10.3858
A2542B004801C8	-10.3859
8B5538	-10.3862
3B8578FDFFFF0F8	-10.3865
27FCFFFF	-10.3869
488B8D38010000	-10.3869
48638D0CFFFFFF	-10.387
F71	-10.387
CF000000	-10.387
871	-10.3873
488B8D68FDFFFF	-10.3874
F4FFFFE900000000	-10.3875
00000000D0010000	-10.3877
E947000000	-10.388
8B45C03B45BC0F8	-10.3881
BA540B004801C8	-10.3881
8B8534FBFFFF	-10.3884
7F1	-10.3885
486BC90F4801C88A	-10.3889
10000000488B4528	-10.3889
0000066000000	-10.3891
C745D4	-10.3891
480FBF4DD8	-10.3892
83BDB0F	-10.3893
E93C000000	-10.3895
486BD2194801D1	-10.3895
83C0024863C8	-10.3896
77FCFFFF	-10.3897
F2052A014801C8	-10.3898
1C4801C8	-10.39
20060000	-10.3903
A31	-10.3903
807DF	-10.3907
CA000000	-10.391
8B4008	-10.3914
8B8DC4FEFFFF	-10.3914
65FFFFFF	-10.3917
488985B8FCFFFF	-10.3919
808D3A014801C8	-10.392
04FDFFFF	-10.3921
48634DEC4869C9	-10.3923
83E000	-10.3925
55FFFFFF	-10.3925
37FCFFFF	-10.3926
07FFFFFF	-10.3936
48634D8C	-10.3937
1EFDFFFF	-10.3937
400200004801D1	-10.3938
731	-10.3938
4DE980E1010FB6C9	-10.3938
191	-10.3939
1E4801C8	-10.3942
E93B000000	-10.3942
48698D10FFFFFF	-10.3948
8B55D8	-10.3953
8945B88	-10.3954
488B8D10FEFFFF	-10.3956
24010FB6C083F0FF	-10.3957
C21	-10.3958
EFFFFF8B85	-10.3959
480FBE8DFFFEFFFF	-10.3964
B94	-10.3964
E110000008B857	-10.3967
00000000F2000000	-10.3969
7000039C80F8D	-10.3972
0FBE0408668985	-10.3974
83E8024863C8	-10.3978
83E90489C9	-10.398
0FBE0C08488B	-10.3982
1A4801C8	-10.3983
E40100004801D1	-10.3983
0000000042000000	-10.3983
EC000000	-10.3984
121	-10.3984
484801C8	-10.3985
7CFCFFFF	-10.3985
8B45288A4520	-10.3986
0FB68D57FFFFFF	-10.3992
4883E904	-10.3995
4801	-10.4001
E942000000	-10.4004
0FBE4558	-10.4006
488985C0FCFFFF	-10.4009
B9B	-10.4009
3B8540FDFFFF0F8	-10.401
B8FCFFFF	-10.401
48898570FCFFFF	-10.4011
4000039C80F8D	-10.4013
F61	-10.4019
8945D0E9	-10.4021
4D8380E1010FB6C9	-10.4023
9006172725F323	-10.4023
0500	-10.4027
8B4584	-10.4028
48894590E908	-10.4028
480FBF8D5EFFFFFF	-10.4031
4C8B859000000	-10.4031
0CFDFFFF	-10.4034
8A8577FFFFFF	-10.4035
0F0000000FBE45F	-10.4035
C0469D004801C8	-10.4039
480FBE4DDE	-10.404
853	-10.4048
8B8D94FEFFFF	-10.4048
F0010000	-10.4048
0FB74D9A	-10.405
39C80F8D11000000	-10.4052
C2000000	-10.4055
E8010000	-10.4055
480FBE4DD6	-10.4057
E9000000000FB785	-10.4057
42020000	-10.4058
8B85BCFAFFFF	-10.4064
8985FCF8FFFF	-10.4068
C000039C80F8D	-10.4069
78010000	-10.4071
4C4801C8	-10.4072
8B8520FBFFFF	-10.4074
0FB68D17FFFFFF	-10.4075
88857	-10.4076
0FBF0C48	-10.4077
0FB64DB74869C9	-10.4079
0F93C024010FB6C0	-10.4081
48698DC8FEFFFF	-10.4083
0FBFC983E9	-10.4083
0FBF4DF4	-10.4083
488945E0488B45	-10.4084
0FBF4D38	-10.4086
31C0B9	-10.4088
0FFFFE90E000000	-10.4089
FB000000	-10.409
0FB74DFE	-10.409
9000039C80F8D	-10.4091
0FB655D	-10.4094
60FCFFFF	-10.4096
0FB74D92	-10.4097
0FBF4550	-10.4098
C745B4	-10.4098
48C78558FFFFFF	-10.4098
488B8550020000	-10.4099
8A4DDB80	-10.4104
1AFDFFFF	-10.4104
0000000071010000	-10.4105
0000000007010000	-10.4106
F3000000	-10.4107
239006172725F333	-10.4108
48C1E21	-10.4108
488B8D30010000	-10.4108
8945A0E908000000	-10.4108
488985D8FCFFFF	-10.4111
4080E601408875	-10.4112
EF1	-10.4123
898550F7FFFF	-10.4123
6683FA00480F45C1	-10.4125
89854CF	-10.4126
8B45CC	-10.4126
837DF4000F95C0	-10.4126
E7FFFF	-10.4127
E71	-10.4128
0FB645F5	-10.4129
C8B45784C8B45704	-10.413
B21	-10.4132
8B4570	-10.4135
837DE4000F84	-10.4136
480FBE4DA7	-10.4139
486BD2604801D1	-10.4143
668945EA	-10.4143
C745C0	-10.4144
D0E0000008B45D	-10.4146
021	-10.415
0FB68D0FFFFFFF	-10.4151
E93D000000	-10.4152
9EFCFFFF	-10.4153
488B8DD8FDFFFF	-10.4153
1CFDFFFF	-10.4153
8B85E4FAFFFF	-10.4154
6B1	-10.4157
8B858CFAFFFF	-10.4157
B95	-10.416
8B4D2866448B4D20	-10.4162
47FCFFFF	-10.4162
E94F000000	-10.4165
000000009C010000	-10.4165
000000488B45C048	-10.4165
480FBE4DAF4869C9	-10.4168
8B85D4FAFFFF	-10.417
480FBE4DEE	-10.4171
C745C4	-10.4171
480FBE4DC	-10.4172
0000000070020000	-10.4176
071	-10.4176
898558F7FFFF	-10.4177
B9D	-10.4182
488B8DF8FDFFFF	-10.4185
8B55DC	-10.4189
48634DA44869C9	-10.4189
2006172725F343	-10.4192
B000039C80F8D	-10.4193
8B8518FBFFFF	-10.4193
48898598FCFFFF	-10.4197
48010000	-10.4198
488955F0	-10.4199
E110000008B855	-10.4201
0FB7857EFFFFFF	-10.4203
488B85F8F9FFFF48	-10.4204
8B8510FBFFFF	-10.4204
805473004801C8	-10.4208
88853	-10.4209
0000000049000000	-10.421
3B8568FDFFFF0F8	-10.4212
8985BCF8FFFF	-10.4213
F21	-10.4213
0FAF	-10.4217
E0FCFFFF	-10.4219
CCFCFFFF	-10.4221
D3E083F8000F84	-10.4222
EB000000	-10.4223
48634DC44869C9	-10.4225
488985F8FBFFFF	-10.4226
B97	-10.4226
00A086014801C8	-10.4227
486BD2284801D1	-10.4227
0006172725F333	-10.4229
0FBFD0	-10.423
486345FC48	-10.4231
8B85ECFAFFFF	-10.4232
DAFDFFFF	-10.4233
81E9E	-10.4238
F6C2010F45C1	-10.4241
C0030000	-10.4241
48898578FCFFFF	-10.4243
B11	-10.4245
0FB64DBF4869C9	-10.4245
0FB68D27FFFFFF	-10.4245
E2FDFFFF	-10.4248
6F1	-10.4248
18FDFFFF	-10.4248
2AFDFFFF	-10.425
898534F9FFFF	-10.425
C1000000	-10.4255
631	-10.4256
0FB64DF3	-10.4257
0F92C024010FB6C0	-10.4258
89851CF9FFFF	-10.426
480FBE4DD34869C9	-10.4261
E3000000	-10.4263
486BD2504801D1	-10.4264
8A857FFFFFFF	-10.4265
D3E289D1	-10.427
0E0000008B45F8	-10.4271
66C704480100	-10.4273
0000000000010000	-10.4274
8A45F224010FB6C0	-10.4275
4D8B80E1010FB6C9	-10.4275
A21	-10.4276
48698DF0FEFFFF	-10.4276
0FB7C983E9	-10.4277
488B8570FFFFFF	-10.4277
0F96C024010FB6C0	-10.428
361	-10.428
8BFDFFFF	-10.4284
F0030000	-10.4285
8B85A8FAFFFF	-10.4287
8B85CCFAFFFF	-10.4289
18422E014801C8	-10.4291
180E10148	-10.4295
FA1	-10.4295
000000003B000000	-10.4296
480FBE4DEA	-10.4296
E31	-10.4298
80D320004801C8	-10.43
0000068000000	-10.4307
486955E0	-10.4307
0FB745E2	-10.4309
48B8FFFFFFFF	-10.4318
480FBF8D46FFFFFF	-10.4319
480530	-10.4319
54FCFFFF	-10.432
83E001	-10.432
488B8D40FEFFFF	-10.4323
4801D00FB695	-10.4325
900000004801D1	-10.4332
8C1	-10.4338
4831C8	-10.434
894DA	-10.4341
664489C0	-10.4341
0FBF4DF2	-10.4341
7FFCFFFF	-10.4344
7C2	-10.4344
488B8D98FDFFFF	-10.4346
0FBE45DF	-10.4346
8B45EC3B45E80F8	-10.4349
480FBE4DBB	-10.4352
000000007F010000	-10.4353
951	-10.4357
861	-10.4357
1F1	-10.4359
8B8528FBFFFF	-10.4359
F1000000	-10.4359
0FBF4DCC	-10.4359
0E0000008B45EC	-10.4365
E941000000	-10.4366
480FBE4D874869C9	-10.4366
4DAB80E1010FB6C9	-10.437
6D1	-10.437
00000000C0	-10.4373
88850	-10.4379
B0040000	-10.4381
EFFFFF488B85	-10.4382
48634DAC4869C9	-10.4383
D7000000	-10.4385
DE000000	-10.4386
8B8D3CFEFFFF	-10.4388
180F83	-10.4389
3B45F00F	-10.4391
C745AC	-10.4391
4488C8	-10.4395
81E9F	-10.4397
898540F7FFFF	-10.4398
489948F77D	-10.44
B0010000	-10.4401
B84	-10.4404
0FAFCA	-10.4405
0FB78D1EFFFFFF	-10.4408
8985ECF8FFFF	-10.4409
E93F000000	-10.4412
00A9E6004801C8	-10.4413
000000000E010000	-10.4414
8B4D60	-10.4414
0B1	-10.4419
1B1	-10.4421
488B8D40010000	-10.4425
8B85E0FAFFFF	-10.4425
E0000008B45A4	-10.4427
0000D3E0	-10.4427
66C7	-10.4429
0FBE0C08	-10.4429
E0E0000008B45C	-10.4434
48698DB0FEFFFF	-10.4439
89C231C02B0491	-10.444
D4801	-10.444
C7000000	-10.4448
0FB74DBE4869C9	-10.445
8B55D4	-10.4452
C2FDFFFF	-10.4453
BA2	-10.4454
AB1	-10.4456
C74	-10.4457
00000000A3010000	-10.4461
48898580FCFFFF	-10.4465
38FBFFFF	-10.4467
2E1	-10.4471
0FB64D93	-10.4472
894DF0	-10.4479
3EFCFFFF	-10.4481
81E9A	-10.4483
0FB64DDB4869C9	-10.4483
98FCFFFF	-10.4486
8B0C9181E9	-10.4487
4839C80F97C0	-10.4489
4829D1D3E0	-10.4492
488B8DB0FDFFFF	-10.4492
480FBE4DDB4869C9	-10.4493
B99	-10.4496
30FCFFFF	-10.4498
8CFCFFFF	-10.4498
EAFDFFFF	-10.45
80E2018855E	-10.4501
801A06004801C8	-10.4504
8B859CFAFFFF	-10.4506
8B85F0FAFFFF	-10.451
0FB78D4EFEFFFF	-10.451
4883B8	-10.4513
48C74598	-10.4513
488B85D8F9FFFF48	-10.4516
FDFFFF008A85	-10.4518
898548F7FFFF	-10.4519
73FDFFFF	-10.452
241	-10.4525
8EFCFFFF	-10.4526
48898588FCFFFF	-10.4527
0000000088020000	-10.4527
AEFCFFFF	-10.4528
488B45408A	-10.4529
C7048801000000	-10.4531
898554F	-10.4532
000066C785	-10.4533
0FAFC8	-10.4537
0FB60C08	-10.4542
C8B45684C8B45604	-10.4544
8B85D0FAFFFF	-10.4549
0000CC034801C8	-10.455
8B8D78FEFFFF	-10.4554
0C1	-10.4556
480FBE4D93	-10.4558
89852CF9FFFF	-10.4558
29D1	-10.4559
D110000008B856	-10.4559
00030000	-10.4566
898568F	-10.4566
0000069000000	-10.4568
1446F9004801C8	-10.4568
0345D0488945D0E9	-10.4572
8985D4F8FFFF	-10.4575
E11	-10.4576
89851CF	-10.4577
63FDFFFF	-10.4577
486BD22C4801D1	-10.4583
0FB64DE0	-10.4583
E938000000	-10.4583
486BD2584801D1	-10.4584
0F1	-10.4588
0FBE4D40	-10.4592
488B55C0	-10.4595
48897DF8488975F0	-10.4596
6CD409004801C8	-10.4599
488B85E0F9FFFF48	-10.46
8B8508FBFFFF	-10.4606
48C7C0FFFFFFFF48	-10.4607
211	-10.4607
0FB78566FFFFFF	-10.4609
891	-10.461
0FB745E8	-10.4613
31C92B4D	-10.4615
48634DC84869C9	-10.4616
E9090000008B45F8	-10.4618
E110000008B854	-10.4618
48634DA8	-10.4619
898538F7FFFF	-10.4622
0FB78DBEFEFFFF	-10.4624
D1000000	-10.4625
900000004801C88A	-10.4626
A02	-10.4634
8B85F4FAFFFF	-10.4635
5D2	-10.4636
8B45388A4530	-10.4638
486345F848	-10.4639
0000000015010000	-10.4639
0F97C024010FB6C0	-10.4644
3B8550FDFFFF0F8	-10.4645
89850CF9FFFF	-10.4647
0FB64DE54869C9	-10.4649
84030000	-10.4651
5000039C80F8D	-10.4651
CFFBFFFF	-10.4652
488B85F0F9FFFF48	-10.4652
8A8D1FFFFFFF	-10.4653
061	-10.4653
53FDFFFF	-10.4659
F11	-10.4665
0FBE4DC7	-10.4665
480FBF8DCEFEFFFF	-10.4666
0FB64D96	-10.4667
48638D40FEFFFF	-10.4669
66C7000	-10.467
488B400848	-10.467
898550F	-10.4671
00000000AA010000	-10.4672
200A0000	-10.4676
48C78560FFFFFF	-10.4678
48C78570FFFFFF	-10.4679
488B8D98FCFFFF	-10.4679
0FB78DEEFEFFFF	-10.4679
83C10489C9	-10.4681
0E1	-10.4681
89D0488B95	-10.4683
00120000	-10.4684
486B8D68FFFFFF	-10.4686
69010000	-10.4688
520000	-10.4692
400200004801C88A	-10.4692
66837D38000F84	-10.4694
0000000057000000	-10.4695
05F	-10.4696
8D57FFFFFF80	-10.4697
807DF7000F84	-10.4697
488B8D48010000	-10.4698
D0E0000008B458	-10.4701
502	-10.4702
0FB74DAE4869C9	-10.4703
50FCFFFF	-10.4703
40AA39004801C8	-10.4704
053	-10.4705
8B85E8FAFFFF	-10.4705
E95D000000	-10.4708
31D229C2	-10.471
04010000	-10.4712
48698DE0FEFFFF	-10.4712
0F95C024010FB6C8	-10.4713
8B4DBC4869C9	-10.4714
D6000000	-10.4715
898520F	-10.4722
8B8D64FDFFFF	-10.4723
8A856FFFFFFF	-10.4728
4FFBFFFF	-10.4729
48698D28FFFFFF	-10.4731
0FB78556FFFFFF	-10.4733
4C894DE0	-10.4735
D5000000	-10.4736
480FBE4DE4	-10.4737
00000000B1010000	-10.4745
203	-10.4751
84040000	-10.4754
24010FB6C00FB7C8	-10.4755
8845E7	-10.4755
48898548FFFFFFE9	-10.476
302	-10.4761
204	-10.4763
24FDFFFF	-10.4763
488B85C0F9FFFF48	-10.4763
48833CC8	-10.4763
0FB68DAFFEFFFF	-10.4764
24018845F	-10.4764
480FBE8D5FFFFFFF	-10.4766
000000488B45E048	-10.4769
8A45F924010FB6C0	-10.4774
8945B08	-10.4776
3B8558FDFFFF0F8	-10.4778
898530F7FFFF	-10.4782
480FBE4DBF4869C9	-10.4783
0FBE75	-10.4785
66C700F	-10.4787
E95C000000	-10.4792
3B8548FDFFFF0F8	-10.4793
48C74590	-10.4794
8A8D4FFEFFFF80	-10.4794
000F8413000000	-10.4795
0FBEC8	-10.4795
488B85C8F9FFFF48	-10.4796
488B44C80848	-10.4796
384801C8	-10.48
D2FDFFFF	-10.4803
89850CF	-10.4803
488B8500FAFFFF48	-10.4804
668B8448	-10.4806
0345D8488945D8E9	-10.4808
488985A8FCFFFF	-10.481
48898590FCFFFF	-10.481
0FB74D18	-10.4811
83C0014863D0	-10.4815
0E0000008B45E8	-10.4815
486B8D50FFFFFF	-10.4821
8B5	-10.4822
31D1	-10.4824
488B45D0	-10.4829
48638DBCFEFFFF	-10.4834
8B8DC8FEFFFF	-10.4839
0FBF4DFA	-10.484
488B8548FFFFFF	-10.4841
0FBE45F5	-10.4842
8B45A4	-10.4842
002	-10.4844
898528F	-10.4844
0D1	-10.4847
BBFDFFFF	-10.4848
48C74588	-10.485
83F8000F95C1	-10.485
8B85A4FAFFFF	-10.4853
FD1	-10.4853
76FCFFFF	-10.4854
48C745D0	-10.4855
8B85D8FAFFFF	-10.486
C2010000	-10.4864
855	-10.4871
D8020000	-10.4876
8FFFF898D	-10.4877
0050C3004801C8	-10.488
0FB64D38	-10.4883
8955F8	-10.4883
6000039C80F8D	-10.4884
48C78550FFFFFF	-10.4886
011	-10.4886
480FBF4DA2	-10.4892
D110000008B855	-10.4892
983	-10.4893
83BD40F	-10.4895
637007661725F363	-10.4896
894584E9	-10.4901
8945A08B45A4	-10.4902
36EA04004801C8	-10.4904
900100004801D1	-10.4909
488B8D50FDFFFF	-10.4909
111	-10.4911
480FBF4DCC	-10.4915
E940000000	-10.4922
0100000048B8	-10.4922
480FBF4DEA4869C9	-10.4922
4DEC80E1010FB6C9	-10.4925
48894588	-10.4926
48898550FCFFFF	-10.4926
0FB645ED	-10.4927
8B8DD8FDFFFF	-10.4927
2BFDFFFF	-10.4932
8B8DF	-10.4932
711	-10.4934
0FB78D5CFFFFFF	-10.4935
67FCFFFF	-10.4937
8A55D	-10.4937
4F4FFFF	-10.494
488B8558FFFFFF	-10.4944
48C78548FFFFFF	-10.4948
488B8560FFFFFF	-10.4948
668945C6	-10.4951
8B85F8FAFFFF	-10.4952
8B85A0FAFFFF	-10.4955
480FAFC148	-10.4955
60E0000008B458	-10.4958
86FCFFFF	-10.4959
235006172725F323	-10.496
6007661725F353	-10.496
486BC90E4801C88A	-10.496
480FBF4DCA	-10.4961
668B0C48488B	-10.4966
4839C80F92C0	-10.4967
0FB74D8A	-10.4968
82FDFFFF	-10.4969
8D9FFEFFFF80	-10.4971
480FBF4D96	-10.4971
48C704C801000000	-10.4972
8985A4F8FFFF	-10.4973
480FBE4DB74869C9	-10.4975
F4000000	-10.4976
480FBE8DF7FEFFFF	-10.4977
C82	-10.4977
8945C8E9	-10.4979
488B45F048B9	-10.498
45D0483B45C80F83	-10.498
8975F88955F4	-10.4983
74A916004801C8	-10.4983
4DDC80E1010FB6C9	-10.4984
38FCFFFF	-10.4985
0FB78D6AFFFFFF	-10.4988
000000001C010000	-10.4988
5E2	-10.4996
E0E0000008B459	-10.4996
48837DD8000F84	-10.4998
4801D1480FBE95	-10.5001
488B8598F9FFFF48	-10.5003
8A0C0848	-10.5003
488B85D0F9FFFF48	-10.5007
4839C80F93C0	-10.5012
C80000004801D1	-10.5015
703	-10.5015
3B8530FDFFFF0F8	-10.5016
3000039C80F8D	-10.5018
0FBF4D40	-10.5018
4CFDFFFF	-10.5019
898578F	-10.502
31C04883F9008885	-10.5025
898588F	-10.503
488B4DD04883E902	-10.5031
800C0000	-10.5031
8B85B8FAFFFF	-10.5032
421	-10.5035
8B85ACFAFFFF	-10.5035
898518F7FFFF	-10.5038
70FCFFFF	-10.5039
48C1E1154801C8	-10.5041
0FB60408668985	-10.5046
1000039C80F8D	-10.5046
83BD18F	-10.5047
480FBE4DED	-10.505
0000000065000000	-10.505
000044898D	-10.5051
8B8D6CFEFFFF	-10.5052
D82	-10.506
0FB74D10	-10.506
4080E601408875F	-10.5062
E5000000	-10.5065
DCFCFFFF	-10.5065
898510F	-10.5066
8B8560FAFFFF	-10.5067
8B5510	-10.5068
10000000488B4518	-10.5069
B02	-10.5071
4006172725F353	-10.5071
486BC9284801C88A	-10.5081
448945E8	-10.5082
48B90	-10.5087
48C1E1174801C8	-10.5088
0000000086010000	-10.5089
48638DECFEFFFF	-10.5091
48C745E0	-10.5091
900100004801C88A	-10.5096
0FB64DC74869C9	-10.51
00000000C0010000	-10.5103
0000000023010000	-10.5107
10000000488B45F8	-10.5108
E0000008B45DC	-10.5109
0000000034000000	-10.5109
480B14C8488914C8	-10.5111
000000005E000000	-10.5111
10000000488B4530	-10.5111
48638DCCFEFFFF	-10.5118
2007661725F353	-10.5118
4DE580E1010FB6C9	-10.512
4DD680E1010FB6C9	-10.5123
8A45B724010FB6C0	-10.5123
000000008D010000	-10.5123
0FB74448	-10.5132
C745A4	-10.5132
898518F	-10.5134
B3FDFFFF	-10.5137
8945A88	-10.5137
100004C8B8D5	-10.5139
48898528FCFFFF	-10.514
000006B000000	-10.514
000006A000000	-10.5141
0FB7854EFFFFFF	-10.5141
0FB68D37FFFFFF	-10.5141
4839C80F96C0	-10.5143
E110000008B856	-10.5145
0FB78DDEFEFFFF	-10.5145
A8010000	-10.5146
488985A0FCFFFF	-10.5147
F645FF010F84	-10.515
8B8594FAFFFF	-10.5154
8B8D5CFEFFFF	-10.5157
5FFCFFFF	-10.5159
898540F	-10.516
C80D0000	-10.5163
480FBF4DD4	-10.5163
898510F7FFFF	-10.5168
8B8D10FFFFFF	-10.517
8985ACF8FFFF	-10.5171
0FB78DC6FEFFFF	-10.5173
898520F7FFFF	-10.5177
48C78540FFFFFF	-10.5178
66837DFA000F84	-10.5181
8985F0F6FFFF	-10.5181
3B8520FDFFFF0F8	-10.5182
898558F	-10.5187
83FA000F84	-10.5188
488BBD	-10.5189
E10148	-10.5189
8B8D38FFFFFF	-10.519
8885E	-10.5193
81E99	-10.5194
3B8538FDFFFF0F8	-10.5199
4829D1D3F8	-10.52
8B85C8FAFFFF	-10.5202
66895448	-10.5205
CFFFF8A85	-10.5208
0FB70C5139C80F	-10.5211
E82	-10.5212
486BC9194801C88A	-10.5215
486BC9584801C88A	-10.5215
0000000008020000	-10.5216
8B8D20FEFFFF	-10.5216
486BD2174801D1	-10.522
190F8D	-10.522
81E9D	-10.5222
E1010FB6C939C80F	-10.5223
8B8D64FEFFFF	-10.5224
8B8D7CFEFFFF	-10.5224
8B45188A4510	-10.5224
0FB645D7	-10.5226
898508F7FFFF	-10.5228
8B45B83B45B40F8	-10.5231
3C4801C8	-10.5233
BA3	-10.5235
486B8D58FFFFFF	-10.5236
80BC08	-10.5237
10000000488B4520	-10.5238
48C78530FFFFFF	-10.5239
488B85D00000008A	-10.524
E93E000000	-10.5242
EBFCFFFF	-10.5243
488B85E8F9FFFF48	-10.5244
0FBF0C5139C80F	-10.5245
8B45B03B45AC0F8	-10.5245
0FBF0C48488B	-10.5245
000004C8B85A	-10.5247
898508F	-10.5249
448B4D18448B4D10	-10.5252
837DEC000F95C0	-10.5253
448945F0	-10.5257
FDFEFFFF	-10.5259
0000000088010000	-10.526
0FBED0	-10.5262
480FBF4DF04869C9	-10.5263
1EFCFFFF	-10.5264
0FBF45E4	-10.5265
8A45E124010FB6C0	-10.5266
0FBF4448	-10.5268
48837DF8000F95C0	-10.5269
ACFCFFFF	-10.5272
13010000	-10.5275
E7FBFFFF	-10.5276
0FB645E3	-10.5281
8985B4F8FFFF	-10.5281
F02	-10.5284
833C88	-10.5288
261	-10.5291
B0014883F9008885	-10.5291
3B8560FDFFFF0F8	-10.5294
8B85B0FAFFFF	-10.5296
88854	-10.5297
0FB78536FFFFFF	-10.5302
8845BF	-10.5303
8B854CFAFFFF	-10.5307
898548F	-10.5307
488B8D58010000	-10.5308
4801D08A95	-10.5308
0F0000000FB645F	-10.5317
8B8584FAFFFF	-10.532
C90FAFC1	-10.5322
B8C	-10.5322
8945C848837DC8	-10.5323
8B8D74FEFFFF	-10.5326
488B8550FFFFFF	-10.5327
0FB74D28	-10.5328
0FBF45F0	-10.5329
0FB74D20	-10.533
710200004801D1	-10.5331
8B45DC89C1	-10.5331
8B8588FAFFFF	-10.5332
4801D00FB795	-10.5332
486955C8	-10.5339
4C8B4D384C8B4D30	-10.5343
48634D944869C9	-10.5344
3FFBFFFF	-10.5349
3B8518FDFFFF0F8	-10.5351
78B25C004801C8	-10.5353
34FF24010FB6D0	-10.5355
F000039C80F8D	-10.5356
D0E0000008B459	-10.5356
8945E4E9	-10.5357
8F1	-10.536
8908E900000000	-10.5363
8A1	-10.5371
000F8416000000	-10.5371
C8010000	-10.5372
05010000	-10.5374
0FBE0C1139C80F	-10.5377
1DFFFFFF	-10.5381
898528F7FFFF	-10.5381
8B8D18FFFFFF	-10.5383
C06910004801C8	-10.5384
20FBFFFF	-10.5388
E948000000	-10.539
0FB68D2FFEFFFF	-10.5391
488B4DD0488B04C8	-10.5392
C8B45584C8B45504	-10.5393
31C929C131C029C8	-10.5393
48898568FCFFFF	-10.5394
480FBE4DE54869C9	-10.5396
0FBF4DBE	-10.5396
8A45D524010FB6C0	-10.5398
782	-10.5401
BFFFF0FB78D	-10.5404
8945B8E9	-10.5406
234	-10.5407
48630488	-10.5408
22FDFFFF	-10.541
488B8DE8FCFFFF	-10.5412
4883F8000F	-10.5416
B001837D	-10.5417
48698D78FEFFFF	-10.5419
48C78538FFFFFF	-10.542
486355DC	-10.5422
F03	-10.5423
3C000F95C0	-10.5424
488B04C889C148	-10.5426
E4FCFFFF	-10.5427
A80100004C8B8	-10.543
2B4	-10.543
8945C048837DC0	-10.5431
0000000050020000	-10.5436
488B8588F9FFFF48	-10.5437
48898560FCFFFF	-10.5439
83C801	-10.5439
48894598E908	-10.5441
48638D54FFFFFF	-10.5444
480510	-10.5444
04C8B85A80	-10.5444
4863452848	-10.5446
30B0000008B45E	-10.5447
D110000008B854	-10.5447
BFFCFFFF	-10.5451
52FDFFFF	-10.5453
A0020000	-10.5457
0E0000008B4510	-10.5457
C7857CFFFFFF	-10.5461
80E101884D	-10.5461
8B85C4FAFFFF	-10.5461
8B8500FBFFFF	-10.5462
89856CF8FFFF	-10.5463
48898538FFFFFFE9	-10.5463
5F4	-10.5463
F3FFFFE900000000	-10.5463
48898540FCFFFF	-10.5472
45D0483B45C80F86	-10.5472
488B85B0F9FFFF48	-10.5473
B00166833C510088	-10.5475
0FB74558	-10.5475
639007661725F373	-10.5477
48638D3CFFFFFF	-10.5482
0000000031010000	-10.5483
39D10F94C180	-10.5483
8985F4F	-10.5486
F8FBFFFF	-10.5487
8B55D0	-10.549
48898558FCFFFF	-10.5496
0FBF8576FFFFFF	-10.5498
488B55A8	-10.5502
48C745C8	-10.5502
48894580E908	-10.5502
C1F80	-10.5506
0FB64DB6	-10.5506
6FFFF0F8	-10.5507
000F95C1	-10.5507
8985F8F6FFFF	-10.5508
8985E4F8FFFF	-10.5511
B001833C91008885	-10.5513
88852	-10.5513
A3FDFFFF	-10.5515
40887DF	-10.5518
25FFFFFF	-10.5521
BFFFF000F84	-10.5529
B96	-10.553
480FBF8DD6FEFFFF	-10.5533
8B8DC0FEFFFF	-10.554
480FBE8D47FFFFFF	-10.5541
8B8574FAFFFF	-10.5543
4889084881C4	-10.5543
488B85A0F9FFFF48	-10.5546
982	-10.5549
45D0483B45C80F8D	-10.5557
8B8DACF	-10.5558
8B8590FAFFFF	-10.5558
48698DF0FDFFFF	-10.5559
00000000A0020000	-10.556
0FB68D3BFFFFFF	-10.556
C80000004801C88A	-10.5561
0FBE4DDB	-10.5569
48C1E1044801C88A	-10.5569
18030000	-10.557
898574F8FFFF	-10.5572
D3FA89D1	-10.5572
89859CF8FFFF	-10.5578
0000000030020000	-10.5582
E963000000	-10.5582
0F5FFFF488985	-10.5583
8B855CFAFFFF	-10.5587
C785D8F	-10.5597
0FB78546FFFFFF	-10.5599
8B4D984869C9	-10.56
E0E0000008B458	-10.5601
0FB7856EFFFFFF	-10.5601
4805C	-10.5601
31C0833C91008885	-10.5603
83C800	-10.5604
8B8D30FFFFFF	-10.5605
488B85D80000008A	-10.5607
76010000	-10.5608
95C024018845D	-10.5608
F645D	-10.5611
FF010000	-10.5615
190F83	-10.5617
10000448985	-10.5619
0FBE4DE3	-10.562
35FFFFFF	-10.562
661	-10.562
000000002A010000	-10.562
08FBFFFF	-10.5621
C745A0	-10.5622
382	-10.5623
83FA00480F45C1	-10.5624
56FCFFFF	-10.5625
0FB78D62FFFFFF	-10.5625
8A8567FFFFFF	-10.5628
488B8580F9FFFF48	-10.5628
0FB6856FFFFFFF	-10.5629
E10000004801C88A	-10.563
8985E8F6FFFF	-10.5631
000000006C000000	-10.5633
0FB78D76FFFFFF	-10.5634
0010000000000009	-10.5637
A84	-10.5639
48837DE0000F95C0	-10.5639
D110000008B852	-10.5642
E9090000008B45FC	-10.5643
807C08	-10.5644
83F000	-10.5644
89855CF8FFFF	-10.5647
742	-10.5652
C1E01	-10.5657
8B8D84FEFFFF	-10.5659
8B85B4FAFFFF	-10.566
20FCFFFF	-10.5661
0E0000008B4518	-10.5663
0FB78DF6FEFFFF	-10.5664
480FBF8D26FFFFFF	-10.5665
48638D5CFFFFFF	-10.5672
48898510FCFFFF	-10.5673
E9090000008B4518	-10.5674
8B8D70F	-10.5676
480FBF8D0EFFFFFF	-10.5676
8B5540	-10.5678
8845EB	-10.5678
88855	-10.568
B6FCFFFF	-10.5685
34010000	-10.5686
CF4FFFF	-10.5686
8A458724010FB6C0	-10.569
4C8B85B000000	-10.5695
E944000000	-10.5697
682	-10.5698
92FDFFFF	-10.5702
CDFEFFFF	-10.5704
3B856CFFFFFF0F8	-10.5705
A82	-10.5706
8885D	-10.5709
DF8	-10.571
C74594	-10.5715
0FB74DD44869C9	-10.5717
8B8D10FEFFFF	-10.5717
898500F	-10.5728
0FBF4DCE	-10.5728
58FBFFFF	-10.5729
8B856CFAFFFF	-10.573
48898540FFFFFFE9	-10.5732
45D8483B45D00F86	-10.5736
488B85E00000008A	-10.5737
0000000094010000	-10.5738
4DA380E1010FB6C9	-10.5738
8B8598FAFFFF	-10.5739
4889D08B95	-10.5743
488B85A8F9FFFF48	-10.5743
0FBE4DFB	-10.5745
4829D1	-10.5748
3BFDFFFF	-10.575
8985CCF8FFFF	-10.5758
8B857CFAFFFF	-10.5762
8A1408B8	-10.5763
8845F7	-10.5763
1FBFFFF	-10.5766
00A741004801C8	-10.5766
E955000000	-10.5767
4DFFFFFF	-10.5767
0FBF45E2	-10.5769
2000039C80F8D	-10.5771
3B8564FFFFFF0F8	-10.5772
8B8D88FEFFFF	-10.5772
0FB68D5FFFFFFF	-10.5774
DBFDFFFF	-10.5776
488B8518FFFFFF	-10.5777
48898548FCFFFF	-10.578
0FB68D07FFFFFF	-10.5782
488B4DB84883E901	-10.5782
668B45F6	-10.5784
8B4588	-10.5787
488B8538FFFFFF	-10.5788
EEFFFF488B85	-10.5791
9007661725F343	-10.5794
0FB6D0	-10.5794
668B4518668985	-10.5798
0FB745D6	-10.5798
0E000000000000	-10.5799
0FB60C1139C80F	-10.58
48C74580	-10.58
8FFFF24010FB6C0	-10.58
8B85C0FAFFFF	-10.5802
48638D64FFFFFF	-10.5804
8B7D10	-10.5805
0FBF45A	-10.5809
668975	-10.5813
059	-10.5816
0FBF4DF0	-10.5818
894D9	-10.5819
8A459724010FB6C0	-10.582
75FFFFFF	-10.582
8B8DE0F	-10.582
486BC9134801C88A	-10.5824
668B4528668985	-10.5825
8A45C324010FB6C0	-10.5828
4DF180E1010FB6C9	-10.5829
48C1E1164801C8	-10.5831
664189	-10.5831
E0020000	-10.5833
488945A8E908	-10.5836
AC2	-10.5836
4C894DD8	-10.5846
C3FDFFFF	-10.5848
488B8568020000	-10.5848
8985DCF	-10.5848
80FCFFFF	-10.5855
700100004C8B8	-10.5857
0FB78D96FEFFFF	-10.5861
0000000038020000	-10.5861
8985ECF	-10.5861
E94B000000	-10.5862
8985F4F8FFFF	-10.5863
3B85E8FCFFFF0F8	-10.5864
8885A	-10.5865
7BFFFFFF	-10.5866
0FB745DC	-10.5867
89C231C0482B04D1	-10.5871
E110000008B851	-10.5875
480FBE8D4FFFFFFF	-10.5876
4801D0480FBF95	-10.5878
480FBF4DBA	-10.5879
8985A4F	-10.588
488B85B8F9FFFF48	-10.588
6CFCFFFF	-10.5882
135006172725F313	-10.5883
0F7FFFF48	-10.5889
00000000BF010000	-10.5889
482314C8488914C8	-10.5894
C74598	-10.5896
4889C88B8D	-10.5896
8B45E489C1	-10.5896
592	-10.5897
48898530FFFFFFE9	-10.5898
89852CF	-10.59
488B8DA8FDFFFF	-10.59
3B857CFFFFFF0F8	-10.5904
4801D0480FBE55	-10.5906
8A855FF	-10.5913
48C78528FFFFFF	-10.5913
0FBF4DAE	-10.5914
B4FCFFFF	-10.5916
2006172725F353	-10.5917
80020000	-10.5919
70020000	-10.5919
0345C8488945C8E9	-10.5926
4809C8	-10.5927
88858	-10.5932
8985C4F8FFFF	-10.5933
83F001	-10.5933
488B4DB04883E901	-10.5934
BFFFF0FBF8D	-10.5941
89F8488BBD	-10.5942
3B85F8FCFFFF0F8	-10.5944
3B8500FDFFFF0F8	-10.5945
3D2	-10.5946
898504F	-10.5947
00350C004801C8	-10.5947
8A040834FF	-10.5948
30E0000008B458	-10.5948
8A45BB24010FB6C0	-10.5951
488985D8FBFFFF	-10.5951
4801D0668948	-10.5951
0FB78D72FFFFFF	-10.5954
0FB74DB4	-10.5955
8A85F7F	-10.5958
0FBF4DE0	-10.5964
480550	-10.5966
4080E70140887DFF	-10.5967
8985DCF8FFFF	-10.5968
41FFFFFF	-10.5969
FBF	-10.5969
488B8560020000	-10.5971
48898538FCFFFF	-10.5971
74F	-10.5973
488B0CC8	-10.5973
83F0FF89C048	-10.5975
0FB64DCD	-10.5977
2E2	-10.5977
0FB74DC4	-10.5981
4863452048	-10.5981
0FB68D16FFFFFF	-10.5981
8985C8F6FFFF	-10.5983
3B8508FDFFFF0F8	-10.5984
D68010000	-10.5984
488B8570F9FFFF48	-10.5993
488985F0FBFFFF	-10.5993
E946000000	-10.5996
4C8B4D38448B4D30	-10.5996
E3FDFFFF	-10.5998
962	-10.6
B7FCFFFF	-10.6003
60E0000008B459	-10.6006
81E9C	-10.6009
8B4020	-10.601
00000000C6010000	-10.6014
48898530FCFFFF	-10.6015
8945C88	-10.6015
48898500FCFFFF	-10.6017
3B8574FFFFFF0F8	-10.6023
8985E0F6FFFF	-10.6025
FDFFFF000FB685	-10.6027
0000000073000000	-10.6029
448B4D18448A4D10	-10.603
48898520FCFFFF	-10.6031
432	-10.6033
000000009B010000	-10.6041
8B4DEC4869C9	-10.6044
3B45E80F	-10.6044
D3F883F8000F84	-10.6047
8A85A7F	-10.6057
E0FFFF	-10.606
0FB68557FFFFFF	-10.6065
F4FBFFFF	-10.6066
48638D3CFEFFFF	-10.6067
488B4DD8488B04C8	-10.6067
0FB7F0	-10.6068
8985E4F	-10.6068
E9090000008B4528	-10.6069
8B8D80FEFFFF	-10.6071
4821C8	-10.6071
D4FCFFFF	-10.6072
00000000A9010000	-10.6076
400D03004801C8	-10.6076
488B4DC84883E902	-10.6077
43FCFFFF	-10.608
4801D0480FBE95	-10.608
83C10139C80F8D	-10.6084
48050080	-10.6087
8B8550FAFFFF	-10.6087
8F1FFFF48	-10.6089
8B8564FAFFFF	-10.609
000006C000000	-10.6092
8B8D08F	-10.6095
89858CF8FFFF	-10.6097
F0FBFFFF	-10.6097
8B8544FAFFFF	-10.6098
E0B0000008B45D	-10.61
70030000	-10.61
A8030000	-10.6102
8B45A83B45A40F8	-10.6102
898500F7FFFF	-10.6104
00000000CD010000	-10.6104
83F1FF31C029C8	-10.6107
010000004883BD	-10.6108
5B2	-10.6109
E94D000000	-10.6109
A62	-10.6109
8B5550	-10.611
488B8D08FDFFFF	-10.611
0FBEF0	-10.6115
E110000008B853	-10.6126
E9090000008B4510	-10.6127
807DFF000F95C0	-10.6128
0FB745C6	-10.6139
488945D8488B45D8	-10.614
89854CF8FFFF	-10.614
8B4DB44869C9	-10.6142
89084881C4	-10.615
0006172725F353	-10.6153
8B8D78F	-10.6155
ABFDFFFF	-10.6156
BEFCFFFF	-10.6157
8B45A03B459C0F8	-10.6159
C78590F	-10.616
C78578FFFFFF	-10.6161
8006172725F353	-10.6163
D110000008B853	-10.6164
898594F8FFFF	-10.6166
140809F2881408	-10.6167
480FBE4DF0	-10.6168
89858CF	-10.6169
972	-10.617
EDFEFFFF	-10.617
00000000A2010000	-10.6174
0FB745B6	-10.6177
73FCFFFF	-10.618
000000007A000000	-10.6181
0FBE45EB	-10.6182
8A458F24010FB6C0	-10.6186
E945000000	-10.6187
4007661725F353	-10.6188
807D40000F84	-10.6189
7007661725F343	-10.6191
898574FFFFFFE9	-10.6192
92FBFFFF	-10.6193
488B8548F9FFFF48	-10.6194
4883EA02	-10.6196
66837D40000F84	-10.6197
0FB78DAEFEFFFF	-10.6199
37FBFFFF	-10.62
8985ACF	-10.62
333006172725F333	-10.6201
39D10F95C180	-10.6203
8B8578FAFFFF	-10.6205
8B45983B45940F8	-10.6205
3801000000000000	-10.6208
4883C201	-10.6213
A42	-10.6213
31C0803C11008885	-10.6213
68FCFFFF	-10.6213
668B4538	-10.6213
C8FCFFFF	-10.6215
48898518FCFFFF	-10.6216
0FB78D86FEFFFF	-10.6216
30E0000008B459	-10.622
99F7F98995	-10.622
0FB7851EFFFFFF	-10.622
C78574FFFFFF	-10.6224
486BD2134801D1	-10.6224
668945DA	-10.6225
6006172725F353	-10.6226
0FB7855EFFFFFF	-10.6228
897DFC488975F0	-10.6229
51FFFFFF	-10.623
1A010000	-10.624
8B8D48FCFFFF	-10.6242
488B8540F9FFFF48	-10.6246
0FB64D40	-10.6248
000000004D010000	-10.6251
0FBFF0	-10.6253
60E0000008B45D	-10.6253
448B4D184C8B4D10	-10.6256
36FCFFFF	-10.6258
898514F	-10.626
486BC9504801C88A	-10.626
898564F8FFFF	-10.627
45D8483B45D00F83	-10.627
EFFFFFE90E000000	-10.6272
0FBE4DD7	-10.6274
898530F	-10.6277
0000000020010000	-10.6278
668B00668945E	-10.6279
48698DC0FEFFFF	-10.6282
24010FB6C883C101	-10.6287
8B8D0CF	-10.6289
48C745C0	-10.629
139006172725F323	-10.6291
87FBFFFF	-10.6291
8D53FFFFFF80	-10.6293
000000003F010000	-10.6296
488B8578F9FFFF48	-10.6297
24010FB6C8B8	-10.6298
668B4530	-10.6301
4801F2	-10.6303
99F7F983F8000F84	-10.6306
0FB7853EFFFFFF	-10.6306
83F0FF4863D0	-10.6309
8B45A0	-10.631
45D0483B45C80F8E	-10.6311
7EFCFFFF	-10.6313
BFFFF8A85	-10.6315
C94863C94839C80F	-10.6317
C78598F	-10.6317
31C029C888C148	-10.6318
0FB6854FFFFFFF	-10.6318
8007661725F353	-10.6322
B32	-10.6323
E94A000000	-10.6323
8985D0F6FFFF	-10.6327
486BC9124801C88A	-10.633
3B8528FDFFFF0F8	-10.6331
668B4510	-10.6331
8B8580FAFFFF	-10.6331
0FB64D8	-10.6333
898554F8FFFF	-10.6334
0FBE45F6	-10.6336
30E0000008B45D	-10.6337
0FBE45E	-10.6337
F4FCFFFF	-10.6338
862	-10.634
480FBF8DFEFEFFFF	-10.6345
D0B0000008B45D	-10.6345
C4FCFFFF	-10.6349
833	-10.635
48837D40000F84	-10.6353
0FBFC8	-10.6353
488B8590F9FFFF48	-10.6354
486BC90A4801C88A	-10.6356
0B1488891488	-10.6363
488B8DC0FCFFFF	-10.6363
0FB64560	-10.6365
020FBE85	-10.6365
4DE180E1010FB6C9	-10.6365
488B8530FFFFFF	-10.6367
D8FBFFFF	-10.637
48C78508FFFFFF	-10.6372
0D000000488B45F0	-10.6375
5A0000	-10.6377
882	-10.6379
0FB71448	-10.638
0FB645D3	-10.6389
0000000060020000	-10.6399
480B0000	-10.6405
0FB78576FFFFFF	-10.6405
80FA00480F45C148	-10.6408
D8010000	-10.6408
0B4	-10.641
90FCFFFF	-10.641
C7856CFFFFFF	-10.6411
48898508FCFFFF	-10.6413
6EFCFFFF	-10.6414
4839C80F9CC0	-10.6414
E1010FB6C9881408	-10.6414
0000000030010000	-10.6416
486BD2154801D1	-10.6416
8A855FFFFFFF	-10.6418
0FB68DA7FEFFFF	-10.642
898584F8FFFF	-10.6421
88859	-10.6422
0FBE00	-10.6423
562	-10.6424
C03	-10.6432
668B45FA	-10.6432
0FB61408	-10.6433
D8A813004801C8	-10.6436
0FBF857EFFFFFF	-10.6436
0FB68D73FFFFFF	-10.644
00000000D4010000	-10.6441
18FCFFFF	-10.6443
403	-10.6446
8985C4F	-10.6449
E1010FB6C9891488	-10.6449
F4010000	-10.645
488985E8FBFFFF	-10.6451
817D	-10.6461
480FBF4D82	-10.6466
48C745D8	-10.6467
488B8D48FDFFFF	-10.6468
488B8550F9FFFF48	-10.6469
0FB7459E	-10.647
8985C0F6FFFF	-10.6471
812	-10.6471
8B4590	-10.6472
710200004801C88A	-10.6472
805000000000000	-10.6475
0A010000	-10.6479
57FBFFFF	-10.648
8845F3	-10.648
8985F8F	-10.648
0FB78526FFFFFF	-10.6483
60B0000008B45E	-10.6484
C7458C	-10.6487
5C4	-10.6487
8D2BFFFFFF80	-10.6488
8B8DB0FEFFFF	-10.6492
3C592E004801C8	-10.6493
3B8510FDFFFF0F8	-10.6494
8985D8F6FFFF	-10.6498
010066C785	-10.6499
A03	-10.6499
898568FFFFFFE9	-10.65
0FB68DCFFEFFFF	-10.65
88856	-10.6502
486B8D48FFFFFF	-10.6506
8B4488	-10.6509
488B8D50010000	-10.6509
89C089C148B8	-10.651
668B4520668985	-10.6515
0FB68D7BFFFFFF	-10.6516
486BD2114801D1	-10.6517
8945D4837DD4	-10.6517
F8020000	-10.6518
0FB68DC7FEFFFF	-10.6522
8B8558FAFFFF	-10.6523
0FBFC883C1	-10.6523
66837DFE000F95C0	-10.6524
60020000	-10.6526
8985A8F6FFFF	-10.6528
664489C	-10.6528
0C010000	-10.653
83C6014863F6	-10.6531
488B55E8	-10.6532
29C1	-10.6536
480FBE4D9F4869C9	-10.6539
89851CF8FFFF	-10.654
8B8548FAFFFF	-10.6541
48634DB84869C9	-10.6543
488B8558F9FFFF48	-10.6544
E110000008B852	-10.6544
E94E000000	-10.6545
FFFFFFFFFFFF7F48	-10.6546
488B8528F9FFFF48	-10.6547
0000000090010000	-10.6549
8B4010	-10.6552
4863451848	-10.6553
48C1E2044801D1	-10.6554
6110000008B855	-10.6555
488985B8FBFFFF	-10.6558
8945D0488B45D0	-10.6562
8945D8837DD8	-10.6565
0E0000008B45F4	-10.6566
8945B048837DB0	-10.6568
48898578FFFFFFE9	-10.6568
480FBE4DA3	-10.6574
0FB74D94	-10.6574
486BC9154801C88A	-10.6574
0000000081000000	-10.6576
8FFCFFFF	-10.6577
99010000	-10.658
A04	-10.6582
912	-10.6583
CF2	-10.6584
12FDFFFF	-10.6585
800400004801D1	-10.6586
8A4DDD80	-10.6586
020000004883BD	-10.6586
C7459C	-10.659
21FFFFFF	-10.6591
99F7BD	-10.6591
D7FBFFFF	-10.6591
8B55EC	-10.6592
807DFB000F84	-10.6594
488B45F04883F0FF	-10.6594
3B8554FFFFFF0F8	-10.6595
4C2	-10.6597
0FB78D2EFFFFFF	-10.6599
0FBE4DFD	-10.66
0FB64DFB	-10.6604
0FB68DF7FEFFFF	-10.6611
8B8568FAFFFF	-10.6612
F8FFFFFF	-10.6612
E953000000	-10.6617
054	-10.6619
144809F266891448	-10.6622
488B8560F9FFFF48	-10.6623
837D10000F95C0	-10.6623
31C0837D	-10.6624
31C0482B04D1	-10.6624
480FBF4DAA	-10.6625
488975F0	-10.6625
898594F	-10.6628
898590F6FFFF	-10.663
140821F2881408	-10.6631
8885C	-10.6632
60E0000008B45C	-10.6633
89852CF8FFFF	-10.6636
488B8540FFFFFF	-10.6637
B98	-10.6637
488B55B8	-10.6643
894588488B	-10.6643
7C010000	-10.6643
89857CF8FFFF	-10.6645
F22	-10.6646
668B4518	-10.6652
8B8D54FEFFFF	-10.6654
8D43FFFFFF80	-10.6654
E950000000	-10.6656
B03	-10.6656
0FBE45ED	-10.6663
480FBE4DE94869C9	-10.6669
84010000	-10.6671
4801C14881C1	-10.6672
0FB745DA89C1	-10.6672
8B49	-10.6672
4BFDFFFF	-10.6676
668945B6	-10.6677
FF000039C80F8D	-10.6677
A4FCFFFF	-10.6679
B42	-10.668
731007661725F373	-10.6682
488985E0FBFFFF	-10.6684
94FCFFFF	-10.6684
48698DE0FDFFFF	-10.6687
488B8568F9FFFF48	-10.6689
0000000046010000	-10.6691
8985B8F6FFFF	-10.6691
8B852CFAFFFF	-10.6693
0E0000008B4520	-10.6697
33FDFFFF	-10.6698
8B85E4F9FFFF	-10.6701
0FB78DD6FEFFFF	-10.6704
0F0000000FBF45E	-10.6705
D0010000	-10.6705
68030000	-10.6706
4DC680E1010FB6C9	-10.6708
D0FBFFFF	-10.671
488B8DC0FDFFFF	-10.6712
E9070000000FBE45	-10.6712
CC2	-10.6713
8B85FCF9FFFF	-10.6714
48C78520FFFFFF	-10.6717
668B4510668985	-10.6718
300004C8B8D	-10.6718
E954000000	-10.6718
48C78570F	-10.6719
0FB64D83	-10.672
0007661725F353	-10.672
38040000	-10.6725
488B8DA0FDFFFF	-10.6727
E9090000008B4520	-10.6727
E95F000000	-10.6727
48B9F	-10.6729
31D2	-10.6736
552	-10.6737
8985E4F7FFFF	-10.6739
0100004C8B8D7	-10.674
5FC	-10.6741
8B85BCF9FFFF	-10.6742
BE2	-10.6743
00000000DB010000	-10.6744
488B8528FFFFFF	-10.6745
8B45D889C1	-10.6745
0FB645EA	-10.6745
C74584	-10.6749
000006D000000	-10.675
8B8D8CFEFFFF	-10.6753
0E0000008B4528	-10.6754
488B45F02D	-10.6759
C4FBFFFF	-10.6759
898524F8FFFF	-10.6759
42010000	-10.676
000004C8B85C	-10.6761
8D2FFFFFFF80	-10.6763
36010000	-10.6766
8945B848837DB8	-10.6766
488B04C888C148	-10.6767
F645F	-10.6769
488945B0E908	-10.6769
486345EC48	-10.6771
89857CF	-10.6773
83E802	-10.6773
762	-10.6774
1CFCFFFF	-10.6774
EFFBFFFF	-10.6776
A7FBFFFF	-10.6777
48638D1CFFFFFF	-10.6777
48C78568F	-10.6778
488B8D60010000	-10.6779
8988	-10.678
0000000054010000	-10.678
488B45388A	-10.6782
8B8570FAFFFF	-10.6791
2C010000	-10.6795
C74580	-10.6795
4863C9	-10.6796
B001803C11008885	-10.6797
000000008F000000	-10.6798
462	-10.6798
480FBE4DDC	-10.6801
11010000	-10.6802
98040000	-10.6803
D62	-10.6804
488B8530F9FFFF48	-10.6805
488B8DB8FDFFFF	-10.6805
480FBE4D974869C9	-10.6805
488985C8FBFFFF	-10.6807
8B85CCF9FFFF	-10.6808
0FBF4558	-10.6815
4805E0	-10.6819
0FB68DCFFCFFFF	-10.6821
BCFCFFFF	-10.6821
81C9	-10.6824
488B8570020000	-10.6826
48C78580F	-10.6828
8B8554FAFFFF	-10.6835
144821F266891448	-10.6837
0FB6C9	-10.6837
D92	-10.6838
BB2	-10.6842
486355D4	-10.6844
89C948D3E048	-10.6844
E8522D004801C8	-10.6846
8945A048837DA0	-10.6847
488B4DD88B0488	-10.6849
8B8D04FEFFFF	-10.6851
8B85A4F9FFFF	-10.6853
486345F448	-10.6853
48638DF4FEFFFF	-10.6854
B9FEFFFF	-10.6854
E72	-10.6854
480FBF8D1EFFFFFF	-10.6856
8B8D38F	-10.6856
486BC90C4801C88A	-10.6857
C1E	-10.6858
E03	-10.6863
6E2	-10.6863
082	-10.6865
252	-10.6869
48837D10000F95C0	-10.6874
48630C91	-10.6875
D80000004C8B8	-10.6877
480FBF8D66FFFFFF	-10.6879
0FBE45EE	-10.6881
0FB64D874869C9	-10.6882
472	-10.6883
00488B	-10.6885
0FBF8556FFFFFF	-10.6886
8B4D8C4869C9	-10.6888
480FBE4DCD	-10.6889
D6FBFFFF	-10.689
3B85F0FCFFFF0F8	-10.6893
C983C11139C80F8D	-10.6895
8B8514FAFFFF	-10.6897
4189F	-10.6898
488B85E0FEFFFF	-10.6898
942	-10.6898
E9090000008B45E8	-10.6898
A5FEFFFF	-10.6902
2C2	-10.6905
5FFFF0F8	-10.6907
7B2	-10.6909
3007661725F343	-10.691
DFF	-10.6913
837D40000F84	-10.6914
486BC90B4801C88A	-10.6916
F62	-10.6916
480FBE8D0FFFFFFF	-10.692
8B5518	-10.692
480FBE8DDFFDFFFF	-10.6923
3110000008B857	-10.6924
0FB68DDFFEFFFF	-10.6924
8BB5	-10.6927
A4010000	-10.693
3B2	-10.693
8855F	-10.6931
898534F8FFFF	-10.6932
48C785F8FEFFFF	-10.6932
8B8D58F	-10.6933
292	-10.6939
1007661725F343	-10.6941
480FBF4DB8	-10.6944
898544F8FFFF	-10.6946
EFFFF00000FBF85	-10.6952
200300004801D1	-10.6954
9E2	-10.6956
3B85E0FCFFFF0F8	-10.6957
0FB74DFC	-10.6958
48698D80FEFFFF	-10.6958
8B85F4F9FFFF	-10.696
837D50000F95C0	-10.696
FCFFFFFF	-10.696
3B85B0FCFFFF0F8	-10.6961
31C066833C510088	-10.6961
692	-10.6964
81F	-10.6966
DB2	-10.6967
9A2	-10.6968
0FB78D7CFFFFFF	-10.6968
C78564FFFFFF	-10.6969
0000000058010000	-10.6969
0FBF856EFFFFFF	-10.697
0FB755DE	-10.697
480FBE4DE34869C9	-10.6971
C983C10B39C80F8D	-10.6972
F1FFFFE900000000	-10.6973
231488891488	-10.6973
0000000050010000	-10.6975
488985A0FBFFFF	-10.6975
8985F0F	-10.6977
8985CCF	-10.6978
492	-10.698
2F010000	-10.6981
D110000008B851	-10.6987
83F8080F8D	-10.6988
488B85F00000008A	-10.699
C80300004801D1	-10.699
8985B0F6FFFF	-10.699
E110000008B850	-10.6993
488B8DE8FDFFFF	-10.6997
48634DC04869C9	-10.6998
894	-10.7006
480FBE55C	-10.701
0000000060010000	-10.7011
4E2	-10.7011
603	-10.7011
24010FB6C04869C0	-10.7012
486B8D38FFFFFF	-10.7013
6B2	-10.7016
486B8D60FFFFFF	-10.7021
DE2	-10.7022
60000008B45D8	-10.7024
8B853CFAFFFF	-10.7024
8985F4F7FFFF	-10.7024
488B04C889C2	-10.7025
00000000A4000000	-10.7025
488B8D50FCFFFF	-10.7027
480FBE4D9	-10.7029
486BC90D4801C88A	-10.7032
504	-10.7033
8845E3	-10.7033
4C894DE8	-10.7035
0FB64DEC	-10.7038
8A45DC24010FB6C0	-10.7039
E94C000000	-10.7039
488B8DD0FDFFFF	-10.7039
898570FFFFFFE9	-10.704
C74588	-10.7043
480FBF8D4EFDFFFF	-10.7043
3B85D0FCFFFF0F8	-10.7044
8B048888C148	-10.7046
0FB68DA3FEFFFF	-10.7046
10000000488B4538	-10.7047
48C785F0FEFFFF	-10.7047
E956000000	-10.7052
04C8B85C80	-10.7052
0FB745DA	-10.7053
668B5	-10.7056
E8020000	-10.7056
17FBFFFF	-10.7057
342	-10.7058
8B4DB84869C9	-10.7062
B90200000099F7F9	-10.7062
480FBF8D7AFFFFFF	-10.7067
932	-10.7067
48638DC4FEFFFF	-10.7067
D22	-10.707
8B8504FAFFFF	-10.7075
D3F8489848	-10.7084
D42	-10.7086
45D8483B45D00F8E	-10.7087
0FB74D84	-10.7088
48638D64FEFFFF	-10.7088
8A008845E	-10.7089
0E0000008B45F0	-10.7089
DA2	-10.709
3CFCFFFF	-10.7092
0FBF4DD6	-10.7099
DC2	-10.7104
0FB78DD2FEFFFF	-10.7106
92010000	-10.7111
89857CFFFFFFE9	-10.7114
0000000080020000	-10.7117
C52	-10.712
8B85ECF9FFFF	-10.7123
48638D58FFFFFF	-10.7125
486BC92C4801C88A	-10.7126
488B8518F9FFFF48	-10.7129
C745A8	-10.713
480FBE4DE8	-10.7136
60000008B45DC	-10.7138
48638D4CFFFFFF	-10.7141
8B8DF0F	-10.7142
512	-10.7144
24FCFFFF	-10.7146
C1F81	-10.7146
AB2	-10.7148
C62	-10.7149
0000000096000000	-10.7149
898578FFFFFFE9	-10.7149
48C785E8FEFFFF	-10.7151
60030000	-10.7152
8985B4F7FFFF	-10.7152
59010000	-10.7152
480FBF8DA6FEFFFF	-10.7153
480FAFC1	-10.7155
38020000	-10.7156
00000000D0020000	-10.7159
60000008B45E4	-10.7164
486BC9604801C88A	-10.7165
23FDFFFF	-10.7166
0FB745A6	-10.7166
52FCFFFF	-10.7166
8945A848837DA8	-10.7168
0006172725F363	-10.7172
8A45CE24010FB6C0	-10.7173
BDFEFFFF	-10.7176
8A45B324010FB6C0	-10.7178
44894DE8	-10.718
83EA0289D2	-10.7181
48898570FFFFFFE9	-10.7183
0FB7852EFFFFFF	-10.7183
C645F	-10.7184
31C029C883F8000F	-10.7186
8B8534FAFFFF	-10.7187
FC2	-10.7188
668945DE	-10.7189
8985D4F	-10.7189
000000009D000000	-10.7192
792	-10.7192
5E4	-10.7196
3B85C8FCFFFF0F8	-10.72
A00F0000	-10.7201
652	-10.7202
26FCFFFF	-10.7203
898598F6FFFF	-10.7204
88851	-10.7205
AA2	-10.7205
486BD20E4801D1	-10.7208
982900004801C88A	-10.7209
5007661725F343	-10.7214
30E0000008B45C	-10.7218
48030000	-10.7218
8B8DDCF	-10.7218
C700FFFFFFFF	-10.7222
DBFCFFFF	-10.7223
8B55C4	-10.7227
8B8DD0FCFFFF	-10.7229
81E9B	-10.7229
48638D08FFFFFF	-10.7231
A0050000	-10.7234
668945AE	-10.7235
480FBF4DC4	-10.7236
B5FEFFFF	-10.7236
8B8D50F	-10.7238
480FBF8D16FFFFFF	-10.7239
80030000	-10.7239
8B048888C2	-10.724
4DF280E1010FB6C9	-10.724
722	-10.7242
0FB78D42FFFFFF	-10.7243
000000002D000000	-10.7244
8985A0F6FFFF	-10.7244
8945DC837DDC	-10.7246
00000000B7010000	-10.7247
0FFCFFFF	-10.7251
50030000	-10.7251
488B04C86689C2	-10.7258
0100000083BD	-10.726
0FBF45C6	-10.7261
8A4DE780	-10.7263
6689D0	-10.7265
898584F	-10.7265
8B8D18FEFFFF	-10.7266
66837D48000F84	-10.7266
3B85A8FCFFFF0F8	-10.7271
8985D8F	-10.7274
8B85DCF9FFFF	-10.7275
480FBE55B	-10.7277
77FBFFFF	-10.7279
48C78518FFFFFF	-10.7279
48634D88	-10.7281
480FBE4DEE4869C9	-10.7282
898570F6FFFF	-10.7282
00000000E8020000	-10.7283
232	-10.7284
4883BD58FFFFFF	-10.7285
0FB745E0	-10.7287
0FB745DE89C1	-10.7288
8B010000	-10.7289
89855CF	-10.7293
DDFDFFFF	-10.7293
60000008B45E0	-10.7293
C78558FFFFFF	-10.7294
72FDFFFF	-10.7299
4883BD60FFFFFF	-10.73
8985D0F	-10.7301
48638DDCFEFFFF	-10.7302
C7855CFFFFFF	-10.7302
0D000000488B45C8	-10.7304
8B4D9C4869C9	-10.7304
8B851CFAFFFF	-10.7304
898564FFFFFFE9	-10.7306
48837DF0000F	-10.7307
4488C84	-10.731
6689459E	-10.7311
486BC9304801C88A	-10.7318
4863C94829C848	-10.7319
0FBE459	-10.7321
488B8D00FEFFFF	-10.7324
5DFFFFFF	-10.7325
480FBE8DE7FEFFFF	-10.7326
003	-10.7327
488B85B8FEFFFF	-10.7327
48C78510FFFFFF	-10.7328
4883F2FF	-10.7328
C42	-10.7329
6006172725F363	-10.7331
8B45903B458C0F8	-10.7333
42FDFFFF	-10.7335
C600FF	-10.7336
0E0000008B45FC	-10.7337
13FDFFFF	-10.7338
832	-10.7338
48698DB0FDFFFF	-10.7338
922	-10.7341
8985D4F7FFFF	-10.7342
8985BCF	-10.7343
81E93	-10.7346
488B8508F9FFFF48	-10.7347
524	-10.7347
0FB64D9	-10.7351
0FB785E6FEFFFF	-10.7351
48698D70FEFFFF	-10.7352
84FCFFFF	-10.7354
3110000008B854	-10.7355
000006E000000	-10.7356
992	-10.7358
898580F6FFFF	-10.7358
E959000000	-10.7362
48B91	-10.7363
C78568FFFFFF	-10.7364
0FB6855FFFFFFF	-10.7364
0FB74DDC4869C9	-10.7367
8B85B4F9FFFF	-10.7367
9B2	-10.7371
488B85F0F8FFFF48	-10.7371
8A008845D	-10.7372
C78554FFFFFF	-10.7372
2B0491	-10.7372
0FB74D8E4869C9	-10.7375
488B85E80000008A	-10.7376
480FBF4DAC	-10.7376
480FBE8D3FFFFFFF	-10.738
0B010000	-10.7382
EFF	-10.7382
1F2	-10.7385
34FCFFFF	-10.7385
488B8510FFFFFF	-10.7387
E52	-10.7391
3D010000	-10.7391
8B45488A4540	-10.7394
8B8D90FEFFFF	-10.7396
03FDFFFF	-10.7399
0FB64DA74869C9	-10.7402
668B00668945D	-10.7403
8B850CFAFFFF	-10.7403
837D60000F84	-10.7407
8B8DA8F	-10.7407
BAF	-10.7408
000000005B010000	-10.7408
48698D68FDFFFF	-10.7409
48634D80	-10.7409
C78570FFFFFF	-10.7411
837D20000F95C0	-10.7411
66FCFFFF	-10.7414
5A2	-10.7416
0FB70C5181E9	-10.7419
C80100004C8B8	-10.7424
0FBE4DBF	-10.7425
8A852FF	-10.7428
E9000000000FBE45	-10.7429
B80100000039C80F	-10.743
4CFCFFFF	-10.743
488985B0FBFFFF	-10.7431
E958000000	-10.7433
837DFC000F95C0	-10.7433
448945F4	-10.7441
733007661725F373	-10.7441
313	-10.7447
A8020000	-10.7448
83BDF8F	-10.7449
48B97	-10.7452
48898560FFFFFFE9	-10.7453
488B8538F9FFFF48	-10.7456
7A2	-10.746
672	-10.746
486355D8	-10.7461
3B85C0FCFFFF0F8	-10.7463
486BD20F4801D1	-10.7465
488B85C8FEFFFF	-10.7466
4883C1044869C9	-10.7467
83EE014863F6	-10.7468
F2FFFFE900000000	-10.7469
488985A8FBFFFF	-10.747
DF2	-10.7473
310000000488B458	-10.7473
48894580E9	-10.7474
48898548FBFFFF	-10.7475
2FFCFFFF	-10.7479
486355E4	-10.748
D110000008B850	-10.748
26010000	-10.7481
488B8578020000	-10.7485
480FBE4DE44869C9	-10.7486
0000000062010000	-10.7486
100004C8B8D9	-10.7486
0FBF4DE4	-10.7486
3C020000	-10.7491
C983C10C39C80F8D	-10.7492
488B8520FFFFFF	-10.7494
0FBF855EFFFFFF	-10.7494
0FB78DCEFDFFFF	-10.7495
898514F8FFFF	-10.7498
483B	-10.7499
6110000008B857	-10.75
488B4DD08B0488	-10.7501
C785B8F	-10.7501
000006F000000	-10.7502
48C785E8F	-10.7503
FFFFFE90E000000	-10.7504
335006172725F333	-10.7504
8B8D00F	-10.7504
D3E0489848	-10.7508
8A5	-10.7508
A72	-10.7508
894580488B	-10.7509
668B45FE668985	-10.7511
0FB68547FFFFFF	-10.7512
8B45CC3B45C80F8	-10.7513
CE2	-10.7513
0FBF45DC	-10.7514
488985D0FBFFFF	-10.7516
48FCFFFF	-10.7516
48638DE8FDFFFF	-10.7516
C40000004801C88A	-10.7517
44FCFFFF	-10.7519
C983C10D39C80F8D	-10.7521
48B9D	-10.7522
C785B0F	-10.7526
712	-10.7526
003600004801D1	-10.7526
C78534FFFFFF	-10.7526
807D10000F95C0	-10.7527
8B459C3B45980F8	-10.753
8A45F024010FB6C0	-10.7532
E62	-10.7532
0FB68D0BFFFFFF	-10.7533
8B8DB8FEFFFF	-10.7533
0FB68517FFFFFF	-10.7534
48C78558F	-10.7535
004829C8480385	-10.7535
0EFCFFFF	-10.754
486BD20D4801D1	-10.7541
8B8D0CFEFFFF	-10.7542
8B45F03B45EC0F8	-10.7542
0000000078020000	-10.7542
488B8520F9FFFF48	-10.7543
C983C11539C80F8D	-10.7546
D2020000	-10.7546
FDFFFFFF	-10.7553
488B8D00FDFFFF	-10.7556
8A440801	-10.7558
480FBF4D9A	-10.7561
48898598FBFFFF	-10.7562
0FB78D52FFFFFF	-10.7562
BA4	-10.7563
F92	-10.7565
488B85F8F8FFFF48	-10.7565
0000000019000000	-10.7565
4801D0486395	-10.7566
14010000	-10.7568
A2FCFFFF	-10.757
4883BD78FFFFFF	-10.757
020FB685	-10.7571
4883BD70FFFFFF	-10.7571
30030000	-10.7572
982900004801D1	-10.7573
99F	-10.7573
7D2	-10.7574
9F6	-10.7575
A92	-10.7578
48020000	-10.7579
00000000AB000000	-10.7583
486B8D00FFFFFF	-10.7587
3DFFFFFF	-10.7587
898558FFFFFFE9	-10.7589
E9090000008B45EC	-10.7589
0FB68567FFFFFF	-10.7594
488B4DC04883E902	-10.7594
3B854CFFFFFF0F8	-10.7596
B72	-10.7596
8B8520FAFFFF	-10.7602
B62	-10.7603
FFFF66C785	-10.7605
8B8540FAFFFF	-10.7605
48634D9C4869C9	-10.7606
488B8D68010000	-10.7609
480FBE8D07FFFFFF	-10.7612
488B04C888C2	-10.7612
2B2	-10.7613
8B8538FAFFFF	-10.7619
8B8D3CF	-10.7622
4D2	-10.7623
C7852CFFFFFF	-10.7624
8A8D7BFFFFFF80	-10.7627
0FB785EEFEFFFF	-10.763
61FFFFFF	-10.763
4883C00148	-10.7631
00000000BE010000	-10.7633
48837D48000F84	-10.7633
2AF	-10.7634
898568F6FFFF	-10.7635
8A85BFF	-10.7636
110200004801D1	-10.7639
89853CF8FFFF	-10.764
486BC9174801C88A	-10.7642
6AFDFFFF	-10.7644
00000000B2000000	-10.7646
C22	-10.7649
8B55CC	-10.765
0D00000031C08885	-10.7651
C0020000	-10.7651
48698D90FEFFFF	-10.7655
39C80F96C0	-10.7656
0000071000000	-10.7656
3006172725F333	-10.7657
0000000068020000	-10.7657
480FBF8D56FFFFFF	-10.7658
3B855CFFFFFF0F8	-10.7659
488B4DF8	-10.766
668B4520	-10.7662
CD2	-10.7664
D2FCFFFF	-10.7669
488B85E8F8FFFF48	-10.7672
F7F	-10.7672
00000000E2010000	-10.7673
55F	-10.7673
0FB745B	-10.7674
8B8518FAFFFF	-10.7674
668945F2	-10.7674
31FFFFFF	-10.7675
480FBF8DF6FEFFFF	-10.7675
8B4D68	-10.7676
AD2	-10.7677
E952000000	-10.768
0FB74596	-10.7681
2E010000	-10.7681
8B5558	-10.7683
48B99	-10.7685
B5010000	-10.7686
8B8D98FEFFFF	-10.7687
668B55F	-10.7688
80E101884DF	-10.769
A52	-10.769
C7FBFFFF	-10.769
8B85D4F9FFFF	-10.7694
057	-10.7696
8B85C4F9FFFF	-10.77
49FFFFFF	-10.7703
83FE000F45CA	-10.7705
81E91	-10.7705
0FB74DE04869C9	-10.7708
7AFDFFFF	-10.7708
480FBE4DF2	-10.771
488B85F8FEFFFF	-10.7716
0FB78D06FFFFFF	-10.7717
0FB74D30	-10.7719
837D48000F84	-10.7719
55D780E2010FB6D2	-10.7722
262	-10.7723
0FB78506FFFFFF	-10.7725
486B8D30FFFFFF	-10.7727
8B8528FAFFFF	-10.7727
8910	-10.7729
4883BD68FFFFFF	-10.7731
431006172725F343	-10.7733
0E0000008B45	-10.7738
448A5D	-10.7741
F72	-10.7742
0FBE4DE5	-10.7743
8B4578	-10.7743
BD2	-10.7745
4801D08A	-10.7747
0002	-10.7747
48638D04FFFFFF	-10.7752
48898568FFFFFFE9	-10.7754
8A853FFFFFFF	-10.7755
0FB64DF2	-10.7755
8B85E8F9FFFF	-10.7758
9DFEFFFF	-10.7758
D52	-10.776
0FB6851FFFFFFF	-10.7762
C32	-10.7768
E0E0000008B45A	-10.777
83FA000F45C8	-10.777
F52	-10.7771
6C2	-10.7773
0FB74DF24869C9	-10.7774
690100004801C88A	-10.7774
0FB7D0	-10.7775
74FCFFFF	-10.7776
C983C11239C80F8D	-10.7776
3B85A0FCFFFF0F8	-10.7779
E95E000000	-10.7779
8985C8F	-10.778
A32	-10.778
772	-10.7781
0FB78D12FFFFFF	-10.7781
8B8DD8FEFFFF	-10.7785
8B8D68FEFFFF	-10.7787
488B8D38FDFFFF	-10.7788
99F7F9489848	-10.779
B52	-10.779
668B45EE	-10.7792
0007661725F363	-10.7792
732	-10.7795
0000000069010000	-10.7795
8985E8F	-10.7795
39C80F84	-10.7796
48C785E0FEFFFF	-10.7797
668B4528	-10.7798
48698DE8FEFFFF	-10.7798
C94863C948	-10.7805
7A010000	-10.7808
8B458C3B45880F8	-10.7811
807D48000F84	-10.7813
488B8D90FDFFFF	-10.7816
488B4DE04883E902	-10.7816
488945B8E908	-10.7817
3B85D8FCFFFF0F8	-10.7818
200300004801C88A	-10.7818
0200000083BD	-10.7819
898560FFFFFFE9	-10.7821
8006172725F363	-10.7822
8945D0837DD0	-10.7825
488B8500FFFFFF	-10.7826
8FEFFFF488985F0F	-10.7828
8B45E889C1	-10.7829
0000000048020000	-10.7833
0FB645E6	-10.7835
0000000090020000	-10.7836
488B4DC8488B04C8	-10.7836
A12	-10.7836
0FB7850EFFFFFF	-10.7837
0FBE4DA	-10.7838
362	-10.7839
4006172725F363	-10.784
00200004C8B85	-10.784
5EC	-10.784
0FB78D64FFFFFF	-10.784
C78544FFFFFF	-10.7843
488B85C8F8FFFF48	-10.7844
59FFFFFF	-10.7845
322	-10.7846
00000000C5010000	-10.7846
488B4DD84883E902	-10.7847
45D8483B45D00F8D	-10.7848
5BC	-10.7851
488B8D40FDFFFF	-10.7851
488B85F0FEFFFF	-10.7853
48B9A	-10.7853
8B8D48FEFFFF	-10.7854
0FB755DA	-10.7854
0FB74DE84869C9	-10.7854
66837D10000F95C0	-10.7855
C78540F	-10.7855
8945CC837DCC	-10.7856
0FB685FFFEFFFF	-10.7856
3B85B8FCFFFF0F8	-10.7866
8985FCF7FFFF	-10.7868
435006172725F343	-10.7869
480FBF8D5AFFFFFF	-10.7871
8985B4F	-10.7872
8B85B8F9FFFF	-10.7875
C745B0	-10.7876
0000000098020000	-10.7876
0FB64DFE	-10.7877
EC2	-10.7877
48C78500FFFFFF	-10.7877
F64	-10.7877
98FBFFFF	-10.7877
4D9E80E1010FB6C9	-10.7878
0FBF4DD2	-10.7878
3F2	-10.7878
488B45388B4530	-10.7881
E42	-10.7882
C8B45484C8B4540	-10.7883
4898482D	-10.7884
3B45100F	-10.7888
C983C11039C80F8D	-10.7889
056	-10.7892
81E1	-10.7896
97FBFFFF	-10.7898
488985C0FBFFFF	-10.7898
8B8DF0FEFFFF	-10.7899
488B8DC8FCFFFF	-10.7903
6110000008B853	-10.7906
488B8D78010000	-10.7908
E8FBFFFF	-10.7911
898598F	-10.7911
48898568FBFFFF	-10.7911
D5FEFFFF	-10.7912
E5FEFFFF	-10.7913
C785A8FDFFFF	-10.7913
6F2	-10.7915
19010000	-10.7917
48638DB4F	-10.7921
8985ACF7FFFF	-10.7923
0FB675	-10.7925
480FBF75	-10.7925
E3FCFFFF	-10.793
480FBF4D8A	-10.793
8B85F0F9FFFF	-10.793
572	-10.7931
8985B0F	-10.7933
480FBE8DDFFEFFFF	-10.7934
4839C80F9EC0	-10.7935
062	-10.7936
480FBE4DB3	-10.7937
000000488B45B848	-10.7937
E968000000	-10.7938
8C3	-10.7939
48C745B8	-10.7941
C983C10A39C80F8D	-10.7943
5C2	-10.7945
610000000488B458	-10.7946
898534F	-10.7948
6A2	-10.795
8985DCF7FFFF	-10.795
48898578FBFFFF	-10.7951
AE2	-10.7953
0FB74DEC4869C9	-10.7955
0D2	-10.7956
0FBF8566FFFFFF	-10.7957
83EA0189D24869D2	-10.7964
352	-10.7966
488B85A8F8FFFF48	-10.7967
9CFCFFFF	-10.7968
F32	-10.7968
43010000	-10.7972
8B8DE4F	-10.7974
81E95	-10.7974
486955C0	-10.7977
48638D5CFEFFFF	-10.7979
0000070000000	-10.798
132	-10.798
C0FBFFFF	-10.798
48898580FBFFFF	-10.798
5CFCFFFF	-10.7987
4EFCFFFF	-10.7988
4F2	-10.7988
C983C11439C80F8D	-10.7989
8B2	-10.7989
7DFEFFFF	-10.7991
BC2	-10.7992
48898518FFFFFFE9	-10.7992
D800000000000000	-10.7993
0000072000000	-10.7995
48C745A8	-10.7996
BFFFF01C8668985	-10.8004
02FDFFFF	-10.8006
00000000E9010000	-10.8008
898588F6FFFF	-10.8009
0FB645BB	-10.801
48898550FBFFFF	-10.8011
48698DA0FEFFFF	-10.8016
10FBFFFF	-10.8018
9FBFFFF	-10.8021
F8F	-10.8021
3C2	-10.8021
4C8B4D284C8B4D20	-10.8022
486B8D40FFFFFF	-10.8022
F04	-10.8022
31C029C84863C8	-10.8023
0FB68527FFFFFF	-10.8024
412	-10.8024
8B8530FAFFFF	-10.8025
71FEFFFF	-10.8025
DDFEFFFF	-10.8028
4DD580E1010FB6C9	-10.8031
488B85F80000008A	-10.8036
66837D18000F95C0	-10.8037
480FBF4DAE4869C9	-10.8038
488B85D8F8FFFF48	-10.8039
080E10188480	-10.804
272	-10.8042
C7854CFFFFFF	-10.8043
898538F6FFFF	-10.8045
D0E0000008B45A	-10.8046
898590F	-10.8047
4839C80F9FC0	-10.8048
422	-10.805
C983C10E39C80F8D	-10.8055
39C80F93C0	-10.8055
898578F6FFFF	-10.8055
055	-10.8057
8B8510FAFFFF	-10.8057
D03	-10.8058
02000FBF85	-10.8058
8B8DC4FDFFFF	-10.8059
3B45E00F	-10.8063
6689C28A85	-10.8064
837D28000F95C0	-10.8066
0FB64DBB4869C9	-10.8072
00000000B9000000	-10.8073
E2FCFFFF	-10.8074
0500000000668948	-10.8074
48698D18FEFFFF	-10.8076
BF2	-10.8078
DAF	-10.8079
9883C0	-10.8079
0FB780	-10.808
6D2	-10.8081
668B4540	-10.8083
83C20189D24869D2	-10.8084
EB2	-10.8085
0FEFFFF48898588F	-10.8085
6110000008B854	-10.8085
488B45488B4540	-10.8086
A0FCFFFF	-10.8086
8B04886689C2	-10.8086
48898510FFFFFFE9	-10.8087
8B85ACF9FFFF	-10.8088
7FFFF898D	-10.8092
480FBF4DA64869C9	-10.8092
8B4018	-10.8092
1E2	-10.8093
0345C0488945C0E9	-10.8093
89850CF8FFFF	-10.8094
072	-10.8094
8B855CF9FFFF	-10.8096
8B8500FAFFFF	-10.8097
488B8508FFFFFF	-10.8098
A7010000	-10.8101
8A8557FFFFFF	-10.8102
DD2	-10.8102
48634D844869C9	-10.8104
8B8D34FEFFFF	-10.8104
48638D78F	-10.8105
8985FCF	-10.8106
A3FCFFFF	-10.8106
D72	-10.8107
000004C8B85E	-10.8108
1BFDFFFF	-10.8111
898540F6FFFF	-10.8111
3B8514FFFFFF0F8	-10.8113
8B4028	-10.8114
0FB64DE64869C9	-10.8114
0000640B4801C8	-10.8115
4A010000	-10.8115
8A008845C	-10.8117
480FBE4DCE	-10.8119
8A0C0880E10148	-10.8119
88030000	-10.8119
89C948D3E0	-10.8119
8985C0F	-10.8121
CA2	-10.8123
81E2	-10.8123
8B8DE8FDFFFF	-10.8123
48B9C	-10.8125
0FB64D8B	-10.8126
4C8945F8	-10.8127
172	-10.8128
DA0010000	-10.813
65FEFFFF	-10.8131
89859CF	-10.8131
FE2	-10.8133
480FBE4DF1	-10.8134
488B8D20FDFFFF	-10.8137
392	-10.8137
8A854FFFFFFF	-10.8137
668945F6	-10.8142
0FB78D4AFFFFFF	-10.8143
02000FB785	-10.8145
452	-10.8146
81E92	-10.8146
488B85C0FEFFFF	-10.8146
B00166837D	-10.8147
67010000	-10.8149
480FBE8D17FFFFFF	-10.815
480FBF8D62FFFFFF	-10.8151
952	-10.8151
894DF0448945EC	-10.8151
D0C0000000FBF45	-10.8152
8B8D64F	-10.8157
C90FB7	-10.8164
6C010000	-10.8164
80200004C8B85	-10.8165
480FBE8D5FFEFFFF	-10.8167
48897DF0	-10.8169
3B8590FCFFFF0F8	-10.8171
486345E448	-10.8171
31C029C883F8	-10.8175
3B852CFFFFFF0F8	-10.8178
642	-10.8179
898554FFFFFFE9	-10.8179
48D3E048	-10.8179
7BFDFFFF	-10.8183
A0FBFFFF	-10.8185
3B45F80F	-10.8185
8A85DFF	-10.819
488B8578F8FFFF48	-10.8191
E0FAFFFF	-10.8191
8B8524FAFFFF	-10.8192
48898558FFFFFFE9	-10.8192
8B8508FAFFFF	-10.8193
895488	-10.8196
8B8DE0FDFFFF	-10.8198
8A85DFFEFFFF	-10.8199
F42	-10.82
0FB64DDE4869C9	-10.82
E951000000	-10.8206
152	-10.8207
DAFCFFFF	-10.8209
142	-10.8209
488B8510F9FFFF48	-10.8209
0100004C8B850	-10.8212
AF2	-10.8212
0345B8488945B8E9	-10.8212
488B8D60FDFFFF	-10.8215
8955F4	-10.8215
50FBFFFF	-10.8215
448945EC	-10.8217
89F18BB5	-10.8217
0FB74DEE4869C9	-10.8217
E201881408	-10.8218
894804	-10.8221
05D	-10.8222
3A2	-10.8223
0FB775	-10.8224
837D68000F84	-10.8224
8945D88	-10.8225
8D2	-10.8228
ED2	-10.8228
6007661725F363	-10.8231
9A3	-10.8235
8FEFFFF48898520F	-10.8236
0FB68D26FFFFFF	-10.8237
DC010000	-10.8238
48B93	-10.8238
43020000	-10.8239
488955E8	-10.8244
837D40000F95C0	-10.8244
27010000	-10.8245
3B8570FCFFFF0F8	-10.8247
488B8D88FDFFFF	-10.8248
480FBF4DC44869C9	-10.8248
3C010000	-10.825
488B8DC8FDFFFF	-10.825
0E0000008B4530	-10.8251
EE2	-10.8255
4AFDFFFF	-10.8257
8A45A	-10.8259
488985F0FEFFFFE9	-10.826
8A8517FFFFFF	-10.826
0FBE45E3	-10.8261
00000000CC010000	-10.8266
32FDFFFF	-10.8267
042	-10.8268
488B85D8FEFFFF	-10.8272
83BD90F	-10.8276
112	-10.8277
3B45C00F8	-10.8278
08090000	-10.828
29C883F8000F84	-10.8282
89CE	-10.8287
0B0000008B45F0	-10.8289
8B85D0F9FFFF	-10.829
BE3	-10.8292
A22	-10.8292
8B45883B45840F8	-10.8294
8B8D78FDFFFF	-10.8295
488B85E8FEFFFF	-10.8297
8B8DF4FDFFFF	-10.8297
480FBF8D52FFFFFF	-10.83
898560F6FFFF	-10.83
488955F0894DEC	-10.8301
C8040000	-10.8301
2006172725F363	-10.8301
01000000488B	-10.8302
E9090000008B45F4	-10.8303
8B8D70FEFFFF	-10.8307
50020000	-10.8308
4C8B8510	-10.8308
488B4D984883E901	-10.8308
B12	-10.831
BC010000	-10.831
8DFEFFFF	-10.832
C785C0F	-10.8321
AE010000	-10.8322
83C0020385	-10.8323
8F5FFFF488985	-10.8323
66C700FFFF	-10.8323
48B9B	-10.8325
E0000008B458C	-10.8329
514	-10.833
837DF0000F95C0	-10.8334
000000488B45E848	-10.8334
6801000000000000	-10.8335
C983C11339C80F8D	-10.8338
668945D6	-10.8342
CBFCFFFF	-10.8342
668945BE	-10.8343
522	-10.8344
339006172725F343	-10.8346
8945C8837DC8	-10.8346
F0000668985	-10.8347
D32	-10.8349
488B45E848B9	-10.835
8B85D8F9FFFF	-10.8351
488B55B0	-10.8351
898558F6FFFF	-10.8352
480570	-10.8352
0000000E0	-10.8352
CEFBFFFF	-10.8352
00000000B8020000	-10.8353
F3FFFF488985	-10.8356
7F2	-10.8356
0FB6852FFFFFFF	-10.8357
E12	-10.8358
8010000488BB5	-10.836
45FEFFFF	-10.8361
0FB745AE	-10.8362
0FB68DBFFEFFFF	-10.8362
8945E0837DE0	-10.8362
3110000008B856	-10.8362
448B4D284C8B4D20	-10.8363
0FB785AEF	-10.8363
632	-10.8367
8985A4F7FFFF	-10.8367
E95B000000C785	-10.8368
612	-10.8369
8B3	-10.837
4883BD48FFFFFF	-10.837
66837D20000F95C0	-10.8373
0FB78D16FFFFFF	-10.8375
898550FFFFFFE9	-10.8375
75FEFFFF	-10.8379
8985B8F	-10.8379
4883E80148	-10.8381
898544FFFFFFE9	-10.8382
242	-10.8385
486BD2124801D1	-10.8386
4B010000	-10.8386
0FB74DBA4869C9	-10.8388
488B85D0FEFFFF	-10.8388
303	-10.8391
3110000008B853	-10.8392
8E2	-10.8393
898560F	-10.8394
0FBF4D48	-10.8395
8985A8F	-10.8395
8B8D60F	-10.8398
98030000	-10.84
3B853CFFFFFF0F8	-10.84
0000000077010000	-10.8401
8CFBFFFF	-10.8401
668B044888C148	-10.8401
3B8580FCFFFF0F8	-10.8403
B22	-10.8403
48898550FFFFFFE9	-10.8404
8B4D3866448B4D30	-10.8408
488B8D70010000	-10.8411
DF4	-10.8411
0FB64D8F4869C9	-10.8411
0B000000488B45D8	-10.8413
8F2	-10.8413
488985F8FEFFFFE9	-10.8413
35010000	-10.8415
3E2	-10.8417
8A45A324010FB6C0	-10.8419
0FB64D9B	-10.8421
03010000	-10.8421
448B4D28448B4D20	-10.8421
6683F8000F95C0	-10.8424
0FB6850FFFFFFF	-10.8425
898538F	-10.8425
837C88	-10.8427
04C8B85E80	-10.8427
4883F1FF488B	-10.8428
7006172725F343	-10.8428
8B4D844869C9	-10.8431
3110000008B855	-10.8431
48898510FBFFFF	-10.8432
39C80F85	-10.8432
9AF	-10.8436
0FBF8546FFFFFF	-10.8436
0FBE4DFE	-10.8439
448945FC	-10.844
480FBFC048	-10.8442
898564F	-10.8444
898504F8FFFF	-10.8445
28030000	-10.8445
442	-10.8451
5AFDFFFF	-10.8452
8985BCF7FFFF	-10.8454
4863453048	-10.8455
0FB785F6FEFFFF	-10.8455
904	-10.8456
E966000000	-10.8456
8B4D70	-10.8457
FE3	-10.8459
0FB6401	-10.846
1A2	-10.846
8A8547FFFFFF	-10.8461
133006172725F313	-10.8463
66C70448F	-10.8464
486B55D8	-10.8466
5B4	-10.8467
3B41	-10.8469
4883C2024869D2	-10.8469
1801000000000000	-10.847
E96B000000	-10.847
807DFE000F84	-10.8471
44884DFF	-10.8474
60B0000008B45D	-10.8474
486345F048	-10.8477
48898588FBFFFF	-10.8477
EF2	-10.8479
8C2	-10.8479
81F1	-10.848
8B8D80FCFFFF	-10.8481
91010000	-10.8482
488B8578FEFFFF	-10.8482
8B5D18	-10.8482
8A8DC7FEFFFF80	-10.8482
372	-10.8484
D6F	-10.8485
8B8584F9FFFF	-10.8486
8B8DF0FCFFFF	-10.8492
28FBFFFF	-10.8497
0FBE4DF3	-10.8499
480FBF4DE84869C9	-10.8505
488B85B0FEFFFF	-10.8513
48698D20FEFFFF	-10.8517
668945D2	-10.8517
3B8588FCFFFF0F8	-10.8519
0FB64D974869C9	-10.852
0FBE4DF5	-10.852
8B85F8F9FFFF	-10.852
F645E7010F84	-10.8521
C78550FFFFFF	-10.8521
48C745D000000000	-10.8522
C7851CFFFFFF	-10.8524
00000000F7010000	-10.8524
488985B0FAFFFF	-10.8524
8845D3	-10.8526
5E010000	-10.8526
8B8D90FDFFFF	-10.8529
8B4D944869C9	-10.8531
822	-10.8531
837D18000F95C0	-10.8534
48698D98FEFFFF	-10.8536
0FBE8577FFFFFF	-10.854
480FBF8D96FEFFFF	-10.8543
664489C84	-10.8544
0FB68537FFFFFF	-10.8546
4088FE	-10.8549
40887DFF	-10.8549
81E97	-10.8549
C92	-10.855
E957000000	-10.855
F283FA000F95C280	-10.8551
668945A6	-10.8551
8B8DA0FEFFFF	-10.8555
898548F6FFFF	-10.8556
3B8534FFFFFF0F8	-10.8556
0FBF80	-10.8557
0FB6440801	-10.8557
182	-10.856
12010000	-10.8561
8B8544F9FFFF	-10.8561
898554F7FFFF	-10.8563
5DFEFFFF	-10.8563
8B8D60FEFFFF	-10.8564
FF66C785	-10.8568
48837D20000F95C0	-10.8568
C72	-10.8568
26020000	-10.8572
48837DD0	-10.8572
0FB645DE	-10.8574
C1E100	-10.8575
85FEFFFF	-10.8576
DFFFF8A85	-10.858
0FBE4560	-10.8581
E965000000	-10.8585
488B85B8F8FFFF48	-10.8585
807D18000F95C0	-10.8586
8985ECF7FFFF	-10.8587
0FBF8536FFFFFF	-10.8589
0FBE856FFFFFFF	-10.8595
39C80F97C0	-10.8595
14020000	-10.8598
4805003	-10.8599
486BC9114801C88A	-10.8599
89459048837D90	-10.8601
842	-10.8601
8B8554F9FFFF	-10.8604
1D2	-10.8612
0FBF4560	-10.8614
898580F	-10.8617
8FEFFFF488985E0F	-10.8618
30B0000008B45D	-10.8619
4805A8	-10.8619
89858CF7FFFF	-10.862
0FB645DB	-10.862
480FBE4DEF4869C9	-10.8621
E969000000	-10.8623
0FB78DF6FDFFFF	-10.8625
F9FFFFFF	-10.8626
0CFCFFFF	-10.8627
C785F0F	-10.863
B0030000	-10.8634
45E0483B45D80F83	-10.8636
B8030000	-10.864
48898500FBFFFF	-10.8644
480FBF4D90	-10.8644
894808	-10.8645
8B8D34F	-10.8645
0FB64DE34869C9	-10.8646
FA2	-10.8648
F645EF010F84	-10.8653
3B010000	-10.8656
C745B8	-10.8656
694	-10.8659
8A45208885	-10.8659
48C785D0FEFFFF	-10.866
C7853CFFFFFF	-10.866
1F010000	-10.8663
0FBE4DDE	-10.8663
E0040000	-10.8666
A0030000	-10.8668
488988	-10.867
8A851FF	-10.867
122	-10.8673
0FB74D90	-10.8676
103	-10.8678
0FB785D6FEFFFF	-10.8679
89857CF7FFFF	-10.8679
486375	-10.8681
0FB74560	-10.8682
480FBF8DC6FEFFFF	-10.8682
C90FBF	-10.8683
3B8544FFFFFF0F8	-10.8685
683	-10.8685
4883BD50FFFFFF	-10.8686
4863C94821C848	-10.8687
31C989CA48F7B5	-10.8689
65010000	-10.8689
7E3	-10.8689
0FEFFFF48898500F	-10.8692
486BD20B4801D1	-10.8692
B90100004801D1	-10.8695
488B8558FEFFFF	-10.8695
66894596	-10.8697
89459848837D98	-10.8698
9AFDFFFF	-10.8698
486B8DD8FEFFFF	-10.8702
8A45F424010FB6C0	-10.8706
64FCFFFF	-10.8709
83010000	-10.8713
48638D68FFFFFF	-10.8714
0FBE854FFFFFFF	-10.8716
48C785B0FEFFFF	-10.8718
0FBE4D50	-10.872
8B45F82D	-10.8723
488B8598FEFFFF	-10.8726
8B85A8F9FFFF	-10.8732
89856CF7FFFF	-10.8733
6110000008B852	-10.8733
48B92	-10.8735
486BF61	-10.8736
0FB6C883C101	-10.8738
C78524FFFFFF	-10.874
480FBE55F	-10.874
8A400124010FB6C0	-10.8741
4805B0	-10.8742
0FB64DD34869C9	-10.8743
807D20000F95C0	-10.8745
6E010000	-10.8745
8B85A0F9FFFF	-10.8747
0FEFFFF488985D8F	-10.8749
8B85E0F9FFFF	-10.8749
532	-10.875
C983C10F39C80F8D	-10.8751
0FB64DD1	-10.8751
48698D10FEFFFF	-10.8752
480FBF4DBC	-10.8752
489948F7F94889C1	-10.8753
22040000	-10.8753
31D9D2084801C8	-10.8754
48C785C0FEFFFF	-10.8755
8FEFFFF488985D0F	-10.8758
48B98	-10.8759
090F8D	-10.876
000000007E010000	-10.8763
488B8D80FDFFFF	-10.8764
48638DE4FEFFFF	-10.8768
8B8504F9FFFF	-10.8771
488B8580020000	-10.8771
0FB78D54FFFFFF	-10.8772
8B85C8F9FFFF	-10.8773
0FB68D03FFFFFF	-10.8774
3110000008B852	-10.8777
66C745F	-10.8777
8985C4F7FFFF	-10.878
3AFDFFFF	-10.8787
0FBF459E	-10.879
6EFBFFFF	-10.8791
488B85A0FEFFFF	-10.8799
8B8DF0FDFFFF	-10.8799
99F73CB1	-10.8802
E9000000000FB645	-10.8803
0FB6490	-10.8803
20040000	-10.8804
0FB78D4CFFFFFF	-10.8806
89C948	-10.881
6689458E	-10.881
8845CB	-10.881
3B8598FCFFFF0F8	-10.8811
DA4	-10.8817
5FF	-10.8818
48837D28000F95C0	-10.8819
4A2	-10.8821
488B8598F8FFFF48	-10.8823
2DFFFFFF	-10.8823
83C0010385	-10.8824
8B85B0F9FFFF	-10.8828
58030000	-10.8829
2007661725F363	-10.883
39C80F92C0	-10.883
0000000085010000	-10.8831
0FB64DD64869C9	-10.8834
C80300004801C88A	-10.8834
8B4DF048BA	-10.8834
0FB68D33FFFFFF	-10.8835
3110000008B851	-10.8835
8FEFFFF488985D8F	-10.8835
8B8DECF	-10.8838
49010000	-10.8839
01FFFFFF	-10.8841
0FBF853EFFFFFF	-10.8841
0FB68D2FFFFFFF	-10.8842
898574F7FFFF	-10.8844
486BD25C4801D1	-10.8846
75F	-10.885
8B8DACFDFFFF	-10.885
0FB64DAB	-10.8854
83E800	-10.8854
D12	-10.8855
CE010000	-10.8856
0FBF4DDA	-10.8858
7E2	-10.8859
E9090000008B45F0	-10.8859
0B2	-10.8861
FFFFFF000FB685	-10.8863
60A60000	-10.8864
4839C80F9DC0	-10.8867
75010000	-10.8867
332	-10.8868
0FB655CF	-10.887
28FCFFFF	-10.887
83F9	-10.8872
0FB685D7FEFFFF	-10.8879
8B8D30F	-10.8879
F8040000	-10.888
D0070000	-10.8881
C12	-10.8883
488B4DA84883E901	-10.8886
0FB645D789C1	-10.8886
8B857CF9FFFF	-10.8888
6110000008B856	-10.8889
401F00004801C88A	-10.889
488B85E0F8FFFF48	-10.889
0FB745CC	-10.8891
8B8574F9FFFF	-10.8891
0FBE857FFFFFFF	-10.8892
F6400	-10.8894
668B4530668985	-10.8897
8985CCF7FFFF	-10.8897
8B8D18FCFFFF	-10.8898
4006172725F373	-10.89
40050000	-10.89
480FBE4D9B	-10.8901
488B8558F8FFFF48	-10.8905
480FBE8DD7FEFFFF	-10.8905
752	-10.8906
FB010000	-10.8906
C68408	-10.8911
0FB78D76FEFFFF	-10.8911
9801000000000000	-10.8911
8A8537FFFFFF	-10.8912
8FEFFFF48898590F	-10.8913
BB3	-10.8914
488B55A0	-10.8924
8FEFFFF48898560F	-10.8924
66837C48	-10.8927
66837D28000F95C0	-10.8928
486BD2324801D1	-10.8928
488B8500F9FFFF48	-10.8929
0FB645CF89C1	-10.8934
89854CFFFFFFE9	-10.894
C983C11739C80F8D	-10.8944
48698D90F	-10.8949
8B8DA0FCFFFF	-10.8957
1B2	-10.8958
488B8D80010000	-10.8958
FAFCFFFF	-10.8961
486B8D70F	-10.8961
448B4D28448A4D20	-10.8962
78020000	-10.8963
AD3	-10.8964
89F0488B75	-10.8969
0FB7559	-10.897
0FB64DFD	-10.897
8B859CF9FFFF	-10.8971
48638D60FFFFFF	-10.8971
B00148833CD10088	-10.8973
0FB74D48	-10.8978
480FBF8D6EFEFFFF	-10.8978
488B85C0F8FFFF48	-10.8979
898550F6FFFF	-10.8981
00000000C7000000	-10.8983
0FEFFFF48898508F	-10.8986
3D3	-10.8987
E22	-10.8987
8B8D1CF	-10.8987
BFFBFFFF	-10.8988
4C8945F0	-10.8988
05000000000FAF	-10.8992
0FB74DFA	-10.8993
5E3	-10.8998
48698D68FEFFFF	-10.8999
FBFFFFFF	-10.8999
8FEFFFF48898538F	-10.8999
BBFCFFFF	-10.9
488B85A8FEFFFF	-10.9
486BD20C4801D1	-10.9001
3B85FCFEFFFF0F8	-10.9001
66010000	-10.9001
0FEFFFF488985A8F	-10.9003
032	-10.9003
66837DF4000F84	-10.9009
B80A0000	-10.901
48638D70FFFFFF	-10.9012
480FBF4DC0	-10.9014
8B8DDCFDFFFF	-10.9015
8D5FFEFFFF80	-10.9015
8570FFFFFF	-10.9016
574	-10.9018
0000073000000	-10.902
FCFF	-10.9022
8985A0F	-10.9022
28040000	-10.9024
4180E001448845FF	-10.9025
753	-10.9026
BAFCFFFF	-10.9027
4863C94831C848	-10.9027
C00000004801D1	-10.9031
0FBF45E8	-10.9032
AB3	-10.9032
31D2F734B1	-10.9032
8FFBFFFF	-10.9033
3B8524FFFFFF0F8	-10.9034
89859CF7FFFF	-10.9037
0FEFFFF48898568F	-10.9038
38030000	-10.9039
00000000D3010000	-10.9041
401F00004801D1	-10.9042
39D10F9CC180	-10.9043
00000000CE000000	-10.9043
32010000	-10.9043
C5FEFFFF	-10.9044
8FEFFFF48898558F	-10.9045
8B55C8	-10.9045
8B85C0F9FFFF	-10.905
012	-10.905
735007661725F373	-10.905
48898560FBFFFF	-10.905
480FBF4DB2	-10.905
C983C10139C80F8D	-10.9051
02010000	-10.9051
40040000	-10.9056
F0FFFFE900000000	-10.9058
C78540FFFFFF	-10.9058
433006172725F343	-10.9059
8B8D5CF	-10.9061
89853CF	-10.9065
8B854CF9FFFF	-10.9068
0FEFFFF488985B8F	-10.9069
12000000000000	-10.907
E9090000008B4530	-10.9071
09FFFFFF	-10.9073
8B4DF04869C9	-10.9073
48C785B8FEFFFF	-10.9073
0FB680	-10.9074
31C048833CD10088	-10.9076
8B8D84F	-10.9077
28050000	-10.9078
48698DA8FDFFFF	-10.9085
C3010000	-10.9086
0FB785DEFEFFFF	-10.9088
488B8DF8FCFFFF	-10.9089
21D0	-10.9091
353	-10.9094
48C785A8FEFFFF	-10.9095
0FB755E6	-10.9097
8945D0488B45D048	-10.9099
3B8560FCFFFF0F8	-10.9104
480FBE4DF9	-10.9105
898528F6FFFF	-10.9107
5D3	-10.9107
8A85C7F	-10.9109
1F020000	-10.911
05FFFFFF	-10.9111
4989F	-10.9113
FEFBFFFF	-10.9114
0FB78DA6FEFFFF	-10.9115
E960000000	-10.9116
4C020000	-10.9118
488B8588F8FFFF48	-10.9123
543	-10.9124
0FB645F1	-10.9126
5D4	-10.9126
70FBFFFF	-10.9128
0FB68D67FDFFFF	-10.9129
6006172725F373	-10.9129
C78488	-10.913
9FFBFFFF	-10.913
08030000	-10.9131
E3010000	-10.9132
0FB64DF9	-10.9133
D0E0000008B45B	-10.9135
0345E0488945E0E9	-10.9138
83BD90FEFFFF	-10.9139
2D010000	-10.914
4863855	-10.9141
253	-10.9141
8B5560	-10.9142
668B00668945C	-10.9145
8B8564F9FFFF	-10.9149
793	-10.915
F645F7010F84	-10.9151
0FBE4DEB	-10.9154
EA2	-10.9157
488B85B0F8FFFF48	-10.9158
8A85AFF	-10.916
898524F	-10.916
C74590	-10.9161
8A45288885	-10.9163
D4FBFFFF	-10.9164
0FB64DF0	-10.9165
FA010000	-10.9171
4883EA024869D2	-10.9173
0FB64587	-10.9176
8945888B458C	-10.918
8B858CF9FFFF	-10.918
3DF	-10.9182
3B8558FCFFFF0F8	-10.9183
C43	-10.9184
8FEFFFF48898570F	-10.9186
34020000	-10.9192
8B853CF9FFFF	-10.9192
486BD20A4801D1	-10.9193
01020000	-10.9196
48837D18000F95C0	-10.9196
4883BD38FFFFFF	-10.9196
C931C8	-10.9199
83C103	-10.9199
898570F	-10.9204
0000000026000000	-10.9205
3B8568FCFFFF0F8	-10.9205
2A2	-10.9209
488B8D60FCFFFF	-10.9209
8B8594F9FFFF	-10.921
01D1	-10.9211
FCFBFFFF	-10.9211
81CA	-10.9214
E10000000488B458	-10.9214
093D00004801D1	-10.9215
AEFBFFFF	-10.9218
0F6FFFF488985	-10.9218
237006172725F323	-10.9218
480FBE8D37FEFFFF	-10.9219
8B8DD4F	-10.9219
0FBE4DED	-10.9224
89855CF7FFFF	-10.9225
892	-10.9225
8B8D28FDFFFF	-10.9225
0FB68D57FEFFFF	-10.923
8B45D089C1	-10.923
8B55F8	-10.9231
4863C94809C848	-10.9235
0E010000	-10.9239
8FEFFFF488985A0F	-10.9241
8FEFFFF48898500F	-10.9244
F645C	-10.9245
8B852CF	-10.9246
E0C0000000FBE45	-10.9246
488B8D90010000	-10.9247
00A20000	-10.9249
98489848	-10.9252
E0E0000008B45B	-10.9253
4883BD30FFFFFF	-10.9255
0088C148	-10.9257
0006172725F373	-10.9258
89C048B9	-10.926
0FEFFFF48898560F	-10.9261
668B1448B8	-10.9261
4883BD40FFFFFF	-10.9262
C785E8FDFFFF	-10.9262
0FB64DEA4869C9	-10.9266
83C0030385	-10.9267
488B8540FEFFFF	-10.9269
3B45180F	-10.927
488B44C81048	-10.9274
E6FBFFFF	-10.9275
733	-10.9277
0FEFFFF488985E8F	-10.9279
E96C000000	-10.928
BC340000	-10.9281
48C785A0FEFFFF	-10.9282
8FEFFFF48898508F	-10.9283
48638D20FFFFFF	-10.9284
0E2	-10.9285
488B8D98010000	-10.9289
D38	-10.929
0FB78556F	-10.9291
FD2	-10.9292
8B856CF9FFFF	-10.9293
8DAFFEFFFF80	-10.9293
D1010000	-10.9294
8B8DC8FAFFFF	-10.9296
F0FFFFFF	-10.9296
83B8	-10.9297
0FB7C883C1020FB7	-10.9297
0D010000	-10.9298
00000000A8020000	-10.9302
212	-10.9304
8A85FFFEFFFF	-10.9305
39D10F9FC180	-10.9306
83BD88FEFFFF	-10.9308
4801C1480FBF85	-10.9309
8B8D14F	-10.9312
48837DD8	-10.9313
480FBE8D73FFFFFF	-10.9314
48B96	-10.9315
480FBE4D8B	-10.932
488B5598	-10.9323
3B8528FCFFFF0F8	-10.9324
488B45E048B9	-10.9324
8B8D50FEFFFF	-10.9325
448845FF	-10.9325
488B9568FFFFFF	-10.9327
486B8D08FFFFFF	-10.9327
8B551866448B5510	-10.9329
737007661725F373	-10.933
0FB785FEFEFFFF	-10.933
2F0D00004801C88A	-10.933
898574F	-10.933
D9FEFFFF	-10.9331
09020000	-10.9331
8945C4837DC4	-10.9332
C745EC	-10.9333
903	-10.9333
ED010000	-10.9335
00000000B0020000	-10.9336
668B4DFE	-10.9336
3B851CFFFFFF0F8	-10.9336
8B8DFCFDFFFF	-10.9337
8945BC837DBC	-10.9343
3B8530FCFFFF0F8	-10.9344
1B010000	-10.9344
66837DF2000F84	-10.9346
0FBEC9	-10.935
CC010000	-10.935
4D9B80E1010FB6C9	-10.9351
11FFFFFF	-10.9351
503	-10.9353
79FFFFFF	-10.9356
48B9E	-10.9358
48C1E2084801D1	-10.9359
837D30000F95C0	-10.9362
0FB68507FFFFFF	-10.9362
894DC0	-10.9363
DE3	-10.9363
480FBF4DCC4869C9	-10.9368
C78560FFFFFF	-10.937
9F3	-10.937
408875F	-10.9372
8FEFFFF488985F8F	-10.9372
89856CF	-10.9374
51010000	-10.9374
11FEFFFF	-10.9376
0FEFFFF48898520F	-10.9377
E110000008B85E	-10.9378
EA3	-10.9378
481	-10.9379
1C020000	-10.938
8007661725F363	-10.938
488B85A0F8FFFF48	-10.9381
00000000F8000000	-10.9382
0FBF854EFFFFFF	-10.9383
0801000000000000	-10.9384
668B00668945B	-10.9384
8FEFFFF488985A8F	-10.9385
48C785C8FEFFFF	-10.9385
4805B	-10.9392
837D50000F84	-10.9393
B90100004801C88A	-10.9394
C909C8	-10.9394
04FCFFFF	-10.9395
48638DA4FCFFFF	-10.9397
E83	-10.9398
39D10F9DC180	-10.9399
0D020000	-10.9401
0000074000000	-10.9401
C78530FFFFFF	-10.9402
4488C94188C1	-10.9403
D43	-10.9406
480FBF8D1AFFFFFF	-10.9406
894DF4	-10.9407
8945ECE9	-10.9408
0FBE80	-10.9408
8FEFFFF48898510F	-10.9409
488985D0FEFFFFE9	-10.941
8B8DC0FBFFFF	-10.9411
A80000004801D1	-10.9411
C78514FFFFFF	-10.9412
59020000	-10.9413
480FBE4DE64869C9	-10.9417
100004C8B8DB	-10.9418
8B4030	-10.942
66837DE6000F84	-10.9421
60040000	-10.9424
480FBE8D0FFEFFFF	-10.9425
48B94	-10.943
2F2	-10.9431
66C745DE	-10.9432
00000000D5000000	-10.9434
66C745C6	-10.9435
0FBF8D7EFFFFFF	-10.9435
0FB645C3	-10.9436
488B8D70FCFFFF	-10.9437
0000000093010000	-10.9438
5000000000000260	-10.9441
488985D8FEFFFFE9	-10.9442
8A851FFFFFFF	-10.9443
8945E8E9	-10.9445
8FEFFFF488985C0F	-10.9445
8A85CFF	-10.9445
F12	-10.9448
0FAFC183F8000F84	-10.945
F0020000	-10.9451
48C785D8FEFFFF	-10.9452
0FBE4DAF	-10.9453
0FEFFFF48898578F	-10.9453
B4010000	-10.9454
807D28000F95C0	-10.9455
F9010000	-10.9456
531006172725F353	-10.9457
488B8548FEFFFF	-10.9458
E10000004801D1	-10.9459
8B8DC8FBFFFF	-10.946
66C704480	-10.9465
10000000488B4540	-10.9466
488B8538F8FFFF48	-10.9466
343	-10.9468
FA3	-10.9468
C780	-10.9469
31C9482B4D	-10.9474
8A4DF7	-10.9475
4883C00248	-10.9478
4DD980E1010FB6C9	-10.948
898520F6FFFF	-10.9484
8FEFFFF488985B8F	-10.9486
8B8568F9FFFF	-10.9488
C78548FFFFFF	-10.9489
8FEFFFF48898540F	-10.9489
480FBE8DCBFEFFFF	-10.9489
0FB745C2	-10.9489
FB2	-10.9492
7B3	-10.9493
0000000018030000	-10.9496
3B8504FFFFFF0F8	-10.95
5F3	-10.9501
0FEFFFF48898580F	-10.9502
488B8DB0FBFFFF	-10.9503
022	-10.9503
0FB78D6CFFFFFF	-10.9504
8A45DA24010FB6C0	-10.9505
8FEFFFF48898530F	-10.9505
0FBF8D76FFFFFF	-10.9506
60000008B45E8	-10.9509
F3010000	-10.951
64020000	-10.9511
480FBE8D1FFFFFFF	-10.9514
3B04910F	-10.9517
8B45D489C1	-10.9518
8FEFFFF48898518F	-10.9519
4C8B4D18448B4D10	-10.9522
0FB7859EF	-10.9522
486B8D20FFFFFF	-10.9522
8FEFFFF48898528F	-10.9522
EB3	-10.9523
00710200	-10.9523
488985C8FEFFFFE9	-10.9526
8B405	-10.9529
4863C94801C848	-10.9529
62FDFFFF	-10.9532
8B8504F	-10.9534
0FEFFFF48898538F	-10.9537
0FB68D66FFFFFF	-10.9538
898518F6FFFF	-10.9539
488B85D0F8FFFF48	-10.954
0FB68D87FEFFFF	-10.9541
E160000008A85	-10.9542
66837DF8000F84	-10.9543
FF3	-10.9544
9AFCFFFF	-10.9545
4D3	-10.9548
0FEFFFF488985C8F	-10.9549
8A4DEF80E1010FB6	-10.9549
2D020000	-10.9551
0FEFFFF48898598F	-10.9551
0FB68DF7FDFFFF	-10.9555
4B020000	-10.9562
488B8508F8FFFF48	-10.9562
47FBFFFF	-10.9562
8B850CF	-10.9563
F3FCFFFF	-10.9565
8B8524F9FFFF	-10.9569
00000000A1010000	-10.9569
0FEFFFF488985F8F	-10.957
488B8548F8FFFF48	-10.9574
488945D0488B45D0	-10.9575
0FB74DBC	-10.9575
0FB68D9FFEFFFF	-10.9577
8A4DCB80	-10.9579
93FCFFFF	-10.9582
0FB78D2EFEFFFF	-10.9583
0FB64001	-10.9584
0FBE401	-10.9585
488B8D88010000	-10.9585
CA010000	-10.9587
8908C685	-10.9588
0FEFFFF48898550F	-10.959
0FB745D4	-10.9594
C83	-10.9594
6689C8	-10.9599
AFFAFFFF	-10.96
48638D94FEFFFF	-10.9602
83BD80F	-10.9604
898534FFFFFFE9	-10.9604
00000000E3000000	-10.9605
133	-10.9612
8A8537F	-10.9615
0FB785BEFEFFFF	-10.9616
4801D0488988	-10.9616
668B4548	-10.9617
C40000004801D1	-10.9618
0FBFC983C1	-10.9619
FAFFFFFF	-10.9619
48C1E	-10.962
0FBE45F9	-10.9621
894810	-10.9622
488B8590F8FFFF48	-10.9622
54010000	-10.9623
898508F6FFFF	-10.9623
488B8530FEFFFF	-10.9623
92FCFFFF	-10.9624
4863453848	-10.9625
74010000	-10.9625
8B8D44FDFFFF	-10.9626
8A45FF24010FB6C8	-10.9627
0FB68D4FFEFFFF	-10.963
15010000	-10.9631
894DB8	-10.9631
0F2	-10.9631
210100004801D1	-10.9632
00000000DA010000	-10.9634
DF010000	-10.9636
9D3	-10.9637
19FFFFFF	-10.9641
480FBF4DD0	-10.9642
D10000000488B458	-10.9644
8885F7F	-10.9645
000000009A010000	-10.965
C785D0F	-10.9653
9006172725F333	-10.9654
DFFFFF	-10.9655
898594F7FFFF	-10.9657
1E010000	-10.9659
488B4DC88B0488	-10.9663
48890848B8	-10.9663
092	-10.9676
0FBE4DF6	-10.9679
A73	-10.9681
CCFBFFFF	-10.9685
488985E8FEFFFFE9	-10.9686
480FBF4DC24869C9	-10.9686
488B85F8F7FFFF48	-10.969
E96E000000	-10.969
89853CFFFFFFE9	-10.9697
8A8DEFFEFFFF8	-10.97
000000008C010000	-10.9701
668B4448	-10.9702
8B4DA44869C9	-10.9703
162	-10.9704
24010000	-10.9704
6689481	-10.9706
07010000	-10.9706
544	-10.9706
18885	-10.9708
8B8D44F	-10.971
837D48000F95C0	-10.9711
8945E4837DE4	-10.9713
488B8580FEFFFF	-10.9713
210100004801C88A	-10.9716
FC3	-10.972
48C78580FEFFFF	-10.9721
89458848837D88	-10.9721
488B8528FEFFFF	-10.9723
192	-10.9725
0FEFFFF48898558F	-10.9726
8985E8F5FFFF	-10.9727
A53	-10.9727
0FB78DB2FEFFFF	-10.9727
48638D10FFFFFF	-10.9728
668B044888C2	-10.9729
88857FFFFFFFE9	-10.973
C7850CFFFFFF	-10.9731
0FB745B689C1	-10.9731
8A45188885	-10.9732
3B8510FCFFFF0F8	-10.9733
5F010000	-10.9733
66837D30000F95C0	-10.9734
488B8568F8FFFF48	-10.9735
8945B8488B4DB8	-10.9735
8C010000	-10.9735
440800004801D1	-10.9736
480FBE45FF48	-10.9737
8D87FEFFFF80	-10.9738
8B852CF9FFFF	-10.9739
486B8DB0FEFFFF	-10.9744
8F010000	-10.9748
60000008B45D0	-10.975
8B8598F9FFFF	-10.9751
8568FFFFFF	-10.9753
80FBFFFF	-10.9753
00000000DC000000	-10.9754
7000000000000260	-10.9754
89854CF7FFFF	-10.9755
8A85B7F	-10.9755
0FEFFFF488985F0F	-10.9756
0FB74DC24869C9	-10.9756
0FBE8567FFFFFF	-10.9757
0FBE4DD3	-10.9759
0FBFC883C1020FBF	-10.9759
48638D28FFFFFF	-10.9761
0FB78DCEFEFFFF	-10.9762
0FEFFFF48898530F	-10.9762
4805F0	-10.9763
488B8588020000	-10.9763
480FBE8D13FFFFFF	-10.9765
D0030000	-10.9769
E110000008B85F	-10.9769
7A3	-10.9769
8B8DD0FBFFFF	-10.977
8A850FFFFFFF	-10.977
FB3	-10.9771
8B8D58FEFFFF	-10.9773
690100004801D1	-10.9774
4DD180E1010FB6C9	-10.9774
0FBE4DC3	-10.9776
0FB68DAFFDFFFF	-10.9776
6A3	-10.9778
0FB645F9	-10.9778
AD010000	-10.9779
AA3	-10.9781
52020000	-10.9782
4DA680E1010FB6C9	-10.9785
72030000	-10.9786
89852CFFFFFFE9	-10.9788
8FEFFFF48898550F	-10.9791
51020000	-10.9793
0FBF850EFFFFFF	-10.9794
0FB785F6F	-10.9798
81010000	-10.9799
31C0482B45F048	-10.9801
1600000048B80	-10.9802
E32	-10.9802
3B850CFFFFFF0F8	-10.9803
4007661725F363	-10.9804
33010000	-10.9805
F7FBFFFF	-10.9808
9E010000	-10.9808
807DE7000F84	-10.9811
9006172725F353	-10.9812
488B4DF0488B	-10.9813
8B45588A4550	-10.9814
C785F4FEFFFF	-10.9815
00000000E1010000	-10.9815
090F83	-10.9815
8A458B24010FB6C0	-10.9815
A6FCFFFF	-10.9816
813	-10.9821
0FBE855FFFFFFF	-10.9822
8B8514F9FFFF	-10.9823
6D010000	-10.9828
39FFFFFF	-10.983
488985B0FEFFFFE9	-10.9831
0FB68D13FFFFFF	-10.9831
39D10F9EC180	-10.9832
8A45AB24010FB6C0	-10.9834
0FB74D9E4869C9	-10.9835
8FEFFFF488985B0F	-10.9835
0FB64DAF4869C9	-10.9836
0FB785BEF	-10.9837
C78538FFFFFF	-10.9839
0345DC8945DCE9	-10.984
6110000008B850	-10.9844
4DE880E1010FB6C9	-10.9844
80E201885408	-10.9845
0FBF85FEFEFFFF	-10.9845
BB010000	-10.9848
D73	-10.985
8B8D68FCFFFF	-10.9851
F2010000	-10.9851
A90000004801C88A	-10.9854
C78504FFFFFF	-10.9854
0FB64DB	-10.9855
898544F	-10.9855
488B85000100008A	-10.9856
D110000008B85F	-10.986
B43	-10.986
8FEFFFF48898598F	-10.9861
8B4DF081E9	-10.9861
48698D70FDFFFF	-10.9861
486B8D10FFFFFF	-10.9861
48698D30FEFFFF	-10.9863
4801C1480FBF45	-10.9864
8B8534F9FFFF	-10.9865
0FB74586	-10.9866
0FB7C0489848	-10.9867
07FCFFFF	-10.9868
3B8548FCFFFF0F8	-10.9869
440100004801C88A	-10.987
0FBE45D7	-10.9872
B0FBFFFF	-10.9874
4801C1480FBE45	-10.9877
4C8B4D28448B4D20	-10.9877
66448945FE	-10.9877
704	-10.9877
D131C929D1	-10.9878
0FB745D689C1	-10.9878
488B14C8B8	-10.988
66C7001	-10.9882
8B851CF9FFFF	-10.9883
A4FBFFFF	-10.9885
0FB6C883C1020FB6	-10.9889
480FBF4D9C	-10.9889
66C700E	-10.9891
583	-10.9894
4883BD28FFFFFF	-10.9896
8B8D38FCFFFF	-10.9899
0000000005020000	-10.9899
83C20289D2	-10.99
0FB64DD4	-10.9901
486355E0	-10.9901
B001000000000000	-10.9906
C785A0F	-10.9906
D53	-10.9906
488B8540F8FFFF48	-10.9906
9F010000	-10.9907
8A45108885	-10.9907
90030000	-10.9907
C801000000000000	-10.9907
0FBF45DA	-10.9908
4C8945E044894DDC	-10.9909
8885B	-10.9912
837DE0000F84	-10.9914
89010000	-10.9914
4A3	-10.9916
653	-10.9916
486B8D28FFFFFF	-10.9919
8B8D10F	-10.992
48638D14FFFFFF	-10.992
83BD80FEFFFF	-10.9921
0FB685B7FEFFFF	-10.9922
CC3	-10.9928
807DFD000F84	-10.9928
88FBFFFF	-10.993
94FBFFFF	-10.993
423	-10.9932
0FB68D3FFFFFFF	-10.9933
488B8550F8FFFF48	-10.9934
56010000	-10.9936
48B8FFFFFFFFFF	-10.9936
0000000000020000	-10.9939
8A010000	-10.994
6BFDFFFF	-10.994
488B8570F8FFFF48	-10.9941
8B850CF9FFFF	-10.9942
29C1488B	-10.9944
0FB78516FFFFFF	-10.9946
0FBF45CE	-10.9948
90060000	-10.9952
0FBE458	-10.9953
0FB64DDA	-10.9954
45E0483B45D80F86	-10.9955
EFFFFFE900000000	-10.9956
8B8DB0FCFFFF	-10.9956
0FB78596FEFFFF	-10.9958
4A020000	-10.9958
45E0483B45D80F8D	-10.9961
739007661725F383	-10.9963
0FB74DB0	-10.9964
0FB78D32FFFFFF	-10.9964
58050000	-10.9965
48698DA8FEFFFF	-10.9965
0FB78DEEFDFFFF	-10.9966
55CF80E2010FB6D2	-10.9967
894820	-10.9969
C983C11639C80F8D	-10.9971
00FBFFFF	-10.9971
C80000004801C1	-10.9972
8B4DDC83E90189C9	-10.9974
898510F6FFFF	-10.9974
3B45280F	-10.9975
898530F6FFFF	-10.9976
480FBF4DA24869C9	-10.9979
400AC2064801C8	-10.9981
E110000008B85B	-10.9984
486B8DF8FEFFFF	-10.9986
8FEFFFF48898578F	-10.9987
486355D0	-10.9989
480FBF55DE	-10.9989
488955	-10.999
0FBE8547FFFFFF	-10.9991
49020000	-10.9992
48638D40FFFFFF	-10.9992
0FEFFFF488985E0F	-10.9994
3B8578FCFFFF0F8	-10.9994
564	-10.9994
A93	-10.9996
4829D148D3E0	-11.0002
C1010000	-11.0004
9006172725F343	-11.0006
21C883F8000F84	-11.0009
8A85EFF	-11.001
F5FDFFFF	-11.0013
0FB74D38	-11.0015
B00148837D	-11.0016
668B45F4	-11.0017
CF3	-11.0022
EEFFFF8B85	-11.0023
898500F6FFFF	-11.0024
BA010000	-11.0024
22020000	-11.0024
4829C889C1B8	-11.0025
E96A000000	-11.0027
0FB7C083E801	-11.0032
4863C94829C8	-11.0033
00000000FE010000	-11.0034
743	-11.0034
480FBFB5	-11.0037
553	-11.0037
45010000	-11.0038
8B4DDC83C10189C9	-11.0039
4EFBFFFF	-11.004
488B4538488B4530	-11.004
EE3	-11.0041
0FBF8D54FFFFFF	-11.0041
0FBEC883C1030FBE	-11.0043
488945C0E908	-11.0044
F8030000	-11.0046
E0000008B459C	-11.0046
00000000EA000000	-11.0048
006172725F333	-11.0053
8A8527FFFFFF	-11.0058
0FEFFFF48898518F	-11.0058
486BD2244801D1	-11.0061
480FBF4DF6	-11.0062
480304D148	-11.0064
480FBE4DED4869C9	-11.0066
45E0483B45D80F8E	-11.0068
ABFCFFFF	-11.0068
8006172725F373	-11.0068
0FBE8557FFFFFF	-11.007
0000078000000	-11.0071
48C740	-11.0071
2B010000	-11.0076
488B8518F8FFFF48	-11.0081
0FBE4001	-11.0081
8FEFFFF488985E8F	-11.0086
F9DCCD024801C8	-11.0088
3B8540FCFFFF0F8	-11.0089
F1010000	-11.0091
003600004801C88A	-11.0091
4488C	-11.0092
0FB785A6FEFFFF	-11.0094
488B8D10FDFFFF	-11.0097
00000000C8020000	-11.0098
4863C94881E9	-11.0103
0FEFFFF48898570F	-11.0104
8B8D90FCFFFF	-11.0104
83BDC8F	-11.0105
0000077000000	-11.0105
60090000	-11.0106
00040000	-11.0107
0FEFFFF488985A0F	-11.0108
ADFEFFFF	-11.0109
0FBE4DB7	-11.0109
0FBEC883C1020FBE	-11.0109
8A8577F	-11.011
643	-11.0113
0FBE45FA	-11.0114
48898528FFFFFFE9	-11.0116
0E000000B8	-11.0117
3B8550FCFFFF0F8	-11.0118
D0040000	-11.012
668B45F6668985	-11.0123
8FEFFFF48898548F	-11.0124
C78518FFFFFF	-11.0126
FF030000	-11.0126
3110000008B850	-11.0129
E973000000	-11.0129
8A8507F	-11.0129
9D010000	-11.013
48C745A0	-11.013
488B8DA0010000	-11.0133
CFFFF000F95C0	-11.0134
488B85080100008A	-11.0134
00902D004801C8	-11.0136
C785E4FEFFFF	-11.0138
48698D98FDFFFF	-11.0141
0FB685DFFEFFFF	-11.0143
4805D0	-11.0143
C40900004801D1	-11.0144
F93	-11.0148
807D50000F84	-11.0149
E6010000	-11.015
8B8558F9FFFF	-11.0151
4883C003480385	-11.0152
0FB74DA64869C9	-11.0152
480FBF4DF24869C9	-11.0153
99F7F983FA000F84	-11.0154
F73	-11.0156
48698D98FCFFFF	-11.0156
C9FEFFFF	-11.0158
4883E9018B0488	-11.016
8B45182D	-11.0161
FD3	-11.0163
8B8DA4FDFFFF	-11.0163
48C785E0F	-11.0164
D6010000	-11.0165
4488C8448B4D10	-11.0166
06010000	-11.0167
3B45C80F	-11.0167
000000000C020000	-11.0171
66837DEC000F84	-11.0172
83FA000F95C0	-11.0172
0FB604084898	-11.0178
02020000	-11.0179
000000030	-11.018
7007661725F353	-11.0181
4189F08BB5	-11.0182
8A4DC380	-11.0182
0FB645FA	-11.0186
DB3	-11.0189
48C78588FEFFFF	-11.0189
E9AF1C054801C8	-11.0191
48698D60FEFFFF	-11.0194
0F010000	-11.0197
15FEFFFF	-11.0198
0FBEC883C1010FBE	-11.0198
7C3	-11.0199
668B4538668985	-11.0199
18060000	-11.02
8B8D2CF	-11.0203
8A45FC24010FB6C0	-11.0205
31010000	-11.0207
3E3	-11.0208
2C020000	-11.021
4839	-11.0211
486345E848	-11.0212
0FB645CB	-11.0214
48837D50000F84	-11.0215
8885B7F	-11.0216
8A008845A	-11.0216
2006172725F373	-11.0216
0FBF8526FFFFFF	-11.0217
8B8D9CF	-11.0221
D160000008A85	-11.0221
8B8DF8F	-11.0221
8A45E824010FB6C0	-11.0223
480FBE4DE1	-11.0224
488B8D28FDFFFF	-11.0225
0FBF8D0EFFFFFF	-11.0226
8985A8F5FFFF	-11.0229
C78510F	-11.023
486B8D48F	-11.0231
823	-11.0232
C78548F	-11.0235
480FBE4DC34869C9	-11.0236
23010000	-11.0239
7F3	-11.024
DFFFF00000FBF85	-11.0242
4801D08848	-11.0242
0FB645D6	-11.0242
8F3	-11.0247
3B85F0F	-11.0251
4DD280E1010FB6C9	-11.0253
480FBE4DDE4869C9	-11.0253
0FB64DDC	-11.0253
480FBE8DAFFEFFFF	-11.0254
DE010000	-11.0255
4C8945E8	-11.0258
C785ECFEFFFF	-11.0258
8985F0F5FFFF	-11.0261
E0030000	-11.0267
0F020000	-11.027
0FBF852EFFFFFF	-11.0271
8D37FFFFFF80	-11.0272
8B8D9	-11.0273
48638DD4FEFFFF	-11.0275
C7010000	-11.0276
3B85E4FEFFFF0F8	-11.0276
81BD	-11.0282
488B8580F8FFFF48	-11.0283
43FDFFFF	-11.0287
662	-11.0288
41020000	-11.029
16010000	-11.0292
00000000F1000000	-11.0292
E2040000	-11.0292
0FEFFFF48898510F	-11.0293
4801C1480FBE85	-11.0295
48638DD4FDFFFF	-11.0297
593	-11.0298
0FB78DF2FEFFFF	-11.0299
3B85F8F	-11.03
8B8570F9FFFF	-11.0301
A80000004801C88A	-11.0302
404C0E00	-11.0303
4883C10	-11.0304
0FB7856AFFFFFF	-11.0305
0FBF04484898	-11.0307
4C8945E04C894DD8	-11.0308
8D77FDFFFF80	-11.0309
0FB64DCB4869C9	-11.0309
66894586	-11.031
9BFCFFFF	-11.031
C5FDFFFF	-11.0311
95C0240188459	-11.0312
E110000008B85D	-11.0316
668B45F2	-11.0316
8945C0E9	-11.0318
F53	-11.032
8B8D44FEFFFF	-11.0322
48C745D800000000	-11.0322
66898566FFFFFF	-11.0324
9007661725F353	-11.033
C8FBFFFF	-11.033
3B020000	-11.0332
803C08000F	-11.0333
F2FCFFFF	-11.0334
4DCC80E1010FB6C9	-11.0336
CB3	-11.0336
837808000F84	-11.034
488B8D30FDFFFF	-11.034
B33	-11.0343
8A8517F	-11.0344
0FB645F2	-11.0344
66837D50000F84	-11.0346
0FB685E7FEFFFF	-11.0347
ED3	-11.0349
4883C4105	-11.0349
86FBFFFF	-11.035
8A008845B	-11.0352
4883E901488B04C8	-11.0352
0FBE490	-11.0354
8F6FFFF488985	-11.0355
8B8DB4FDFFFF	-11.0358
8B8DA0FBFFFF	-11.036
0FB785AEFEFFFF	-11.0361
980000004801D1	-11.0362
0FB785C6FEFFFF	-11.0364
EC010000	-11.0365
80380100	-11.0365
B00000004801D1	-11.0367
4883BD08FFFFFF	-11.0367
488B85D8F7FFFF48	-11.0368
480FBF8DBEFDFFFF	-11.0369
486B8D18FFFFFF	-11.0373
2A010000	-11.0373
A90000004801D1	-11.0374
0FB78D9EFEFFFF	-11.0375
0FB785DEF	-11.0375
B3010000	-11.0376
337006172725F333	-11.0377
AC010000	-11.0378
88E80F00	-11.038
488B44C8	-11.0381
C8B4D48448B4D40	-11.0384
83BDC0F	-11.0384
8B8D84FDFFFF	-11.0384
AC3	-11.0385
448B5	-11.0385
B80000004801D1	-11.0386
000000000D010000	-11.039
6C3	-11.039
486355CC	-11.0392
8B4DD883E90189C9	-11.0393
5C3	-11.0395
4050000	-11.0396
4883BD18FFFFFF	-11.0398
48837DE8	-11.04
482B04D148	-11.0401
D3E2	-11.0402
B23	-11.0404
480FBE8D6FFEFFFF	-11.0405
FF2	-11.0408
0FB7859EFEFFFF	-11.0411
0FEFFFF488985D0F	-11.0413
FFFBFFFF	-11.0413
C64408	-11.0416
514A8D0E4801C8	-11.0416
480FBE8D23FFFFFF	-11.0416
10FCFFFF	-11.0417
74020000	-11.0418
39D00F	-11.0421
89459C837D9C	-11.0425
3C3	-11.0425
486BD22E4801D1	-11.0425
0FBF402	-11.0427
0F95C180E1010FB6	-11.0429
486B55D0	-11.043
0FBF850EF	-11.0434
0FBF4DF8	-11.0435
4883C4085	-11.0435
46010000	-11.0436
E73	-11.0437
0000076000000	-11.0438
480FBE8DB7FEFFFF	-11.0438
488B5590	-11.0438
5D020000	-11.044
3B85F4FEFFFF0F8	-11.044
83BD74FFFFFF	-11.0441
0FB78D0EFDFFFF	-11.0442
8A8D3BFFFFFF80	-11.045
03000FBF85	-11.0453
CAFCFFFF	-11.0454
480FBF4D964869C9	-11.0455
47FAFFFF	-11.0455
0FB7857EF	-11.0456
DEF	-11.0457
440100004801D1	-11.046
B3FCFFFF	-11.046
8B8588F9FFFF	-11.0461
0FEFFFF48898528F	-11.0463
C78508FFFFFF	-11.0466
0F0000000FBE45E	-11.047
8A858FF	-11.047
943	-11.0471
486955B8	-11.0473
668B4540668985	-11.0475
0345A8488945A8E9	-11.0476
EF3	-11.0476
0FB78D26FEFFFF	-11.0476
48698D08FDFFFF	-11.0477
8985F8F5FFFF	-11.0477
8FEFFFF48898588F	-11.0479
668945C2	-11.0479
480FBE8D53FFFFFF	-11.0481
0FBE440801	-11.0481
8B8DFCFCFFFF	-11.0481
83020000	-11.0482
C745F0	-11.0483
F9FEFFFF	-11.0483
60000008B45EC	-11.0483
8A855BF	-11.0483
8B8D24FDFFFF	-11.0483
0A00000031C0	-11.0484
83F8010F	-11.0484
30060000	-11.0485
48C78598FEFFFF	-11.0485
898514F7FFFF	-11.0486
884DE724018845E6	-11.0487
7C020000	-11.0489
F645E	-11.0489
EA010000	-11.0493
0FEFFFF488985C0F	-11.0496
090000008B45B0	-11.0499
831007661725F383	-11.05
E53	-11.0502
48898588FEFFFFE9	-11.0503
8B8540F9FFFF	-11.0504
8B8560F9FFFF	-11.0504
66837DFC000F95C0	-11.0505
60FBFFFF	-11.0507
82FCFFFF	-11.0508
8FEFFFF48898580F	-11.0508
BC020000	-11.0508
3B85DCFEFFFF0F8	-11.051
894828	-11.0511
F6FFFFFF	-11.0512
486BD2444801D1	-11.0512
0000075000000	-11.0512
48837D30000F95C0	-11.0512
66897DFE	-11.0512
17020000	-11.0514
8B8D28FEFFFF	-11.0517
0FBF8DB6FDFFFF	-11.0522
8B1488B8	-11.0525
3B85ECFEFFFF0F8	-11.0528
0FB7855EF	-11.0532
668945CE	-11.0533
0FB78D22FFFFFF	-11.0533
800400004801C88A	-11.0534
8A020000	-11.0534
C785FCFEFFFF	-11.0536
0FB64597	-11.0537
48898580FEFFFFE9	-11.0539
9E3	-11.0542
533	-11.0543
44894DFC	-11.0545
D7010000	-11.0545
07020000	-11.0546
8A8D13FFFFFF	-11.0548
898584F7FFFF	-11.055
8B8D88FCFFFF	-11.055
4881C2	-11.0551
8945C0837DC0	-11.0553
5B3	-11.0553
8B8578F9FFFF	-11.0554
0F4FFFF488985	-11.0554
8B8580F9FFFF	-11.0557
48634D984869C9	-11.0557
D3FCFFFF	-11.0558
1D010000	-11.0558
807DF3000F84	-11.0561
888577FFFFFFE9	-11.0562
0FBE45E5	-11.0562
7D3	-11.0562
0FBEC0489848	-11.0563
48634DB04869C9	-11.0566
8B8D20F	-11.0566
48698D38FDFFFF	-11.0567
0FEFFFF48898590F	-11.0573
0FB745AA	-11.0574
E13	-11.0574
F645DF010F84	-11.0576
480FBE8D3EFFFFFF	-11.0576
8B8DB8FBFFFF	-11.0577
22010000	-11.0578
0FBF559E	-11.0579
923	-11.0579
486B45	-11.0581
488B8DD8FBFFFF	-11.0582
8B45202D	-11.0583
8B45288B4520	-11.0584
24020000	-11.0584
04190500	-11.0586
6110000008B851	-11.0588
8B8D9CFDFFFF	-11.0589
48C1E1084801C88A	-11.059
DF3	-11.0592
0FB745EA89C1	-11.0593
C6FBFFFF	-11.0594
513	-11.0594
F6C201480F45C148	-11.0594
EFFFF00000FB785	-11.0595
488B85E8F7FFFF48	-11.0597
4DF580E1010FB6C9	-11.0601
488B8560F8FFFF48	-11.0601
C929C8	-11.0604
354	-11.0605
24018845E3	-11.0605
6E020000	-11.0605
486355E8	-11.0607
488B8500F8FFFF48	-11.0609
0FB645A7	-11.061
006C0000	-11.0611
000000060	-11.0614
40030000	-11.0614
0345D48945D4E9	-11.0615
00000000EF010000	-11.0615
222	-11.0615
58040000	-11.0616
898564F7FFFF	-11.0616
4F3	-11.062
3B85F0FBFFFF0F8	-11.062
C901C8	-11.0622
387C0100	-11.0626
8B448808	-11.0627
0FB74DF8	-11.0628
8B4DD883C10189C9	-11.0628
488B8598020000	-11.0634
0FB6853FFFFFFF	-11.0636
0FBE4DEE	-11.0636
48C1E2064801D1	-11.0638
0FBF45D6	-11.0639
480FBF8D2EFEFFFF	-11.064
8B8D98FBFFFF	-11.0644
1007661725F353	-11.0645
C73	-11.0645
3B45200F	-11.0647
C785C8F	-11.0648
0FB645BF	-11.0651
8A0088459	-11.0653
7BFCFFFF	-11.0657
2E3	-11.0658
48FBFFFF	-11.0659
0FBE4568	-11.066
312	-11.0661
57010000	-11.0661
8B85FCF8FFFF	-11.0664
CD3	-11.0672
0FBF851EFFFFFF	-11.0673
4DCD80E1010FB6C9	-11.0677
8945B0837DB0	-11.0678
E962000000	-11.0681
D110000008B85D	-11.0681
898534F7FFFF	-11.0682
[...]
