<unk>	0
000000	-4.4607
1000000000000000000000000000	-4.70705
00	-4.75938
0	-4.77347
10000	-4.94587
0000	-4.97628
48	-5.00437
FFFFFFFF	-5.01866
FCFFFFFF	-5.06965
000000000000	-5.08754
7	-5.22292
6	-5.24472
20000	-5.26053
01	-5.27968
E9	-5.32838
4C	-5.37787
1	-5.41049
EB	-5.46885
A	-5.4736
C0	-5.4774
02	-5.48459
08	-5.49329
2	-5.50804
10	-5.52291
3	-5.52338
04	-5.56933
41	-5.60472
30000	-5.61091
5	-5.63067
B	-5.63953
20	-5.64821
D0	-5.68121
8	-5.69045
4	-5.70184
F0	-5.70402
03	-5.73866
FF	-5.73956
39	-5.76796
E	-5.76977
74	-5.77338
40	-5.81557
30	-5.83383
9	-5.85301
89	-5.87265
F8	-5.8759
80	-5.88168
C8	-5.88372
C5	-5.89532
E0	-5.90326
44	-5.90859
C1	-5.91717
FDFFFF	-5.92225
488B0500000000	-5.96369
4889	-5.98242
50	-5.991
FFFF	-5.99838
0C	-6.00227
FE	-6.01773
66	-6.04082
D8	-6.04415
F	-6.04428
00000000	-6.05139
38	-6.0579
18	-6.06635
0000000000000000000000000000000	-6.06892
49	-6.08041
4C89	-6.08138
B8	-6.0835
E8	-6.08748
88	-6.09965
90	-6.13551
D	-6.13947
75	-6.15259
28	-6.16936
F7	-6.18715
14	-6.20952
50000	-6.21821
EF	-6.22931
40000	-6.23631
FFFFFF	-6.23718
C9	-6.23838
0F	-6.24158
4D	-6.24164
D2	-6.268
06	-6.27017
F6	-6.27782
09	-6.27963
11	-6.28417
C6	-6.28537
0E	-6.29075
60000	-6.29231
C7	-6.31435
0A	-6.31499
07	-6.32064
85	-6.32769
4801C8	-6.33438
31	-6.33826
C	-6.34895
CA	-6.34919
4989	-6.36251
DB	-6.36635
0F84	-6.36778
C2	-6.38616
70	-6.39154
D1	-6.40471
24	-6.40936
B0	-6.43505
78	-6.44178
8D	-6.44639
70000	-6.44687
A0	-6.44722
FC	-6.44904
68	-6.45103
FCFFFF	-6.45108
488B0D00000000	-6.45949
0FB6	-6.46676
4489	-6.47189
60	-6.48001
F2	-6.50346
EE	-6.51149
05	-6.51369
37	-6.51828
C4	-6.52347
C3	-6.52545
16	-6.52988
4189	-6.53
45	-6.53086
12	-6.5383
58	-6.53887
01000000	-6.53912
0B	-6.54278
98	-6.54347
D6	-6.56485
3C	-6.57427
488B1500000000	-6.5747
17	-6.57799
29	-6.58922
F1	-6.59125
7C	-6.59185
FA	-6.59675
13	-6.59763
84	-6.60325
34	-6.61307
F9	-6.61507
DA	-6.62027
CE	-6.62729
5000000FCFFFFFFFFFFFFFF	-6.64289
E4	-6.6493
488B85	-6.65875
0000000000000000000000000000	-6.66017
4D89	-6.66063
4C39	-6.6619
EA	-6.66327
D4	-6.66821
8B	-6.66965
4C69	-6.66981
000000000000002A0000000	-6.67514
1C	-6.68178
0F85	-6.68643
8B85	-6.69194
D3	-6.69534
19	-6.70229
000000000000000000000000	-6.70947
CF	-6.71054
0FB7	-6.71116
DE	-6.71763
0A488B45E8488945	-6.72978
F8EB08488B	-6.73202
FD	-6.73553
D7	-6.7368
F4	-6.73732
3B	-6.74933
32	-6.7563
FB	-6.7655
2C	-6.76662
4839	-6.77325
DF	-6.77472
21	-6.77916
ED	-6.78244
A8	-6.79062
22	-6.8033
D5	-6.80678
BA	-6.81177
33	-6.81541
D9	-6.8178
54	-6.82208
8000000FCFFFFFFFFFFFFFF	-6.83096
73	-6.83404
83	-6.84661
CB	-6.84797
DC	-6.84811
8424	-6.84847
72	-6.84939
EC	-6.84971
000000000000000000000000000000	-6.85662
40000000000000004000000000000002	-6.86377
B9	-6.86589
0D	-6.87638
CC	-6.87704
79	-6.88888
9000000FCFFFFFFFFFFFFFF	-6.89065
3A	-6.90668
CD	-6.91808
F5	-6.92067
F3	-6.92192
8C	-6.95178
488B8D	-6.95262
69	-6.95811
1A	-6.95883
00000000000000000000000010000000	-6.96174
2D	-6.96625
42	-6.96821
3000000FCFFFFFFFFFFFFFF	-6.96959
81	-6.97426
488D04	-6.97743
2B	-6.97764
53	-6.981
2A	-6.9821
15	-6.9844
E6	-6.99193
DD	-6.9943
4188	-6.99909
1F	-7.00179
F000000	-7.00865
BC	-7.01674
4B	-7.01848
410FB6	-7.02491
2E746578742E5F5A5374336D6	-7.03159
2E	-7.03186
8B8D	-7.03255
E2	-7.03323
94	-7.03523
43	-7.03631
4589	-7.03732
60000001100000000000000	-7.03828
C000000FCFFFFFFFFFFFFFF	-7.04675
5C	-7.04714
76	-7.04849
0FB64D	-7.05441
06020000000000000000000000000000	-7.05857
488B3500000000	-7.06013
36	-7.06459
BF	-7.06559
3E	-7.06636
FBFFFF	-7.08021
D000000FCFFFFFFFFFFFFFF	-7.08022
6C	-7.08179
1E	-7.08623
0F83	-7.08705
488B3D00000000	-7.09369
9C	-7.09892
5F	-7.10586
0FB645	-7.10954
3F	-7.11149
C4E2	-7.1119
6689	-7.11453
E7	-7.11482
BE	-7.11658
3D	-7.12073
6B	-7.12373
80000	-7.13668
64	-7.14583
0FBF	-7.15078
2000000FCFFFFFFFFFFFFFF	-7.15464
0100	-7.15557
B4	-7.16455
E5	-7.17444
E1	-7.1759
1B	-7.18623
4A	-7.18714
7D	-7.20248
0000000FCFFFFFFFFFFFFFF	-7.20474
8A	-7.20496
7F	-7.20719
A4	-7.21588
488DBD	-7.21591
23	-7.21691
80000000000000018000000000000000	-7.21862
0FB745	-7.21924
488B	-7.22549
5F5A5374336D6	-7.22766
4488	-7.23449
AC	-7.24224
E3	-7.24649
480FBE4D	-7.26372
26	-7.26705
55	-7.27866
51	-7.28775
57	-7.28945
898424	-7.30131
440FB6	-7.31035
46	-7.31131
4805	-7.31178
0FB74D	-7.31776
92	-7.32252
488D7D	-7.32916
0FBE	-7.33079
C4E3	-7.33116
31C0	-7.3353
2F	-7.3452
0F8D	-7.34546
894424	-7.34766
4C8B0500000000	-7.34846
010000000000002A0000000	-7.3597
45F0488945F8488B45F85DC300000000	-7.36589
25	-7.36728
48038424	-7.36797
35	-7.36829
47	-7.38011
4C01	-7.38584
87	-7.39171
B6	-7.39208
554889E548897DF0488975E8488B45	-7.39515
664189	-7.39876
1D	-7.40221
86	-7.40506
BD	-7.42264
8B5C24	-7.42719
747	-7.44059
450FB6	-7.44223
600	-7.4467
BB	-7.45372
31D2	-7.46297
71	-7.46311
03E000	-7.46869
C4602	-7.46976
8C24	-7.47004
7F454	-7.47165
0101000000000000000000010	-7.4722
894C24	-7.47447
6A	-7.48237
4C8B9C24	-7.48283
95	-7.48862
82	-7.49155
59	-7.49762
4801D0	-7.4999
97	-7.50521
27	-7.50533
9424	-7.50719
61	-7.51319
4801C1	-7.51335
000000000000040000000	-7.52187
83E9014863C9	-7.52393
4C8B0D00000000	-7.52414
4869C0	-7.52435
63	-7.52649
400	-7.52658
4F	-7.5284
52	-7.53618
4898	-7.53884
40000000000000000000000000000000	-7.54028
8B7C24	-7.54236
7E	-7.54375
895424	-7.54786
488B9C24	-7.549
0F1FF0000	-7.55054
90000	-7.56042
91	-7.5683
99	-7.57018
4869	-7.57063
7424	-7.57221
8E	-7.57344
B2	-7.57601
96	-7.57859
4E	-7.58247
BC24	-7.58393
000000000000020000000	-7.58676
4439	-7.58852
77	-7.59194
4C8B	-7.59477
2746162002E7368737472746162002E7	-7.59559
746162002E73	-7.59566
00001B00000004000000	-7.59952
10000000600000000000000	-7.59989
488D0C	-7.6108
5B	-7.6125
83C1014863C9	-7.61569
0000000000000066756E632E63707000	-7.61654
4588	-7.61795
020000000000002A0000000	-7.61965
48038C24	-7.62086
AA	-7.62198
8B4424	-7.62433
01000000000000000000000000000000	-7.62679
200	-7.62777
B7	-7.62865
9E	-7.62898
4869D2	-7.62994
8B4C24	-7.63745
8B5424	-7.63932
00000000000000000000000000000011	-7.64274
B0000000	-7.64363
89C1488B0500000000	-7.64553
A6	-7.64957
8A45	-7.65015
98000000	-7.65153
45F0488945F8488B45F85DC30000	-7.65172
4863	-7.65465
4C8B1500000000	-7.65644
9F	-7.65778
0FB68D	-7.65822
9B	-7.65894
897C24	-7.66295
4801C6	-7.66364
8F	-7.66946
4C8BB424	-7.67009
0FB78D	-7.67293
0000000000002A0000001	-7.67425
B5	-7.67498
000000030000000	-7.6838
0FBF45	-7.68456
4088	-7.68843
4A8D04	-7.69521
31C9	-7.69812
B424	-7.70126
FAFFFF	-7.70452
664489	-7.70708
5A	-7.70762
480FBF4D	-7.70868
A0000000	-7.71171
AF	-7.71224
90000000	-7.71624
B1	-7.72399
9A	-7.72656
5D	-7.72665
B3	-7.73013
0000000000002	-7.73272
89BC24	-7.73379
56	-7.7349
A8000000	-7.7409
48039424	-7.74108
B8000000	-7.74478
486B	-7.74842
100	-7.75051
39C80F8D	-7.75151
4801	-7.75378
440FB7	-7.76021
C8000000	-7.76052
93	-7.76146
7A	-7.76599
4C8BBC24	-7.76978
62	-7.77868
4C8B1D00000000	-7.78382
80000000	-7.78384
C24	-7.79223
C5F96E	-7.79343
AE	-7.79368
4801C7	-7.79412
A7	-7.79668
00000000000000000000000000000001	-7.80111
488D14	-7.80213
0000000000002A0000004	-7.80695
0FBE4D	-7.82166
483B	-7.8245
6D	-7.84393
8B7424	-7.84934
E800000000	-7.85077
48B9	-7.85719
0000000000002A0000005	-7.85767
4008	-7.86062
0000000300000000000000000000000	-7.86233
65	-7.86268
480FBF8D	-7.86285
4869C9	-7.86302
A5	-7.86778
410F4	-7.87007
C0000000	-7.87082
8B6C24	-7.87158
807C24	-7.87231
48638D	-7.87248
4C898C24	-7.87336
8B0488	-7.87595
B0000	-7.87874
480FBE8D	-7.87909
5E	-7.88438
4C8BA424	-7.88644
9D	-7.88832
6F	-7.88898
410FB7	-7.89061
8A4D	-7.89095
80E1010FB6C9	-7.90455
0F87	-7.90475
7B	-7.90756
AB	-7.9108
A2	-7.91132
A1	-7.91216
0F924424	-7.91494
4020	-7.91896
8B8424	-7.91951
9C24	-7.92392
00000000000036000000	-7.92419
8B00	-7.92798
450FB7	-7.93217
4C8BAC24	-7.93369
030000000000002A0000000	-7.93604
488B1D00000000	-7.9405
C462	-7.94093
A9	-7.94419
88000000	-7.94876
4801D1	-7.9574
8885	-7.95842
0000000000008	-7.96024
C442	-7.96969
A3	-7.96995
0000000000005	-7.98229
000F84	-7.9833
480FBF	-7.98752
424	-7.98819
4120	-7.98923
A0000	-7.99219
00000000000000040000000	-7.99641
AD	-8.00132
664589	-8.00514
0000000000009	-8.00658
0F8E	-8.00671
0F44	-8.00724
500	-8.00843
488D4	-8.00854
000000000000040000001	-8.01129
6689C1488B0500000000668908	-8.01263
300	-8.01347
700	-8.01542
90000000300000000000000	-8.03012
660F1F840000000000	-8.03032
C4E27D59	-8.03941
89C2	-8.04114
488BBD	-8.05122
D0000000	-8.05156
662E0F1F840000000000	-8.05411
4C899424	-8.0556
AC24	-8.06185
4C8B3500000000	-8.06254
4420	-8.06287
0200	-8.06424
66662E0F1F840000000000	-8.06615
897424	-8.06853
488B6C24	-8.06875
660F1F440000	-8.06907
6E	-8.07171
488BAC24	-8.07216
666666662E0F1F840000000000	-8.07411
C5F97E	-8.07579
488D34	-8.08054
4C8B3D00000000	-8.08207
00000000000034000000	-8.08347
0FBF4D	-8.08607
6666662E0F1F840000000000	-8.08869
000	-8.08906
6690	-8.09058
00000000000032000000	-8.09157
00000000000000004000000000000000	-8.09186
480FBE	-8.09556
0F1F4000	-8.09657
0F1F8000000000	-8.09737
F6C10174	-8.10141
0F1F00	-8.10262
6666666666662E0F1F840000000000	-8.10563
4883	-8.11028
C443	-8.11154
48C78	-8.11204
66666666662E0F1F840000000000	-8.11299
90010000	-8.11322
83C1	-8.11716
24010FB6C0	-8.1198
E0000000	-8.12156
4108	-8.12513
0F1F840000000000	-8.12632
C441	-8.12765
4801CA	-8.13034
F0000000	-8.13198
800	-8.13421
67	-8.13979
0F1F440000	-8.14539
0000000000002A0000003	-8.14584
4801C2	-8.15413
3796D	-8.15568
4C3B	-8.15646
0F82	-8.16029
4803B424	-8.16367
00000000000000000000000200000000	-8.16801
489848	-8.16962
600000000000000	-8.17635
41323	-8.17853
400000000000000	-8.17985
31F6	-8.18146
00000000000000000000001000000040	-8.18243
900	-8.18313
418B	-8.19301
F00	-8.19363
C4C2	-8.19434
D8000000	-8.1969
488BB5	-8.19866
0FB685	-8.19897
0000000000006	-8.20005
000000000000C	-8.20263
80BC24	-8.2038
0A0000	-8.21743
88C1488B05000000008808	-8.21958
4D69F	-8.22499
200000000000000	-8.22577
48818424	-8.22628
4C8B2500000000	-8.23322
488B04C8	-8.23504
488D3C	-8.23658
C4E37914	-8.2388
668945	-8.24192
2656C612E7465787400	-8.24219
4C899C24	-8.24843
C463	-8.24865
83F80074	-8.24973
EB00	-8.2542
498D4	-8.25555
C685	-8.26189
448D	-8.26637
F9FFFF	-8.26926
0000000000002A0000002	-8.2696
31FF	-8.27064
83F8	-8.27203
C5F9	-8.27352
4B8D04	-8.28357
488D8	-8.28384
488DB5	-8.28916
7661725F313	-8.29143
C4C3	-8.29347
20010000	-8.29435
040000000000002A0000000	-8.29922
48C1E1	-8.29937
A00	-8.30343
4803BC24	-8.30359
00010000	-8.30821
4C8B2D00000000	-8.314
0FB60408	-8.31452
448B	-8.32033
884424	-8.32727
E00	-8.32766
0300	-8.3295
08010000	-8.33013
664183	-8.33039
01000000000000040000000	-8.33058
488D44	-8.33091
0A000000120001000000000000000000	-8.33342
30010000	-8.33501
66C785	-8.33649
39C8	-8.33676
0000000000004	-8.33799
060000000000002A0000001	-8.34273
A80174	-8.34539
4801F2	-8.34853
83F0FF	-8.35127
4E8D	-8.35542
26000000000000000000000000000000	-8.35784
EFFFF	-8.35876
554889E548897DF0488975E8488B45E8	-8.36134
4500	-8.36326
898C24	-8.36738
070000000000002A0000001	-8.36953
554889E548897DF0488975E8488B45F0	-8.37629
4883BC24	-8.37965
96D	-8.37983
8B8C24	-8.38095
488B05000000008908	-8.38507
10010000	-8.38549
0F95C0	-8.38625
0F92C1	-8.38807
8A040824010FB6C0	-8.39373
458D	-8.39412
E8000000	-8.40065
050000000000002A0000001	-8.40143
0FB785	-8.40236
18010000	-8.40266
01000000020000000	-8.40648
C5D9	-8.41478
000000000000040000002	-8.41479
4883F8	-8.41915
00000000000000000000000260000001	-8.42025
FEFFFF488DB5	-8.42077
498D04	-8.42167
70010000	-8.4219
420FB6	-8.4235
498B	-8.42424
40010000	-8.42529
488D75	-8.42882
0D00000000	-8.43096
F8000000	-8.43225
D000000010000000	-8.4344
410FBE	-8.43489
0FB6C0	-8.43538
48698D	-8.43912
0F45	-8.43969
48899C24	-8.43977
4881C1	-8.4408
88010000	-8.44878
837C24	-8.44934
486345	-8.45236
6772	-8.45479
50010000	-8.4553
F7570002E746578742E5F5A5374336D6	-8.45541
002E737	-8.45565
2656C612E74657874002E	-8.45653
81E9	-8.45932
4A8D0C	-8.45964
80000000000000018000000000000002	-8.4609
486B8D	-8.46711
6020000000000000000000000000000	-8.4687
488B55	-8.47212
488B2D00000000	-8.47234
0424	-8.47358
488B00	-8.4751
080000000000002A0000001	-8.47516
20030000	-8.47525
02000000	-8.47965
000000000000000000000000000	-8.47972
0F94C0	-8.48145
83C1024863C9	-8.48264
2A000000	-8.48352
1500000000	-8.48393
10000000000000000000000000000000	-8.4846
899424	-8.48549
60010000	-8.4886
A0010000	-8.49296
4801D6	-8.4958
4C6B	-8.49974
C4A	-8.50265
1000000020000000	-8.50292
80010000	-8.51015
83C0	-8.51054
28010000	-8.51152
6641C70	-8.51604
38010000	-8.51745
418D	-8.52189
0F92C0	-8.52381
C8030000	-8.5252
00000000400000000000400006000500	-8.53019
4531C0	-8.53027
480FAF	-8.53139
88020000	-8.53298
0F95C180E101488B05000000008808	-8.53423
8B9424	-8.53437
0FB600	-8.53554
48C1E	-8.53594
C5E1	-8.53901
4C89B424	-8.53905
C5E9	-8.54195
0FBE0408	-8.54348
40020000	-8.54755
83E8	-8.55056
68010000	-8.55209
83E9024863C9	-8.55219
B0010000	-8.55236
0500000000	-8.55305
89C1	-8.55857
E0000	-8.56083
4000000020000000	-8.56659
0F92C2	-8.5668
0FB7C0	-8.56726
458B	-8.56978
040000000000002A0000001	-8.5712
090000000000002A0000001	-8.57381
668985	-8.57789
0F95C1	-8.57839
178496945524B545F53325F53325F00	-8.5787
488B0500000000488908	-8.57984
48010000	-8.58002
10000000000000000000000000	-8.58071
FEFF	-8.58467
0FB64424	-8.58727
6689C2	-8.59055
488914C8	-8.59068
4C895C24	-8.59103
EB008B85	-8.59624
4C038424	-8.59647
C8010000	-8.59727
C5D1	-8.59733
C4C1796E	-8.59735
4531C9	-8.5984
480F44	-8.60133
C5FD	-8.60388
96E496945524B545F53325F53325F00	-8.60503
E8488B00488B4DF0483B017	-8.60677
101	-8.61137
02000000000000040000000	-8.6119
4D00	-8.61302
58010000	-8.6138
4B8D14	-8.61501
F08B00488B4DE83B017	-8.61537
4A8D	-8.61721
F0488B00488B4DE8483B017	-8.61768
0F95C2	-8.6181
488D5	-8.61884
96E497945524B545F53325F53325F00	-8.6207
178497945524B545F53325F53325F00	-8.6213
0000000000000000000001000000040	-8.62177
85C0	-8.62192
48C1E00	-8.62195
81C1	-8.6228
1000000000000000	-8.62398
89C0	-8.62438
4801F0	-8.62527
0C24	-8.62817
0000000003000	-8.63245
89B424	-8.63444
E88B00488B4DF03B017	-8.63476
F8FFFF	-8.63654
0FBE85	-8.64028
00000000000000000000000048000000	-8.64146
C4C1797E	-8.64312
48634D	-8.64434
E0010000	-8.64486
25F	-8.64498
49FFC	-8.64869
4A8D14	-8.65388
486BC	-8.6548
4531D2	-8.65892
0075	-8.66031
88C2	-8.66128
0FB70448	-8.6624
4D69E	-8.66313
A8010000	-8.66319
1D00000000	-8.66653
4D8B	-8.66678
4801F1	-8.67338
0F8C	-8.67651
000F85	-8.67706
66891448	-8.6794
1424	-8.67972
98010000	-8.68053
4B8D0C	-8.68223
C4E27978	-8.69281
00000000000000004900000001000000	-8.69331
78010000	-8.69776
10000000	-8.69898
0C0000	-8.69913
41C1E	-8.69945
4C89BC24	-8.70023
4801CE	-8.70096
448B4424	-8.70133
31C029C8	-8.706
881408	-8.70623
4883C1	-8.7067
884C24	-8.70846
050000000000002A0000000	-8.71122
96E497845524B545F53325F53325F00	-8.71429
833C	-8.71713
488D84	-8.72148
0A0000000000002A0000001	-8.7231
4C8D04	-8.72432
B00	-8.72467
0FBF0448	-8.73002
4C89A424	-8.73196
4883C2	-8.73366
83FE	-8.73474
10020000	-8.73501
178497845524B545F53325F53325F00	-8.73613
48895C24	-8.73637
488B8580000000	-8.73829
00020000	-8.74191
0500	-8.74196
A424	-8.7434
F0010000	-8.74472
FF0000	-8.74565
0FBF85	-8.74591
FEFFFFEB00	-8.75011
C0010000	-8.75085
48034424	-8.75768
891488	-8.76067
41B8	-8.76187
48837C24	-8.76526
4C63	-8.76749
01C8	-8.76838
4C8D4	-8.76871
0400	-8.76983
68FFFFFF	-8.76997
28020000	-8.77279
4803	-8.77303
83BC24	-8.77313
B8010000	-8.77323
03000000	-8.77383
4C038C24	-8.77503
E8030000	-8.77745
10030000	-8.77838
488B7D	-8.77847
F8010000	-8.7809
178496A45524B545F53325F53325F00	-8.78226
D0010000	-8.78252
C4637914D	-8.78346
96E496A45524B545F53325F53325F00	-8.79581
0939C87D	-8.796
41F7D	-8.79726
488B95	-8.80259
4531DB	-8.80288
496BC	-8.8032
0FB68424	-8.80425
488B3D00000000488DB5	-8.80441
C4E37914D	-8.80449
E4010000	-8.80685
488B75	-8.80751
448B5424	-8.80876
3424	-8.80892
4883FA	-8.80928
4883E	-8.81211
F7D0	-8.81298
488B4570	-8.81457
486BD	-8.81474
B801000000	-8.81588
4180F	-8.81757
4881C2	-8.82021
4D63	-8.82113
480FBE45	-8.82218
4C897424	-8.82234
20020000	-8.82363
12000000000000000000000000000000	-8.82667
EB0DB8	-8.82686
41F6	-8.82803
4969D	-8.82863
4801F8	-8.82954
D8010000	-8.82983
31DB	-8.83074
418D4	-8.83074
40FFFFFF	-8.83119
4883C6	-8.83195
480FBF45	-8.83312
448B4C24	-8.83392
48030500000000	-8.83494
FEFFFF80E1010FB6C9	-8.83523
0FB78424	-8.83622
C4E37914E	-8.83842
0B0000000000002A0000001	-8.83924
837D	-8.8413
48FFC	-8.84277
030000000000002A0000001	-8.8448
C702	-8.84607
3C24	-8.84687
C707	-8.84852
2D00000000	-8.84904
488D7	-8.84951
488B4578	-8.8559
41B9	-8.85653
498D7	-8.85657
E8010000	-8.85696
488B08488B0500000000488908	-8.85953
48031500000000	-8.86197
901	-8.86249
4801D7	-8.8636
201	-8.86385
4139C	-8.86493
30020000	-8.86543
A01	-8.8655
4801F7	-8.86608
4183F	-8.8664
0FAF	-8.86679
31ED	-8.86823
498D8	-8.86854
00000000000000000000000050000000	-8.87243
488B4568	-8.87394
EB0B	-8.87548
4801FA	-8.87608
430FB6	-8.87787
5500	-8.87887
00000000000000000000000065000000	-8.88081
2500000000	-8.88132
0F94C1	-8.88156
4883C7	-8.88459
C42	-8.8861
60020000	-8.88621
0F97C0	-8.892
498DB	-8.89268
58020000	-8.89356
C4E27958	-8.89369
488B4560	-8.89393
4889C1	-8.89707
10050000	-8.89863
FFFFFF80E1010FB6C9	-8.89955
4881C6	-8.89993
4C897C24	-8.90243
488B8588000000	-8.9041
4883E901	-8.90665
4885C0	-8.90688
80020000	-8.90707
4A8B	-8.90903
4801FE	-8.90905
C4637914C	-8.90912
4C8D0C	-8.91193
0F86	-8.91435
08020000	-8.91567
601	-8.91575
03000000000000040000000	-8.9179
C701	-8.91816
488B04C8488985	-8.92029
498D14	-8.92166
60FFFFFF	-8.9218
48837D	-8.92253
48030D00000000	-8.92576
4883F9	-8.92632
A8010F85	-8.92965
70020000	-8.92982
410FBF	-8.93073
4963	-8.93076
885424	-8.93215
480F45	-8.93548
4F8D04	-8.93653
4C039424	-8.93751
5FEFFFF	-8.93993
A0020000	-8.94468
488B8598000000	-8.94551
8B55	-8.94759
70FFFFFF	-8.94854
44894424	-8.94918
428B	-8.94969
400F92C6	-8.94974
4388	-8.94974
410F92C3	-8.95137
48F7D	-8.95159
C4C17	-8.95213
E01	-8.95264
C4E27D3	-8.95299
18020000	-8.95316
8A55	-8.95492
4C89AC24	-8.95579
488B85A0000000	-8.95644
83F9	-8.95883
04000000	-8.96257
41BA	-8.9631
83F800	-8.96338
488B8590000000	-8.96408
0FB6C9	-8.96614
4883C0	-8.96737
0D0000	-8.96843
0F8F	-8.96884
488D4C	-8.97247
48C1E20	-8.97526
0F95C024010FB6C0	-8.97546
38FFFFFF	-8.97624
FFF4C687	-8.97692
498D0C	-8.98023
498D5	-8.98043
488B4558	-8.98046
FDFFFFEB00	-8.9807
48034C24	-8.98146
58FFFFFF	-8.98166
488B0500000000C700	-8.98276
482D	-8.98511
4408C	-8.98646
83C003	-8.98752
4438	-8.98862
4881C7	-8.98961
83E9	-8.99034
4863C9	-8.99145
83C002	-8.99177
4C896424	-8.9925
C744	-8.9928
2401	-8.99322
3500000000	-8.99358
833800	-8.99598
0FBE8D	-8.99603
35F	-8.99727
4801C848698D	-8.9986
83C001	-8.99864
4829C8	-8.99908
BC0	-9.00021
440FBE	-9.00187
488B442488	-9.00187
83C2	-9.00224
48814424	-9.00249
4881C4	-9.00334
4C01C2	-9.00358
488B4548	-9.00379
C4E2793	-9.00611
48BE	-9.00646
E8000000008B08488B05000000008908	-9.00729
0F97C1	-9.00829
50FFFFFF	-9.00926
C4E37914C	-9.0098
668B08488B0500000000668908	-9.00989
89C8	-9.01004
470FB6	-9.01044
807D	-9.01093
D0020000	-9.01288
4801F9	-9.01337
4139F	-9.01408
00F4C687	-9.01531
A8010F84	-9.01621
448B5C24	-9.01622
83E0	-9.01625
7D00	-9.01649
50020000	-9.01698
664139	-9.01785
78FFFFFF	-9.01989
0F92C3	-9.021
428D	-9.02328
00000000000000	-9.02344
C4C37914	-9.02444
060000000000002A0000000	-9.02485
0C0000000000002A0000001	-9.0265
401	-9.02822
301	-9.02884
FFFFFF7F	-9.03061
8802	-9.03122
48050000	-9.032
5D00	-9.03294
48035424	-9.0331
68020000	-9.03368
6950	-9.03406
668B45	-9.03433
FFFFFF24010FB6C0	-9.03634
4A8D34	-9.03652
6150	-9.0368
4D0FBF	-9.03693
C5F96F	-9.03712
C4637914	-9.03803
448B6424	-9.03932
488B85A8000000	-9.04036
F0FEFFFF	-9.04217
0FB609	-9.04297
F7FFFF	-9.04344
6A50	-9.04396
701	-9.04411
44894C24	-9.04455
38020000	-9.04519
4C8D5	-9.04663
4801CF	-9.04894
4F8D0C	-9.04918
99F7F9	-9.04918
48020000	-9.04942
41BB	-9.05352
480B0000	-9.05485
4181F	-9.05517
F6C1010F84	-9.05595
488B85B0000000	-9.05634
E8000000008A08488B05000000008808	-9.05732
3000000010000000	-9.05956
00000000000000000000000058000000	-9.0597
6639	-9.05994
48FFFFFF	-9.06043
F64424	-9.06078
0FB70939C87D	-9.06083
00000000000000000000000001	-9.06092
20FFFFFF	-9.06113
89C1488B0500000000488908	-9.06357
A9000000	-9.06437
400F92C7	-9.06453
803	-9.06505
44010000	-9.06506
4C01C0	-9.06708
7450	-9.06885
488D9	-9.06945
486BC9164801C8	-9.0695
488B050000000066C700	-9.06984
420FB7	-9.07558
4901F8	-9.07593
C5B9	-9.07593
8BB424	-9.07861
30FFFFFF	-9.07875
00554889E548897DF0488975E8488B45	-9.0791
7850	-9.07974
801	-9.07984
4C896C24	-9.0816
0FB700	-9.08339
7350	-9.08467
3D00000000	-9.0875
B001	-9.08789
488B4550	-9.08796
4C8D14	-9.08797
4889AC24	-9.08984
48C1E60	-9.09035
39C87D	-9.09177
488B4540	-9.09565
C4E27979	-9.0964
490FBF	-9.1002
4539D	-9.10083
00000000000000000000000081000000	-9.10977
C0020000	-9.11067
C5797E	-9.1108
488B4C2488	-9.11177
49C1E	-9.11242
C5FD6F	-9.11386
9FEFFFF	-9.11411
C40	-9.11502
6D00	-9.11629
C4E27D58	-9.11668
C300000000000000000000000000000	-9.11704
488B85B8000000	-9.11898
4809	-9.12007
C4E1F96EC	-9.12086
4289	-9.12149
66837C24	-9.12226
FDFFFF488DB5	-9.12233
4A8D3C	-9.12346
100000000000000000000000	-9.12425
96E497445524B545F53325F53325F00	-9.12442
83F8000F84	-9.12505
8B09	-9.1258
20060000	-9.12636
39C2	-9.12672
89C1488B05000000008908	-9.13082
486BC9184801C8	-9.13122
1FEFFFF	-9.13142
4829F	-9.13452
18FFFFFF	-9.13504
8801	-9.13568
FD00	-9.13611
F6C20174	-9.13625
4889C2	-9.13781
740DB8	-9.13828
E0020000	-9.13854
488DB	-9.13872
80040000	-9.13878
11020000	-9.13901
450FBE	-9.13935
0F42C	-9.13999
4C039C24	-9.14163
4D8D4	-9.14167
A8020000	-9.14228
178497445524B545F53325F53325F00	-9.14317
6CFFFFFF	-9.14378
1C24	-9.14392
488B442480	-9.14465
D8FEFFFF	-9.14539
C4E27D2	-9.14577
C706	-9.14617
98020000	-9.15145
4183C	-9.15192
F6C1010F85	-9.15364
69010000	-9.1549
48BF	-9.1559
4C8D8	-9.15773
4F8D1C	-9.15871
C4000000	-9.15901
0FBEC0	-9.15948
90020000	-9.16115
410F92C2	-9.16149
4288	-9.16302
4139D	-9.16453
488B85C0000000	-9.16506
78020000	-9.16562
E0FEFFFF	-9.16639
C5F970E	-9.16648
498D44	-9.168
FEFFFF24010FB6C0	-9.16915
B9010000	-9.17006
64FFFFFF	-9.17029
0F0000000000002A0000002	-9.17116
0FB64C24	-9.17157
488B050000000048C700	-9.17177
4531F6	-9.1721
554157415641554154534881EC	-9.17293
40F6C60174	-9.17715
66C78	-9.17794
400F92C5	-9.17802
4538	-9.17966
44FFFFFF	-9.18044
4B8D34	-9.18214
85FF	-9.18266
0FBF8D	-9.18336
488B85C8000000	-9.1847
4A8D84	-9.18675
B0020000	-9.18754
740D	-9.18757
0F94C2	-9.18989
4408D	-9.19017
4F8D14	-9.19021
7500	-9.19131
8BBC24	-9.19214
C5FE7F	-9.19416
85F6	-9.19423
10FFFFFF	-9.19441
0F0000	-9.19463
490FBE	-9.19511
FDFFFFE800000000	-9.19523
0E0000000000002A0000002	-9.19607
496BF	-9.19832
6250	-9.20013
4839C8	-9.2024
0F42F	-9.20787
C0000	-9.2102
B8FEFFFF	-9.21107
0F43C	-9.21167
0F974424	-9.21222
98290000	-9.21457
B01	-9.21476
488D840	-9.21634
6850	-9.21658
C8020000	-9.2169
C5C1	-9.21706
4531FF	-9.2174
0D0000000000002A0000001	-9.21775
C4627D	-9.21876
D2020000	-9.21934
4C01C7	-9.21966
83C1034863C9	-9.21978
400F97C6	-9.21993
4801C84805	-9.22011
89F0	-9.2204
00000000000000000000000060000000	-9.22115
28FFFFFF	-9.22147
4869F6	-9.22285
85D2	-9.22286
D8020000	-9.22326
40F6C70174	-9.22331
0FB68C24	-9.22383
83C6	-9.22483
00030000	-9.22988
71020000	-9.23072
08FFFFFF	-9.23091
178497345524B545F53325F53325F00	-9.23099
89D0	-9.23326
0000000000000000000000009D000000	-9.23334
488B85D0000000	-9.23381
400F95C6	-9.23468
48C1E70	-9.23629
488B542488	-9.23766
C5E5	-9.23818
C4627D59	-9.23892
2CFFFFFF	-9.23909
4883FE	-9.2393
C44139	-9.24047
4C0FBE	-9.24047
96E497345524B545F53325F53325F00	-9.24082
C5796F	-9.24092
C5D9EFE	-9.24133
501	-9.24146
E8FEFFFF	-9.24195
E1000000	-9.24342
C5FA7E	-9.2449
4939E	-9.24592
4C01C8	-9.24673
83C004	-9.24856
31D2F7	-9.24856
FFFFEB00	-9.24902
488D8C	-9.25115
C01	-9.25142
39C80F83	-9.25159
0D0000000000002A0000002	-9.25259
C5DD	-9.25387
48C1F	-9.25559
B8020000	-9.25685
060000000	-9.257
66837	-9.25702
E8020000	-9.25817
D3E0	-9.26035
000000000000B9000000	-9.26125
4885D2	-9.26206
48039C24	-9.26236
74FFFFFF	-9.26301
0F95C034FF24010FB6C0	-9.26495
4B8D3C	-9.26534
488B4538	-9.26657
410F92C1	-9.26799
F0020000	-9.26799
4C01C9	-9.26803
48033500000000	-9.27059
4901D0	-9.27064
C5F5	-9.27124
04000000000000040000000	-9.27247
83FF	-9.27437
4000000FCFFFFFFFFFFFFFF002E	-9.27448
7950	-9.27604
48896C24	-9.27633
F7D8	-9.27725
496BD	-9.2777
100000000000002A0000002	-9.27805
40060000	-9.27934
0F954424	-9.27947
4183E	-9.28033
4D0FBE	-9.28193
08070000	-9.28406
00FFFFFF	-9.28417
C1E20	-9.2875
C4E37914F	-9.28765
4C01D0	-9.2878
8B95	-9.28846
44080000	-9.28917
488B05000000008A0024010FB6C0	-9.28922
0FB7C9	-9.28935
0C0000000000002A0000002	-9.29039
110000000000002A0000002	-9.29094
01C88845	-9.29196
410F92C0	-9.29231
8808	-9.29263
488B45F0	-9.29303
48C74	-9.29309
4869D6	-9.29315
80E2010FB6D2	-9.29439
A4050000	-9.29462
FCFFFFEB00	-9.29543
394424	-9.29661
00100004C8B8D	-9.29789
7CFFFFFF	-9.29831
0000000000002A0000007	-9.29864
4180C	-9.29913
FDFFFFE9	-9.29977
488B85D8000000	-9.30141
20040000	-9.30144
2C24	-9.30167
C0060000	-9.30287
C5796E	-9.30343
58D60000	-9.30502
448B7424	-9.30541
4C01D2	-9.30596
C5D5	-9.30636
83C10189C9	-9.30708
4C01CA	-9.30729
0800	-9.30778
54FFFFFF	-9.30799
486BC9644801C8	-9.30816
070000000000002A0000000	-9.30961
85ED	-9.31172
49C1E10	-9.31375
4C8D1C	-9.31477
488B442498	-9.31536
0FB65424	-9.31583
4C0FBF	-9.31633
4D8D8	-9.31697
41803	-9.31815
4539C	-9.31827
00000000000000004000000000004000	-9.31846
4883C101	-9.31847
4508C	-9.31888
48037C24	-9.32048
486BC9144801C8	-9.32099
83E90189C9	-9.32161
4A89	-9.3226
85C9	-9.323
F7D2	-9.32315
48833CC80074	-9.32338
D0FEFFFF	-9.3235
AD00	-9.32404
49B8	-9.32518
488B442490	-9.32608
C4E37915	-9.32616
070000000	-9.32683
48037424	-9.32833
48838424	-9.32926
803800	-9.32927
C5F1EFC	-9.33271
418D8	-9.33339
488D1C	-9.3337
401F0000	-9.3343
0F92C120C1	-9.33526
5CFFFFFF	-9.3384
4863D0	-9.3386
440F44	-9.33982
00360000	-9.33996
0600	-9.34065
40887424	-9.34128
400F97C7	-9.34145
66C74	-9.3416
4889C7	-9.34221
48033D00000000	-9.34228
21010000	-9.34348
000000000000040000003	-9.34401
4D8D5	-9.3449
0FB69424	-9.34587
80100004C8B8D	-9.34759
440FBF	-9.34844
30030000	-9.34873
668901	-9.35511
668902	-9.3581
50030000	-9.35862
96E496845524B545F53325F53325F00	-9.35866
60030000	-9.35871
4CFFFFFF	-9.35874
450FBF	-9.36136
F8FEFFFF	-9.36147
4C03B424	-9.36155
F8020000	-9.36191
00000000000000003000000010000000	-9.36204
C1E10	-9.36228
0F4CC	-9.36297
C5ED	-9.36482
0FB655	-9.36484
488B542480	-9.36535
C48	-9.3654
48030000	-9.36659
90070000	-9.36663
C4E27959	-9.36701
833900	-9.36704
448B7C24	-9.36747
B0FEFFFF	-9.36749
4885C9	-9.3676
4429	-9.36845
488B742488	-9.36871
A4020000	-9.36911
FFF441C68424	-9.37045
4C01F8	-9.37088
833C880074	-9.37095
488901	-9.37096
0E0000000000002A0000001	-9.371
C700	-9.37198
4531E4	-9.37252
486BC9304801C8	-9.37296
488D54	-9.37351
4869C9E40100004801C8	-9.37355
80FEFFFF	-9.37534
80E201881408	-9.37565
34FFFFFF	-9.37635
0048818424	-9.37674
448B6C24	-9.37704
45F0488945F8488B45F85DC300	-9.37801
F0030000	-9.37845
486BC92C4801C8	-9.38031
00000000000000000000000068000000	-9.38123
4531ED	-9.38171
488B85E0000000	-9.38205
41C68	-9.38227
4901F0	-9.3825
0D00	-9.38304
000001C68	-9.38447
24FFFFFF	-9.38543
FFFFFFEB00	-9.38906
4C8D7	-9.38989
488B4530	-9.39095
80030000	-9.39107
740A	-9.39154
0B0000000000002A0000002	-9.39237
488D94	-9.39247
40030000	-9.39295
664289	-9.39563
4901C8	-9.39583
41F7F	-9.39612
C5D1EF	-9.39624
488902	-9.3965
1500	-9.39685
488B8424480	-9.3978
4901D1	-9.39858
833A00	-9.39897
EB098B45	-9.39993
D3F8	-9.40062
488B45E8	-9.40067
4883E902	-9.40069
3CFFFFFF	-9.4012
F6FFFF	-9.40197
178496845524B545F53325F53325F00	-9.40242
98FEFFFF	-9.40247
0FB78C24	-9.40313
4869C2	-9.40388
488B4C2498	-9.40447
803900	-9.4046
66C700	-9.40493
4981C0	-9.40502
70030000	-9.4053
48C1E104	-9.40611
803C0800	-9.40636
EB0E	-9.40692
488B4C2490	-9.40765
120000000000002A0000002	-9.40801
81C2	-9.4088
00000000000500	-9.40912
460FB6	-9.40982
4D01C1	-9.40985
803C080074	-9.41024
488B8424000	-9.41067
B901000000	-9.41091
C4637914E	-9.41276
B8030000	-9.41281
81C6	-9.4136
90030000	-9.41386
4881F	-9.41415
C4C37915	-9.41517
22040000	-9.41548
4901C0	-9.41567
80074	-9.4169
0FBE0939C87D	-9.41777
486BC9154801C8	-9.42123
488B05000000000FB600	-9.42202
89D1	-9.42255
C5CD	-9.42265
08030000	-9.4227
0A5424	-9.42602
4C01C1	-9.42619
488B8424100	-9.42668
0FB6D2	-9.42745
0FBE00488B4D	-9.42792
C44179	-9.428
66833C480074	-9.42801
000000000000D5000000	-9.42807
C8FEFFFF	-9.42907
48898424000	-9.42973
83E9034863C9	-9.43059
C0030000	-9.43131
0FB604	-9.43161
050000000	-9.432
C4C279	-9.43317
90FEFFFF	-9.43323
488B542490	-9.43323
C5C5	-9.43433
88100000	-9.43475
00040000	-9.43595
48898424D00	-9.43611
000000000000000	-9.4368
4A8D44	-9.43721
8901	-9.43724
4C8D9	-9.43737
F7D1	-9.43775
438D	-9.4383
2E4C435049305F3	-9.44081
00000000080000000000000017000000	-9.44083
488B8424180	-9.44156
0F47C	-9.44303
0FBE45F	-9.44342
F5FFFF	-9.44405
488B85E8000000	-9.44495
4883F0FF	-9.44546
488B4424A0	-9.44566
C2010000	-9.44651
C5A9EF	-9.44666
4901F9	-9.44719
48C1E204	-9.44969
4F8D3C	-9.4499
C5F9EF	-9.45134
0FB755	-9.45152
400F95C7	-9.45276
8902	-9.45532
18030000	-9.45595
0000000008000000000000001B000000	-9.45615
0FB67424	-9.45725
0000000000003F000000	-9.45768
0F42D	-9.45799
486945	-9.45804
89F8	-9.4589
A0030000	-9.45916
4C03BC24	-9.45934
4869C9400200004801C8	-9.45946
488B0500000000C600	-9.46
48C1EA20	-9.46072
410F9	-9.4609
498D34	-9.46125
4C8D34	-9.46209
488B8424280	-9.46217
D01	-9.46305
83FA	-9.46309
4883C	-9.46315
488B8424500	-9.46369
480500	-9.4652
4869C9900000004801C8	-9.46562
80F9	-9.467
488B8424200	-9.46711
486BC9284801C8	-9.46751
802	-9.46781
B0030000	-9.46835
4C01C6	-9.46848
48898424E00	-9.46899
41BE	-9.46913
7410	-9.46933
4829C	-9.47112
58030000	-9.4713
8B4DD4	-9.47155
84C0	-9.47177
486BC9584801C8	-9.4721
49B9	-9.47305
6683BC24	-9.47372
4883F8000F84	-9.47477
78030000	-9.47517
72030000	-9.47557
4883BD	-9.47655
83BC	-9.47685
38030000	-9.47773
4C0FAF	-9.47789
49F7D	-9.48005
98030000	-9.48022
89CA	-9.48096
130000000000002A0000002	-9.48139
48898424180	-9.48154
833E00	-9.48187
4D6BC	-9.48291
48C1E004	-9.48332
0F4DC	-9.4837
88030000	-9.48372
4C0F44	-9.48382
4869C6	-9.48406
00F441C68424	-9.48444
4839C80F8D	-9.48495
7979	-9.48504
488D0440	-9.48612
488B85F0000000	-9.48694
488B09	-9.48743
448B8424	-9.48773
488B85F8000000	-9.48781
4981C1	-9.48887
1CFFFFFF	-9.48936
00000000080000000000000019000000	-9.48943
488B8424400	-9.48988
96E496145524B545F53325F53325F00	-9.49122
0345	-9.49182
49C1E00	-9.49195
8B4DD8	-9.49271
14FFFFFF	-9.49274
A8030000	-9.4949
488B8424800	-9.49555
4C01D8	-9.49644
F4FFFF	-9.49841
C4C1F96EC	-9.49888
00000000080000000000000013000000	-9.49906
833C8800	-9.49997
FDFF	-9.50047
0700	-9.50101
40040000	-9.50108
486BC9604801C8	-9.50116
41BF	-9.50182
C4E27D22	-9.50192
4983C1	-9.50211
200A0000	-9.50223
8A0024010FB6C0488B4D	-9.50239
488908	-9.50255
44898424	-9.50353
FEFFFFFF	-9.5046
4881E9	-9.50492
4869CF	-9.50626
4883E8	-9.50703
88130000	-9.50805
488B742480	-9.50818
080000000	-9.51028
C4090000	-9.51064
C4E37D39C	-9.5119
4585D2	-9.51258
28030000	-9.51429
488B8424080	-9.51448
178496145524B545F53325F53325F00	-9.51481
C4637914F	-9.51505
478D	-9.51679
488B8424580	-9.51836
488D0480	-9.51869
4883C004	-9.5192
4901C9	-9.51931
0F95C024010FB6C8	-9.51941
488B45E0	-9.5197
C5F97F	-9.52035
48898424200	-9.52068
488B5424A0	-9.5207
0000000000040000000000000000	-9.52072
48898424E80	-9.52156
4869D7	-9.5217
48833CC800	-9.52183
498D9	-9.52375
C80D0000	-9.52406
48898424380	-9.52472
4839C80F83	-9.52569
30FEFFFF	-9.52591
488B8424600	-9.5275
4C03A424	-9.52802
4863C8488B0500000000488908	-9.52821
486BC9124801C8	-9.53021
05000000000000040000000	-9.5309
C4E27D59C0	-9.53117
080000000000002A0000000	-9.53362
A0FEFFFF	-9.53384
31D249F7F	-9.53521
48898424580	-9.53549
486355	-9.53597
4869CE	-9.53693
C4C10	-9.53837
0F0000000000002A0000001	-9.53912
40887C24	-9.53935
E4060000	-9.53946
486BC9194801C8	-9.54018
C0FEFFFF	-9.54044
488B4C2480	-9.54099
4969C0	-9.54258
4C01DA	-9.54357
76FFFFFF	-9.54365
C4C13	-9.54439
C70488	-9.54513
52010000	-9.54514
0000000008000000000000000D000000	-9.54679
38040000	-9.54785
488B4528	-9.54828
48040000	-9.54861
0FBE45E	-9.54877
7661725F323000	-9.5488
400F94C6	-9.5497
488B8530010000	-9.55005
488B8424380	-9.55036
48898424080	-9.55087
488B4424A8	-9.55108
0000000008000000000000000B000000	-9.55224
00000000000000000000000070000000	-9.55233
0CFFFFFF	-9.5525
4901C1	-9.55296
448B8C24	-9.55317
488B8500010000	-9.55342
488B8424700	-9.5538
0000000008000000000000000F000000	-9.55409
488B8424900	-9.55536
4C8B442488	-9.55575
48634DD8	-9.55628
66833C4800	-9.55628
005F5A5374336D6	-9.55647
83BD	-9.55657
FFFFC785	-9.55676
0F9500	-9.55766
4D8D7	-9.55773
4C01CF	-9.55925
4869C9C80000004801C8	-9.55934
C4437914	-9.55997
480FBE55	-9.56061
48898424280	-9.56088
48898424500	-9.56133
488B8424680	-9.56134
488B8424A80	-9.56139
4520C	-9.56374
6EFFFFFF	-9.56413
488B0500000000488B0D00000000	-9.56426
0A0000000000002A0000002	-9.56566
4C8D3C	-9.56583
C60001	-9.56611
C4E2713	-9.56717
68030000	-9.56792
410F92C7	-9.56872
D0030000	-9.56875
4889C6488D7D	-9.56971
140000000000002A0000002	-9.56971
C5C9E	-9.57011
0000000040000000000040000A000900	-9.5706
4983C2	-9.57113
31D248F7F	-9.5714
2EFFFFFF	-9.57193
4D01CA	-9.5723
4969C3	-9.57249
C5E9EFD	-9.57276
7661725F323100	-9.57295
68FEFFFF	-9.57306
48898424100	-9.57307
96350000	-9.57344
48898424300	-9.57368
0000000008000000000000001D000000	-9.57503
84030000	-9.57511
F2000000	-9.57677
10040000	-9.57781
46FFFFFF	-9.57804
0FBFC8488B05000000000FBF00	-9.57811
488B8424300	-9.57812
0FB709	-9.57855
200F0000	-9.57943
29C8	-9.57979
4969E	-9.57981
4869C8	-9.58044
B4000000	-9.58071
F8030000	-9.58076
F01	-9.58227
5B415C415D415E415F5DC5F877C3	-9.58243
48634DE8	-9.58258
83E1	-9.58263
4983C0	-9.58281
4901FA	-9.58385
178496245524B545F53325F53325F00	-9.58443
488B7C2488	-9.58489
48898424480	-9.58502
486BC90D4801C8	-9.58504
41BC	-9.58527
3B5C24	-9.58631
4869D1	-9.58658
8945E8	-9.58664
84D2	-9.58671
6685C0	-9.59
4084F6	-9.59
488945D0	-9.59108
486BC9504801C8	-9.59137
4D01C8	-9.5917
C8160000	-9.59396
C44129	-9.59415
44895424	-9.59417
488B8424B00	-9.59493
4901F1	-9.59507
0F97C2	-9.59617
C4437D39D	-9.5964
0000000008000000000000001F000000	-9.59671
08040000	-9.59694
41BD	-9.59694
7661725F313900	-9.59708
4869CA	-9.59744
664389	-9.59807
4688	-9.59966
8807	-9.59982
48C1E0034801C7	-9.6012
4969C8	-9.60285
740F	-9.60295
30040000	-9.60322
488B8C24400	-9.60361
96E496245524B545F53325F53325F00	-9.60376
6500	-9.60469
05F	-9.60473
488B542498	-9.60527
4C01D9	-9.60625
60040000	-9.60641
488B0500000000C60001	-9.60642
48C1E1044801C8	-9.60711
4869C7	-9.60728
488B00488985	-9.60768
488B4DB8	-9.608
48898424700	-9.60923
0000C785	-9.60962
6641C78	-9.60979
6FFFFFFF	-9.60983
48898424600	-9.6103
880A	-9.61037
26FFFFFF	-9.61054
C5F970D	-9.61089
488B4424C0	-9.61095
4901D2	-9.61146
F7D9	-9.61199
488B8424A00	-9.61256
0F928424	-9.61275
49C1E30	-9.61297
486BC9134801C8	-9.6141
16000000	-9.61434
4C030500000000	-9.61444
4F8B	-9.61486
E0030000	-9.61547
10270000	-9.61634
ECFEFFFF	-9.6167
0FBEC8488B05000000000FBE00	-9.61692
4869C1	-9.61699
4C01F0	-9.61747
4801E8	-9.61785
486BC9174801C8	-9.61842
4D6BD	-9.61883
C5B1EF	-9.61935
4969D0	-9.61959
833F00	-9.62024
394C24	-9.62028
488B8424F00	-9.62043
4403	-9.62057
4801D8	-9.62257
4889C8	-9.62352
88FEFFFF	-9.62459
482B	-9.62474
E2040000	-9.62572
70FEFFFF	-9.626
4C8D6	-9.62618
00000000080000000000000015000000	-9.62669
0F92C220C2	-9.62752
4C29C	-9.62807
31D2F7F1	-9.62859
EB07	-9.62861
3B4424	-9.62921
48898424400	-9.62952
488B4DE0	-9.63009
0F4FC	-9.63073
48898424680	-9.63124
4520D	-9.63174
488B8424E00	-9.63228
1CBE0000	-9.6331
5EFFFFFF	-9.63329
488B8424F80	-9.63412
4584C0	-9.63427
83E2	-9.63476
440F45	-9.63486
0F43D	-9.63542
8B08	-9.63546
2A00000003000000FCFFFFFFFFFFFFFF	-9.63557
3000048898424	-9.63859
00074	-9.6388
488B8424880	-9.63948
410F95C0	-9.63991
488B8424D00	-9.64034
C4E2792	-9.64086
50040000	-9.64186
89C1488B05000000004869C9	-9.64192
4C034424	-9.64207
28040000	-9.64219
FFFF48C785	-9.64293
4883C002	-9.64298
800D0000	-9.64406
4788	-9.64412
488B4DD8	-9.64478
488B4DD0	-9.64481
0FB6C8488B05000000000FB600	-9.64534
486BC90A4801C8	-9.64596
00000000000000000000000078000000	-9.64626
833B00	-9.64628
488B4520	-9.64764
4869C9900100004801C8	-9.64789
48898424900	-9.64852
0FB79424	-9.64856
7661725F313800	-9.64881
4863D2	-9.64916
8B4DDC	-9.65047
4983E	-9.65121
0F92C04C39	-9.65137
0FB7C8488B05000000000FB700	-9.65221
8A4DCF80E1010FB6C9	-9.65236
4885F6	-9.65311
4869D0	-9.65322
486BC9114801C8	-9.6539
4C8D24	-9.6549
5040000	-9.65502
7661725F393	-9.65514
4180E	-9.65535
4C01CE	-9.65569
488B8424780	-9.65598
488B8424B80	-9.65598
48C7C	-9.65659
4901D3	-9.6569
4C01D1	-9.65704
488B4424B0	-9.65758
48898424800	-9.65773
000F95C180E101488B05000000008808	-9.65788
490F45	-9.65798
100000000000002A0000001	-9.65803
80E101488B05000000008808	-9.65971
C4E269	-9.66024
41FFC	-9.66024
4040000	-9.66082
48634DC4	-9.66082
488B4C24A0	-9.66137
7661725F323400	-9.66218
A8FEFFFF	-9.6636
31D248F7F1	-9.66416
4869FF	-9.6642
4508D	-9.66505
4C01F1	-9.66562
4883C3	-9.66585
4901CA	-9.66818
488B8424C00	-9.6684
C5C1EFF	-9.6684
488B5424B0	-9.66848
00000000080000000000000011000000	-9.66914
66833C	-9.66975
4D8D9	-9.67014
D8030000	-9.67021
C784	-9.67026
488B8424D80	-9.67105
49BA	-9.67199
B0040000	-9.67224
488B4C24B0	-9.67267
C5F970F	-9.67445
4D01D3	-9.67518
488B8508010000	-9.67598
488B8C24200	-9.67611
38FEFFFF	-9.67613
80C1	-9.67631
535F50	-9.67635
48694DD0	-9.67658
C5B1	-9.67741
400F97C5	-9.67776
4131325F	-9.67841
81C7	-9.67851
83F1FF	-9.67979
90000001000000000000000	-9.67991
488B8510010000	-9.67995
7409	-9.68013
B8040000	-9.6805
48634DD4	-9.68166
66FFFFFF	-9.68176
B80A0000	-9.6822
4D8D04	-9.68254
896C24	-9.6826
48833800	-9.68279
4969C6	-9.68301
C60408	-9.6834
000000120001000000000000000000	-9.68348
4084FF	-9.68394
40050000	-9.68501
4C29D	-9.68516
4901C2	-9.68609
44898C24	-9.68622
48898424B80	-9.68645
48694424	-9.68658
4801D18B55	-9.68726
4869C3	-9.68751
18040000	-9.68781
480FBF55	-9.68807
4EFFFFFF	-9.68829
8A4DD780E1010FB6C9	-9.68888
090000000000002A0000000	-9.6897
4C01D7	-9.68989
4981F	-9.69033
C5E1EFD	-9.69047
14010000	-9.69132
4981C3	-9.69222
88E80F00	-9.69301
EB19	-9.6939
7040000	-9.69402
70040000	-9.69473
48634DD0	-9.69485
6681F	-9.69514
4C0F42	-9.69571
89F1	-9.69612
84C9	-9.69635
448B9424	-9.69662
CB1A0000	-9.69686
4539E	-9.69689
3FFFFFFF	-9.69725
48898424B00	-9.69823
4969D5	-9.69843
4F8D24	-9.69867
83FA000F45C1	-9.69941
3EFFFFFF	-9.69947
F3FFFF	-9.70008
80E2010FB6D24869D2	-9.70025
89D6	-9.70042
488B8C24000	-9.7018
040000000	-9.70198
9C000000	-9.70216
C5D96BE4	-9.70255
EB11	-9.70296
41C64	-9.70308
48894424A0	-9.70333
66C70448	-9.70347
67FFFFFF	-9.70355
4881	-9.70424
872F0000	-9.70432
498D840	-9.70446
4402	-9.70462
FFFFFF488DB5	-9.70545
498D8C	-9.70601
7661725F313700	-9.70619
488945C8	-9.70772
48898424780	-9.70811
488B8424980	-9.70811
4889D0	-9.70856
10000001000000000000000	-9.70876
44895C24	-9.70925
4969CB	-9.70935
DCFEFFFF	-9.70977
498D3C	-9.71
4983C3	-9.71096
4969C1	-9.71126
88040000	-9.71537
24010FB6C089C1488B0500000000	-9.71554
7413	-9.71567
0F9501	-9.71578
89C6	-9.71605
48C7C0	-9.71678
498D84	-9.71852
4C2418	-9.71871
4969D3	-9.71923
C4E37D19	-9.72047
4983FA	-9.72065
488B45F8	-9.72128
4983F9	-9.72136
BA01000000	-9.72137
4981C2	-9.72168
486BC90B4801C8	-9.72208
418D7	-9.72336
488B4424C8	-9.72371
48898424A80	-9.72377
8C000000	-9.72399
56FFFFFF	-9.72455
0FB612	-9.72576
4969D1	-9.72612
448B9C24	-9.72621
2200060000000000000000003	-9.7271
C4E361	-9.72711
F2FFFF	-9.72822
48898424980	-9.72828
4B89	-9.72892
7EFFFFFF	-9.73011
150000000000002A0000002	-9.73052
84000000	-9.73128
488B9424280	-9.73199
488B8C24280	-9.73214
C4627978	-9.73242
2D240000	-9.7328
C4C11	-9.73286
8806	-9.73308
488B4518	-9.7334
24010FB6C8	-9.73345
4038F	-9.73375
BCFEFFFF	-9.73392
488B8C24180	-9.73415
4983FB	-9.73488
4F8D34	-9.73536
0FBFC9	-9.73575
4869C9800400004801C8	-9.73579
0F97C04C39	-9.736
E040000	-9.73601
488B742490	-9.73617
48898424A00	-9.73618
486955	-9.73708
C5A9	-9.73713
48894424C0	-9.7372
0A4C24	-9.73739
FEFFFF8A85	-9.73741
4869C9C80300004801C8	-9.73857
49BB	-9.73942
48FEFFFF	-9.73951
6000000FCFFFFFFFFFFFFFF002E	-9.74063
EB15	-9.74137
488B08	-9.74166
81F9	-9.74226
0FB66C24	-9.74232
486BC90E4801C8	-9.74306
C4427D59	-9.74329
C60101	-9.74343
486BC90F4801C8	-9.74395
E800000000833800	-9.744
66833800	-9.74471
488B7C2480	-9.74472
1D00	-9.74563
488B4510	-9.74694
000000040000000	-9.74768
803A00	-9.74806
48C700	-9.74836
80FA	-9.74907
4969C9	-9.7491
21C8	-9.74946
488B4C24A8	-9.75025
EB1E	-9.75056
A040000	-9.75071
83C7	-9.75093
60FEFFFF	-9.75154
50FEFFFF	-9.75174
0FBE00	-9.75178
55415741564155415453	-9.75205
488B742498	-9.7522
000000000000000000001000000040	-9.75227
08090000	-9.75246
68040000	-9.75264
C1E60	-9.75279
8B40	-9.75343
58040000	-9.75403
30530000	-9.75411
0FB700488B4D	-9.75512
48898424C00	-9.75526
3500	-9.75529
C5FE6F	-9.7555
4969C5	-9.75588
488B8C24100	-9.7564
488B8424C80	-9.75679
0F97C04839	-9.7576
488B4424B8	-9.75819
3B6C24	-9.75862
397C24	-9.75927
410F44C	-9.75952
488D1492	-9.75958
4A8D8C	-9.75963
498D4C	-9.75974
488B8C24380	-9.75984
FBFFFFEB00	-9.75996
4869C9B90100004801C8	-9.76015
6BC0	-9.76029
C44121	-9.76032
66C701	-9.76127
EB1C	-9.7614
488B8518010000	-9.76177
48634DCC	-9.76231
04FFFFFF	-9.7624
8A0880E101488B05000000008808	-9.76242
2200120000000000000000003	-9.76301
0FB700488B4DE8	-9.76406
C0550000	-9.76478
49C1E20	-9.76494
48898424C80	-9.76598
488B5424A8	-9.76651
110000000000002A0000001	-9.7668
0FB74DCE	-9.7674
4983C7	-9.76771
4C01E0	-9.76796
488B8C24080	-9.76924
70000001000000000000000	-9.76973
740B	-9.76982
48634DDC	-9.77022
488B8424E80	-9.77058
0FB64DDF	-9.77092
4585C0	-9.77118
480FBF4DCE	-9.77162
7661725F3230007661725F323100	-9.77187
8B4DCC	-9.77214
48898424880	-9.77264
0FB67C24	-9.77271
488B8C24600	-9.77284
7661725F323500	-9.77288
84040000	-9.77345
C539	-9.7739
4885FF	-9.774
090000000	-9.77454
A4000000	-9.77467
D0070000	-9.77475
FCFEFFFF	-9.77485
4889442490	-9.77551
8B4DE4	-9.77555
4C030D00000000	-9.77624
480FBF4DD6	-9.77902
48C1E30	-9.77904
C0040000	-9.77932
C5F96BC0	-9.7802
B4900000	-9.78043
4969CE	-9.78048
00000000400000000000400008000700	-9.7814
8B4DE0	-9.78148
4889442498	-9.78163
2200100000000000000000003	-9.78204
4D01CB	-9.78207
4801D10FB655	-9.78247
C4C37120	-9.78256
48894424B8	-9.78405
0FB6B424	-9.78444
1FFFFFFF	-9.78452
89852	-9.78458
D4FEFFFF	-9.78508
4901F2	-9.78539
440F47	-9.78555
4C01DE	-9.78599
78FEFFFF	-9.78603
89C9	-9.78642
4584C9	-9.78649
488945B8	-9.78752
410F92C5	-9.78752
4969D2	-9.78777
4C03AC24	-9.78828
48C1E1084801C8	-9.78879
A80175	-9.78899
0FB74DDE	-9.78933
4389	-9.78973
4D01D0	-9.79179
4C034C24	-9.79186
0E5F0000	-9.79197
42020000	-9.79233
00000000080000000000000009000000	-9.79279
4829D	-9.79282
488B7C2498	-9.79314
4869C9440100004801C8	-9.79335
488945C0	-9.79356
FCFF	-9.7936
C4E261	-9.79392
4901FB	-9.79422
58FEFFFF	-9.79431
4883C102	-9.79488
001B0000	-9.79507
6685C9	-9.79514
4801D9	-9.79525
488B8C24500	-9.79592
4889442488	-9.79618
4E8D04	-9.79628
204424	-9.79687
2200080000000000000000003	-9.79701
387C0100	-9.79751
01000000130000000100000014000000	-9.79773
48C701	-9.79807
2040000	-9.79859
48630488	-9.80049
00000000080000000000000021000000	-9.80078
010F85	-9.80107
EB1A	-9.80109
4D01C2	-9.80144
488D74	-9.80161
28FEFFFF	-9.80215
40FEFFFF	-9.80229
43803C	-9.80319
4401C	-9.80338
4969C2	-9.80363
EB1348B8	-9.80366
0EFFFFFF	-9.80409
7661725F323200	-9.80447
0FB60C11	-9.80546
4983C	-9.8062
498D54	-9.80676
000000000000000000000000F1000000	-9.80695
24018845E	-9.8077
77FFFFFF	-9.80828
22000E0000000000000000003	-9.80862
488B4C24C0	-9.80865
093D0000	-9.80874
00000000000400	-9.80968
895C24	-9.80979
0F95C180E1010FB6C939C80F8D	-9.81069
C57D6F	-9.81075
4983C6	-9.81091
18FEFFFF	-9.81108
8945E0	-9.81111
06000000000000040000000	-9.8117
4883FB	-9.81188
0F9502	-9.81192
740C	-9.81197
0000000000030	-9.81256
48894424B0	-9.81322
33050000	-9.81382
418D5	-9.81383
48E80100	-9.81421
00050000	-9.81565
4869F0	-9.81624
48894424A8	-9.81636
488B4DE8	-9.81689
C4637D39	-9.8169
4539F	-9.8175
1C000000	-9.81792
AC000000	-9.81802
488945B0	-9.81838
48694DD8	-9.81882
2B0000000000002A000000	-9.81916
B040000	-9.81949
4C8DB	-9.81963
18000000000000002600000001000000	-9.81991
4889C6	-9.81994
410F97C3	-9.82025
4901F3	-9.82126
410F97C1	-9.82172
488B9424200	-9.8225
4C035C24	-9.8232
448A4D	-9.82345
4969D6	-9.82414
10000000800000000000000	-9.82419
31C0EB	-9.82428
4401D	-9.82461
4969D4	-9.82476
4801D10FB755	-9.82481
4869C9982900004801C8	-9.82492
488B8C24580	-9.82538
440F4C	-9.8254
F040000	-9.82586
480B	-9.8263
C5A1EF	-9.82662
090000000000002A0000002	-9.82674
49C1E70	-9.82674
22000A0000000000000000003	-9.82728
1E000000	-9.8282
7661725F313600	-9.82828
F4FEFFFF	-9.829
4489C0	-9.82936
803C0	-9.8294
4869D3	-9.82959
486BC90C4801C8	-9.82985
EB1B	-9.83033
4C01D6	-9.83073
4C01DF	-9.83088
4132355F4132355F	-9.83105
0FAFC1	-9.83112
160000000000002A0000002	-9.8314
400FB6F6	-9.83158
0A0000000000002A0000000	-9.83229
488B9424800	-9.83255
EB12	-9.83269
00000142C6840E	-9.83319
48894424E0	-9.83347
483B4424	-9.83371
3040000	-9.83388
FEFFFF83C1014863C9	-9.83389
78690000	-9.83407
7661725F323600	-9.83416
4080FE	-9.8344
0000000000000000000000000D010000	-9.83482
4D01D1	-9.83514
2F0D0000	-9.83629
0F92C220CA	-9.83645
4C01E8	-9.83647
488B8C24900	-9.83648
E4FEFFFF	-9.83731
488B4C24B8	-9.83751
9040000	-9.83777
22000C0000000000000000003	-9.83785
4D01DA	-9.83825
4969CA	-9.83826
5F5A347465737469	-9.83828
803C1	-9.83838
48898424D80	-9.83879
488BB424280	-9.83907
488B8C24300	-9.83954
4883C001	-9.8398
48C1E0024801C7	-9.84018
4C8B4C2488	-9.84095
8B9C24	-9.84102
4C8B442490	-9.84191
56010000	-9.84212
4183FA	-9.8426
00000000000000000000000080000000	-9.84323
C5C97	-9.84331
4C8B542488	-9.84345
6040000	-9.84373
81BC24	-9.84391
2200110000000000000000003	-9.84468
4969C7	-9.84473
395424	-9.84474
488B8C24880	-9.84505
010000000F0000000100000010000000	-9.84539
4584D2	-9.84557
0FBF00488B4DE8	-9.84568
7661725F3139007661725F323000	-9.84572
48C1E005	-9.84586
48C1E1064801C8	-9.84629
2FFFFFFF	-9.84655
100000002000000000000000	-9.84731
CCFEFFFF	-9.84747
4869C9710200004801C8	-9.84895
4969C4	-9.84983
95080000	-9.8501
4801C80FB68D	-9.85021
4C01DB	-9.85049
20000498D	-9.85114
4801EA	-9.85163
C44131	-9.85172
48898424F80	-9.85191
20FEFFFF	-9.85205
4801D18A55	-9.85237
488B9424000	-9.85267
4D8D6	-9.85334
48694C24	-9.8536
EB22	-9.85363
80E201	-9.8542
0FB64DD7	-9.85422
0FB7C02D	-9.85463
4983C4	-9.85558
4E8D1C	-9.85565
8BAC24	-9.85577
488945D8	-9.85679
488D0C49	-9.85681
00488B4DF00FBF	-9.85706
4489C8	-9.85746
0000668985	-9.85791
4839C1480F4	-9.85799
EB1D	-9.85917
486BC92A4801C8	-9.85918
48898424F00	-9.8593
C4E2593	-9.85995
488B9424180	-9.86002
C4C37914C	-9.86014
53315	-9.86025
06FFFFFF	-9.86051
400F94C7	-9.8608
48634DC0	-9.86095
0A5C24	-9.86099
8B4520	-9.8612
4969CC	-9.86145
A8440000	-9.86193
488B8520010000	-9.86215
807C249	-9.86436
98040000	-9.8651
48695424	-9.86512
4869C9200300004801C8	-9.86536
440F43	-9.86572
4585DB	-9.86588
486BC9544801C8	-9.8663
00FEFFFF	-9.86776
EB17	-9.86855
E0040000	-9.86972
31C8	-9.87012
94000000	-9.87018
205B0000	-9.87023
4C8D2C	-9.87103
2200140000000000000000003	-9.87162
230000000000002A000000	-9.87192
4401E	-9.87224
488B9424100	-9.87243
FEFFFF83E9014863C9	-9.87265
478B	-9.87279
4D85C0	-9.87286
7661725F323700	-9.87286
4C01F9	-9.87338
D040000	-9.87416
48634DE0	-9.87441
0A4424	-9.87468
4889C18B85	-9.87524
8945D8	-9.87532
C599EF	-9.87547
00000000000000020000000	-9.87578
48C1E704	-9.87599
40B60000	-9.87601
EB16	-9.87663
4D8D0C	-9.8768
488B8C24680	-9.87731
4869F2	-9.8782
C521EF	-9.87845
4869C9003600004801C8	-9.87847
4E8D0C	-9.87875
83F8000F95C2	-9.87881
C57D	-9.87954
48894424D0	-9.8796
0FB7C981E9	-9.87975
488B7424A0	-9.88013
4000048898424	-9.88021
81FA	-9.88039
FDFFFF24010FB6C0	-9.8806
39C10F4	-9.88072
8A4DDF80E1010FB6C9	-9.88097
8FEFFFFE800000000488B00	-9.88137
EB18	-9.88162
F6C2010F84	-9.88165
48697424	-9.88174
0FBEC9	-9.88252
48894424F8	-9.88266
7661725F3138007661725F313900	-9.8836
4869F7	-9.88483
448BB424	-9.88527
488B7C2490	-9.88608
A0050000	-9.88638
48894424C8	-9.88651
0FEFFFFE800000000488B00	-9.8866
66C702	-9.88684
270000000000002A000000	-9.88701
488B8C24480	-9.88721
E8000000004889C7	-9.88753
48D1E	-9.88763
2000000000000000	-9.88782
488B9424080	-9.88796
44884C24	-9.88835
438B	-9.88881
48894424D8	-9.88928
488B7424A8	-9.88929
4D8D14	-9.8896
01C443	-9.88989
0F92C04839	-9.89021
4829D1	-9.89174
488B8C24C00	-9.89227
488DB4	-9.89244
430FB7	-9.89249
4409	-9.89396
2200130000000000000000003	-9.89412
49C7C	-9.89458
450F42	-9.89485
4529	-9.89525
488B8528010000	-9.89529
4C01FA	-9.89582
488D1452	-9.89582
440FB64424	-9.89605
4839C2480F4	-9.89758
488B05000000000FB700	-9.89786
4869C5	-9.89799
4C01F2	-9.89808
486BC92E4801C8	-9.89861
48018C24	-9.89889
C4E1F97E	-9.89983
01000000110000000100000012000000	-9.89984
22000F0000000000000000003	-9.90022
01000000150000000100000016000000	-9.90091
68210100	-9.90157
8845E	-9.90171
4929C	-9.90241
488B45D8	-9.9026
C4E349	-9.90279
440FB65424	-9.90281
4869C9690100004801C8	-9.9032
00000FB785	-9.90376
488B9424300	-9.90407
4869CB	-9.9047
8B4530	-9.90475
F6C2010F85	-9.90492
837D3000	-9.90562
40F6D	-9.90574
4585C9	-9.90576
1040000	-9.90601
01C883F8000F95C024018845	-9.90649
4B8D44	-9.90655
4901C3	-9.90683
488B4424E0	-9.90765
488B5424C0	-9.90786
488B4424E8	-9.90864
2D0000000000002A000000	-9.90868
C57A7E	-9.90892
C8040000	-9.90963
448D4	-9.90976
4969F0	-9.9098
C4E37D39E	-9.91013
160000000000002A0000003	-9.91028
0FBE0C11	-9.91034
49C1E60	-9.91044
4E89	-9.91048
80C2	-9.9108
488B4C24E0	-9.91219
48894424F0	-9.91259
4969CD	-9.91323
442490	-9.91382
8945BC	-9.91424
488B8C24700	-9.91465
0F96C	-9.91496
C6043	-9.91551
410F94C0	-9.91575
8B4D88	-9.91576
4C0F45	-9.91634
48C1E604	-9.91634
486BC9324801C8	-9.9164
006C0000	-9.91678
4869F1	-9.91693
488B4424F0	-9.91731
83F8000F95C034FF24010FB6C0	-9.91755
488B8C24780	-9.91771
807DF	-9.91862
488B4424F8	-9.9188
48FFC0	-9.9194
C4FEFFFF	-9.91963
0FB64DBF	-9.91986
488B05000000004805	-9.92021
50050000	-9.92048
4981C7	-9.92056
420FBE	-9.92099
8B45FC	-9.92101
C44119	-9.92161
668908	-9.92174
0FBEC983C1	-9.92185
7661725F323300	-9.92236
4869FA	-9.92239
150000000000002A0000003	-9.92295
10000488BB424	-9.92299
48C1E1054801C8	-9.92416
4D85C9	-9.9244
4D01C3	-9.92449
08FEFFFF	-9.92524
488B4DC8	-9.92543
0FB7C881E9	-9.92551
4803AC24	-9.92618
2C0000000000002A000000	-9.92625
83C00183F8000F95C024018885	-9.92641
83C00183F8000F95C024018845	-9.92648
0F43F	-9.9268
4981C6	-9.92704
250000000000002A000000	-9.9274
78040000	-9.92766
6683F8	-9.92774
C5F9EB	-9.92782
0F97C3	-9.92871
0FB7D2	-9.92898
800C0000	-9.92985
4801C8480FBE8D	-9.93061
48D1E04801C7	-9.9308
8B45F8	-9.93085
410F92C6	-9.93103
C04C0100	-9.93145
4801DA	-9.93149
488B4424D0	-9.93161
4881C3	-9.93193
498D94	-9.93215
80B0000	-9.93235
4C8B5C2488	-9.93248
00000000080000000000000007000000	-9.93254
4869C9A90000004801C8	-9.93269
488B5424B8	-9.93329
5A480000	-9.93329
C4E2513	-9.93336
C481	-9.93447
83C10289C9	-9.93459
000F95C08885	-9.93465
4801C80FB78D	-9.93476
4969F2	-9.93526
4929F	-9.93558
4969D7	-9.93598
24F40000	-9.93724
48833900	-9.93736
99F7	-9.93754
440F4F	-9.93791
488B8C24980	-9.93817
C4E359	-9.9383
488B4C24D8	-9.93909
170000000000002A0000002	-9.93985
EB13	-9.94068
FFFFFF488B3D00000000488DB5	-9.94083
488945A8	-9.94099
170000000000002A0000003	-9.94151
41C78	-9.94166
49833C	-9.94167
0F4DD	-9.94221
48C704C8	-9.9431
8945CC	-9.94322
10FEFFFF	-9.94407
8B4DC4	-9.94554
488D0C89	-9.94598
0000000000001D000000	-9.94615
8B4DD0	-9.94669
54220000	-9.94761
489948F7F9	-9.94786
48898C24300	-9.94858
488B4C24F8	-9.94866
488B8C24F00	-9.94869
41C601	-9.94906
60A60000	-9.9491
48837DF000	-9.94979
488B4C24D0	-9.95092
140000000000002A0000003	-9.95098
488B05000000004869C9	-9.95118
7000000FCFFFFFFFFFFFFFF002E	-9.95172
47FFFFFF	-9.95185
48898C24180	-9.95203
4C035424	-9.9522
48694DB8	-9.95237
4883380074	-9.95247
450FB6C0	-9.95409
410F95C2	-9.95432
180000000000002A0000003	-9.95433
488B4DA8	-9.95443
488B9424400	-9.95453
8B4528	-9.95459
66890A	-9.95461
0FBE45D	-9.95462
0FB70C51	-9.95567
EB1F	-9.95596
7661725F3231007661725F323200	-9.95689
EB26	-9.95713
22000D0000000000000000003	-9.95741
2C010000	-9.95886
488B9424B80	-9.95894
488B4424D8	-9.95937
4801C8480FBF8D	-9.95938
66448B4D	-9.95947
C4E37D39D	-9.96007
120000000000002A0000001	-9.96031
488B8C24B80	-9.9607
C5F16BC9	-9.96072
4869C9110200004801C8	-9.96111
48C1E205	-9.96132
470FB7	-9.96171
4901CB	-9.96198
8B4D28	-9.96209
58050000	-9.96276
488B9424500	-9.96292
4131305F4131305F	-9.96341
488B9424380	-9.96354
8985A	-9.96378
4839C2	-9.96401
8945DC	-9.96545
4969CF	-9.9658
490F4F	-9.96644
410F95C1	-9.96699
C4C37914F	-9.96716
0FB600488B4DF00FB	-9.96719
48B8F	-9.96734
41807	-9.96737
C441316BC9	-9.96741
4889C1488B85	-9.96772
1A0000000000002A0000003	-9.96791
807C248	-9.96835
48898C24100	-9.96844
803F00	-9.9687
C1E70	-9.96878
7661725F3137007661725F313800	-9.96919
2F0000000000002A000000	-9.96968
488945A0	-9.96975
8B4D20	-9.96987
6000000030000000	-9.97004
480FBE85	-9.97101
010000000B000000010000000C000000	-9.97147
49C1E40	-9.9716
0000000000002A0000008	-9.97192
44884424	-9.9727
4C0F43	-9.97275
00D80000	-9.97282
4C031500000000	-9.97338
48898570FFFFFF	-9.97351
48B80	-9.97366
741348B8	-9.97389
EB14	-9.97398
480FBFC0	-9.97447
34000000000000000000000000000000	-9.97516
480FBF4DDE	-9.97559
4B8D1C	-9.97618
4408F	-9.97623
3B4C24	-9.97636
83FD0	-9.97641
6642	-9.97667
01C883F8000F95C024018885	-9.97677
E8000000000FB700	-9.9769
190000000000002A0000003	-9.97723
007D0000	-9.97756
130000000000002A0000001	-9.97896
30000488B8C24	-9.98055
00100004C8B85	-9.98058
C5E96BD2	-9.9809
488B8538010000	-9.98104
8B4DE8	-9.98116
490FAFC	-9.98145
4C01EA	-9.98197
F00000000000000	-9.98199
4869F3	-9.9822
395C24	-9.98317
488DBC	-9.98318
84DB	-9.98339
486BC9444801C8	-9.98365
400FB6FF	-9.98395
488B4DC0	-9.98441
60939C87D	-9.98444
7661725F313500	-9.98482
00000FBF85	-9.98482
C529EF	-9.98565
000FBE45	-9.9857
109A0100	-9.98589
EB0A0FBE45	-9.9859
C5F9EFC	-9.98692
4C8DA	-9.98704
000000000000040000004	-9.98739
8B4DC8	-9.98769
41C0E	-9.98771
180000000000002A0000002	-9.98771
460FB7	-9.98887
0FB64DE3	-9.98901
0FBEC883C1	-9.98909
488B8C24B00	-9.99018
EB21	-9.9914
22000B0000000000000000003	-9.99166
7661725F333000	-9.99234
D0040000	-9.99251
48894424E8	-9.99269
EEFEFFFF	-9.99308
49BE	-9.99323
488B9424580	-9.99388
448BBC24	-9.99409
A00F0000	-9.99426
69005F5A5374336D6	-9.99539
BC340000	-9.99546
8945C4	-9.99647
7978	-9.99742
90040000	-9.99753
4801C848638D	-9.99778
8B45EC	-9.99787
C4C1F97E	-9.998
486B4DD8	-9.99821
0FB74DE6	-9.99861
486BC9484801C8	-9.99863
486BC95C4801C8	-9.99864
4D01D8	-9.99906
66C704	-9.99937
00000000000000000000000088000000	-9.99943
7FFFFFFF	-9.99958
4084ED	-9.99982
E8000000000FB600	-10
C44379	-10
4E8D14	-10.0003
668B4D	-10.0005
B4FEFFFF	-10.0009
488BB424080	-10.0011
488B8C24800	-10.0011
48898578FFFFFF	-10.0011
48898C24600	-10.0014
488B8C24D00	-10.0016
C461F96E	-10.0026
8A0C1180E1010FB6C9	-10.0026
0100000009000000010000000A000000	-10.0028
48894590	-10.0031
1B0000000000002A0000003	-10.0032
48C1E1074801C8	-10.0049
EB27	-10.005
488B9424480	-10.0054
4901F6	-10.0058
4584DB	-10.0059
1E0000	-10.0061
48894588	-10.0062
37FFFFFF	-10.0062
7661725F313400	-10.0063
C5F970C	-10.0066
A4FEFFFF	-10.0069
488BBC24180	-10.0071
4869FE	-10.0072
4869C9B00000004801C8	-10.0082
49000000000000000000000000000000	-10.0088
448BAC24	-10.0092
488B8C24C80	-10.0099
EB23	-10.0102
488B8C24E00	-10.011
4863C94839C8	-10.0112
00488B4DE80FB6	-10.0115
488B9424900	-10.0118
4180B	-10.0122
C4437D39C	-10.0123
4969F8	-10.0127
4889442410	-10.0128
0B0000000000002A0000000	-10.0131
6641833C	-10.0132
8945B4	-10.0133
48898558FFFFFF	-10.0147
2200090000000000000000003	-10.0152
4883E801	-10.0153
EB0A0FB645	-10.0154
27FFFFFF	-10.0159
41C704	-10.0164
4869C9210100004801C8	-10.0166
48898C24200	-10.0167
130000000000002A0000003	-10.0168
6642C784	-10.0168
486B4DD0	-10.0171
C5F17	-10.0176
488B8C24A00	-10.0178
0FBF0C51	-10.018
4139E	-10.0182
A0040000	-10.0187
48C1E0034801C6488DBD	-10.0193
0FB64DCF	-10.0194
486BC9224801C8	-10.0194
2200150000000000000000003	-10.0198
48694DE0	-10.0199
20000488B9424	-10.0201
817C24	-10.0204
00000000400000000000000200000000	-10.0205
80100004C8B85	-10.0211
2C6B0000	-10.0222
C1E004	-10.023
488B9424980	-10.0233
2200160000000000000000003	-10.0234
410F94C1	-10.0236
FEFFFF488B3D00000000488DB5	-10.0236
A8040000	-10.024
EB0A0FBF45	-10.024
CC010000	-10.024
C60201	-10.0242
489948F7	-10.0243
00000000000000004800000000000000	-10.025
420FB604	-10.025
4869C9A80000004801C8	-10.0254
8985D	-10.026
2A110000	-10.0262
4080E	-10.0262
7661725F3232007661725F323300	-10.0263
40F6C50174	-10.0264
7BFFFFFF	-10.0269
4D0FAF	-10.0274
488B8C24A80	-10.0275
488B9424600	-10.0277
28050000	-10.028
488B442410	-10.028
48898568FFFFFF	-10.0284
EB25	-10.0285
488B9424C00	-10.0289
83F8000F95C024010FB6C8	-10.0293
B802000000	-10.0297
127A0000	-10.0297
FDFFFF80E1010FB6C9	-10.03
4424A8	-10.0303
0FB74DBE	-10.0303
6685D2	-10.0313
5000000020000000	-10.0318
740B8B45	-10.032
2200040000000000000000003	-10.0322
53305F50	-10.0323
0F9CC0	-10.0325
84FEFFFF	-10.0325
4863C8488B0500000000	-10.033
4801CB	-10.0331
488B8C24E80	-10.0332
4839C8480F4	-10.034
4863F6	-10.0344
48898548FFFFFF	-10.0349
490F4D	-10.0355
488B4C24E8	-10.036
740C0FB645	-10.0362
488B8548010000	-10.0366
48898C24280	-10.0378
C4E37914C80	-10.0379
EB0A0FB745	-10.0386
0F47F	-10.0386
440F4D	-10.0391
740C0FB745	-10.0393
4969F1	-10.0396
4889442408	-10.0397
48898C24000	-10.04
6172725F313500	-10.0401
8B4510	-10.0405
48697C24	-10.0405
8B45F4	-10.0414
4983FC	-10.0416
488B4C2410	-10.0419
8945D4	-10.042
C591EF	-10.0423
21450400	-10.043
8A45DF24010FB6C0	-10.0435
7661725F323800	-10.0436
488B40	-10.0437
488B7424B0	-10.0439
4A8D1C	-10.044
7F0000	-10.0445
9CFEFFFF	-10.0449
C4E2613	-10.0459
0FB6BC24	-10.0462
488B5424D8	-10.0463
8B4D80	-10.0473
48894598	-10.0479
4889F7	-10.0479
4869C9C40000004801C8	-10.048
32000000000000000000000000000000	-10.0483
488D8C0	-10.0485
48C1E206	-10.049
4801D1488B95	-10.049
C4C37D	-10.0491
4801D1486355	-10.0491
486BC9794801C8	-10.0494
7FEFFFF80E1010FB6C9	-10.0501
F0040000	-10.0501
5FFFFFFF	-10.0502
4869C9980000004801C8	-10.0506
00B00100	-10.0508
C441797E	-10.0509
C535	-10.0513
4C01C3	-10.0517
902D0000	-10.052
48898C24080	-10.0526
8FEFFFFE800000000	-10.0535
3B5424	-10.0543
80050000	-10.0545
488B442440	-10.0548
0100000004000000554889E54883EC	-10.0557
488B9424B00	-10.0562
83FB	-10.0564
488B5424C8	-10.0565
C4C37914E	-10.0577
80000000000000078000000000000000	-10.0582
1C0000000000002A0000003	-10.0583
488B7C24A0	-10.0585
4C8B442498	-10.0589
4901D6	-10.0591
4C01F6	-10.0592
66C706	-10.0597
8945D0	-10.0598
488B5424E0	-10.06
48890424	-10.06
8945AC	-10.0603
4869C9E10000004801C8	-10.0603
488B442408	-10.0608
EB0EB8	-10.0608
E02A0000	-10.061
488B4C24F0	-10.0611
664439C	-10.0613
488B5424D0	-10.0617
31130000	-10.062
486BC9264801C8	-10.0621
488B9424A00	-10.0623
A8050000	-10.0623
89851	-10.0625
8B4DB4	-10.0625
00090000	-10.0628
488B8540010000	-10.0628
F604080174	-10.063
664789	-10.0634
488B5424E8	-10.0636
09C8	-10.0638
4401F	-10.0641
39D00F4	-10.0646
88050000	-10.0647
488B9424700	-10.0653
EB008B45	-10.0655
448A	-10.0659
06000000000000040000001	-10.066
1000000FCFFFFFFFFFFFFFFE	-10.0661
488B4C24C8	-10.0663
48694DC8	-10.0664
4983C5	-10.067
4080F	-10.0678
D8040000	-10.0679
53324	-10.068
41F6C00174	-10.068
48898C24500	-10.068
07000000000000040000000	-10.0683
0A0000000	-10.0686
7661725F323900	-10.0689
48890A	-10.0692
486BC91A4801C8	-10.0693
488B8590000000488B8588000000	-10.0695
83E90289C9	-10.0698
C441216BD	-10.0705
4D69C0	-10.0714
4C01E6	-10.0716
48035C24	-10.0716
400A7C24	-10.0725
07FFFFFF	-10.074
C6041	-10.0745
4A8D94	-10.0747
8845F	-10.076
488B0C24	-10.0763
4889442430	-10.0764
488B7424C0	-10.0764
4901C6	-10.0766
B0050000	-10.0766
488B9424780	-10.0781
486BC9684801C8	-10.0787
4FFFFFFF	-10.0788
488B0500000000488B1500000000	-10.0798
740C0FBE45	-10.0806
4969FE	-10.0812
0C0000000000002A0000000	-10.0813
4080C6	-10.0816
5AFFFFFF	-10.082
442498	-10.082
4889442440	-10.0827
7661725F3136007661725F313700	-10.083
48898C24400	-10.0839
48634DE4	-10.0842
4869C9401F00004801C8	-10.0849
4981C4	-10.085
6642C704	-10.0853
48898550FFFFFF	-10.0854
C4E37920	-10.0861
4183C1	-10.0863
4131325F4131325F	-10.0866
C6040801	-10.0867
48894580	-10.0873
C645D	-10.0882
70150000	-10.0888
4B8B	-10.0894
C4437914C	-10.0896
70050000	-10.0896
080000000000002A0000002	-10.0898
440FB65C24	-10.0899
4508F	-10.0901
000000000000060	-10.0904
C4417	-10.091
ACFEFFFF	-10.0914
488B9424680	-10.0922
488B442458	-10.0922
488B5C2488	-10.0924
488D7C	-10.0925
488B8C24F80	-10.0928
8B4D30	-10.0929
4C031D00000000	-10.093
6172725F313700	-10.093
4D8D1C	-10.0932
B1F70200	-10.0935
4C8B4C2480	-10.094
7661725F333100	-10.0941
8945C8	-10.0943
4901DB	-10.0945
4883E9	-10.0951
4801D18B95	-10.0963
664181F	-10.0964
1000000070000000100000008000000	-10.0975
7469	-10.0976
48B8A	-10.0977
140000000000002A0000001	-10.098
1D0000000000002A0000003	-10.0986
6C010000	-10.0989
0000000003000000010000000	-10.099
48899424D80	-10.0995
F8040000	-10.0999
01000000000000020000000	-10.1002
4969F6	-10.1005
8B4DBC	-10.1012
488B9424F00	-10.1017
C6040	-10.1023
4969F4	-10.1026
8A45E724010FB6C0	-10.1027
0F97C14C39	-10.1029
48394424	-10.103
2200070000000000000000003	-10.1031
6172725F313600	-10.1031
16FFFFFF	-10.1033
E8040000	-10.1036
24010FB6C8488B05000000008908	-10.1038
F6C3010F85	-10.1043
0C010000	-10.1047
410F940	-10.1049
8B4DA4	-10.1052
01000000170000000100000018000000	-10.1056
488BBC24800	-10.1058
83FA00480F45C1	-10.106
488BB424B00	-10.1065
488BB424480	-10.107
C4E37D39E401	-10.107
410F95C3	-10.1076
CC140000	-10.1077
803E0000	-10.1077
00000039C80F8D	-10.1079
488B0424	-10.1081
4801D3	-10.1088
4131375F4131375F	-10.1096
4869F9	-10.1098
740C0FBF45	-10.1105
48899424A80	-10.1109
448BA424	-10.1112
837DFC00	-10.1114
480FBE4DC7	-10.1116
24010FB6D0	-10.1118
837D3800	-10.1118
488B9424D80	-10.1118
4D6BF	-10.1131
4901CE	-10.1131
48894C2488	-10.1135
48898560FFFFFF	-10.1136
48FFC2	-10.1141
41833C	-10.1145
0000000000000040000000000040001	-10.1147
4801DE	-10.115
0FB74DD6	-10.1157
43C784	-10.1158
488B8550010000	-10.1172
4889442418	-10.1177
43C604	-10.1185
4AFFFFFF	-10.119
66833900	-10.1195
4869C9B80000004801C8	-10.12
38050000	-10.12
410F97C2	-10.1203
48897D	-10.1206
83F0FF4898	-10.1207
4D69C8	-10.1211
4D01D9	-10.1213
488B8C24D80	-10.1222
6683F9	-10.1225
11FD0100	-10.1225
7661725F333300	-10.1228
57FFFFFF	-10.1238
C4C37914D	-10.1239
C4E36920	-10.124
7661725F333200	-10.1242
488D2C	-10.1242
8B4DA0	-10.1243
8B45E4	-10.1246
4C0F47	-10.125
4C29E	-10.126
488B7C24A8	-10.1265
4969F3	-10.1266
48694DC0	-10.1271
F6C30174	-10.1274
83E80148984869C0	-10.1281
48898C24380	-10.1283
0FB704488985	-10.1288
803E00	-10.1289
48898C24680	-10.1292
4869C92D2400004801C8	-10.1294
4C8B442480	-10.1295
44897C24	-10.1295
34010000	-10.1298
6AFFFFFF	-10.13
48898C24700	-10.1302
48B84	-10.1303
48FFC1	-10.1306
0FFFFFFF	-10.1308
4424A0	-10.131
F6C3010F84	-10.131
68050000	-10.1311
190000000000002A0000002	-10.1329
8A95	-10.1331
FFFFFFFFFFFF7F	-10.1331
94FEFFFF	-10.1334
0F9504	-10.1341
18050000	-10.1345
F645F	-10.1346
78050000	-10.1349
4183C3	-10.135
89459C	-10.1356
F645E	-10.1361
89859	-10.1364
000000004883BD	-10.1366
17FFFFFF	-10.137
488BBC24C80	-10.1371
4839D1	-10.1371
C5F9C5F	-10.1371
486BC9704801C8	-10.1374
4801D1480FBE55	-10.1377
4869C9E40600004801C8	-10.1378
4939C1	-10.1382
486BC9244801C8	-10.1382
05000000000000040000001	-10.1383
4D8DB	-10.1387
488B8558010000	-10.1387
660A0000	-10.1387
44885424	-10.1389
44248	-10.1391
440F46	-10.1392
07000000000000040000001	-10.1394
53315F50	-10.14
05FFFFFF7F	-10.1405
0F95C034FF24010FB6C8	-10.1407
E8000000004889C6488DBD	-10.1407
480FBE4DE7	-10.1408
488B442418	-10.1408
4889442420	-10.1409
48C1E10C4801C8	-10.1409
48837DE800	-10.141
4869C9C00000004801C8	-10.1414
488BB424200	-10.1415
4883FF0	-10.1416
C4A379	-10.1417
4929D	-10.1421
8B4518	-10.1423
4883C003	-10.1423
8B4DC0	-10.1425
C6440	-10.1439
C589EF	-10.144
0F944424	-10.1441
488BB424E00	-10.1447
488B9424D00	-10.1452
0FFFFFFE800000000488B00	-10.1452
486BC9344801C8	-10.1461
8B45E8	-10.1467
448D5	-10.1471
A0000000488B8598000000	-10.1472
8B0C91	-10.1473
08000000000000040000000	-10.1482
C57E6F	-10.149
7661725F3233007661725F323400	-10.1494
49C704	-10.15
FDFFFF8A85	-10.1502
8B4D18	-10.1511
490F46	-10.1512
4101C	-10.1514
48694DB0	-10.1518
C645C	-10.1518
488B5424F0	-10.1519
7373	-10.1523
5E1A0000	-10.1525
468D	-10.153
480345	-10.153
42C704	-10.1535
41C644	-10.1536
4D01FE	-10.1537
41C6040	-10.1537
4969F5	-10.1538
4D01FC	-10.1539
8945C0	-10.155
488B9424A80	-10.1551
C511EF	-10.1552
B8050000	-10.1553
00120000	-10.1563
486BD22	-10.1567
C4E27D79	-10.1569
488B5424F8	-10.1574
837D2000	-10.1575
400F95C5	-10.1577
4B8D84	-10.1579
7661725F3135007661725F313600	-10.158
4801D1480FBF55	-10.1583
488B9424880	-10.1587
4869D5	-10.1592
4C8B5C2490	-10.1594
00060000	-10.1603
4869CD	-10.1603
0F9CC1	-10.1604
8945A4	-10.1605
480FBF4DE2	-10.1616
48899424C80	-10.1617
8945B8	-10.1618
4889442428	-10.1619
120000000000002A0000003	-10.1619
8A45D724010FB6C0	-10.162
0F9584	-10.1623
320000000000002A000000	-10.1625
C4C27978	-10.1626
4C01CB	-10.1627
FFFEFFFF	-10.1639
C44C0000	-10.1643
4C037424	-10.1645
4C01E2	-10.1654
5424D0	-10.1655
D0050000	-10.1671
4969FB	-10.1673
8945E4	-10.1675
48898540FFFFFF	-10.1676
150000	-10.1678
48898538FFFFFF	-10.1679
C4E1F96ED	-10.1684
83C00148984869C0	-10.1692
486BF6	-10.1696
4869C9880000004801C8	-10.1708
4869C9093D00004801C8	-10.1709
C4E3F916	-10.1711
48898530FFFFFF	-10.1716
41C600	-10.1717
489848B9	-10.1718
8A4DEF80E1010FB6C9	-10.1718
4969F7	-10.172
4C29F	-10.173
483B5424	-10.1731
8B4538	-10.1732
4969FC	-10.1733
C4427D3	-10.1746
00000000000000000000000029010000	-10.1746
4869C9720300004801C8	-10.1751
488B442460	-10.1761
48B88	-10.1762
410F4E	-10.1763
48B8C	-10.1765
C60601	-10.1784
BE01000000	-10.179
7AFFFFFF	-10.1791
49C1E50	-10.1797
48C7C1	-10.18
EB2F	-10.18
4183F8	-10.1803
48634DBC	-10.1805
4801DF	-10.1814
894594	-10.1816
4131335F4131335F	-10.1817
0B0000000	-10.1819
8A45FF24010FB6C0	-10.182
C0050000	-10.1822
4E8D3C	-10.1826
48898C24480	-10.1831
4D85D2	-10.1841
1EFFFFFF	-10.1842
488B9424E80	-10.1845
00000000000000005000000000000000	-10.1846
48899424E80	-10.1848
488BB424380	-10.1852
E88A0980E1010FB6C9	-10.1857
0FB74424	-10.1858
486BC9384801C8	-10.1863
49C78	-10.1864
C441796E	-10.1867
8B45DC	-10.1867
8845C	-10.1869
486BC91E4801C8	-10.1871
8A45EF24010FB6C0	-10.1872
488BBC24880	-10.1875
488B9424F80	-10.1878
24018885	-10.1879
C4437914D	-10.188
89458C	-10.188
4801C3	-10.1882
6172725F313800	-10.1882
08050000	-10.1883
486BC91C4801C8	-10.1891
48899424D00	-10.1894
4A8DB4	-10.1898
4408E	-10.1901
400A7424	-10.1902
65000000000000000000000000000000	-10.1908
41C684	-10.191
4839D0480F4	-10.1915
C4E37D39C001	-10.1921
C4E37D39C901	-10.1928
4C8B8424E80	-10.193
440FB64C24	-10.1931
468B	-10.1934
FEFFFF01C88885	-10.1937
20000488BB424	-10.1937
480FBF4DE4	-10.194
480FBE4DD7	-10.1948
7661725F333400	-10.195
488B7C24B8	-10.1953
48F7D8	-10.1954
1A0000000000002A0000002	-10.1957
48C1E82074	-10.1961
30000488B9424	-10.1961
4983F80	-10.1965
48894C24C8	-10.1966
00000000000000000000000090000000	-10.1969
0A000000000000002A0000000	-10.1972
C4417D6F	-10.1979
4889442438	-10.1979
4969FD	-10.1979
488B7424B8	-10.1981
72FFFFFF	-10.1993
4080C7	-10.1994
66837C	-10.1996
488B7C24B0	-10.1999
4181C0	-10.2009
FFFFFF4869D2	-10.201
48C78424	-10.2012
0FB74DE2	-10.2014
48898C24B00	-10.2016
C4E37916	-10.2019
488985F0FEFFFF	-10.2019
C4E37120	-10.2024
8CFEFFFF	-10.2036
350000000000002A000000	-10.2039
49C1F	-10.2042
00A20000	-10.2049
64FEFFFF	-10.2049
7661725F3234007661725F323500	-10.2053
8B45F0	-10.2057
F08A0980E1010FB6C9	-10.2061
7461	-10.2075
0D0000000000002A0000000	-10.2082
4D0F42	-10.2083
C1E005	-10.2083
54010000	-10.2086
C4437914E	-10.2091
8855F	-10.2096
43837C	-10.2099
0000000000000015000000100000000	-10.2104
4939C9	-10.2116
A4010000	-10.2117
488B4C2408	-10.2131
486BC94C4801C8	-10.2131
48898C24800	-10.2132
0C0000000	-10.2138
40886C24	-10.2138
48898528FFFFFF	-10.2139
0A000000120003000000000000000000	-10.214
2200050000000000000000003	-10.2142
490F4C	-10.2144
48899424480	-10.2144
4869F8	-10.2145
0F940	-10.2146
01000000050000000	-10.2151
0FB74DDC	-10.2153
4969F9	-10.2158
4969FA	-10.2159
837DF800	-10.2163
486300	-10.2167
48895424A0	-10.217
B0000000488B85A8000000488B	-10.2172
4C8B4C2498	-10.2173
09000000000000040000000	-10.2173
4C037C24	-10.2181
C4C159C4	-10.2185
488BB424000	-10.2189
488BBC24080	-10.2193
4889442458	-10.2194
488BB424600	-10.2196
4080FF	-10.2197
48899424F80	-10.2199
898520FEFFFF	-10.2206
4C01E1	-10.2215
330000000000002A000000	-10.2216
48898C24580	-10.222
53485F	-10.223
4901C7	-10.2231
48899424080	-10.2233
1C010000	-10.2234
44897424	-10.2234
4E8D34	-10.2235
6000048898424	-10.2236
4D01CE	-10.2238
488BBC24100	-10.224
31C04829C8	-10.2243
488B8D78FFFFFF	-10.2252
488B1424	-10.2263
48894C24A8	-10.2268
04010000	-10.2272
4901D8	-10.2272
7661725F3134007661725F313500	-10.2275
88990000	-10.228
C5F1C4	-10.2284
488B442468	-10.2285
488B442478	-10.2289
40000488B8424	-10.2297
48899424000	-10.2298
000F95C0	-10.2302
00000000000000078000000000000000	-10.2302
FEFFFF01C8668985	-10.2303
000000000006000	-10.2303
7CFEFFFF	-10.2303
4181C1	-10.2311
488985E8FEFFFF	-10.2314
48833A00	-10.2316
48B86	-10.2319
4901DE	-10.232
48B8E	-10.232
428B04	-10.2321
48894C24B8	-10.2321
488B8560010000	-10.2326
3B45	-10.2326
48894C24E0	-10.2331
4801FB	-10.2332
450F43	-10.2339
8FFFFFFE800000000488B00	-10.2341
C4E37D39DB01	-10.2341
4869C9950800004801C8	-10.2344
488BB424D80	-10.2348
41C1E10	-10.2351
488BB424500	-10.2353
0FBEC083C0	-10.2357
400F92C54420	-10.2359
897DFC	-10.2362
488B7424D8	-10.2364
48899424E00	-10.2366
2200170000000000000000003	-10.2372
4D01DE	-10.2372
44885C24	-10.2384
360000000000002A000000	-10.2386
48B82	-10.2386
410F94C2	-10.2388
8B7D	-10.2392
4889442450	-10.2393
488BB424D00	-10.24
418D9	-10.24
898518FEFFFF	-10.2404
ABAAAAAAAAAAAAAA	-10.2407
400F92C64020C6	-10.2408
4889442448	-10.241
4C01D3	-10.2412
31C0482B45	-10.2417
62FFFFFF	-10.2424
2200180000000000000000003	-10.2425
C4C37920	-10.2427
894584	-10.243
48898C24780	-10.2431
0FB7C8	-10.2434
48898C24980	-10.2436
4983FF0	-10.2438
48899424100	-10.244
83E80183F8000F95C0240188	-10.244
48C1E10A4801C8	-10.2441
4D01F0	-10.2444
8A8D5	-10.2448
8945B0	-10.2457
488BBC24200	-10.2458
6643833C	-10.2459
4869C9CB1A00004801C8	-10.2464
0FBF04488985	-10.2465
48898518FFFFFF	-10.2467
41807C	-10.247
4889442478	-10.2479
0F4CD	-10.2481
488B9424E00	-10.2481
53475F	-10.2481
400F94C5	-10.2482
84141100	-10.2483
C1C50000	-10.2487
C4437D39E	-10.2502
48898C24F00	-10.2509
0000000000000000000000030003000	-10.2516
4C2488	-10.252
440FAF	-10.2521
48898510FFFFFF	-10.2525
488B4DB0	-10.253
54FEFFFF	-10.2531
41C74	-10.2531
410F92C4	-10.2532
488B7424C8	-10.2533
4E8B	-10.2538
420FB704	-10.2539
C519EFE	-10.254
FAFFFFEB00	-10.2542
0000000083BD	-10.2546
4889542498	-10.2546
8A80174	-10.2551
C050000	-10.2553
8000000030000000	-10.2561
E8000000004889C18B85	-10.2562
C4E27930	-10.2562
C4E37D39D201	-10.2562
488B442448	-10.2567
EFFEFFFF	-10.257
48894C2490	-10.2573
400FB6D	-10.2579
80380100	-10.258
6262	-10.2581
C5C16BFF	-10.2585
48899424300	-10.2586
4C8B542490	-10.2587
488B442420	-10.259
488BBC24F00	-10.2591
00980700	-10.2595
410FAF	-10.2603
664689	-10.2603
42FFFFFF	-10.2605
48B8B	-10.2613
0000000000070	-10.2614
4883FF1	-10.2615
8845D	-10.2618
0E0000000000002A0000000	-10.2622
0FBEC083E8	-10.2623
0F47D	-10.2624
FEFFFF4869D2	-10.2626
488BB424100	-10.2626
00000000000008000000000000000	-10.2628
0FB64DB7	-10.2629
4889442460	-10.263
4C8B4424A8	-10.2634
4C8B5424A0	-10.2634
490F44C	-10.2634
664439D	-10.2638
0FB74DDA	-10.2639
0FB60C08	-10.2639
48899424600	-10.2642
440A4C24	-10.2643
480FBF4DE6	-10.2643
42010000	-10.2647
498D1C	-10.2653
48898520FFFFFF	-10.2655
C441396BC0	-10.2656
4939C0	-10.2663
488BBC24A80	-10.2666
36FFFFFF	-10.267
80E101	-10.267
08000000000000040000001	-10.2672
48898C24900	-10.2673
488BB424580	-10.2673
488B7C24C8	-10.2678
4C8B4424B0	-10.2681
4869C9E20400004801C8	-10.2682
83E80183F8000F95C024018885	-10.2697
0F97C24C39	-10.2699
10960000	-10.2701
4901FE	-10.2702
488BB424F00	-10.2706
498D74	-10.2707
00440100	-10.271
48B89	-10.271
488B442428	-10.2715
4889842480000000	-10.2718
4939C2	-10.272
746A	-10.2721
488B7C24E0	-10.2723
488B442450	-10.2725
29C888C1488B05000000008808	-10.2728
150000000000002A0000001	-10.2729
48898C24A00	-10.2731
488BB424300	-10.2738
48894C24B0	-10.2744
4501C	-10.2744
48899424400	-10.2744
8378	-10.2748
486BC93C4801C8	-10.275
4D01F7	-10.275
32FFFFFF	-10.2752
6685F6	-10.276
0F95C024010FB6C88A85	-10.2761
488B4C2430	-10.2763
4B8D4C	-10.2766
4901CF	-10.2767
4981C5	-10.2768
420FBF	-10.2772
0FBE04088985	-10.2772
48894C24C0	-10.2775
4869C9220400004801C8	-10.2779
4901D7	-10.2782
8B45D8	-10.2784
4183C2	-10.2787
24010FB6C831C029C8	-10.2795
48C1E10B4801C8	-10.2795
488B442470	-10.2798
48894C24F0	-10.2798
48B87	-10.2798
488B4C2450	-10.2799
C5F97F8424	-10.2802
6172725F313000	-10.2803
C4E27941	-10.2805
488BBC24B80	-10.2806
668B0448	-10.2806
31390000	-10.281
4869C9C40900004801C8	-10.2812
4C036C24	-10.2813
488B442430	-10.2814
4424B0	-10.2817
4869C9C81600004801C8	-10.2817
483B45	-10.2822
E1F50500	-10.2823
488BB424F80	-10.2826
0F95C024018885	-10.2827
488BB424400	-10.2829
00510000	-10.2836
09000000000000040000001	-10.2836
488BBC24E00	-10.2838
C441F96E	-10.2839
C4C17A7E	-10.2839
486995	-10.2841
48C1E1094801C8	-10.2843
898574FFFFFF	-10.2845
488B8568010000	-10.2848
488B5C2490	-10.2848
48898508FFFFFF	-10.2849
FCFFFFE800000000	-10.2849
480FBE4DCF	-10.2854
0FB74DB6	-10.2862
310000000000002A000000	-10.2863
8B45C8	-10.2864
48B8D	-10.2874
4801C8488B4DD8	-10.2875
CEFEFFFF	-10.2877
41C602	-10.288
4C8B4424C0	-10.29
669966F7F	-10.2904
4901DA	-10.2905
48834424	-10.2908
4CFEFFFF	-10.2909
E8000000000FBF00	-10.2913
8B45E0	-10.2913
48898500FFFFFF	-10.2914
4939C3	-10.2914
4D8DA	-10.2916
4101D	-10.2921
480FBF4DDC	-10.2923
480FBEC0	-10.2925
C5797F	-10.2927
48899424500	-10.2927
29C86689C1488B0500000000668908	-10.2933
8985E0FDFFFF	-10.2934
8B4DEC	-10.2935
488B9424C80	-10.2936
4883FD	-10.2936
4F8D2C	-10.2937
6172725F3700	-10.2944
6172725F313400	-10.2947
48B81	-10.2956
00000000080000000000000023000000	-10.2958
4883EA01	-10.2961
48694D88	-10.2961
4869C9420200004801C8	-10.2962
3C010000	-10.2966
4969FF	-10.2971
0D0000000	-10.2985
80B00400	-10.2985
486BC9784801C8	-10.2998
4B8D54	-10.2999
80E2018855	-10.2999
0FB6400	-10.3003
C44129EFD	-10.3005
48894C24A0	-10.3013
0FBF55	-10.3013
48899424200	-10.3015
0FBE45C	-10.3015
488B7424D0	-10.3019
400F92C64020CE	-10.3021
4C8B7C2488	-10.3024
D6FEFFFF	-10.3031
42807C	-10.3039
7661725F333700	-10.3039
80E2010FB6D2486BD2	-10.3041
44896424	-10.3041
4889542490	-10.3044
48894C24D0	-10.3045
48894C24E8	-10.3045
66C745C	-10.3045
488B0500000000891488	-10.3046
3AFFFFFF	-10.3047
488BB424900	-10.3048
488BBC24980	-10.3059
0000000000000018000000	-10.3061
740EB8	-10.3069
C4627979	-10.3077
488B542410	-10.3078
8C010000	-10.3081
488BB424E80	-10.3084
7000000030000000	-10.3086
100000006000000554889E54883EC	-10.3088
837D4000	-10.3088
C4427D2	-10.3091
204E0000	-10.3093
0FB6C083E8	-10.3095
8985D8FDFFFF	-10.3105
40F6C6010F84	-10.3105
41F6C70174	-10.3107
31C02B45	-10.3118
4180C0	-10.3121
C4C171C4	-10.3125
488BBC24A00	-10.3131
85B8000000488B85	-10.3132
6683B	-10.3136
0F94C024010FB6C0	-10.3138
410F94C3	-10.3139
0FB695	-10.3141
4D6BE	-10.3147
7462	-10.3152
4869C9440800004801C8	-10.3155
84D71700	-10.3159
4F8D84	-10.3161
6685FF	-10.3169
48C704	-10.317
6CFEFFFF	-10.3174
E8000000000FBE00	-10.3176
4C8B4C2490	-10.3176
6161	-10.3178
48898424A8000000	-10.3179
8845B	-10.3181
7661725F333500	-10.3183
4801C8488B4DD0	-10.3192
4801F3	-10.3194
C5F1D	-10.3195
110000000000002A0000003	-10.3199
C70001000000	-10.3199
44896C24	-10.3201
49C1E004	-10.3204
63FFFFFF	-10.3204
6683FA	-10.3204
4183B	-10.3208
5C010000	-10.3213
486B4DC8	-10.3217
504131345F4131345F	-10.322
48899424280	-10.3221
7C010000	-10.3227
5B415C415D415E415F5DC3	-10.3228
48634DB8	-10.3229
1F0000000000002A0000003	-10.323
43807C	-10.3233
C4E23937	-10.3241
010000000D000000010000000E000000	-10.3244
7F000000	-10.3247
7661725F3236007661725F323700	-10.325
8985D0FDFFFF	-10.325
0000000000000080	-10.3251
48898C24880	-10.3251
7661725F333600	-10.3255
F6C10175	-10.3257
5BFFFFFF	-10.3259
4C01F3	-10.3268
08292200	-10.3269
4E8D24	-10.3269
442438	-10.3269
488B84C8	-10.3274
2AFFFFFF	-10.3276
488B8D68FFFFFF	-10.3276
8000000488B85C0000000488B	-10.3277
000F95C034FF24010FB6C0	-10.3285
4869C9200F00004801C8	-10.3288
488B442438	-10.3297
66C745D	-10.3299
4C8B542480	-10.3302
89857CFFFFFF	-10.3304
488B8590010000	-10.3307
4501D	-10.3309
7703	-10.3312
488B842480000000	-10.3314
488BBC24780	-10.3315
08AF2F00	-10.3317
7661725F3235007661725F323600	-10.3324
4D69C1	-10.3325
1B0000000000002A0000002	-10.3325
4801D10FB695	-10.3327
4939F2	-10.3328
0E0000000	-10.3328
0100000019000000010000001A000000	-10.3329
340000000000002A000000	-10.3336
DFFEFFFF	-10.3338
7661725F333800	-10.3339
4889C24C09	-10.3347
48898C24C00	-10.3352
4D69C4	-10.3353
4584E4	-10.3356
4D69C5	-10.3357
4809C8	-10.3361
0F46C	-10.3364
4889442470	-10.3373
4D69C2	-10.3374
488BBC24C00	-10.3375
48894C24F8	-10.3377
1E0000000000002A0000003	-10.3378
486B4DE0	-10.3386
8A4DBF80E1010FB6C9	-10.3387
488BB424180	-10.3387
A0860100	-10.3389
534B5F	-10.3394
48894C24D8	-10.3396
8B4DF8	-10.3397
8A4DB780E1010FB6C9	-10.3398
4869C9100500004801C8	-10.34
53315F	-10.34
4C0F4C	-10.3405
486B45	-10.3406
442460	-10.3406
400FBEC	-10.3409
4C8B742488	-10.341
4869C9900700004801C8	-10.3416
4C036424	-10.3417
894DE8	-10.3419
4801D10FB795	-10.342
4889B424880	-10.342
43833C	-10.3428
898564FFFFFF	-10.3431
4889442468	-10.3437
488BBC24D00	-10.3441
48898C24D80	-10.3441
C539EFC	-10.3442
8B4D10	-10.345
48895424B0	-10.3451
488D75E8E800000000	-10.3452
0141C687	-10.3453
E8000000008A0024010FB6C0	-10.3453
4869C9840400004801C8	-10.3457
E8050000	-10.3459
8945A0	-10.3461
488B050000000066891448	-10.3468
41C606	-10.3471
48B83	-10.3471
C6840	-10.3472
10930300	-10.3476
48899424180	-10.3476
10000488BBC24	-10.3477
39C80F95C024010FB6C0	-10.3477
4901D9	-10.3483
C571E	-10.3488
89856CFFFFFF	-10.3488
410F42C	-10.3489
89858	-10.3494
6172725F31343	-10.3494
4D69C9	-10.3495
48894C2498	-10.3498
8338000F84	-10.3498
01C68	-10.3499
488985F8FEFFFF	-10.3499
39C80F8	-10.35
0FFFFFFE800000000	-10.3502
488BBC24B00	-10.3503
4181C2	-10.3504
488B542418	-10.3506
FCFFFF488DB5	-10.3516
4883BC	-10.3518
48694DA8	-10.3529
31D2F7F6	-10.353
4D01F3	-10.3534
48899424700	-10.3535
4883E903	-10.3536
C4627959	-10.3541
488B4C2420	-10.3547
00000000837D	-10.3547
450F4D	-10.355
C4C121	-10.3553
488B8424B0000000	-10.3566
8A400	-10.3567
488B7424E0	-10.357
488B0500000000488914C8	-10.3571
4869C9881300004801C8	-10.3572
480FBE4DBF	-10.3572
24FEFFFF	-10.3573
C8050000	-10.3577
4D69D0	-10.3583
488B7C24C0	-10.3588
4869C9C80D00004801C8	-10.3593
48898C24A80	-10.3594
450F47	-10.3594
C4E26937	-10.3596
4A8D54	-10.3599
483308488B0500000000488908	-10.3602
C5E16BDB	-10.3609
4C8B4C24A8	-10.3612
B902000000	-10.3616
0FB6C02D	-10.3617
0F95C3	-10.3621
488B8D50FFFFFF	-10.3631
034424	-10.3632
40F6C7010F85	-10.3641
48FF8424	-10.3642
34FEFFFF	-10.3649
48C74424	-10.3652
C5F9D6	-10.3656
4801D18A95	-10.3659
4D01F8	-10.3661
FEFFFFE8000000004889C6488DBD	-10.3663
8A1408	-10.3663
4C0F4D	-10.3667
4869C9520100004801C8	-10.3669
41C603	-10.367
000000C785	-10.3671
00FA0000	-10.3671
480FBE4DDB	-10.3674
488B842490000000	-10.3677
53325F50	-10.3685
4D69C6	-10.3688
48898C24B80	-10.3693
4869C9E80300004801C8	-10.3693
8985C8FDFFFF	-10.3695
488945E0	-10.3696
74FEFFFF	-10.37
8B4D9C	-10.3709
39C80F94C024010FB6C0	-10.3711
6172725F3800	-10.3716
4869C9B80A00004801C8	-10.3719
4585E4	-10.3719
488B050000000048B9	-10.3719
488B4D70	-10.3721
4D29F	-10.3725
0FBF0C48	-10.3726
488B4C2440	-10.3728
4869C9872F00004801C8	-10.3739
C4E27D19	-10.374
4901C5	-10.3744
450F4C	-10.3745
4585F6	-10.3748
4863C8	-10.3756
440A4424	-10.3763
64010000	-10.3765
4501F	-10.3778
48394C24	-10.3778
4D01F1	-10.378
4889842488000000	-10.3784
488B0500000000881408	-10.3785
0FB6C881E9	-10.3787
442458	-10.3789
62260000	-10.379
4C8B4424A0	-10.379
6961	-10.3791
894598	-10.3793
C44329	-10.3798
8A8D3	-10.38
7362	-10.3802
488BB424A80	-10.3802
4869C9480500004801C8	-10.3802
488985E0FEFFFF	-10.3802
00000000F0000000000000000	-10.3803
0FAFC188C1488B05000000008808	-10.3804
31C888C1488B05000000008808	-10.3809
488B4C2460	-10.3811
488B0500000000C60000	-10.3812
488B542420	-10.3813
8945A8	-10.3817
83F0FF83F800	-10.3817
488B542408	-10.3821
48898C24E00	-10.3823
41F6C301740	-10.3825
8000000488B85D0000000488B8	-10.3829
4B8D2C	-10.3832
0FB64DE7	-10.3833
0A000000000000040000000	-10.3834
C579EF	-10.3835
488D75E0E800000000	-10.3837
4C8B8C24A00	-10.384
E8000000004889C1488B85	-10.3841
686A	-10.3841
D8050000	-10.3847
483B04D1	-10.3849
48899424580	-10.3854
160000000000002A0000001	-10.3857
48C1E21	-10.3859
488B542428	-10.3863
542488	-10.3863
48898C24C80	-10.3868
89C1488B05000000004805	-10.3882
4D01C6	-10.3885
664585C0	-10.3886
4901F4	-10.3887
400FBEF	-10.3889
0F92C14D39	-10.3889
4C8B8424900	-10.3889
C645B	-10.3894
488B05000000008808	-10.3894
04000000000000040000001	-10.3897
4881C5	-10.3898
C4E25D3	-10.3901
488BBC24400	-10.3903
8A8DE	-10.3903
488B8424A8000000	-10.3904
0FB645FF	-10.3907
40000488B8C24	-10.3917
4101F	-10.3919
488B8570010000	-10.3926
4D01CD	-10.3928
4801D1486955	-10.3936
4801C8488B4DE0	-10.3936
898554FFFFFF	-10.3938
4885DB	-10.3939
24010FB6C04898488985	-10.395
0F0000000000002A0000000	-10.395
8945F0	-10.3952
48899424F00	-10.3953
4D85FF	-10.3953
4C8B8424200	-10.396
E80000000066833800	-10.396
0FB6C983E9	-10.396
83EA014863D24869D2	-10.3965
4C8B8424880	-10.3967
00000000000000800000000000000080	-10.3973
4869C9311300004801C8	-10.3974
41803C0	-10.3975
6962	-10.3976
4801C848694DD0	-10.3978
48895424E8	-10.3978
488B7C24E8	-10.398
4889542488	-10.3982
40680600	-10.3991
534A5F	-10.3994
0FBE0C08	-10.3995
C4E24137	-10.4002
488985D0FEFFFF	-10.4003
83F8000F95C08885	-10.4004
488BBC24E80	-10.4006
488B8D88000000	-10.4011
4D01D6	-10.4012
488985D8FEFFFF	-10.4018
837DF400	-10.4019
94010000	-10.4021
488BB424980	-10.4025
01C86689C1488B0500000000668908	-10.4037
488B7C24D0	-10.4039
CFFEFFFF	-10.4039
488BBC24480	-10.4039
66448B	-10.404
488B4C2418	-10.4042
7661725F343700	-10.4042
0FBEC883E9	-10.4043
C581EF	-10.4049
44FEFFFF	-10.405
8B45D4	-10.4052
400F92C74020C7	-10.4052
C645E	-10.4054
4D01DF	-10.4054
48B800000000	-10.4056
0A000000000000040000001	-10.4059
4D29D	-10.4063
488BB424700	-10.4063
00000000000000000000000045010000	-10.4066
450F45	-10.4067
4B833C	-10.4069
8985B8FDFFFF	-10.4069
0B000000000000040000000	-10.407
534D5F	-10.4071
0F93C0	-10.4072
4138C	-10.4079
4869C9D20200004801C8	-10.408
4883C103	-10.4086
7661725F333900	-10.4087
4C8B542498	-10.4093
400000000000400006000500554889E5	-10.4095
488B4C2470	-10.4097
48899424680	-10.4098
480FBF95	-10.4099
C5A5EF	-10.4104
488BBC24280	-10.4106
04170300	-10.4106
83C2024863D2	-10.4109
490F44F	-10.4109
488B4D78	-10.4111
4983D	-10.4112
488B45D0	-10.4115
488BBC24300	-10.4117
48898C24D00	-10.4117
53495F	-10.4123
F6FEFFFF	-10.4124
4C8B4424B8	-10.4126
4869C9330500004801C8	-10.4139
488B4D68	-10.4145
488B842488000000	-10.4146
488985C8FEFFFF	-10.415
C6FEFFFF	-10.415
0F9507	-10.4152
488B7424F0	-10.4154
6050000	-10.4155
4939D0	-10.4157
53305F	-10.4162
48694DE8	-10.4164
4D85DB	-10.4167
0000000000001B000000100000000	-10.4172
488B4DF0	-10.4173
4C2490	-10.4179
53335F50	-10.4183
0C4E37D19C	-10.4187
4889842490000000	-10.4198
48899424900	-10.4201
0E010000	-10.4203
4869C9A00000004801C8	-10.4206
00000000000000000000000098000000	-10.4206
440FB69C24	-10.4208
488B742420	-10.4216
898544FFFFFF	-10.4217
C645A	-10.4217
488B7424E8	-10.4221
400F93C	-10.4221
5DC30000000000	-10.4226
DEFEFFFF	-10.4232
48898598FEFFFF	-10.4232
542498	-10.4235
488B542460	-10.4235
488B4C2438	-10.4238
410F44F	-10.424
48C1E0024801C6488DBD	-10.424
803B00	-10.4242
887C0300	-10.4242
8B4DAC	-10.4243
4C8B4424D0	-10.4251
4801D14881C1	-10.4257
4283BC	-10.4258
488B8424A0000000	-10.4261
7962	-10.4271
488BBC24D80	-10.4272
898534FFFFFF	-10.4281
7661725F3238007661725F323900	-10.4285
4C8B5424B8	-10.4291
4869C9480B00004801C8	-10.4292
6862	-10.4294
0000000000000000800000000000000	-10.4295
40F6C6010F85	-10.4296
00200A00	-10.4299
4883F800741	-10.4301
C4417D6B	-10.4302
8A45CF24010FB6C0	-10.4303
488B05000000008B00894424	-10.431
00000004C8B8D	-10.4315
48031D00000000	-10.432
7050000	-10.4326
488D75C8E800000000	-10.4327
8B4540	-10.4333
4508E	-10.4334
7379	-10.4341
48634DB4	-10.4346
4D01D7	-10.4352
4C0F4F	-10.4356
488B8424B8000000	-10.4357
40C0E	-10.4361
440F42C	-10.4365
0FB64DC7	-10.4369
668955F	-10.4375
0FB74DC6	-10.4378
AEFEFFFF	-10.4382
4901F7	-10.4391
488B0500000000668908	-10.4391
488BB424680	-10.4392
C745B0	-10.4392
370000000000002A000000	-10.4392
4901CC	-10.4395
7661725F3133007661725F313400	-10.4396
0000000000000017000000100000000	-10.4403
6172725F3900	-10.4408
4889B424800	-10.4408
89C2488B05000000004869D2	-10.4414
488B4C2428	-10.4419
83C1044863C9	-10.442
C5D16BED	-10.4422
488BB424780	-10.4425
4889C6488DBD	-10.4426
070000000000002A0000002	-10.4428
40F6C7010F84	-10.4431
5424A0	-10.4433
5E0000000488B85D	-10.4433
4B8DB	-10.4438
3308488B05000000008908	-10.4441
48898424A0000000	-10.4456
01C888C1488B05000000008808	-10.446
8A4DE780E1010FB6C9	-10.4463
4AC704	-10.4464
4869C9080900004801C8	-10.4465
C5FD6BC	-10.4467
488BB424C00	-10.447
7661725F313300	-10.447
C44131EFC	-10.4471
4901FF	-10.4476
52FFFFFF	-10.4477
4901D5	-10.4479
C4E40000	-10.448
410F9CC	-10.4482
48899424A00	-10.4484
486B4DC0	-10.4486
C579EB	-10.4488
C0074	-10.4497
41F6C4017	-10.45
8985E8FDFFFF	-10.45
488B8424D0000000	-10.4501
4801C848694DD8	-10.4502
48895424A8	-10.4505
488B542440	-10.4516
8985F8FDFFFF	-10.4521
F0000000488B85E8000000488B8	-10.453
488BBC24F80	-10.453
4C8B4C24C0	-10.4532
0FBF04484898	-10.4535
48837C	-10.4536
4869C9A40200004801C8	-10.4549
4869C92F0D00004801C8	-10.455
488B7C24F8	-10.4551
4869C9880200004801C8	-10.4551
4869C9200600004801C8	-10.4551
C4DE0B00	-10.4551
A050000	-10.456
4C8B8424A00	-10.456
FEFEFFFF	-10.456
488B542438	-10.4564
00000000000000020000000000000003	-10.4566
488B8578010000	-10.4568
488BBC24500	-10.4574
4829C1	-10.4576
7361	-10.4582
4D0F43	-10.4582
C4412D	-10.4587
0FB6C981E9	-10.4588
4D01F2	-10.4588
48634DEC	-10.4589
542490	-10.4592
488D75D0E800000000	-10.4599
4869C9000900004801C8	-10.4601
48898568FEFFFF	-10.4604
8B8488	-10.4605
483B4C24	-10.4606
4939CA	-10.4617
A8060000	-10.4622
428A0800	-10.4622
80E201488B0500000000881408	-10.4625
31C86689C1488B0500000000668908	-10.4632
488B8598010000	-10.4632
480FBE95	-10.4638
894590	-10.4641
7661725F3237007661725F323800	-10.4642
53505F	-10.4643
83C2014863D24869D2	-10.4644
409C0000	-10.4644
488B7C24D8	-10.4648
88BD1700	-10.465
4180C2	-10.4654
48898580FEFFFF	-10.4656
6861	-10.4657
488B4D60	-10.4663
C2EB0B00	-10.4665
5CFEFFFF	-10.4668
410F93C	-10.467
4585ED	-10.467
4901CD	-10.4673
0F9506	-10.4674
488D75D8E800000000	-10.4675
48899424380	-10.4677
488B05000000000FB700894424	-10.4678
89D08B95	-10.468
488BB424A00	-10.4682
486395	-10.4683
4C0F46	-10.4686
488BB424800	-10.4689
4C8B7C2498	-10.4689
0FB6C883E9	-10.469
48898424C8000000	-10.4692
4889B424C00	-10.4695
480308488B0500000000488908	-10.4698
0F42E	-10.47
200000000000002A0000003	-10.4702
7862	-10.4712
41C60424	-10.4721
0E800000000488B00	-10.4722
89850	-10.4723
0000000040000000000040000B000A00	-10.4724
4D01FD	-10.4726
480FBE4DDF	-10.4727
48898570FEFFFF	-10.4731
C4E27537	-10.4731
4889B424980	-10.4737
4C8B8424800	-10.4737
6172725F323800	-10.4737
488985C0FEFFFF	-10.4738
84020000	-10.474
488B8D60FFFFFF	-10.4741
4983B	-10.4742
00004000000020000000	-10.4746
43C704	-10.4748
4180C1	-10.475
80D00C00	-10.475
38060000	-10.4753
488B4C2448	-10.4756
9FFEFFFF	-10.4757
39CA0F4	-10.4762
D7FEFFFF	-10.4762
C403791	-10.4764
48898424C0000000	-10.4764
4D01F5	-10.4764
4584F6	-10.4765
8A8D7	-10.4767
8B4548	-10.4768
38070000	-10.4771
4869C9200100004801C8	-10.4772
000000000000040	-10.4773
000000000001300000000000300	-10.4776
74010000	-10.4777
7661725F343000	-10.4779
4C033500000000	-10.4782
0F97C14839	-10.4792
27D79	-10.4793
4869C9880100004801C8	-10.4795
488B8D80000000	-10.4796
48898588FEFFFF	-10.4798
534F5F	-10.48
0FB704484898	-10.4805
48894C2410	-10.4807
48899424780	-10.4813
0B010000	-10.4813
24018845D	-10.4813
4D8D34	-10.4814
488B542430	-10.4816
796A	-10.482
458D5	-10.4823
2200190000000000000000003	-10.4824
7661725F3230005F5A5374336D6	-10.4825
170000000000002A0000001	-10.4825
4C8B4C24A0	-10.4826
4D29C	-10.4826
89854CFFFFFF	-10.4829
4901F5	-10.4831
450F4F	-10.4834
916F0000	-10.4836
C4C1F96ED	-10.4841
42C644	-10.4846
89852CFFFFFF	-10.4847
4C8B5C2498	-10.4848
4869C9B49000004801C8	-10.485
80100000000000048000000000000000	-10.4852
48837DF800	-10.4852
00100500	-10.4852
0C000000000000040000000	-10.4853
4869C9200A00004801C8	-10.4857
48898424D8000000	-10.4859
894588	-10.4863
53345F50	-10.4863
C4427978	-10.4863
39D10F4	-10.4864
48899424980	-10.4868
488BBC24000	-10.4871
6172725F323000	-10.4872
488B842498000000	-10.4873
0FBE55	-10.4874
0A000000120002000000000000000000	-10.4877
22001A0000000000000000003	-10.4878
41460100	-10.4879
4C8B9424800	-10.4882
41F6C5010F84	-10.4883
C4C36920	-10.4883
488BB424880	-10.4886
4869C9001200004801C8	-10.4887
48899424880	-10.4889
0FB74DEA	-10.4889
4C8B4C24B8	-10.4889
488B8424C8000000	-10.489
0F95C180E1010FB6C9	-10.4892
83EA014863D2	-10.4893
83EA024863D2	-10.4893
488B85B8010000	-10.4895
4F8D7	-10.4902
6172725F313100	-10.4903
48898424B8000000	-10.4905
7961	-10.4912
488B85C0010000	-10.4915
83C0018845	-10.4924
488B8D90000000	-10.4924
00300F00	-10.4926
00000000000033000000	-10.4927
0F9DC0	-10.4933
7661725F3139005F5A5374336D6	-10.4935
00710200	-10.4936
88C90100	-10.494
0F0000000	-10.4942
4C8B642490	-10.4947
4869C9100300004801C8	-10.4953
04FEFFFF	-10.4955
534E5F	-10.4955
F8050000	-10.4955
80780	-10.4965
488B7C2410	-10.4966
4D01C4	-10.4968
8B45CC	-10.4968
100000000000002A0000000	-10.4973
78060000	-10.4974
410F92C04120F8	-10.4978
8A8D2	-10.498
4889B424900	-10.4984
4939C6	-10.4985
885C24	-10.4985
483B7424	-10.4987
FEFFFF83E9024863C9	-10.499
C4837914	-10.4991
0F4DF	-10.4994
488D75F0E800000000	-10.5001
69007661725F313	-10.5002
48895424E0	-10.5006
44F40700	-10.5009
4183D	-10.5014
1C0000000000002A0000002	-10.5021
4869C9881000004801C8	-10.5022
786A	-10.5024
89C2488B050000000048694D	-10.5029
490F4E	-10.5029
24018845F	-10.5034
4D69CF	-10.5035
0000000000000000000	-10.5036
4D01E1	-10.5038
0A010000	-10.5038
5DC3000000	-10.505
5F504132335F	-10.5054
53355F50	-10.5056
4D01E8	-10.5065
89D08B55	-10.5069
4584FF	-10.5073
4C8B8C24900	-10.5073
48895424B8	-10.5075
8A040824010FB6C04898	-10.5076
4901C4	-10.5078
488B4D58	-10.5079
082E0600	-10.5079
6172725F313200	-10.508
4C8B642488	-10.5081
48898424F0000000	-10.5084
41F6C5010F85	-10.5085
4939D2	-10.5086
66C745B	-10.5086
488B8D70FFFFFF	-10.5088
488B094829C1488B0500000000488908	-10.5092
28060000	-10.5103
898524FFFFFF	-10.5107
440F4E	-10.5107
C44135	-10.5112
894580	-10.5115
7661725F3138005F5A5374336D6	-10.5115
8B45C0	-10.5115
4889B424200	-10.5116
7661725F343800	-10.5118
41C74500	-10.5122
7861	-10.5134
48833CC	-10.5134
C4E24937	-10.5137
4939D1	-10.5142
00010203	-10.5143
0000000000000014000000	-10.5145
0FB795	-10.5148
7661725F3330007661725F333100	-10.5149
488B8C2480000000	-10.5149
20340300	-10.5151
F7FEFFFF	-10.5152
7661725F343100	-10.5163
53325F	-10.5163
22DF0000	-10.5163
488B542478	-10.5171
0FBE45FF	-10.5174
488985A8FEFFFF	-10.5175
29C883F800	-10.5176
4D01E7	-10.5185
488985B0FEFFFF	-10.519
4D01E6	-10.5194
0000000008010000000000000	-10.5198
4883F1FF	-10.5199
4801C64881C6	-10.5201
488B742430	-10.5202
8A8D6	-10.5205
00000000000300000000000000	-10.5207
48899424800	-10.5209
4D69C3	-10.521
4C8B4424D8	-10.5212
48060000	-10.5221
FFFF4881C4	-10.5221
E7FEFFFF	-10.523
0FAFC16689C1488B0500000000668908	-10.5233
4889B424080	-10.524
898578FFFFFF	-10.5241
F7356200	-10.5241
89F08B75	-10.5241
00200004C8B8D	-10.5242
58060000	-10.5247
4939C4	-10.5255
83F8000F95C024010FB6C0	-10.5256
C4E35120	-10.5256
00000003000000000000002A0000000	-10.5264
B6FEFFFF	-10.5274
4869C9F20000004801C8	-10.5276
8A857	-10.5277
8945EC	-10.5282
8B0088C1488B05000000008808	-10.5284
488B542448	-10.5286
410F92C64120	-10.529
48395424	-10.5294
48898C24F80	-10.5294
6172725F323700	-10.5296
4C8B8C24800	-10.5296
8845A	-10.5301
488B4D50	-10.5304
FFFFFFFFFFFFFFFFFFFFFFFFFFFFFFFF	-10.5306
89851CFFFFFF	-10.5312
0FB65C24	-10.5314
4C24B0	-10.5315
4C8B8C24D80	-10.5316
40000488B9424	-10.5317
0FBE45B	-10.5318
4D01CF	-10.5319
4801C8488B4DC8	-10.5322
40580200	-10.5324
8E800000000488B00	-10.5326
48898538FEFFFF	-10.5326
49C1E204	-10.5326
490F42C	-10.5327
48898C24E80	-10.5328
3CFEFFFF	-10.5339
62EF0500	-10.5343
1F0000000000002A0000004	-10.5351
4C8B5424B0	-10.5352
F4010000	-10.5353
4D01F9	-10.5357
0D000000000000040000000	-10.536
4D69D4	-10.5361
1D0000000000002A0000002	-10.5361
898568FFFFFF	-10.5365
4901DF	-10.5366
450F4E	-10.5369
6643C704	-10.537
7661725F3239007661725F333000	-10.5373
656C612E74657874002E726F64617461	-10.5379
4D01DD	-10.538
48895424F8	-10.5383
48895424C8	-10.5385
8B4DB8	-10.5394
4D0F4F	-10.5395
48894C2408	-10.5397
488B4C2458	-10.5397
4901D4	-10.5398
4584ED	-10.5402
4C8B8424180	-10.5407
6172725F3600	-10.5408
6683BC	-10.541
C745A8	-10.5411
488D75B8E800000000	-10.5417
410F92C24520	-10.542
48895424C0	-10.542
00000000000600	-10.5423
48895424F0	-10.5426
66894DF	-10.5429
00000000000099010000	-10.5432
030000488B85	-10.5435
4889842498000000	-10.5436
488BB424B80	-10.5437
884DF	-10.5443
48898424B0000000	-10.5449
00401400	-10.5449
4B8D8C	-10.545
410F95C7	-10.5451
BFFEFFFF	-10.5454
48895424D8	-10.5455
48898558FEFFFF	-10.5457
48898528FEFFFF	-10.5458
48898424F8000000	-10.5459
4C8B8424C80	-10.5463
4C8B5424A8	-10.5463
4C8B8C24C00	-10.5465
C5BDEF	-10.5466
4180F8	-10.5469
488B8424D8000000	-10.5471
C60701	-10.5471
488B7424F8	-10.5473
898570FFFFFF	-10.5477
4C8B4424C8	-10.5477
08320A00	-10.5479
898590FDFFFF	-10.5481
39D00F8	-10.5485
48899424B80	-10.5493
2CFEFFFF	-10.5499
668B55	-10.55
4C8B5424C0	-10.5505
4869C9C20100004801C8	-10.5506
7661725F3137005F5A5374336D6	-10.5513
0F444424	-10.5518
488B3D00000000488D75C	-10.5521
210000000000002A0000003	-10.5526
4889442480	-10.5526
0F94C3	-10.5527
4C8B8C24B80	-10.5535
00000000000024000000	-10.5536
4D01FA	-10.5536
488B942480000000	-10.5544
48894C2420	-10.5553
8A8DC	-10.5555
4131335F4131335F4131335F	-10.5557
6641F7	-10.5562
4D0F47	-10.5576
488B542458	-10.5584
8B0929C1488B05000000008908	-10.5584
5424A8	-10.5585
100000000000002A0000003	-10.5589
8B006689C1488B0500000000668908	-10.5589
64020000	-10.559
48895424D0	-10.5591
48036C24	-10.5596
C5F970C855	-10.5596
48898548FEFFFF	-10.5596
48898560FEFFFF	-10.56
4131385F4131385F4131385F	-10.5604
18060000	-10.5614
48898550FEFFFF	-10.5615
4D69CE	-10.5619
C531EFC	-10.5621
4D69D2	-10.5624
488985A0FEFFFF	-10.5625
18422E01	-10.5628
83C0038845	-10.5631
48C1E10E4801C8	-10.5631
4C8B4C24B0	-10.5632
89850CFFFFFF	-10.5636
83F8110F8D	-10.5638
7661725F343500	-10.5639
24010FB6C083F8010F8D	-10.5642
0FBE04084898	-10.5644
EB0DB8010000008985	-10.5645
2E6373743136002E726F64617461	-10.5646
8985ECFEFFFF	-10.5646
44BE0100	-10.5652
FF7F0000	-10.5652
4869C95A4800004801C8	-10.5655
4D69C7	-10.5656
C4E1F96EE	-10.5659
488985B8FEFFFF	-10.5665
80981C00	-10.567
36920	-10.5673
488B8424C0000000	-10.5675
4C8B8424400	-10.5681
400F92C74020D	-10.5683
FEFFFF83C1024863C9	-10.5684
7661725F343300	-10.5686
83F0FF83F80074	-10.5689
4889B424A80	-10.569
4080E601408875	-10.5693
210000000000002A0000004	-10.5693
8B45B8	-10.5696
83F800740DB8	-10.571
488B8C24A0000000	-10.5713
4C8B5C2480	-10.5716
6642837C	-10.5721
4869C9080700004801C8	-10.5722
4869C9840300004801C8	-10.5722
0F9EC0	-10.5728
4D01CC	-10.5729
736A	-10.573
34FF24010FB6C0	-10.573
4C8B8424A80	-10.5732
42C784	-10.5735
4889742490	-10.5735
7661725F343200	-10.5738
83F8130F8D	-10.5741
C4C27D59	-10.5742
C4437D39C001	-10.5743
7661725F3331007661725F333200	-10.5744
8B8D5CFFFFFF	-10.5748
83F80B0F8D	-10.5753
488B8580010000	-10.5758
488B4C2468	-10.5759
4889B424000	-10.5762
83C003668945	-10.5763
488B8424E0000000	-10.5766
00100000000000048000000000000000	-10.5766
48B8FFFFFFFFFFFFFF7F	-10.5766
0F9DC1	-10.5768
4939CB	-10.5772
4C8B9424000	-10.5777
488B8D58FFFFFF	-10.5779
4829D14839C80F83	-10.5779
C8E76E16	-10.5782
180000000000002A0000001	-10.5786
A000000FCFFFFFFFFFFFFFF002E	-10.5794
8FBFFFF488B85	-10.5794
4131365F4131365F4131365F	-10.5796
488BBC24380	-10.5799
400F92C74020F7	-10.5804
4038C	-10.5805
31C029C84898	-10.5808
4C8B6C2490	-10.581
8B4558	-10.5811
0FBFC983C1	-10.5811
4869C9400600004801C8	-10.5814
00E20400	-10.5816
7661725F353000	-10.5816
4C033D00000000	-10.5817
898580FDFFFF	-10.5818
488B542450	-10.5819
4D69CD	-10.5819
4131395F4131395F4131395F	-10.5824
898514FFFFFF	-10.5824
1CFEFFFF	-10.5828
4801D1480FBE95	-10.583
0FBEC983E9	-10.5832
488B4C2478	-10.5838
48698D78FFFFFF	-10.5847
80000004C8B8D	-10.5848
0010000488B85F8000000488B8	-10.5849
4C694C24	-10.585
88459	-10.5851
66C745A	-10.5852
480FBF4DC6	-10.586
0F9503	-10.5863
0F97C24D39	-10.5863
8A040824010FB6C8	-10.5865
04C8B8424	-10.5865
E0074	-10.5866
83E9044863C9	-10.5868
C6459	-10.5872
0F978424	-10.5873
0E000000000000040000000	-10.5874
83F80D0F8D	-10.5875
53325	-10.588
4C24A8	-10.5885
C57E7F	-10.589
C4E37D39F601	-10.5891
898570FDFFFF	-10.5891
0F93C024010FB6C0	-10.5895
4889B424180	-10.5896
83C0048845	-10.5896
488B8C2490000000	-10.5896
4132345F4132345F4132345F	-10.5898
48899424C00	-10.5898
C5FA70	-10.59
8B8510010000488B8	-10.5902
4869C924F400004801C8	-10.5903
4869C9A40500004801C8	-10.5907
48898578FEFFFF	-10.5909
898560FFFFFF	-10.5909
488DB560FFFFFFE800000000	-10.591
488BB424C80	-10.591
53515F	-10.5911
80200004C8B8D	-10.5911
4D69D1	-10.5913
83F8150F8D	-10.5914
EE6BC400	-10.5916
0001000000000000	-10.5917
89F08BB5	-10.592
488B542468	-10.5922
4D69CA	-10.5923
4889B424D00	-10.5938
31C0482B04D1	-10.5941
5F504132315F	-10.5942
110000000	-10.5942
4939CF	-10.5943
4869C9305300004801C8	-10.5947
AC020000	-10.5947
0F95C180F1FF80E1010FB6C9	-10.5947
7661725F3132007661725F313300	-10.5948
48899424B00	-10.595
48898500FEFFFF	-10.5952
4C8B4C24D0	-10.5953
488B8588010000	-10.5955
C4E37D39FF01	-10.5956
488B5C24A0	-10.5957
31C02B0491	-10.5958
48894C2448	-10.5964
C745E0	-10.5967
48894C2438	-10.5968
488338000F84	-10.5968
0FB604084898	-10.597
488B8C2488000000	-10.5971
4501E	-10.5976
48C1E920	-10.5979
508010000488B850	-10.5981
4869C9C00600004801C8	-10.5983
48898530FEFFFF	-10.5985
0FBFFFF488B85	-10.599
0FBFC981C1	-10.5992
7661725F343900	-10.6002
4C8B8424B80	-10.6004
4801C8488B4DC0	-10.6007
898560FDFFFF	-10.6009
488B742428	-10.6015
488B742438	-10.6016
898558FFFFFF	-10.6019
4D01E5	-10.6023
488985F0FDFFFF	-10.6024
220000000000002A0000003	-10.6026
48898510FEFFFF	-10.6029
0FBE400	-10.6031
20260700	-10.6035
E6FEFFFF	-10.6035
488B14C8	-10.6041
837D1000	-10.6045
83C002668945	-10.6047
8B45C4	-10.6048
5DC300	-10.6049
4C8B5C24B0	-10.605
488BBC24700	-10.6059
00A9E600	-10.6062
89855CFFFFFF	-10.6062
4C8B8424080	-10.6065
1E0000000000002A0000004	-10.6068
488B05000000000FBF00	-10.6069
53355F	-10.607
48894C2440	-10.6072
4D69D8	-10.6076
48898508FEFFFF	-10.6079
480FBF4DDA	-10.608
8B0C88	-10.608
488B04C84883F0FF	-10.6081
488B8D98000000	-10.6083
83C2014863D2	-10.6084
4939CE	-10.6088
4C8B9424900	-10.6096
53575F	-10.6097
83F8160F8D	-10.6097
4C8B8C24D00	-10.61
4939CD	-10.6102
40F6C5010F84	-10.6104
488B8DA0000000	-10.6107
4C8B8C24080	-10.6107
8B008985	-10.6108
48894C2428	-10.6109
480FBF4DBE	-10.611
8A45EB24010FB6C0	-10.611
8A8D0	-10.6112
010000001B000000010000001C000000	-10.6121
488B542470	-10.6121
4D01EA	-10.6123
0F92C024010FB6C0	-10.6126
483B7C24	-10.6127
898568FDFFFF	-10.6133
50000488B8C24	-10.6141
C4E3FD00E	-10.6141
0F4CF	-10.6142
0FB74D96	-10.6144
83C001668945	-10.6147
220000000000002A0000004	-10.6155
4F8D44	-10.6156
4C8B8424C00	-10.6161
4D01E2	-10.6166
4C8B8424300	-10.6167
C5B5EF	-10.6168
4D8D3C	-10.617
000000000000020000001	-10.6171
488B7C24F0	-10.6173
8A8DF	-10.6175
0FBFC881E9	-10.6184
39C80F9CC024010FB6C0	-10.6186
0FB74C24	-10.6187
39C80F9EC024010FB6C0	-10.619
5B415C415D415E415F5DC30000000000	-10.6194
66413	-10.6194
898550FFFFFF	-10.6196
4869C9127A00004801C8	-10.6197
4C8B8424980	-10.6198
410F9FC	-10.6201
0FBFC981E9	-10.6202
3B0491	-10.6205
488B4D48	-10.6206
48898590FEFFFF	-10.6216
4C8B742490	-10.6221
400FB6C6	-10.6221
4889542408	-10.6221
4801C848694DC0	-10.6223
488B8C2498000000	-10.6237
4C8B8424D80	-10.6241
1D0000000000002A0000004	-10.6242
83C004668945	-10.6244
110000000000002A0000000	-10.6249
4D69D3	-10.6253
4C8B8424680	-10.6255
0B000000000000040000001	-10.6259
7661725F353100	-10.6261
0308488B05000000008908	-10.6261
898550FDFFFF	-10.6264
C4A17A7E	-10.6265
4869C9C04C01004801C8	-10.6268
898578FDFFFF	-10.6272
6172725F313300	-10.6276
4889B424D80	-10.6286
48698D68FFFFFF	-10.6288
488B742408	-10.6289
00000000030006000	-10.6289
4131345F4131345F4131345F	-10.6294
48837DE000	-10.6297
48634DC8	-10.6298
83F8100F8D	-10.6299
0F93C1	-10.6302
488B7C2408	-10.6303
83C0028845	-10.6308
4C694424	-10.6313
8985DCFEFFFF	-10.6315
0F96C024010FB6C0	-10.6317
8A8D1	-10.6319
48694D98	-10.6319
4C8B4424F8	-10.6322
4939F9	-10.6326
410F9DC	-10.6326
488B8C24B0000000	-10.6327
7661725F3136005F5A5374336D6	-10.6327
4D01FB	-10.6328
48894C2430	-10.6328
450F44C	-10.6329
83F80C0F8D	-10.6333
53565F	-10.6335
4C8B9424880	-10.6341
488BBC24900	-10.6344
4D69D9	-10.6346
8A45F724010FB6C0	-10.6347
6172725F3400	-10.6348
30000488BB424	-10.6356
4C8B8424D00	-10.6357
4869C9B1F702004801C8	-10.636
8A45DE24010FB6C0	-10.6362
4901DC	-10.6364
4D39D1	-10.6373
440F42D	-10.6373
48C1E10D4801C8	-10.6374
8B1488	-10.6374
5DC30000000000000000000000000000	-10.6376
4C8B7C2490	-10.6378
4889B424E80	-10.6378
39C80F9FC024010FB6C0	-10.6381
4D01C7	-10.6385
4839CA480F4	-10.6395
488B742418	-10.6395
4C3B6424	-10.6399
0F9FC0	-10.6402
4C8B4424E8	-10.6403
48894C2450	-10.6404
664585C9	-10.6407
4939FB	-10.641
488B4D40	-10.641
488B942488000000	-10.6416
4C8B8C24E00	-10.6417
488B8528010000488B	-10.642
898598FDFFFF	-10.6421
4C8B8424F80	-10.6425
4869C90E5F00004801C8	-10.6437
4C8B8C24200	-10.6438
4869C9622600004801C8	-10.6443
2E726F646174612E6373743400	-10.6443
8985A0FDFFFF	-10.6449
0F9DC2	-10.6455
488B942498000000	-10.6456
4889742498	-10.6456
4889B424B00	-10.6458
8985D4FEFFFF	-10.6459
3A0000000000002A000000	-10.6462
898504FFFFFF	-10.6463
4C8B4424E0	-10.6463
4C8B8424780	-10.6465
440FB67C24	-10.6467
4939FA	-10.6468
C423791	-10.6469
7661725F3332007661725F333300	-10.6472
4B8D7C	-10.6476
C463312	-10.6486
45886448F	-10.6487
68060000	-10.6491
4869C9109303004801C8	-10.6493
B8060000	-10.6494
4C8B9424B80	-10.6499
48BA0	-10.6501
83F80F0F8D	-10.6504
4939F1	-10.6505
4C8B8424100	-10.6511
C4637915	-10.6513
C70301000000	-10.6517
898558FDFFFF	-10.6522
8985C4FEFFFF	-10.6523
53335F	-10.6525
C4427959	-10.6525
204C24	-10.6526
00880200	-10.6532
488378	-10.6533
4C8B9424A00	-10.6534
4181C3	-10.6534
0F97C024010FB6C0	-10.6537
4869C9C44C00004801C8	-10.6543
48898540FEFFFF	-10.6548
4901E8	-10.6548
000000000000000000000000A0000000	-10.6552
4889B424E00	-10.6553
486B4DB8	-10.6557
4D85E4	-10.6557
53545F	-10.6558
488B742440	-10.656
4C8B8C24100	-10.6571
837D5000	-10.6572
04190500	-10.6573
7EFEFFFF	-10.6574
4801C74881C7	-10.6575
7661725F363800	-10.6578
8B4550	-10.6581
C817A804	-10.6583
80000000000000090000000000000000	-10.6591
5F504131385F	-10.6594
4889B424A00	-10.6595
00000000000000000000000061010000	-10.6599
4C8B8424F00	-10.66
120000000000002A0000000	-10.6602
8985E4FEFFFF	-10.6605
48634D9C	-10.6606
4D69DC	-10.6609
4D69CB	-10.6612
53525F	-10.6613
4801C60FB645	-10.6615
4D01EF	-10.6616
0F0000000000002A0000003	-10.6619
4C8B4C24E0	-10.6623
4D01F4	-10.6633
801A0600	-10.6634
4889B424F80	-10.6636
C7FEFFFF	-10.6636
0000000040000000000040000C000B00	-10.6639
8985BCFEFFFF	-10.664
488BBC24580	-10.6643
4801C848694DC8	-10.6647
488B9424B0000000	-10.6648
488D75A8E800000000	-10.6652
3B0000000000002A000000	-10.6654
8A854	-10.6655
4B8D74	-10.6657
4D0F46	-10.6667
4801C8488B8C24	-10.6667
83F80A0F8D	-10.6667
4C8B5424C8	-10.6672
4D01DC	-10.6674
488B3D00000000488D75D	-10.6677
488B8DA8000000	-10.6684
4869C960A600004801C8	-10.6687
5F504132355F	-10.6694
66897DF	-10.6698
4869C91CBE00004801C8	-10.6699
89853CFFFFFF	-10.6704
4C8B7C24A0	-10.6705
DCD78801	-10.6705
4C8B8424E00	-10.6707
4D01E3	-10.6707
8B45B4	-10.6708
48C1E820	-10.671
00000000000000005800000000000000	-10.6714
4801D1480FBF95	-10.6716
4C8B8C24500	-10.672
4D69CC	-10.6722
400A6C24	-10.6728
EB0AB8	-10.6729
205424	-10.6733
4889542430	-10.6738
39C80F9DC024010FB6C0	-10.6741
66756E632E637070005F5A3474657374	-10.6742
488B5C24B8	-10.6744
53365F50	-10.6745
404C0E00	-10.6747
00C40900	-10.6754
4889542420	-10.6756
4C8B8424B00	-10.6757
8985ACFEFFFF	-10.6757
488BBC24680	-10.676
400F92C74020CF	-10.676
4839D1480F4	-10.676
22FA0300	-10.6764
6172725F31353	-10.6765
4889542410	-10.6771
8A4DE580E1010FB6C9	-10.6775
6172725F333800	-10.6776
8985CCFEFFFF	-10.6782
80000004C8B85	-10.6783
66C745E	-10.6785
83F8140F8D	-10.6798
A000000120004000000000000000000	-10.68
488B8424E8000000	-10.68
6172725F333700	-10.6806
4C8B8C24A80	-10.6806
490F44D	-10.6806
4C8B8424580	-10.6808
488B9424B8000000	-10.6812
488B5C2498	-10.6814
8520010000488B851801000048	-10.6814
488B8C24D8000000	-10.6819
400D0300	-10.6824
507950	-10.6826
41837C	-10.6836
31C929D1	-10.684
4889B424780	-10.6842
4C8B7C2480	-10.6846
488B8424F0000000	-10.6848
35920	-10.6851
4829C8480385	-10.6852
00802800	-10.6853
060000000000002A0000002	-10.6855
FEFFFFE8000000004889C18B85	-10.6857
8B45BC	-10.6858
837DEC00	-10.6858
4883F800742	-10.6861
8B45D0	-10.6862
2E726F646174612E6373743800	-10.6866
7661725F343400	-10.6867
4901FC	-10.6868
80E101884DE	-10.6869
130000000000002A0000000	-10.687
41F6C201740	-10.6871
4939D7	-10.6882
410F92C44120	-10.6884
4869C9E1F505004801C8	-10.6889
F9FFFFEB00	-10.6889
4C8B6C24A8	-10.6889
488B8D18FFFFFF	-10.6893
4C8B8424600	-10.6895
8B048883F0FF	-10.6901
224424	-10.6903
4C8B8C24180	-10.6904
83F80E0F8D	-10.6909
4D01E0	-10.6911
66C7459	-10.6914
4C8B8C24880	-10.6924
20D51C00	-10.6929
7661725F3135005F5A5374336D6	-10.693
C4632502D	-10.6932
0FBE45A	-10.6933
488BBC24600	-10.6933
4C8B4C24F0	-10.6937
1A0000000000002A0000001	-10.6938
4889B424100	-10.6939
488B8D28FFFFFF	-10.6941
48C1E1104801C8	-10.6941
6172725F3500	-10.6941
626A	-10.6941
4889542428	-10.6945
7661725F3333007661725F333400	-10.6945
8A4DEB80E1010FB6C9	-10.6948
898588FDFFFF	-10.696
53415F	-10.6968
6162	-10.6974
0000480385	-10.6978
14FEFFFF	-10.6978
8955F8	-10.6979
77FEFFFF	-10.6981
898540FFFFFF	-10.6985
488B8C24C8000000	-10.7
4D39D3	-10.7004
4129C	-10.7006
240000000000002A0000004	-10.7009
C4421937	-10.7011
488B8C24D0000000	-10.7014
4869C9109A01004801C8	-10.7015
AFFEFFFF	-10.7017
8A853	-10.7017
89F88BBD	-10.7021
4889B424B80	-10.7035
C1E30	-10.7042
0CFEFFFF	-10.7042
8A8DA	-10.7043
489949F7F	-10.7046
4C8B5424D8	-10.7046
39F70F4	-10.7047
83F8120F8D	-10.7051
4869C9205B00004801C8	-10.7051
4C8B8424000	-10.7053
C463F916	-10.7054
CFFFFFFE8000000008B00	-10.7055
4D69D6	-10.7056
488B5C2480	-10.7058
4889B424300	-10.7058
898538FDFFFF	-10.7058
390000000000002A000000	-10.706
1C0000000000002A0000004	-10.7068
89859CFEFFFF	-10.7069
898538FFFFFF	-10.7071
4F8D54	-10.7087
488994C8	-10.7088
6A62	-10.7089
4C8B8C24F80	-10.7093
828B0100	-10.7094
490FAFF	-10.7097
48694DA0	-10.7099
00000000000000001000000000000000	-10.7099
4C8B4C24C8	-10.711
42837C	-10.711
190000000000002A0000001	-10.7113
4C8B742480	-10.7115
400F92C64020D6	-10.7117
4C8B8C24C80	-10.7118
4520F	-10.7119
0F4FD	-10.7126
898548FDFFFF	-10.713
FCFFFF8A85	-10.713
488B8C24F8000000	-10.7131
4869C9006C00004801C8	-10.7136
4C8B8C24000	-10.7138
89C089C1488B0500000000488908	-10.7138
89C1488B0500000000881408	-10.7142
83F2FF	-10.7143
4869C948E801004801C8	-10.7147
000000000000040000005	-10.7147
4889742488	-10.7149
616A	-10.7153
8985B4FEFFFF	-10.7158
8985A4FEFFFF	-10.7168
48C1E10F4801C8	-10.7169
4C8B8C24F00	-10.7172
1B0000000000002A0000004	-10.7176
86FEFFFF	-10.7179
488B9424C0000000	-10.7181
74A91600	-10.7186
48894C2458	-10.7195
4D69DA	-10.7198
7661725F3335007661725F333600	-10.72
89C1488B050000000066891448	-10.7205
898530FFFFFF	-10.7206
85513E00	-10.7213
48833CD	-10.7216
76FEFFFF	-10.7216
4C695C24	-10.7219
48837D2800	-10.7219
00A74100	-10.722
C4421137	-10.7222
F6040801	-10.7237
4129F	-10.7237
09C888C1488B05000000008808	-10.7243
8B4DB0	-10.7246
260000000000002A0000004	-10.725
490FAFD	-10.7254
400FB6F	-10.7256
97FEFFFF	-10.7257
4C8B9424980	-10.7258
53595F	-10.7259
48694D90	-10.7262
7661725F353200	-10.7267
410F97C6	-10.7269
486B55	-10.7272
898540FDFFFF	-10.7276
0FAFC183F800	-10.7277
20000000000000003400000001000000	-10.7278
C5D5EFE	-10.7278
898594FEFFFF	-10.7281
0101010101010101	-10.7282
66837D1000	-10.7288
4C032D00000000	-10.7289
4939C7	-10.7299
00000004000000000000000080	-10.73
898584FEFFFF	-10.73
42833C8	-10.7306
53555F	-10.7309
0AA37C00	-10.731
4939DA	-10.7312
48837D1000	-10.7324
4869C9A84400004801C8	-10.733
120000000	-10.7333
488B3D00000000488D75E	-10.7333
83F8010F8D	-10.7339
4C032500000000	-10.7341
4C8B8C24980	-10.7342
8A4408	-10.7347
53375F50	-10.7348
230000000000002A0000004	-10.7352
894DF0	-10.7352
488B8C24F0000000	-10.7353
4939F0	-10.7359
4889B424400	-10.7363
1A0000000000002A0000004	-10.7364
53345F	-10.7369
488B9424C8000000	-10.7375
0F92C24D39	-10.7377
400F9DC	-10.7379
4D69DB	-10.738
89858CFEFFFF	-10.7381
898528FFFFFF	-10.7381
400F9CC	-10.7382
48837D1800	-10.7385
41C607	-10.7387
FEFFFFE8000000004889C7	-10.7392
4C8B9424C00	-10.7393
488B8D38FFFFFF	-10.7395
4801D1486395	-10.7396
4C8B8C24B00	-10.7398
8B8D7CFFFFFF	-10.7402
00000000D8000000000000000	-10.7402
4939F3	-10.7405
4801C848694DE0	-10.7406
B000000FCFFFFFFFFFFFFFF002E	-10.7408
750AB0018885	-10.7411
4000048898C24	-10.7413
807DFF00	-10.7414
0F92C020C8	-10.7417
4939D3	-10.7421
48897424A0	-10.7427
4C8B8424280	-10.7429
440FB66424	-10.7436
8A8D4	-10.7438
C4E1F96EF	-10.744
B7FEFFFF	-10.7441
488B9424D0000000	-10.7442
4C8B9424200	-10.7444
4869C92A1100004801C8	-10.7445
89C1488B0500000000488914C8	-10.7445
4889B424380	-10.7451
4D29E	-10.7454
40000488BB424	-10.7457
8955F4	-10.7459
000000000000B5010000	-10.746
4131355F4131355F4131355F	-10.7465
7661725F3134005F5A5374336D6	-10.7467
8A855	-10.7471
C44111EFE	-10.7476
4131315F4131315F4131315F	-10.7477
48634DAC	-10.7479
0FBE4518	-10.748
4939CC	-10.7481
53375F	-10.7483
E40B5402	-10.7483
C4C37916	-10.7484
01000000060	-10.7488
7661725F3334007661725F333500	-10.7488
0F9CC2	-10.7491
C6458	-10.7495
4129D	-10.7496
8B4D84	-10.75
48894C2460	-10.7509
480FBF4DAE	-10.7509
C441196BE	-10.7512
6A61	-10.7514
6172725F313900	-10.7515
4C8B5C24A0	-10.7519
43C82500	-10.7522
740AB0018885	-10.7526
66837DFE00	-10.7526
230000000000002A0000003	-10.7539
4D0F4C	-10.754
410F95C6	-10.754
486B4DB0	-10.7541
3C0000000000002A000000	-10.7543
014883D	-10.7555
480FAF08488B0500000000488908	-10.7559
4C8B8424480	-10.7559
408875F	-10.756
6641C744	-10.7563
1446F900	-10.757
89C1488B0500000000891488	-10.7571
C00000004C8B8	-10.758
488B3D00000000488D75B	-10.7583
4D39D9	-10.7602
0FB75424	-10.7611
4C8B4C24D8	-10.7611
488DB538FFFFFFE800000000	-10.7612
4C8B4424F0	-10.7614
39CA0F8	-10.7616
BEFEFFFF	-10.7623
4939DB	-10.7629
837D2800	-10.7638
EAFEFFFF	-10.7638
D8A81300	-10.7641
488985A8FDFFFF	-10.7646
3E0000000000002A000000	-10.765
7661725F343600	-10.7651
4C8B8424500	-10.7653
4C8B6C2488	-10.7659
89857CFEFFFF	-10.7661
4D01D4	-10.7671
488D7580E800000000	-10.7672
1F0000000000002A0000002	-10.7676
0FB64408	-10.7684
A6FEFFFF	-10.7688
6172725F323600	-10.7695
7661725F3336007661725F333700	-10.7695
400FB6ED	-10.7698
EB0431D2F7F	-10.7698
4889BC24380	-10.7699
408A75	-10.7706
C5CDEFF	-10.7707
C4E37D39ED01	-10.7714
1E0000000000002A0000002	-10.7717
4883C4305DC3	-10.7718
FFFFFFE8000000004889C18B85	-10.7719
8B4D38	-10.7721
83F8170F8D	-10.7723
034C24	-10.7724
4801D1486995	-10.7727
0F9EC1	-10.773
83F001	-10.7731
4869C9682101004801C8	-10.7732
6172725F323900	-10.7736
48C745D0	-10.7736
83E80189C0	-10.7737
4C8B8C24300	-10.7739
C4E36D02D	-10.774
4FFFFFFE8000000008B00	-10.7743
C59DEF	-10.7746
4889B424500	-10.7761
8985C	-10.7762
898520FFFFFF	-10.7763
898530FDFFFF	-10.7764
837D1800	-10.7765
0000000000000009000000000000	-10.7773
4869C9C05500004801C8	-10.7776
488B8424F8000000	-10.778
4889542450	-10.7781
48894C2478	-10.7783
488B7C2418	-10.7784
C4C179D6	-10.7794
4869C9916F00004801C8	-10.7795
6172725F3200	-10.7799
4C8B8C24280	-10.7804
4889B424280	-10.7808
7661725F3231005F5A5374336D6	-10.781
8B45B0	-10.7813
8B45A4	-10.7817
2E726F646174612E637374313600	-10.7818
6172725F343800	-10.7825
6CD40900	-10.7836
4C8B5C24C0	-10.7838
48634DA4	-10.7846
5331305F	-10.7847
C4217A7E	-10.7847
5331325F	-10.7847
000000000005001000000000000	-10.7853
80F1FF80E101488B05000000008808	-10.7857
A7FEFFFF	-10.7859
22001B0000000000000000003	-10.786
4C8B7424C0	-10.7863
F2052A01	-10.7863
240000000000002A0000003	-10.7871
4C8B9424D80	-10.7883
53395F50	-10.7883
00000000000B0	-10.7884
1B0000000000002A0000001	-10.7885
C5F970D155	-10.7887
4C8B9424F00	-10.7888
807D2000	-10.7895
4889B424580	-10.7899
C4C3F916	-10.7902
4C8B9424E00	-10.7903
00CA80174	-10.7904
4901EA	-10.7908
C4C37D39F	-10.791
53425F	-10.7915
0FBFC881C1	-10.7917
898548FFFFFF	-10.792
807D1800	-10.7921
4C8B5C24B8	-10.7924
21C86689C1488B0500000000668908	-10.7925
98070000	-10.7926
7661725F3438007661725F343900	-10.7928
0050C300	-10.7937
224C24	-10.794
4C8B9424600	-10.794
4D01EB	-10.7945
22001C0000000000000000003	-10.7947
4883C4205DC3	-10.7949
53385F50	-10.7949
EB1048C7C0	-10.7949
488985B0FDFFFF	-10.7955
4869C9902D00004801C8	-10.7956
488B742448	-10.7957
66837D1800	-10.7958
8852AD00	-10.7962
4939D4	-10.7964
01C883F800	-10.7966
5F504131355F	-10.7967
140000000000002A0000000	-10.7973
4C8B8424380	-10.7977
0F97C24939	-10.798
480FBF4DB6	-10.7983
4863C848B8	-10.7988
4C8B442408	-10.7989
6172725F323500	-10.7992
410F97C7	-10.7996
66837D2000	-10.8002
035424	-10.8008
83E8014863C8488B0500000000	-10.8008
48898C24A0000000	-10.801
6641C7042401006641897D00	-10.8011
31D241F7F1	-10.8015
0FBE4520	-10.8015
410FB6040	-10.8016
4C8B8424700	-10.8016
4839C6480F4	-10.8017
8985F4FEFFFF	-10.8018
0000000000005C000000	-10.8021
5331315F	-10.8023
4C8B8C24780	-10.8024
488B44C8	-10.8026
09C86689C1488B0500000000668908	-10.8027
48C745C8	-10.8029
488B0CD1	-10.8031
C5C9D	-10.8033
C78578FFFFFF	-10.8034
4883F0FF4883F800	-10.8043
4869C9800C00004801C8	-10.8047
48C745C0	-10.8048
488D7588E800000000	-10.8057
488B9424A8000000	-10.8061
9EFEFFFF	-10.8064
288CF201	-10.8064
48898C24D0000000	-10.8074
48898C2490000000	-10.8083
4C0F4E	-10.8085
4889B424480	-10.809
7661725F313200	-10.809
4D01C5	-10.809
C5F9C5C	-10.8093
488B5C24A8	-10.8095
4C8B5C24A8	-10.8098
31D241F7F0	-10.81
4C8B8C24380	-10.8101
4C8B6C24A0	-10.8102
48898C2498000000	-10.8103
01010000	-10.8106
4883C4405DC3	-10.8112
4869C9542200004801C8	-10.8116
40AA3900	-10.8122
0000000000000003001000000000000	-10.8127
0000000000000002801000000000000	-10.8129
89855CFEFFFF	-10.8132
4889B424C80	-10.8133
4D8D24	-10.8139
898574FEFFFF	-10.8144
0FBE459	-10.8147
C78570FFFFFF	-10.8147
40F6C5010F85	-10.8148
F3FEFFFF	-10.8149
6172725F333400	-10.815
9000000040000000	-10.8151
0EDB0	-10.8159
5F504131375F	-10.8163
40B60	-10.817
6261	-10.8171
898544FEFFFF	-10.8173
808D3A01	-10.818
488B8C24A8000000	-10.8186
8985F8FCFFFF	-10.8186
00D43000	-10.8189
488B4DC84883E901	-10.8192
898534FEFFFF	-10.8199
00000000400000000000400009000800	-10.8201
48898C2480000000	-10.8203
C4E37502C	-10.8206
31C883F800	-10.8207
C4427958	-10.8215
130000000	-10.8216
C4E36502D	-10.8219
488B942490000000	-10.822
488B8C24B8000000	-10.8221
00881300	-10.8223
898500FDFFFF	-10.823
6172725F333500	-10.823
8EFEFFFF	-10.8233
4138F	-10.8235
837DF000	-10.8238
4D01EC	-10.8245
48897424B8	-10.8245
4D69D7	-10.8246
4869C9387C01004801C8	-10.8247
EB0531D241F7F	-10.8251
EB0A31C08985	-10.8251
535A5F	-10.8256
4C8B9424A80	-10.8261
4C8B9424400	-10.8264
480B08488B0500000000488908	-10.8265
488B742458	-10.827
5F53324	-10.8277
4C8B9424D00	-10.8278
4901FD	-10.8278
8B4D94	-10.8279
83C10389C9	-10.8282
0F4FF	-10.8292
4869C9701500004801C8	-10.8292
0F4EC	-10.8293
4869C9A00F00004801C8	-10.8297
21C888C1488B05000000008808	-10.8298
83E90389C9	-10.8305
44887C24	-10.8307
8A4DAF80E1010FB6C9	-10.8308
210000000000002A0000002	-10.8309
4C8B5C24F8	-10.8309
66C7458	-10.8311
0F46D	-10.8317
8A4DC780E1010FB6C9	-10.8319
4C8B6424D0	-10.8321
C4417A7E	-10.8324
4869C911FD01004801C8	-10.8332
3F0000000000002A000000	-10.8335
DAFEFFFF	-10.8336
1796E	-10.8337
C4E3FD00DB	-10.8337
0000000020010000000000000	-10.834
00000000000021000000100000000	-10.8341
4C8B8C24600	-10.8343
40010000488B8538010000	-10.8344
4869C900B001004801C8	-10.8349
4D39C1	-10.8352
4939C5	-10.8353
6EFEFFFF	-10.8361
48894C2470	-10.8362
400F97C74D39	-10.8364
C4427933	-10.8366
4939D6	-10.8367
4889542460	-10.8367
5F504131345F	-10.8371
0B08488B05000000008908	-10.8373
8985F8FEFFFF	-10.8376
6172725F343700	-10.8382
7661725F3436007661725F343700	-10.8387
E800000000488BBD	-10.839
07010000	-10.839
7661725F373400	-10.8392
8A4DDE80E1010FB6C9	-10.8392
7661725F373300	-10.8401
488B4D38	-10.8408
C4E35D02E	-10.8412
0FBE4528	-10.8413
6642C744	-10.8419
4889BC24080	-10.842
C509EFF	-10.8423
48897424B0	-10.8424
4D0F4D	-10.8435
48898C24E8000000	-10.8437
48897424E8	-10.8439
53425F50	-10.8447
807D1000	-10.8451
664439F	-10.8454
0FBE4510	-10.8454
4D01D5	-10.8459
44A95600	-10.8463
53415F50	-10.8468
4801C8488B4DB0	-10.847
8985F0FEFFFF	-10.8472
48897424D0	-10.8475
4869C9CC1400004801C8	-10.8475
CFEFFFFE8000000008B00	-10.8486
48C1E0034801C6E800000000	-10.8488
898510FFFFFF	-10.8493
8A852	-10.8493
740DB8010000008985	-10.8499
6642833C7	-10.8501
7661725F3133005F5A5374336D6	-10.8509
488B8C24E8000000	-10.8513
0F954500	-10.8514
4883F800743	-10.8522
48898C24C8000000	-10.8525
4869C900D800004801C8	-10.8528
96FEFFFF	-10.8528
48898C24F8000000	-10.853
4C8B5C24D8	-10.8531
78B25C00	-10.8532
4869C9414601004801C8	-10.8532
C5F16	-10.8532
4889B424680	-10.8535
4B8D94	-10.8535
FEFFFFEB008B45	-10.8539
7FFEFFFF	-10.8542
889408	-10.8548
250000000000002A0000004	-10.8549
898518FFFFFF	-10.8553
53395F	-10.8553
7661725F3337007661725F333800	-10.8554
C4637916	-10.8554
F2FEFFFF	-10.8557
740731D249F7F	-10.856
4869C9800D00004801C8	-10.8565
89856CFEFFFF	-10.8565
83C00189C0	-10.8569
898564FEFFFF	-10.8575
C5DDEFE	-10.8576
4869C958D600004801C8	-10.8576
48698D50FFFFFF	-10.8581
5331345F	-10.8583
4889542440	-10.8587
7661725F3339007661725F343000	-10.8587
0183D	-10.8587
488D7518E800000000	-10.8591
88458	-10.8598
8B4DF0	-10.8598
41837D0000	-10.8599
48894C2468	-10.8599
C4627958	-10.8606
49D1E	-10.8607
488D75F8E800000000	-10.8612
53465F	-10.8614
4869C9889900004801C8	-10.862
4C8B8C24480	-10.8621
48D1E04801C6E800000000	-10.8622
40000000000000001000000020000000	-10.8633
4C8B9424B00	-10.8634
4869C9803E00004801C8	-10.8635
48D1E04801C6488DBD	-10.8636
4C8B8C24700	-10.8637
4C8B742498	-10.8643
48396C24	-10.865
3FFEFFFF	-10.8651
0F95C08845	-10.8658
4C8B8D900000004C8B8D880000004	-10.866
C5F1F	-10.866
4383BC	-10.8669
39C10F8E	-10.8669
5F504132305F	-10.8673
8985E8FEFFFF	-10.8677
FFFFFF24010FB6C083F8010F8D	-10.8679
0FB68D6FFFFFFF	-10.8684
6172725F323400	-10.8685
49837C	-10.869
C442792	-10.8695
C5FD6BE	-10.8695
48898C24A8000000	-10.87
4C8B9424680	-10.8703
69507950	-10.8707
488D7510E800000000	-10.8709
488B7C2420	-10.871
83E8014898486BC0	-10.8713
1D0000000000002A0000001	-10.8714
410F92C04120C0	-10.8717
898554FEFFFF	-10.8717
41F6C0010F85	-10.8723
4C8B4C24F8	-10.8723
488B742410	-10.8724
8985FCFEFFFF	-10.8724
4889C131C0482B01	-10.8726
41F6C0010F84	-10.8731
488B742478	-10.8736
66448B55	-10.8741
48897424F0	-10.8744
8A45E324010FB6C0	-10.8747
2E726F646174612E637374333200	-10.8754
53445F	-10.8756
41FEC	-10.8763
0F9FC1	-10.8764
4C8B6424A0	-10.8765
89854CFEFFFF	-10.877
41F6C3017	-10.8774
4C396424	-10.8775
43C644	-10.8781
4C695424	-10.8782
7661725F3338007661725F333900	-10.8785
488B7C2440	-10.8789
00000000000064000000	-10.8797
4C8B9424E80	-10.8799
000000000005801000000000000	-10.8801
0000000000001F000000100000000	-10.8801
0000000000002B000000	-10.8803
48897424D8	-10.8806
C4422137	-10.8807
4869C9313900004801C8	-10.8814
ABAAAAAA	-10.8814
4869C9963500004801C8	-10.8817
69507850	-10.8818
6172725F31363	-10.8819
488B3D00000000488D75A	-10.882
48897424F8	-10.8822
C58DEF	-10.8823
8FEFFFFE80000000048833800	-10.8824
62720000	-10.8826
39F20F4	-10.8827
898508FFFFFF	-10.8827
6172725F3231	-10.8833
36EA0400	-10.8835
202C0100	-10.8836
4869C9D00700004801C8	-10.8838
FFFFFF008A85	-10.8842
4C8B642480	-10.8844
482308488B0500000000488908	-10.8846
4869C9660A00004801C8	-10.8854
C4827D	-10.8856
C5F16BC9C5F163C9	-10.8861
3C592E00	-10.8879
EBFEFFFF	-10.8879
8A45E524010FB6C0	-10.8883
F6C20175	-10.8885
66837D2800	-10.8891
48698D28FFFFFF	-10.8899
48C1E0034801C6488D7D	-10.8902
488B8C24E0000000	-10.8905
4C8B7C24B0	-10.8909
80D32000	-10.8913
6172725F333900	-10.8914
C4E25537	-10.8919
C57970C	-10.8919
400FB6C7	-10.892
0000E601	-10.8921
4889BC24D00	-10.8922
00000000000035000000	-10.8926
6172725F323300	-10.8927
86904B00	-10.8935
4FEFFFFE8000000008B00	-10.8937
C4E35D4B	-10.8939
47FEFFFF	-10.894
4901DD	-10.8941
87FEFFFF	-10.8941
410F95C5	-10.8944
4C8B9424100	-10.8946
488D7528E800000000	-10.8947
4869C9001B00004801C8	-10.895
7661725F373500	-10.895
83F8180F8D	-10.8951
00000000000045010000	-10.8954
E8522D00	-10.8955
0C219700	-10.896
48C745B8	-10.8961
4C396C24	-10.8962
B8AF1103	-10.8962
4869C9109600004801C8	-10.897
E4C435049305F30002E4C435049305F3	-10.8971
8985E8FCFFFF	-10.8975
8B45A0	-10.8976
2308488B05000000008908	-10.8979
53435F50	-10.898
8985D0FCFFFF	-10.8988
5331355F	-10.899
5331335F	-10.8991
488DB578FFFFFFE800000000	-10.8991
48897424A8	-10.8996
8B4D8C	-10.8997
4C8B642498	-10.9001
89851CFEFFFF	-10.9002
4C8B8C24400	-10.9002
48C1E0024801C6E800000000	-10.9025
8985E0FEFFFF	-10.9026
83C0014863C8488B0500000000	-10.9027
69507450	-10.903
4181E	-10.9032
4869C9E02A00004801C8	-10.9041
488B742450	-10.9048
480FBE8D7FFFFFFF	-10.9049
C4C1F96EE	-10.9049
4C8B9424780	-10.905
F9029500	-10.9051
4C8B4C24E8	-10.9051
5331365F	-10.9054
7661725F3530007661725F353100	-10.9062
BAFEFFFF	-10.9062
46FEFFFF	-10.9067
C4C34920	-10.9069
898524FEFFFF	-10.907
4138D	-10.9074
00601E00	-10.9076
69506250	-10.9077
E2FEFFFF	-10.9078
4889542418	-10.9078
89853CFEFFFF	-10.908
885408	-10.909
0F92C020D0	-10.9102
4F8D8C	-10.9103
53535F	-10.9104
48C1F82048C1F920486BC06448898424	-10.911
4889BC24E00	-10.9111
741048C7C0	-10.9112
035C24	-10.9114
000000000006001000000000000	-10.9116
898500FFFFFF	-10.9116
4C8B7424C8	-10.9116
488B8C24C0000000	-10.9117
4C8B9424180	-10.9117
C5FD6BD	-10.9124
44886C24	-10.9125
00010280020380800405808006078080	-10.9126
1B750200	-10.9129
E4C435049305F33002E4C435049305F3	-10.9129
488DB568FFFFFFE800000000	-10.9132
3EFEFFFF	-10.9134
000000000009801000000000000	-10.9135
0000000000000019000000100000000	-10.9136
C4417970D	-10.9137
0F97C04939F	-10.9138
0000000000002D000000	-10.9143
4C8B9424280	-10.9146
8B08488B05000000008908	-10.9147
8985F4FDFFFF	-10.9149
8985C8FEFFFF	-10.9153
4038D	-10.9154
8985C8FCFFFF	-10.916
F645D	-10.9161
48898C2488000000	-10.9167
0000000000000003801000000000000	-10.9173
807D2800	-10.9174
488B742460	-10.9174
0E000D000	-10.9176
27FEFFFF	-10.9177
4C8B5424E8	-10.9185
7661725F3431007661725F343200	-10.9187
899488	-10.9187
0FAF08488B05000000008908	-10.9192
B000000050000000	-10.9195
8985D8FEFFFF	-10.9196
4C8B9424C80	-10.9201
4D39F3	-10.9201
488B9424A0000000	-10.9203
9D000000000000000000000000000000	-10.9204
53385F	-10.921
000000000006801000000000000	-10.9218
48897424C0	-10.9219
37E4C5D96BE4C5D9EFE	-10.9224
69506850	-10.9233
4C8B9424480	-10.9234
4D39D8	-10.924
7661725F3532007661725F353300	-10.9255
410F92C14520C1	-10.9255
488B8580000000488B4578488B4570	-10.9261
150000000	-10.9261
00350C00	-10.9265
A000000120005000000000000000000	-10.9273
4889542438	-10.9277
4869C9001005004801C8	-10.9278
4F960B00	-10.9278
5F504132335F4132335F	-10.9281
89852CFEFFFF	-10.9281
4E3FD00C955C5F	-10.9282
C1F81	-10.9283
488B742470	-10.9287
410F92C14120F9	-10.9288
504132305F4132305F4132305F	-10.9291
89C88B4D	-10.9294
53435F	-10.9296
00A86100	-10.9301
4C8B7424A0	-10.9301
488B0089C1488B05000000008908	-10.9307
4C8B9424300	-10.9308
4C8B7C24C8	-10.9322
FFEFFFF24010FB6C0	-10.9323
69507350	-10.9324
0000000000004F000000	-10.9329
8985B8FEFFFF	-10.933
67FEFFFF	-10.9335
53455F	-10.9339
0000000000004E000000	-10.9354
4C8B64241	-10.9355
6172725F363100	-10.9356
4869C9BC3400004801C8	-10.9359
486B4DA8	-10.936
4D69DE	-10.9361
488B5C24B0	-10.9378
5331385F	-10.9378
898514FEFFFF	-10.938
4869C9102700004801C8	-10.9381
4D69D5	-10.9386
898588FEFFFF	-10.9388
D3C4901D	-10.9393
8B4DA8	-10.9396
488B7C2450	-10.9399
8985A8FEFFFF	-10.9408
C4A179	-10.9412
668975F	-10.9415
48897424C8	-10.9416
DBFEFFFF	-10.9425
488B9424D8000000	-10.9426
048C1E7054D01F04901F841C7848800	-10.9429
C69C100D80000488	-10.943
31C00F1F44000089C14	-10.9432
0000775619D439F072D7	-10.9433
8985C0FEFFFF	-10.9441
5F163C9C4E37914C	-10.9442
8A45DB24010FB6C0	-10.9444
4C8B8C24580	-10.9451
00000000000000006000000000000000	-10.9453
00000000000025000000100000000	-10.9459
410F97C4	-10.9474
270000000000002A0000004	-10.9478
8B45AC	-10.9485
53455F50	-10.9488
4C8B5C24C8	-10.9488
250000000000002A0000003	-10.9489
C3D00	-10.949
C5D963E4	-10.9492
400F92C74D39	-10.9496
48897C2498	-10.9497
6A6A6	-10.9497
4C8B9424380	-10.9499
48898C24E0000000	-10.9509
4869C95E1A00004801C8	-10.9512
010000001D000000010000001E000000	-10.9512
4488C84C8B	-10.9516
48898C24F0000000	-10.9521
5EFEFFFF	-10.9523
8FEFFFFE8000000008B00	-10.9524
00000000000061010000	-10.9528
410F95C4	-10.9532
53465F50	-10.9532
0F9DC024010FB6C0	-10.9534
89850CFEFFFF	-10.9539
48C745D8	-10.954
C4420937	-10.9544
000000000000000000000006	-10.9547
FEFFFFC685	-10.9552
39C60F8	-10.9559
4C8B8C24E80	-10.9566
6172725F3300	-10.9571
C4427D58	-10.9571
48897424E0	-10.9577
225424	-10.9579
4D69DF	-10.9581
4889942490000000	-10.9583
E0340800	-10.9584
0FB70C48	-10.9584
69506A50	-10.9589
488DB558FFFFFFE800000000	-10.9591
4C8B9424700	-10.9592
8985D0FEFFFF	-10.9595
488B5C24D8	-10.9598
4C8B442410	-10.96
CAFEFFFF	-10.9606
4869C940B600004801C8	-10.9606
4889BC24180	-10.9607
8985ECFDFFFF	-10.9611
548010000488B85	-10.9613
4801C78B45	-10.9621
0FBE4424	-10.9625
010000488B8550010000488B8	-10.9634
488B7C2468	-10.964
4E8000000008B00	-10.964
4869C9007D00004801C8	-10.9643
39C60F4	-10.9644
5F504131305F	-10.9645
44886424	-10.9648
C5E5EFD	-10.9654
69506150	-10.9655
83C2014863D2486BD2	-10.9658
C515E	-10.9669
5331455F	-10.967
00000000000029010000	-10.9672
7661725F363000	-10.9674
0F9EC024010FB6C0	-10.9678
4869C9214504004801C8	-10.9678
488D75B0E800000000	-10.968
0F9544	-10.9682
7661725F3132005F5A5374336D6	-10.9685
8A4DDB80E1010FB6C9	-10.9686
4132325F4132325F4132325F4132325F	-10.9689
4801D1486B55	-10.969
898598FEFFFF	-10.969
4869C9786900004801C8	-10.9692
C531EFD	-10.9695
0F92C04020F0	-10.9698
8A4DD380E1010FB6C9	-10.9706
10000000000000003400000001000000	-10.9708
39D60F4	-10.9713
8985E4FDFFFF	-10.9719
488B4DE04883E90	-10.9724
488B3D00000000488D758	-10.9729
140000000	-10.973
80547300	-10.973
4869C92C6B00004801C8	-10.9731
8A856	-10.9732
48898C24B0000000	-10.9742
C0469D00	-10.9748
488BB42490000000	-10.9751
7661725F3430007661725F343100	-10.9753
2E6373743332002E726F64617461	-10.9755
000000000000000A00000000000300	-10.9764
7661725F3232005F5A5374336D6	-10.9765
2E63737438002E726F64617461	-10.9766
4C8B64243	-10.9772
C5F5EFC	-10.9776
48BAD	-10.978
48C1E0024801C6488D7D	-10.9786
0F93C2	-10.9797
400F92C64D39	-10.9797
488B4DC84883C10	-10.9799
8A45ED24010FB6C0	-10.9802
4A837C	-10.9803
7661725F373800	-10.9806
BA540B00	-10.9807
0000000000000000000000007D010000	-10.9808
4883C4505DC3	-10.9812
4132355F4132355F4132355F4132355F	-10.9817
00000000010000000200000003000000	-10.9819
8985B8FCFFFF	-10.9824
488B3D00000000488D759	-10.9835
410F94C5	-10.9837
42833CA	-10.9842
C4C35502E	-10.9851
000000000000001A000000	-10.9855
8A4DCB80E1010FB6C9	-10.986
4F8D4C	-10.9866
83C0014898486BC0	-10.9867
C4E34D02F	-10.9868
6172725F363000	-10.9872
150000000000002A0000000	-10.9874
4C8B5424F8	-10.9882
000000000000000A8000000000000000	-10.9883
488B4DD84883E901	-10.9884
48897C24B0	-10.9887
7661725F3432007661725F343300	-10.9887
0000000000003C000000	-10.9888
8B459C	-10.9892
8985B0FEFFFF	-10.9894
4801D1488B9424	-10.99
0FBF4424	-10.9913
4C8B7C24A8	-10.9915
4C8B6C243	-10.9927
80E101884DF	-10.993
4C8B7424A8	-10.9937
6172725F333600	-10.9944
0FEFFFFE80000000048833800	-10.9946
48BAF	-10.9946
0000000000007D010000	-10.9948
5DAA0500	-10.9949
20000488BBC24	-10.9958
6172725F363200	-10.9961
4869C9C1C500004801C8	-10.9963
488BB424A8000000	-10.9965
8B45A8	-10.9968
160000000000002A0000000	-10.997
6172725F333000	-10.9973
FAFEFFFF	-10.9975
0F9CC024010FB6C0	-10.9983
C645000	-10.9986
53445F50	-10.9987
488D7520E800000000	-10.9988
29081B	-10.9996
4C8B442468	-10.9997
8B4598	-11
FEFFFFE8000000004889C1488B85	-11.0001
000000000000000000000007	-11.0002
4C8B9424080	-11.0006
8A45BF24010FB6C0	-11.001
4C8B6424C0	-11.0011
5F504131365F4131365F	-11.0013
837D5800	-11.0018
9BFEFFFF	-11.0022
5F504131385F4131385F	-11.0036
8A45E624010FB6C0	-11.0039
5F504132325F4132325F	-11.0042
6172725F333200	-11.0046
4889BC24280	-11.0049
410F94C6	-11.0052
488B9424F0000000	-11.0053
488DB548FFFFFFE800000000	-11.0054
8A8D8	-11.006
C8B8D800000004C8B4D784C8B4D704	-11.0063
4C8B7424D0	-11.0076
48897C24D8	-11.0078
00000000080000000000000025000000	-11.0086
4801D10FBE55	-11.0087
BBFEFFFF	-11.0087
800000000000000A8000000000000000	-11.0088
83F0FF8945	-11.009
69007661725F3137007661725F313800	-11.009
7661725F373900	-11.0091
C4437D39F	-11.0094
0000000038010000000000000	-11.0102
5F504131315F	-11.0109
7661725F3434007661725F343500	-11.0122
C745C4	-11.0123
037C24	-11.0124
8985B0FCFFFF	-11.0125
488BB42480000000	-11.0126
E800000000486300488985	-11.0127
80100000000000060000000000000000	-11.0128
898590FEFFFF	-11.0133
0F9FC024010FB6C0	-11.0133
4C8B6C2498	-11.0139
8985CCFDFFFF	-11.0141
0F95C280F2FF	-11.0141
486B4D88	-11.0144
4C8B64245	-11.0151
0FBE4530	-11.0157
1FFEFFFF	-11.0157
8985DCFDFFFF	-11.0166
8DA80000004C8B	-11.0169
8FDFFFFE800000000488B00	-11.017
4C8B9424F80	-11.0173
48014424	-11.0181
21C883F800	-11.0187
C4633502C	-11.019
807D3000	-11.0202
4889BC24F80	-11.0204
4839D6480F4	-11.0215
8338000F95C034FF24010FB6C0	-11.0227
41F6C6010F85	-11.0227
4C8B9424580	-11.0228
C745D4	-11.0228
4FFEFFFF	-11.023
00000000000000001C00000000000300	-11.023
410F97C5	-11.0232
7661725F3433007661725F343400	-11.0243
0FBE4408	-11.0248
48695C24	-11.025
3AFEFFFF	-11.0256
8985C0FCFFFF	-11.026
10000000D000000010000000E000000	-11.026
48698D58FFFFFF	-11.0263
EB0D0FBE45	-11.0269
488BB424C0000000	-11.0271
4869C984D717004801C8	-11.0278
FBFEFFFF	-11.0284
4C8B442470	-11.0285
C9C5F16BC9C5F1EFC	-11.0294
0F97C04939D	-11.0298
480FBF8D56FFFFFF	-11.03
0000000000010	-11.0306
488BB42488000000	-11.0306
4C8B442418	-11.0308
C4A27D5	-11.0308
170000000000002A0000000	-11.0313
C745CC	-11.0313
C5B9EFF	-11.0314
833C88000F95C034FF24010FB6C0	-11.0325
FEFFFF0FBE85	-11.0329
C4631920	-11.0335
8A45B724010FB6C0	-11.0337
000000000000D1010000	-11.0341
38D00F4	-11.0342
48898C24C0000000	-11.0342
FEFFFFEB008A85	-11.0343
000000000008001000000000000	-11.0352
41837	-11.0354
8A4DE380E1010FB6C9	-11.0355
898560FEFFFF	-11.0358
4839CE480F4	-11.0361
00000000000000060000000000000007	-11.0363
41F6C60174	-11.0364
C4437D39E401	-11.037
4C8B7424B8	-11.0375
48898C24D8000000	-11.0375
000000FEFFFFFFFFFFFFFF	-11.0391
6172725F333300	-11.0411
00A08601	-11.0416
48899424B0000000	-11.0416
6172725F363400	-11.0421
4C8B7C24C0	-11.0434
48897C24F8	-11.0446
C4817A7E	-11.0452
488B9424F8000000	-11.0454
66894DE	-11.0455
83C00248984869C0	-11.0461
400F92C74939	-11.0463
488B9424E0000000	-11.0466
48694D80	-11.0481
4889942480000000	-11.0487
4A833CC	-11.0489
66C703	-11.049
8985BCFDFFFF	-11.049
41F6C7010F85	-11.0493
4889942488000000	-11.0503
10000000000000004200000001000000	-11.0506
488B9424E8000000	-11.0508
560010000488B8558	-11.052
00000000000023000000100000000	-11.052
488D7530E800000000	-11.052
4869C9C4DE0B004801C8	-11.0521
4869C9005100004801C8	-11.0524
06C4C3791	-11.0524
48698D60FFFFFF	-11.0525
4889542458	-11.0528
00000000000F0	-11.053
4801C6488B45	-11.0534
488D75A0E800000000	-11.0534
80000000000000005000000050000000	-11.0535
C5F970C8EEC5F9	-11.0536
4D0F44C	-11.0548
4D8D2C	-11.0555
48897C24A8	-11.0559
5331375F	-11.0566
41F6C7010F84	-11.0567
4D39DA	-11.0568
FEFFFFE8000000000FB700	-11.0568
C4C1F96EF	-11.057
884DE	-11.057
39CF0F4	-11.0573
FEFFFF24010FB6C083F8010F8D	-11.0575
C745D8	-11.0577
8985FCFDFFFF	-11.0579
A8017406C4E3791	-11.0584
0EC90	-11.0591
4889942498000000	-11.0592
8985D4FDFFFF	-11.0603
4801C68B45	-11.0605
4132335F4132335F4132335F4132335F	-11.0608
4829D14839C80F8D	-11.0612
7661725F363100	-11.0616
226C24	-11.0617
6172725F31373	-11.0617
7661725F3131007661725F313200	-11.062
8985B4FDFFFF	-11.0624
31C9482B	-11.0629
410F92C04120F04	-11.0632
6172725F353900	-11.0635
E000000FCFFFFFFFFFFFFFF002E	-11.0638
E800000000488B10	-11.0661
48897C24E8	-11.0662
69007661725F3130007661725F313100	-11.0667
41F6C6010F84	-11.0669
83E80248984869C0	-11.0672
488D7DE0488D75	-11.069
4F8D5C	-11.0691
A2542B00	-11.0693
8A8DB	-11.0696
41F6C50174	-11.0703
4801D08948	-11.0703
83EA014863D2486BD2	-11.0704
6172725F363600	-11.0725
6172725F363500	-11.0726
66899448	-11.073
8B4DFC	-11.0733
4C8B8C24680	-11.0736
5331435F	-11.0736
4869C962EF05004801C8	-11.075
6172725F363300	-11.0751
F000000FCFFFFFFFFFFFFFF002E	-11.0755
8DB00000004C8B	-11.0757
6172725F343600	-11.0759
48015424	-11.0763
48899424A0000000	-11.0765
898578FEFFFF	-11.0775
EDFEFFFF	-11.0777
898504FEFFFF	-11.0777
8B8DA8FEFFFF	-11.0781
08010000000000003	-11.0785
0000000000000007801000000000000	-11.0786
0FDFFFFE800000000488B00	-11.0796
270000000000002A0000003	-11.08
48899424B8000000	-11.08
48899424C0000000	-11.0807
488B742468	-11.081
8A45EE24010FB6C0	-11.082
7661725F353900	-11.0838
69007661725F3138007661725F313900	-11.084
4889C131C02B01	-11.0847
51AA1500	-11.0848
C3FEFFFF	-11.0852
C745DC	-11.0853
488B4DD84883C10	-11.0858
8A45DD24010FB6C0	-11.0863
410F92C04120D0	-11.0868
8A8D9	-11.0874
C2FEFFFF	-11.0878
C745D0	-11.0884
C1E000	-11.0885
225C24	-11.0889
69007661725F3139007661725F323000	-11.0889
7661725F3534007661725F353500	-11.0898
4C8B64246	-11.0899
0010000488B8568010000488B8	-11.0905
FEFFFF008A85	-11.093
4A833CE	-11.0936
8B4DF4	-11.094
000000000D000000060000000	-11.0946
6172725F363800	-11.0949
488BBC2490000000	-11.0955
8A8DD	-11.0957
8A4DEC80E1010FB6C9	-11.0966
C5EDEFD	-11.0971
488D7598E800000000	-11.0972
08000000000000004F00000001000000	-11.0975
7661725F3536007661725F353700	-11.0983
12001100	-11.0987
5F504132315F4132315F	-11.0987
000100000008000000	-11.0988
488B7C2460	-11.099
6FFEFFFF	-11.0993
83F1FF488B05000000008908	-11.0996
8985ACFDFFFF	-11.1006
C4E35502E	-11.1008
828C0200	-11.1011
42C684	-11.1014
898568FEFFFF	-11.1022
49C74500	-11.1026
488BB424B8000000	-11.1036
36FEFFFF	-11.1041
8A4DD680E1010FB6C9	-11.1044
D2FEFFFF	-11.1049
38C10F4	-11.1054
6172725F3138	-11.1054
001B7502	-11.1063
488DBD78FFFFFF488DB57	-11.1067
898570FEFFFF	-11.1068
8A45F324010FB6C0	-11.1069
5331395F	-11.1077
66837DF600	-11.1084
4C8B7424B0	-11.1089
8985A0FEFFFF	-11.109
DB80000004C8B	-11.1103
6172725F333100	-11.1107
FEFFFF0FB685	-11.1108
C4C27D3	-11.1119
898580FEFFFF	-11.1121
8A8D67FFFFFF80E1010FB6C9	-11.1125
C4E26D37D	-11.1127
C53DEFC	-11.113
69007661725F3132007661725F313300	-11.1142
180000000000002A0000000	-11.1144
4C8B6424E0	-11.1155
0000000000000300000000000000	-11.116
4132315F4132315F4132315F4132315F	-11.1163
09C883F800	-11.1164
7661725F3538007661725F353900	-11.1168
48C1E1114801C8	-11.1168
F0840F6C701	-11.1168
8985C4FDFFFF	-11.1174
4C8B9424500	-11.1174
7661725F353400	-11.1177
410F94C7	-11.1192
488B45C84883C00	-11.1202
C5F970D1EEC5F1	-11.1206
4A833CD	-11.1211
FEFFFF66C785	-11.1212
488BB424C8000000	-11.1216
83F8190F8D	-11.1217
FFFFFF000FB685	-11.1221
4839F1480F4	-11.1222
C4A2797	-11.1223
0F92C04939F	-11.1225
C0691000	-11.1226
00100000000000060000000000000000	-11.1237
4080E601400FB6F6	-11.1244
0F444C24	-11.1249
6172725F363700	-11.1273
0A000000120006000000000000000000	-11.1289
43C684	-11.1295
440A7C24	-11.1296
4189F88B7D	-11.1298
39CE0F4	-11.1302
190000000000002A0000000	-11.1327
8B4594	-11.1328
4131325F4131325F4131325F4131325F	-11.1332
0000000000000004001000000000000	-11.1339
4C8B6424B0	-11.134
486308488B0500000000488908	-11.1352
4889C24809CA48C1EA20	-11.1357
7661725F353800	-11.136
39C70F8	-11.1365
5F504131315F4131315F	-11.1381
8985A4FDFFFF	-11.1382
C462353	-11.1383
C44121EFDB	-11.1386
8A8408	-11.1392
488D7DC8488D75	-11.1395
8A4D9F80E1010FB6C9	-11.1397
56FEFFFF	-11.14
00000000000000006800000000000000	-11.1402
5331445F	-11.1415
8FCFFFF8B85	-11.143
8338000F95C08885	-11.1431
66833C48000F95C034FF24010FB6C0	-11.1431
5331465F	-11.1433
410F94C4	-11.1439
72D110C5F1	-11.1441
4C8B6424A8	-11.1442
898558FEFFFF	-11.1443
80FA000F45C1	-11.1445
FEFFFF0FBF85	-11.1447
894DF4	-11.1455
4839F0480F4	-11.1455
48014C24	-11.1459
5331495F	-11.1459
60A34E00	-11.1459
C4432D02D	-11.1467
898548FEFFFF	-11.1468
39F10F4	-11.1469
8B4560	-11.1471
410F92C14120F1	-11.1473
898550FEFFFF	-11.1489
4132305F4132305F4132305F4132305F	-11.1502
22001D0000000000000000003	-11.1503
66837DFA00	-11.1505
0FB68408	-11.1505
FEFFFF0FB785	-11.1509
488BB424A0000000	-11.1512
48C1E1034801C8488985	-11.152
48C1E1124801C8	-11.1531
5FFEFFFF	-11.1531
C5C96BF6C	-11.1548
488985E0FCFFFF	-11.1563
41C6450001	-11.1565
48898C24B8000000	-11.1565
4C8B6424C8	-11.1566
ABFEFFFF	-11.1567
89859CFDFFFF	-11.1576
69007661725F3135007661725F313600	-11.1579
38D10F4	-11.158
0A31C08985	-11.1583
F8000000000000003	-11.1595
40F6C60175	-11.1599
4280BC	-11.1603
4869C9841411004801C8	-11.1614
534C5F50	-11.1616
22001E0000000000000000003	-11.1619
898540FEFFFF	-11.1623
488B45708B4D	-11.1624
4C8B6C244	-11.1636
488D7590E800000000	-11.1638
7661725F3232007661725F323	-11.1643
5331475F	-11.1645
488D75DCE800000000	-11.1646
807D3800	-11.1656
488B4DE04883C10	-11.1658
807DEF00	-11.1662
488DB528FFFFFFE800000000	-11.1678
48C1E1134801C8	-11.1684
4839F2480F4	-11.1686
4801C7488B45	-11.1687
4863C9489948F7F9	-11.1691
000000000004002000000000000	-11.1698
8A4DDD80E1010FB6C9	-11.1699
00807900	-11.1703
8FFEFFFF	-11.1705
89857CFDFFFF	-11.1714
7661725F3233005F5A5374336D6	-11.1722
4801CA4969C	-11.1728
488B4DD04883E901	-11.1729
C745C8	-11.1732
89C2488B050000000048698D	-11.1741
40F6C70175	-11.1743
8B4568	-11.1749
C4E27BF7C	-11.1756
39CE0F8	-11.1756
EB0B488B45F0	-11.1767
5F504132355F4132355F4132355F	-11.1767
4869C900200A004801C8	-11.1777
488DB550FFFFFFE800000000	-11.1794
4869C9C2EB0B004801C8	-11.1796
A3FEFFFF	-11.1804
1B0000000000002A0000000	-11.1805
4C8B8DD00	-11.1807
400F92C64939	-11.1813
6172725F343000	-11.1819
5331415F	-11.1823
8B458C	-11.1825
0FB78448	-11.1836
48833CC8000F95C034FF24010FB6C0	-11.1844
4801C8488B4D90	-11.1865
4869C9007102004801C8	-11.1865
08000000000000000800000000000000	-11.187
42C6042	-11.1872
A1CEAD00	-11.1874
C525EFD	-11.1885
C745BC	-11.1885
C5E176DB	-11.1893
450F46	-11.1898
6172725F343900	-11.1902
898588FCFFFF	-11.1903
69007661725F3131007661725F313200	-11.1909
FFFFFF000FBE85	-11.1917
7661725F383500	-11.1919
488B4DD04883C10	-11.1921
8A45FE24010FB6C0	-11.1925
69007661725F3134007661725F313500	-11.193
4131305F4131305F4131305F4131305F	-11.1933
00000000000027000000100000000	-11.1936
170000000	-11.1951
4869D2E80300004801D	-11.198
000000001F000000	-11.1988
4D0F4E	-11.1988
6172725F343300	-11.1992
486B4D90	-11.1998
488B4578488B4570488B4568488B4560	-11.2004
CFBFFFF8B85	-11.2015
7661725F383400	-11.2019
C5F172D010	-11.2023
488BB42498000000	-11.2034
1A0000000000002A0000000	-11.2036
41833C2400	-11.2036
000000000000000D8000000000000002	-11.2049
0FBE458	-11.2058
8A45AF24010FB6C0	-11.2071
4869C9041905004801C8	-11.2072
668955E	-11.2081
5331485F	-11.2085
1002E4C435049305F3200	-11.2086
C8B4D684C8B4D604C8B4D584C8B4D504	-11.2089
39D60F8	-11.2092
898538FEFFFF	-11.2097
01C8668945E	-11.2107
7661725F3630007661725F363100	-11.2108
EB0A8B45	-11.2113
4869C9406806004801C8	-11.2115
4131385F4131385F4131385F4131385F	-11.2117
488D75BCE800000000	-11.2122
C4E3554B	-11.2123
C745E8	-11.2129
6642833C4	-11.2139
488B4DB84883C10	-11.214
10000488B8578010000488B8	-11.2147
7661725F353300	-11.2154
7661725F333	-11.2154
5F504131355F4131355F	-11.2161
0000000000003D000000	-11.217
6172725F343200	-11.2191
837DE800	-11.2192
4C8B64244	-11.2196
4869C9428A08004801C8	-11.2205
4869C9887C03004801C8	-11.221
89856CFDFFFF	-11.2214
898594FDFFFF	-11.2224
000000000000F1000000	-11.2233
FFFFFF83C004668985	-11.2239
C78528FFFFFF	-11.2239
C78530FFFFFF	-11.2243
488DB540FFFFFFE800000000	-11.2246
69007661725F3230007661725F323100	-11.2246
8A4DC380E1010FB6C9	-11.2247
400F97C64939	-11.2247
69007661725F3133007661725F313400	-11.2255
4869C908AF2F004801C8	-11.2256
898584FDFFFF	-11.2262
4869C980981C004801C8	-11.2264
9E2C1700	-11.2267
53314B5F	-11.227
00000000000047000000	-11.2275
488DBD60FFFFFF488DB55	-11.2277
4488644DD	-11.2285
4488644DE	-11.2292
4488644DC	-11.2293
5331425F	-11.2296
4488644DF	-11.2299
000004C8B8DC	-11.2299
488DB530FFFFFFE800000000	-11.2302
60C40F6C601	-11.2304
C745C0	-11.232
488975F08955EC	-11.2331
39F90F4	-11.2343
FEFFFF000FB685	-11.2354
6172725F353600	-11.2358
31D241F7F2	-11.2364
C4C37D39D	-11.2369
668B1448	-11.2373
2E4C435049305F3000	-11.2377
410F92C24120C2	-11.2392
740F0FBE45	-11.2394
000000000000ED010000	-11.2395
8B4D50	-11.2403
7661725F363700	-11.2404
39FA0F4	-11.2411
83F9000F95C180E1010FB6C939C80F8D	-11.2413
FDFFFFEB008A85	-11.2439
8A45C724010FB6C0	-11.2441
64488644D	-11.2442
A4488644D	-11.2444
E4488644D	-11.2446
4080E70140887DF	-11.2453
C5F970DA55	-11.2461
898558FCFFFF	-11.2462
31C083F9008885	-11.2473
837D6000	-11.2477
31D241F7F6	-11.2478
24488644D	-11.2486
88010000488B85800	-11.2493
0FBE8408	-11.2496
42803C2	-11.2499
D63C9C4E37D39C901C4E37914C	-11.2501
69007661725F3136007661725F313700	-11.2502
89858CFDFFFF	-11.2511
898510FEFFFF	-11.2511
807DF700	-11.2516
7661725F363200	-11.2517
31D241F7F3	-11.2518
7661725F3131005F5A5374336D6	-11.2521
C4E37D39CA01C5F1	-11.2526
897DFC8975F8	-11.2529
898530FEFFFF	-11.2531
C4630D02F	-11.2531
486B4DE8	-11.2535
7661725F353500	-11.2545
4801D1486B95	-11.2547
4869C944BE01004801C8	-11.255
0F92C04D39C	-11.2551
0F97C04D39C	-11.2552
0004080C000000000000000000000000	-11.2553
7661725F383600	-11.2563
488D7DF0488D75	-11.2569
FFFFFF83C0048885	-11.2571
C78510FFFFFF	-11.2575
4C8B6424D8	-11.2575
8B4D48	-11.258
4869C988BD17004801C8	-11.2586
C745AC	-11.2599
C4E37914E008A801	-11.2599
898570FCFFFF	-11.261
4FBFFFF8B85	-11.2612
488DBD58FFFFFF488DB55	-11.2613
4C8B6424F0	-11.2618
53314C5F	-11.2624
7661725F363900	-11.2633
488D75D4E800000000	-11.2633
488D75ECE800000000	-11.2637
5F504132305F4132305F	-11.2637
410F92C14120D1	-11.2639
0F92C14939F	-11.2645
4883C4605DC3	-11.2654
C5E976D	-11.2657
4869C9404C0E004801C8	-11.2661
53314F5F	-11.267
00000000000063000000	-11.2675
8A4DA780E1010FB6C9	-11.2682
FFFFFF83C0038885	-11.2689
FEFFFF83E9034863C9	-11.2701
8A85E	-11.2706
E800000000668B00	-11.2706
4889C18B45	-11.2718
4801D088480	-11.272
488DBD70FFFFFF488DB56	-11.2727
0000000050010000000000000	-11.2729
8A4DCE80E1010FB6C9	-11.2732
4869C9203403004801C8	-11.2733
8A4DC680E1010FB6C9	-11.2751
E0C40F6C601	-11.2754
897DF88975F4	-11.2759
72D310C5E1	-11.2764
898544FDFFFF	-11.2765
4801C6486385	-11.2773
8A45D624010FB6C0	-11.2786
C745B4	-11.2787
89855CFDFFFF	-11.2807
4883C2014869D2	-11.2807
488B45788B4D	-11.2808
41803C2400	-11.2812
488D75B4E800000000	-11.2812
898564FDFFFF	-11.2823
0FBF8448	-11.2827
48C74588	-11.2844
5E96BD2C5E963D2	-11.2855
6172725F353800	-11.2869
7661725F363600	-11.2871
80000000000000007000000040000000	-11.2873
898508FEFFFF	-11.288
CFEFFFFE800000000	-11.2883
C4E37914E004A801	-11.2886
C4630502F	-11.2889
4869C980B004004801C8	-11.2893
C5C163FFC4E37914F	-11.2894
4D0F44D	-11.2894
4869C9C4E400004801C8	-11.2917
C4437D19	-11.2922
C441196BE4C4637914E	-11.2933
664489C84C8B	-11.2934
4131375F4131375F4131375F4131375F	-11.2955
8A8D6FFFFFFF80E1010FB6C9	-11.2956
A2FEFFFF	-11.2956
6172725F343400	-11.2957
0F9EC2	-11.2959
000000000000000A801000000000000	-11.297
C745E4	-11.2976
6172725F3139	-11.298
C745A4	-11.298
4869C9202607004801C8	-11.2985
89F88B7D	-11.2989
C4623D37C	-11.2991
00441F6C001	-11.2996
898560FCFFFF	-11.2999
39F00F4	-11.3008
8A45FB24010FB6C0	-11.3009
410F97C04939	-11.3011
6172725F353000	-11.3026
C745B8	-11.3029
4869C9828C02004801C8	-11.3036
488DBD50FFFFFF488DB54	-11.3041
488B4558488B4D	-11.3043
8A45FD24010FB6C0	-11.3045
C5E163DBC4E37914D	-11.3047
488DB518FFFFFFE800000000	-11.3048
2E63737434002E726F64617461	-11.3058
408A7D	-11.3068
8A45F524010FB6C0	-11.3075
FFFFFF83C003668985	-11.3077
4801C8488B4DA0	-11.3079
0F92C04939D	-11.308
000000000000000E0000000000000002	-11.309
FEFFFF80E2010FB6D2	-11.3096
8985F0FDFFFF	-11.3109
7661725F3632007661725F363300	-11.3113
6172725F343100	-11.3118
37D2C5E96BD2C5E9EFD	-11.312
0FB70C4831C029C8	-11.3123
486B4D98	-11.3134
000000000000005000000040000000	-11.3135
6172725F353100	-11.3145
4869C900FA00004801C8	-11.3147
8A4DB380E1010FB6C9	-11.3156
83EA034863D2	-11.3157
6643C744	-11.316
8D44ED00	-11.3163
C4631D02E	-11.3172
80000000000000007000000050000000	-11.3175
4869C985513E004801C8	-11.3182
740D488B45F0488985	-11.3185
898554FDFFFF	-11.3196
8A8D7FFFFFFF80E1010FB6C9	-11.3208
04C8B8DE80	-11.3209
A000000120007000000000000000000	-11.3213
C53DEBC	-11.3217
C4E273F7C	-11.3223
E4C435049305F37002E4C435049305F3	-11.3229
898550FCFFFF	-11.3235
10010000000000003	-11.3242
C4E271F7C	-11.3245
C4631502E	-11.3255
8A45D324010FB6C0	-11.326
66837DEE00	-11.3261
4869C9082922004801C8	-11.3267
83EA0189D2	-11.3268
5F504131335F53	-11.3276
696969	-11.3282
48837DD800	-11.3283
83C2034863D2	-11.3286
0000000000000008801000000000000	-11.33
0FEFFFFE8000000008B00	-11.3307
440A6424	-11.3309
00000000000046000000	-11.3309
4801C6480FBF85	-11.3318
8A4DD980E1010FB6C9	-11.332
53314A5F	-11.3321
00000000000D8	-11.3322
88C2488B050000000048694D	-11.3324
000000000300000000000000	-11.3326
89C948D3E0	-11.3327
0F92C04D39D	-11.333
5F504131375F4131375F4131375F	-11.3335
410F92C14120C1	-11.3336
0FFFFFFE80000000048833800	-11.3337
39C70F4	-11.3339
0000000000018	-11.3341
00000000000A001000000000000	-11.3343
488B4568488B4D	-11.3347
000000000000000D0000000000000002	-11.3348
C5B1EBC8C4C101EFD1C4E26937C9C5F	-11.3362
0000000052000000	-11.3366
837DE400	-11.3368
56BC8C4E37D39C901C	-11.3381
000000000F000000070000000	-11.3385
6642833C5	-11.3387
00000000000000007000000000000000	-11.3389
000004C8B8DE	-11.3397
FFFFFF83C001668985	-11.3402
C5D176E	-11.3406
C785F8FEFFFF	-11.3406
504131365F533	-11.3424
0000000000000009001000000000000	-11.343
4869C988E80F004801C8	-11.3431
0F445424	-11.3438
4131365F4131365F4131365F4131365F	-11.3441
7661725F3233007661725F323	-11.3441
4869C9008028004801C8	-11.3443
4863C9480FAFC1	-11.3444
4839C7480F4	-11.3449
6172725F343500	-11.3454
486B4DA0	-11.3455
8A4DE680E1010FB6C9	-11.3457
C441116BE	-11.3464
4131355F4131355F4131355F4131355F	-11.3477
5F504132315F4132315F4132315F	-11.3492
000000000000E2010000	-11.3508
488B050000000089088B45	-11.3515
488B45D04883C00	-11.3517
000000005A000000	-11.3522
488D7DE8488D75	-11.3544
898574FDFFFF	-11.3553
488DBD38FFFFFF488DB53	-11.3555
4C8B642420	-11.3558
E80000000080380074	-11.3563
4869C922DF00004801C8	-11.3571
0F95C034FF34FF	-11.3572
01C8668945A	-11.3575
4889C24809F248C1EA20	-11.3576
488DB520FFFFFFE800000000	-11.3583
B00183F9008885	-11.3586
FFFFFF83C0028885	-11.359
C441296BD2C4637914D	-11.3594
504132325F533	-11.3594
89854CFDFFFF	-11.3604
7661725F353700	-11.3608
7661725F373100	-11.3611
4C8B6424F8	-11.3617
7661725F363400	-11.3623
7661725F373000	-11.3638
898548FCFFFF	-11.3639
488DBD28FFFFFF488DB52	-11.3647
898528FEFFFF	-11.365
4869C922FA03004801C8	-11.3653
C4C17D6BC	-11.3658
6172725F373800	-11.3661
48898590FCFFFF	-11.367
6172725F353200	-11.3672
C535EFC	-11.3674
488B85B0010000488B8	-11.3674
1C60401004C01C841C60401004C01C84	-11.3702
8A4DE480E1010FB6C9	-11.3708
6172725F3133006172725F313	-11.3708
7661725F3634007661725F363500	-11.3709
1000000FCFFFFFFFFFFFFFF002E	-11.3709
EB0B31C0488985	-11.3712
488B45D84883C00	-11.3716
53314E5F	-11.3718
440A6C24	-11.3726
FFFFFF83C002668985	-11.3726
4869C9204E00004801C8	-11.373
8A4DEE80E1010FB6C9	-11.3732
80000000000000009000000040000000	-11.3735
41F6C4010F84	-11.3739
4869C900A200004801C8	-11.3758
48D1E04801C6488D7D	-11.3761
31C989CA48F775	-11.3763
489948F73CF1	-11.3789
48C1E0034801C748C785	-11.3803
8B4580	-11.3808
4131395F4131395F4131395F4131395F	-11.3814
5F504132325F4132325F4132325F	-11.3815
000000000000E9010000	-11.3818
C4C27D58	-11.3819
8A4D9780E1010FB6C9	-11.3826
53314D5F	-11.383
4869C9008802004801C8	-11.3841
488D75FCE800000000	-11.3844
E9AF1C05	-11.3859
C4E24D37F	-11.3869
000000000000000B001000000000000	-11.387
4C8B6424B8	-11.3887
8A45EC24010FB6C0	-11.3896
200000000000002A0000000	-11.3901
488B45688B4D	-11.3904
7661725F353600	-11.3911
740D488B45E8488985	-11.3912
488DBD48FFFFFF488DB54	-11.392
000000000000C6010000	-11.392
6172725F353700	-11.3924
6172725F373700	-11.3945
486BC0504801C	-11.3951
69504132335F	-11.3956
00000000000005020000	-11.3958
001000000000000C0000000000000000	-11.3961
000000000000000F8000000000000002	-11.3967
4839D7480F4	-11.3971
1C0000000000002A0000000	-11.3973
FEFFFF000FBE85	-11.3978
000000000000DB010000	-11.3983
8A45EA24010FB6C0	-11.3992
18010000000000003	-11.4
5F504131305F4131305F4131305F	-11.4007
48C1E1144801C8	-11.4013
C4E37D4B	-11.4023
6689C1488B05000000006689088B45	-11.4028
C4E3FD00C055C5FD6	-11.4029
C441296BD2C529EFD	-11.4036
FFFFFF83C0018885	-11.4039
000000000000BF010000	-11.4039
5F504131325F4131325F4131325F	-11.404
37DBC5E16BDBC5	-11.4044
83C20189D2	-11.4048
4869C9F90295004801C8	-11.4052
4FEFFFFE800000000	-11.4052
0000000000006F010000	-11.4055
480FBFD266C78455F22F0000BDD08D	-11.4071
00000000000076010000	-11.4073
000000000000AF010000	-11.4084
FEFFFF83C0038885	-11.4087
C4E2EBF6D	-11.4088
488D7D80488DB578FFFFFFE800000000	-11.4092
488B4550488B4D	-11.4093
0000000000003D010000	-11.4093
000000000000FE010000	-11.4096
40FC0602	-11.4096
7661725F3435007661725F343600	-11.4097
0F97C04D39D	-11.41
00000000000046010000	-11.4102
EFFFFFF01C8668985	-11.4109
488D7538E800000000	-11.411
0000000080010000000000000	-11.4122
4801D10FBE95	-11.4134
488DB508FFFFFFE800000000	-11.4144
4869C9627200004801C8	-11.4146
8985FCFCFFFF	-11.4152
83C10139C80F8D	-11.4168
C441096BF6C44	-11.4177
00841F6C001	-11.418
488D7DB0488D75	-11.4181
4132345F4132345F4132345F4132345F	-11.4181
4D1081E9	-11.4187
000000000000F7010000	-11.4198
4869C9409C00004801C8	-11.4202
488DB570FFFFFFE800000000	-11.4215
89851CFDFFFF	-11.4217
5A8010000488B85A00	-11.4222
488B4578488B4D	-11.4223
000000000000B1010000	-11.4224
0000000000007F010000	-11.4238
010000001F0000000100000020000000	-11.424
4869C9405802004801C8	-11.4246
4869C960A34E004801C8	-11.4247
000000000000B6010000	-11.4253
488D758CE800000000	-11.4259
5331515F	-11.426
0000000000009B010000	-11.4269
000000000000BD010000	-11.4282
0F95C034FF24010FB6D0	-11.4284
C4E279F7C	-11.4287
4869C9004401004801C8	-11.4288
4131355F53	-11.429
4869C980D00C004801C8	-11.4292
8985A8FDFFFF	-11.4297
F9DCCD02	-11.4301
0000000000002E010000	-11.4304
6172725F363900	-11.4312
000000000000D9010000	-11.4315
C5C96BF6C4E37914F	-11.4322
0000000000001F010000	-11.4322
0000668945D	-11.4324
488B4568488B4560488B4558488B4550	-11.4327
000000000000A1010000	-11.4338
6172725F3139006172725F323	-11.434
8A45CB24010FB6C0	-11.4343
4869C9202C01004801C8	-11.435
7661725F373200	-11.4353
000000000000D2010000	-11.4354
0000000000009D010000	-11.4359
8A4DAB80E1010FB6C9	-11.4361
00000000000072010000	-11.4365
C74594	-11.4376
488DB5B0FEFFFFE800000000	-11.4382
220021000	-11.4384
8985B0FDFFFF	-11.4405
898500FEFFFF	-11.4414
000000000000EE010000	-11.4423
7661725F3130007661725F313100	-11.4428
4C894DD8	-11.4431
41F6C4010F85	-11.4435
C4432502D	-11.4446
6172725F3231006172725F323	-11.4447
488975F0488955E8	-11.445
000000000000B7010000	-11.4451
0000000000000C020000	-11.4454
00000000000062010000	-11.4457
8A4D8780E1010FB6C9	-11.4458
0000000000001A020000	-11.4466
0000000000005F010000	-11.447
000000000000003600000000000000	-11.4472
48C1E0064801C	-11.4473
C4422537D	-11.4478
00000000000096010000	-11.4483
A0CF6C201	-11.4484
6172725F353300	-11.4485
0000000000004F010000	-11.4488
000000000000E7010000	-11.4493
4869C900E204004801C8	-11.4494
0000000000006E010000	-11.4508
488B45608B4D	-11.4523
0000000000004D010000	-11.4526
7661725F3736007661725F373	-11.453
83F8070F8	-11.4533
4839FE480F4	-11.4534
8A8D47FFFFFF80E1010FB6C9	-11.4546
0000000000003E010000	-11.4552
0F95C034FF24018885	-11.4558
8A4DEA80E1010FB6C9	-11.4567
F64969D600200A004D69CC006C0000C4	-11.4568
C7459C	-11.457
4801C7480FBF85	-11.4576
000000000000DA010000	-11.4585
535F533	-11.4589
0000000000003A010000	-11.4595
07000000040000000	-11.4596
488B85880000008B4D	-11.4598
C4E3FD00C0D8	-11.4599
00100005DC3	-11.46
00000000000049010000	-11.4605
8A45F624010FB6C0	-11.4608
000000000000A9010000	-11.4609
69504131365F	-11.461
8A8D1FFFFFFF80E1010FB6C9	-11.4611
40F6C6017407C681	-11.4613
410F92C24120FA4	-11.4614
00000000000009020000	-11.4617
00000000000035010000	-11.4623
00000000000079010000	-11.4624
FEFFFF00000FBF85	-11.4626
488D759CE800000000	-11.4627
C50DEBF	-11.4633
00000000000067010000	-11.4633
488B4560488B4D	-11.4637
48FF4424	-11.4638
00000000000036020000	-11.4643
80E101884DD	-11.4647
0000000068010000000000000	-11.4647
00000000000043010000	-11.4648
0000000000003F010000	-11.4649
8A8D77FFFFFF80E1010FB6C9	-11.4656
EB0EB801000000488985	-11.4658
00000000000013020000	-11.4663
488B85980000008B4D	-11.4666
000000000000390000001	-11.4666
8A04088885	-11.4672
488B45B84883C00	-11.4675
7661725F3639007661725F373000	-11.4678
C5F970DBAAC5	-11.4683
0000000000009A010000	-11.4685
000000000000000E8000000000000002	-11.4695
8FFFFFFE80000000048833800	-11.4696
000000000000A2010000	-11.4699
6172725F353400	-11.47
8A459F24010FB6C0	-11.4702
488B85800000008B4D	-11.4705
00000000000000001C00000000000400	-11.4708
4869C9828B01004801C8	-11.471
0000000000000D020000	-11.4714
8B45288A4520	-11.4714
4801D080E1018848	-11.4718
4131335F4131335F4131335F4131335F	-11.4721
488B85900000008B4D	-11.4721
000000000000BE010000	-11.4732
488DB510FFFFFFE800000000	-11.4733
488B45C04883C00	-11.4736
7661725F3636007661725F363700	-11.4739
488D75ACE800000000	-11.4746
F6C2010F45C1	-11.4746
898534FDFFFF	-11.4747
48C1E0024801C7C785	-11.4748
C4427930	-11.475
898514FDFFFF	-11.4757
6172725F383800	-11.4769
C785C0FEFFFF	-11.4774
89850CFDFFFF	-11.4783
000000000000A3010000	-11.4786
0000000000007E010000	-11.4789
00000000000086010000	-11.479
39D70F4	-11.4793
000000000000AE010000	-11.4795
C7458C	-11.4797
4869C900C409004801C8	-11.4799
4883C4705DC3	-11.48
7661725F373700	-11.4805
486B4D80	-11.4806
4863C94821C8	-11.4818
4C894DE0	-11.4832
000000000000AA010000	-11.4837
4131345F4131345F4131345F4131345F	-11.4845
00000000000016020000	-11.4849
488B3D00000000488D75F	-11.4851
8945A0488D7DA8488D75A0E800000000	-11.4853
4488C8448B	-11.4853
563C8C4E37D39C901C4E37914C	-11.4855
00000000000075010000	-11.4856
6FFFFFF01C8668985	-11.4863
000000000000F5010000	-11.4869
8A8D4FFFFFFF80E1010FB6C9	-11.4874
488945C8488B45C8	-11.4876
00000000000066010000	-11.4877
C4E37914D004A801	-11.4884
898504FDFFFF	-11.4885
488D7DC4488D75C0E800000000	-11.4887
0000000000006B010000	-11.489
E4C435049305F32002E4C435049305F3	-11.4899
00000000000031010000	-11.4903
7661725F363300	-11.4906
C5F970F6AAC5C9EFF	-11.4907
0000000000005B010000	-11.4909
4C8B6424E8	-11.4915
88C1488B050000000088088B45	-11.4919
000000000000F3010000	-11.4921
89852CFDFFFF	-11.4923
48C1E1024801C8488985	-11.4932
6BC8C4E37D39C901C5	-11.4935
00000000000071010000	-11.4937
000000000000D3010000	-11.4941
A04F6C2017	-11.4944
0000000000001D020000	-11.4945
0000000000008B010000	-11.4949
8A4D8F80E1010FB6C9	-11.4953
8945A8488D7DB0488D75A8E800000000	-11.4968
FEFFFF83C0018885	-11.4971
000000000000000B801000000000000	-11.4977
40F6C50175	-11.4983
4869C944F407004801C8	-11.4984
0000000000003D020000	-11.4994
1F0000000000002A0000000	-11.5002
0000000000000050000000	-11.5002
66448945FE	-11.5013
C785C8FEFFFF	-11.5016
24010FB6C883C101	-11.503
801000000000000C0000000000000000	-11.5032
894598488D7DA0488D7598E800000000	-11.5033
000000000000AB010000	-11.5034
39F80F4	-11.5037
000000000000FD010000	-11.504
554889E54881EC900	-11.5053
0000000000003B010000	-11.5059
8A8D5FFFFFFF80E1010FB6C9	-11.5061
0000000000003A0000001	-11.5062
8A4DE180E1010FB6C9	-11.5071
0000000000004B0000001	-11.5088
69504132325F	-11.5089
00000000000037010000	-11.5093
000000000000E1010000	-11.5097
4801C7486985	-11.5099
00000000000073010000	-11.5106
4889D048C1E83F	-11.5122
8A8DEFFEFFFF80E1010FB6C9	-11.5122
0000000000007B010000	-11.5124
53585F50	-11.513
00000000000047010000	-11.5133
0000000000000A020000	-11.5134
FEFFFF83C004668985	-11.5141
31D9D208	-11.5142
8A45F124010FB6C0	-11.5148
8985C4FCFFFF	-11.5156
488DBD08FFFFFF488DB50	-11.5165
0000000000000004801000000000000	-11.5173
488DBD10FFFFFF488DB50	-11.5177
000000000000B2010000	-11.5187
6172725F353500	-11.5211
4869C908320A004801C8	-11.5213
000000000000E5010000	-11.5218
5331555F	-11.522
8A45E924010FB6C0	-11.5223
40227C24	-11.5231
000000000000EA010000	-11.5232
488945C0488B45C0	-11.5233
4869C951AA15004801C8	-11.5241
488D75F4E800000000	-11.5247
488DBD30FFFFFF488DB52	-11.5248
C785E8FEFFFF	-11.5249
FEFFFFE800000000488BBD	-11.5254
4889C1488B45	-11.5255
4C8B642478	-11.526
4869C9041703004801C8	-11.5266
70C40F6C701	-11.5269
53585F53	-11.5269
0000000000000000000000002F000000	-11.527
534C5F53	-11.5283
FEFFFF4883C003488985	-11.5294
99F7F983FA00	-11.5295
480345C8488945C8E9	-11.5296
48C1E2064801DAC4630920B411	-11.53
C7857CFFFFFF	-11.5308
000000000000A7010000	-11.5312
000000000001300000000000400	-11.5316
4C8B642470	-11.5317
4839F7480F4	-11.5317
6172725F3131006172725F313	-11.5323
C5F970C9AAC5F1EFC	-11.5331
4131315F4131315F4131315F4131315F	-11.5336
31C029C88945	-11.5338
A000000120009000000000000000000	-11.5339
8985CCFCFFFF	-11.5342
00000000000000FF010000	-11.5346
488D75E4E800000000	-11.5348
488D7540E800000000	-11.5349
0000000000000F020000	-11.5358
0000000000001B020000	-11.5361
69504132305F	-11.5384
00000000000000002500000000000400	-11.5409
C441096BF6C509EFF	-11.542
488DBD18FFFFFF488DB51	-11.5426
000000000000A6010000	-11.5439
7661725F3731007661725F373200	-11.5452
5F504132335F4132335F4132335F	-11.5453
FEFFFF83C002668985	-11.5454
000000000000F6010000	-11.5456
4869C95DAA05004801C8	-11.5458
488B45588B4D	-11.5458
000000000000AD010000	-11.546
5331545F	-11.5461
0000000000001E020000	-11.5488
000000000000000000000008	-11.5499
69504132315F	-11.5499
000000000000E3010000	-11.5501
FEFFFF83C001668985	-11.5527
48833CC8000F95C08885	-11.5538
4869C920D51C004801C8	-11.554
89853CFDFFFF	-11.5542
4D2081E9	-11.5549
488DBD00FFFFFF488DB5F	-11.5555
39FE0F4	-11.5556
0000000000006A0000001	-11.5567
4539C1450F4	-11.5571
0000000000000065010000	-11.5572
6172725F373200	-11.5574
C4431D02E	-11.5577
4000000FCFFFFFFFFFFFFFF11	-11.5578
69504131375F	-11.5587
000000000000D5010000	-11.559
08756E054	-11.559
4869C9004014004801C8	-11.5599
000000000000EB010000	-11.56
C78574FFFFFF	-11.5602
488B0CD148BA	-11.561
4869C9803801004801C8	-11.561
4839F8480F4	-11.5617
00000000000001020000	-11.5619
4869C91B7502004801C8	-11.5621
000000000000F1010000	-11.5622
4869C988C901004801C8	-11.5623
4869C9008079004801C8	-11.5646
69504132345F	-11.5649
488B4570488B4D	-11.5654
480345D0488945D0E9	-11.5659
486BC0604801C	-11.5661
00010000000A000000	-11.5662
488DB5F0FEFFFFE800000000	-11.5664
000000000000F2010000	-11.5668
000000000000B3010000	-11.567
8A8D37FFFFFF80E1010FB6C9	-11.5683
4889F948C1E10	-11.5686
FEFFFFE8000000000FB600	-11.5689
01C86689459	-11.5691
4863C94831C8	-11.5693
488945A8488B45A8	-11.5702
000000000000D6010000	-11.5703
5F5A34746573747878	-11.5705
488B45E04883C00	-11.5714
488DB5E0FEFFFFE800000000	-11.5716
000000000000530000001	-11.5728
488DBD20FFFFFF488DB51	-11.573
C4E37914D808A801	-11.573
5F5A34746573746868	-11.5743
000000000000E6010000	-11.575
0000000000000026010000	-11.5751
0000000000001F020000	-11.5753
C4644B23	-11.5759
6172725F383700	-11.576
488DB500FFFFFFE800000000	-11.5766
488D7594E800000000	-11.5769
4801C24969C	-11.5774
0000000013000000090000000	-11.5775
8A4DF180E1010FB6C9	-11.5783
00000000000017020000	-11.5792
00000000000005000000060000000	-11.5793
69504131385F	-11.5797
4889C24809FA48C1EA20	-11.5798
410F97C04D39	-11.5804
8985F4FCFFFF	-11.5813
000000000000000F0000000000000002	-11.5827
4869C9E03408004801C8	-11.5837
0000000000003B020000	-11.5848
48C1E0074801C	-11.5848
000000000000D7010000	-11.5866
4883C4105DC3	-11.5868
A000000120008000000000000000000	-11.5871
00000000000032020000	-11.5872
000000000000DE010000	-11.5877
000000000000000C801000000000000	-11.5881
000000000000A5010000	-11.5881
4869C9A08601004801C8	-11.5882
0000000000000034020000	-11.5888
1A0019000	-11.5891
C4433502C	-11.5895
000000000000EF010000	-11.5903
69504132355F	-11.5923
20441F6C201	-11.5924
5F5A34746573747979	-11.593
80000001000000000000000	-11.593
8945C8488D7DD0488D75C8E800000000	-11.594
4839FA480F4	-11.595
833C88000F95C08885	-11.595
488B85A00000008B4D	-11.5969
FEFFFFE8000000000FBF00	-11.597
0000000000003A020000	-11.5972
6172725F373300	-11.5974
E4C435049305F34002E4C435049305F3	-11.5981
FEFFFF83C0028885	-11.5988
00000000000031020000	-11.5988
00000000000000AB000000	-11.5999
000000000000DF010000	-11.6008
488DBDF8FEFFFF488DB5F	-11.6017
488D75C4E800000000	-11.6017
FEFFFF83C003668985	-11.6019
480345D8488945D8E9	-11.602
8A45E224010FB6C0	-11.6021
C5FD73D00	-11.6031
0000000000007A020000	-11.6044
486BC02C4801C	-11.6049
53365F533	-11.605
0000000011000000080000000	-11.6058
486BC0304801C	-11.6066
488DBDE8FEFFFF488DB5E	-11.6076
504131395F533	-11.6088
4D1881E9	-11.6091
80800405808006078080000102030405	-11.6092
000000000000DD010000	-11.6094
486BC0644801C	-11.6098
000000000000BB010000	-11.6106
69504131305F	-11.6113
7661725F363500	-11.6115
8985BCFCFFFF	-11.6129
8A45A724010FB6C0	-11.6132
4889C24C09CA48C1EA20	-11.6138
00000000000033020000	-11.6145
2E4C435049305F313200	-11.6159
00000000000000007800000000000000	-11.6159
4869C943C825004801C8	-11.6165
7661725F3130005F5A5374336D6	-11.6178
8945D8488D7DE0488D75D8E800000000	-11.6189
83F8090F8D	-11.6191
0000000000003F020000	-11.6196
680200000FB6143A8D7416D93B742488	-11.6202
8B45388A4530	-11.621
0001020304050607	-11.621
83E8014863D0	-11.6227
04000000050000000600000007000000	-11.623
31C929C131C029C8	-11.6239
00000000000C001000000000000	-11.6252
01010101000000000000000000000000	-11.6262
4412163DBC4637914D	-11.6263
488B4DA04883E90	-11.6271
4869C9082E06004801C8	-11.6276
000000000003003000000000000	-11.628
486BC0684801C	-11.628
488B4D884883E90	-11.6281
740EB801000000488985	-11.6299
90441F6C101	-11.63
488D7DF8488D75	-11.6306
8A8D07FFFFFF80E1010FB6C9	-11.6311
80FA00480F45C1	-11.6316
486300488945	-11.6348
FEFFFF00000FB785	-11.635
88C1488B050000000088080FBE45	-11.6365
4869C9F73562004801C8	-11.6369
6172725F3232006172725F323	-11.6385
44894DE4	-11.6391
488B4548488B4D	-11.6398
8D200100004C8B	-11.6399
FEFFFF488B09	-11.6403
0000000000003E020000	-11.6403
4132315F4132315F53	-11.6404
000000000000BA020000	-11.6417
69504131395F	-11.6432
8A45E424010FB6C0	-11.6461
70840F6C701	-11.6462
488DBDE0FEFFFF488DB5D	-11.6463
000000000000000E001000000000000	-11.6467
8914888B45	-11.6469
8945D0488D7DD8488D75D0E800000000	-11.6474
0000000000001C020000	-11.6484
488DB5C0FEFFFFE800000000	-11.6506
488DB5D0FEFFFFE800000000	-11.6508
488945B0488B45B0	-11.6508
2E0000000000002A0000006	-11.6516
00000000000000B6000000	-11.6519
488DBDF0FEFFFF488DB5E	-11.6527
00000000000019020000	-11.6528
4801D1488B55D8	-11.6533
83F9000F95C180F1FF80E1010FB6C9	-11.6533
37C9C5F16BC9C5	-11.6538
8D180100004C8B	-11.6539
000000000000F9010000	-11.6553
488DB5D8FEFFFFE800000000	-11.656
22001F0000000000000000003	-11.6583
803C08000F95C08885	-11.6583
300000000000002A0000006	-11.6583
4869C94F960B004801C8	-11.6584
A00000012000B000000000000000000	-11.6585
00000000000037020000	-11.6591
0F95C180F1FF	-11.6594
C483792044	-11.6594
C4837915	-11.6606
000000000000000D801000000000000	-11.6608
488945B8488B45B8	-11.6611
5F5A34746573746262	-11.6623
EFEFFFFE800000000	-11.6626
448945F4	-11.6633
6172725F3239006172725F333	-11.6656
4417970E4AAC519EFE	-11.6663
4801D06689480	-11.6674
8A4DED80E1010FB6C9	-11.6683
220000000000002A0000000	-11.6687
31C04883F9008885	-11.6691
5331595F	-11.6702
FEFFFF83C0048885	-11.6711
001000000000000D8000000000000000	-11.6712
7661725F383300	-11.6717
488D75CCE800000000	-11.6735
5F5A34746573746161	-11.6739
C4E3FD00D2D8	-11.675
8985B4FCFFFF	-11.6751
37D2C5E96BD2C5	-11.6752
2200200000000000000000003	-11.6754
488B4DC04883C10	-11.6756
4D39DA4D0F4	-11.6758
488945A0488B45A0	-11.6771
000000000000560000001	-11.6778
554889E54881ECB00	-11.6779
00000000000015020000	-11.6782
C4632D02D	-11.6787
80441F6C001	-11.6817
8A8D63FFFFFF80E1010FB6C9	-11.6823
7661725F3830007661725F383	-11.6825
4889C6488B3D00000000E800000000	-11.6833
5F5A34746573746A6A	-11.6836
90841F6C101	-11.6839
EFC9C5F16BC9C4E37914C	-11.6846
488B8590000000488B4D	-11.6851
00000000000000B5000000	-11.686
8A45CE24010FB6C0	-11.6861
000000000000000F001000000000000	-11.6863
99F73CB1	-11.6864
4869C9805473004801C8	-11.6883
D3E289D1	-11.6886
5331575F	-11.6893
488B45B04883C00	-11.6894
8945C0488D7DC8488D75C0E800000000	-11.6897
6172725F373400	-11.6898
C001B000	-11.6907
4D2881E9	-11.6915
0000000000004E0100001	-11.6923
24010FB6C083F8000F8D	-11.6925
007661725F3133007661725F313	-11.6925
6172725F3333006172725F333	-11.6929
488B8580000000488B4D	-11.6929
8A8567FFFFFF24010FB6C0	-11.6937
7661725F3832007661725F383	-11.6953
5002E4C435049305F3600	-11.6962
6172725F33006172725F3	-11.6964
8A8D0FFFFFFF80E1010FB6C9	-11.6981
0F95C034FF24018845	-11.6989
69504131345F	-11.7006
69504131355F	-11.702
488DB5E8FEFFFFE800000000	-11.7034
10C41F6C101	-11.7036
4002E4C435049305F3500	-11.7061
8D280100004C8B	-11.7068
000000000000430000001	-11.7075
4C8B85900000004C8B85880000004	-11.709
4839CF480F4	-11.7096
4180E001448845	-11.7102
00000000000000009000000000000000	-11.712
554889E54883EC60	-11.7121
8945B8488D7DC0488D75B8E800000000	-11.7148
740D488B4510488985	-11.7149
6172725F373100	-11.7168
6172725F3235006172725F323	-11.7172
8E8000000008B00	-11.7185
8B45408A4538	-11.719
000000000000420000001	-11.7195
488B8D68FFFFFF4883E90	-11.7198
A08F6C2017	-11.7199
6172725F3132006172725F313	-11.7204
69504131315F	-11.7205
C4417970EDAAC511EFE	-11.7212
83E8024898486BC0	-11.724
6172725F373900	-11.7249
CAC5E971D108C5F1	-11.7266
FEFFFFEB000FBE45	-11.7273
C4E37D39D301C5E9	-11.7296
89C0488945	-11.7298
894580488D7D88488D7580E800000000	-11.73
487FE5284	-11.7307
894DF0448945EC	-11.731
01C86689458	-11.7313
4881C4800000005DC3	-11.7315
83F800740D488B45	-11.7317
689A43E88094A394901F74	-11.7321
C5F96BC0C5F963C0C4E37914C	-11.736
488D7DA4488D75A0E800000000	-11.7361
8A040824018885	-11.7366
E8010000488B85E0010000488B8	-11.7373
554889E54881ECD00	-11.7386
488B859000000048694D	-11.7389
7661725F383100	-11.7389
488D7DD0488D75CCE800000000	-11.739
48894590488B4590	-11.7392
6172725F3331006172725F333	-11.7392
80017000	-11.7413
000000000000AA0000001	-11.7433
488D7D9C488D7598E800000000	-11.7433
5332315F	-11.7435
4869C9008813004801C8	-11.7439
554889E54883EC50	-11.7445
5331585F	-11.7473
00000000170000000B0000000	-11.7473
7661725F3231	-11.7478
0FEFFFFE800000000488B08	-11.7487
000000000000000E801000000000000	-11.7491
5D8010000488B8	-11.7496
8E80000000048833800	-11.7501
8A856FFFFFFF24010FB6C0	-11.7519
488B8588000000488B4D	-11.7522
000000000000007F020000	-11.7524
C8B85800000004C8B45784C8B45704	-11.7526
0000000000000000000000003B000000	-11.7529
4869C0980000004801C	-11.7541
00000000B0010000000000000	-11.7541
4000000FCFFFFFFFFFFFFFF3A	-11.755
488D7DB4488D75B0E800000000	-11.755
486BC0284801C	-11.7557
6FEFFFFE800000000	-11.7563
66833C48000F95C08885	-11.7569
83FA00480F4	-11.7574
69504131335F	-11.7579
A4BF72144	-11.7628
740D488B45F8488985	-11.7641
8B45488A4540	-11.7649
0000000000000000802000000000000	-11.7663
554889E54881ECC00	-11.7665
C4417970DBAAC521EFD	-11.7666
554889E54881ECA00	-11.7677
6172725F373600	-11.7687
488B85A80000008B4D	-11.7691
0000000000000001802000000000000	-11.7695
00200000000000078000000000000000	-11.7701
0E80000000048833800	-11.7709
7661725F373600	-11.7716
48894598488B4598	-11.7717
488B4DB04883C10	-11.7719
00000000400000000000400007000600	-11.7722
EB068B45F	-11.7732
000000000000005C00000001000000	-11.7756
A00000012000A000000000000000000	-11.7762
0A00000012000C000000000000000000	-11.7763
4132315F533	-11.7767
80200000000000078000000000000000	-11.7769
6172725F373000	-11.7791
6172725F35006172725F3	-11.7795
5F5A34746573747474	-11.7811
4839F9480F4	-11.7815
6172725F383200	-11.7848
4D39CA4D0F4	-11.7849
00000000000000D3000000	-11.785
80C41F6C001	-11.7882
488DBDB0FEFFFF488DB5A	-11.7883
00C41F6C001	-11.7883
4869C9001B75024801C8	-11.7895
5332365F	-11.79
6172725F373500	-11.7907
554889E54883EC70	-11.7913
6172725F3231007661725F323	-11.792
488B45508B4D	-11.7926
488DBD74FFFFFF488DB57	-11.793
488DBDC0FEFFFF488DB5B	-11.7931
E4C435049305F36002E4C435049305F3	-11.7934
4000000FCFFFFFFFFFFFFFF38	-11.7948
8B45188A4510	-11.7954
000000000000000000000009	-11.7964
EFD2C5E96BD2C5E963D2C4E37914D	-11.7971
D000000000000000E000000000000000	-11.8024
0000000000000002802000000000000	-11.8028
90C41F6C101	-11.8039
7661725F3533007661725F353	-11.8048
486BC0544801C	-11.805
00000000000000008010000000000002	-11.8058
00100000000000078000000000000000	-11.8065
488B45A04883C00	-11.8065
00000000080000000000000027000000	-11.8078
488D7D94488D7590E800000000	-11.8078
E37D39C901C4E27958C9C5	-11.8079
16BC9C5A9EFC9C5F16BC9C	-11.8084
5F5A34746573747369	-11.8106
E4C435049305F31002E4C435049305F3	-11.811
8A8D27FFFFFF80E1010FB6C9	-11.8121
486BC0164801C	-11.8128
6172725F383600	-11.8141
0000000000004D0000001	-11.8143
6172725F393200	-11.8174
488B4558488B4550488B4548488B4540	-11.8181
6172725F3232007661725F323	-11.8188
000000000000000F801000000000000	-11.819
6172725F393800	-11.8193
0000488B85F8010000488B8	-11.8194
488DBDA0FEFFFF488DB59	-11.8204
00020406000000000000000000000000	-11.8206
39C80F94C02401	-11.8208
00000000000000008800000000000000	-11.8209
486BD2304801D	-11.8217
488B8D78FFFFFF4883E90	-11.8233
00000000150000000A0000000	-11.8242
740D488B4520488985	-11.8252
007661725F3230007661725F313900	-11.8258
8A0C08488B05000000008808	-11.8309
0A00000012000D000000000000000000	-11.8319
48894588488B4588	-11.8346
5F5A34746573746A69	-11.835
31D248F734F1	-11.8356
480345C0488945C0E9	-11.8356
00000000000000F2020000	-11.8359
488DBDD0FEFFFF488DB5C	-11.8373
4D30448A4D28	-11.8376
448B4D184C8B4D10	-11.8377
4869C0C00000004801C	-11.8384
7661725F383800	-11.8389
488D7DD0488D75C8E800000000488B00	-11.839
48898578FFFFFF488B8578FFFFFF	-11.8392
6172725F3233006172725F323	-11.8393
C4433D02C	-11.8396
8A040834FF24010FB6C0	-11.8397
6172725F3339006172725F343	-11.841
7661725F383000	-11.8412
486BC0704801C	-11.8413
FEFFFFE800000000486300	-11.8415
A0841F6C201	-11.8417
6172725F3234006172725F323	-11.8424
488B4D984883E90	-11.8424
00000000000000D9020000	-11.844
8945B0488D7DB8488D75B0E800000000	-11.8453
740D488B4518488985	-11.8453
5F5A34746573747373	-11.846
0F95C180E1010FB6C983E90139C80F8D	-11.847
486BD2644801D1	-11.8476
448B4D18448B4D10	-11.8479
740D488B45E0488985	-11.848
0000000098010000000000000	-11.8488
000000000000450000001	-11.8506
4131385F4131385F533	-11.852
8FCFFFFEB0B488B45	-11.8527
5F5A34746573746A68	-11.8531
A9EFC9C5F16BC9C5F163C9C4E37914C	-11.8533
4000000FCFFFFFFFFFFFFFF43	-11.8544
6172725F393700	-11.8563
5F5A34746573746269	-11.8564
20841F6C201	-11.8567
6172725F393000	-11.8571
00003E006643C78401	-11.8576
48894580488B4580	-11.8579
85A00000004C8B8	-11.8586
290000000000002A0000006	-11.8588
5F504132345F4132345F53	-11.8607
4000000FCFFFFFFFFFFFFFF53	-11.861
00000000000000010010000000000002	-11.8614
5332305F	-11.8649
488DBDC8FEFFFF488DB5C	-11.866
488B85B800000048694D	-11.866
000000000000000D001000000000000	-11.8677
488D7DC0488D75B8E800000000488B00	-11.8686
4000000FCFFFFFFFFFFFFFF37	-11.8696
482314C8488914C8	-11.8712
801000000000000D8000000000000000	-11.8712
FFFFFF01C888857	-11.8723
80200000000000090000000000000000	-11.8742
4881C4900000005DC3	-11.8742
4131365F534	-11.8774
1000000110000000100000012000000	-11.8779
554889E54881EC80000000	-11.878
6172725F383000	-11.8817
6172725F31303700	-11.8818
4000000FCFFFFFFFFFFFFFF54	-11.8821
B0014883F9008885	-11.8831
0000000000000002001000000000000	-11.8859
4000000FCFFFFFFFFFFFFFF2B	-11.886
01006641897D008B5C248089184183B8	-11.8871
8002E4C435049305F3900	-11.8886
448B4D1866448B4D10	-11.8895
48898550FFFFFF488B8550FFFFFF	-11.8898
4000000FCFFFFFFFFFFFFFF21	-11.8899
00000000000000009800000000000000	-11.89
740D488B4528488985	-11.8902
7661725F3837007661725F383	-11.8921
0000668945C	-11.8925
4000000FCFFFFFFFFFFFFFF33	-11.8936
4000000FCFFFFFFFFFFFFFF4E	-11.8941
FEFFFF8A8D	-11.8947
5F5A34746573747461	-11.895
480B14C8488914C8	-11.897
00000000000000C3000000	-11.8973
4000000FCFFFFFFFFFFFFFF5B	-11.8974
000000000000000A000000000000000B	-11.8981
488B858800000048694D	-11.8986
FFFFFF01C888856	-11.8988
231488891488	-11.8996
488B4540488B4D	-11.8998
4000000FCFFFFFFFFFFFFFF26	-11.9
220400006642C7440D1C000048696C24	-11.9002
488B45A84883C00	-11.9022
4000000FCFFFFFFFFFFFFFF45	-11.9028
5332395F	-11.903
4000000FCFFFFFFFFFFFFFF2C	-11.9038
6172725F31303800	-11.9047
C4417970C9AAC531EFC	-11.9049
80100000000000078000000000000000	-11.9054
6172725F3335006172725F333	-11.9058
4000000FCFFFFFFFFFFFFFF4B	-11.9107
00000001000000120000000	-11.9108
4000000FCFFFFFFFFFFFFFF13	-11.9108
000000000000009000000050000000	-11.9109
B001833C91008885	-11.9117
4000000FCFFFFFFFFFFFFFF42	-11.9119
7661725F383900	-11.912
C60128F6D0C0E8078802410FB6443500	-11.9125
4000000FCFFFFFFFFFFFFFF58	-11.9127
31C048833CD1008885	-11.9128
710200488D84010024F4004801D04889	-11.913
5F5A34746573746169	-11.913
5F5A34746573746A79	-11.9134
F60411018885	-11.9137
37F6C5C96BF6C5C9EFF	-11.9144
480345B8488945B8E9	-11.9145
89C948D3E8	-11.9149
4000000FCFFFFFFFFFFFFFF49	-11.9156
4000000FCFFFFFFFFFFFFFF4D	-11.9165
4000000FCFFFFFFFFFFFFFF3C	-11.9182
5518448B5510	-11.9184
0B1488891488	-11.9191
48898558FFFFFF488B8558FFFFFF	-11.9195
6A504132325F	-11.9201
554889E54881ECF00	-11.9204
2A0000000000002A0000006	-11.9228
6172725F383300	-11.9228
C4E37914D104F6C101	-11.9233
0000000000000000A000000000000000	-11.9242
B00148833CD1008885	-11.9251
4000000FCFFFFFFFFFFFFFF5A	-11.9267
4869C0880000004801C	-11.9269
5332355F	-11.9278
4000000FCFFFFFFFFFFFFFF47	-11.9301
08000000000000004100000001000000	-11.9304
4000000FCFFFFFFFFFFFFFF73	-11.9362
000000000000550000001	-11.9367
4939C0490F4	-11.9407
894DE8448945E4	-11.9409
6172725F3431006172725F343	-11.9411
488B85B000000048694D	-11.9412
62504132335F	-11.9413
48898520FFFFFF488B8520FFFFFF	-11.9415
488B859800000048694D	-11.9419
554889E54883EC40	-11.942
6172725F3330006172725F333	-11.9423
488D7DD8488D75D0E800000000488B00	-11.9429
4000000FCFFFFFFFFFFFFFF23	-11.9431
0020000488B8508020000488B8	-11.9436
5F5A3474657374786A	-11.944
5518448A5510	-11.9442
6172725F3332006172725F333	-11.9449
4000000FCFFFFFFFFFFFFFF57	-11.9452
480345B0488945B0E9	-11.9453
000000000000660000001	-11.9456
4000000FCFFFFFFFFFFFFFF44	-11.9484
488B45984883C00	-11.9486
4000000FCFFFFFFFFFFFFFF5C	-11.9495
140809F2881408	-11.9496
488B85A800000048694D	-11.9496
00200000000000090000000000000000	-11.9501
5F5A34746573747869	-11.9521
48898590FEFFFF488B8590FEFFFF	-11.9522
0000000000000002002000000000000	-11.9532
5F5A34746573746174	-11.954
4000000FCFFFFFFFFFFFFFF3B	-11.9541
7661725F3535007661725F353	-11.9549
89C2488B0500000000486BD2	-11.9551
FFFF6639F30F8	-11.9555
0A00000012000E000000000000000000	-11.9562
488B4D904883E90	-11.9569
6172725F393400	-11.958
4000000FCFFFFFFFFFFFFFF63	-11.9591
6172725F383100	-11.9593
488DBDD8FEFFFF488DB5D	-11.9594
6172725F3433006172725F343	-11.96
1C60431004C01CE41C60431004C01CE4	-11.9602
488B45904883C00	-11.9604
6172725F383900	-11.9608
488985A0FEFFFF488B85A0FEFFFF	-11.9612
C4422937C9C441316BC9C531EFC	-11.9616
01000100010001000100010001000100	-11.9616
83E80348984869C0	-11.9626
488B4538488B4D	-11.9641
E4C435049305F39002E4C435049305F3	-11.9657
48898530FFFFFF488B8530FFFFFF	-11.966
F6C101740841C686	-11.9665
39D10F94C180E1010FB6C9	-11.9665
48898548FFFFFF488B8548FFFFFF	-11.9666
6172725F393300	-11.9669
0000000000000006802000000000000	-11.9669
488985D8FEFFFF488B85D8FEFFFF	-11.9673
88D04088F	-11.9682
5F5A34746573746278	-11.9686
B001803C11008885	-11.9689
5F5A34746573746273	-11.9702
48898568FFFFFF488B8568FFFFFF	-11.9705
4000000FCFFFFFFFFFFFFFFB3	-11.9714
740B8B45F88985	-11.9719
C4C105EFCBC4427537FDC4C17	-11.9726
0000000000000001002000000000000	-11.9731
48898500FFFFFF488B8500FFFFFF	-11.9736
C4423137C0C441396BC0C539EFC	-11.9748
FFFFFF01C888854	-11.9748
504131385F533	-11.9749
5F5A34746573747969	-11.9753
897DF8668975F6	-11.9757
0000000000000004802000000000000	-11.9761
4000000FCFFFFFFFFFFFFFF2F	-11.9764
4000000FCFFFFFFFFFFFFFF1B	-11.9769
C4A37916B4B8	-11.9781
48898560FFFFFF488B8560FFFFFF	-11.9783
001000000000000A8000000000000000	-11.9789
83C0024898486BC0	-11.9794
0000000000000003802000000000000	-11.9807
55184C8B5510	-11.9813
4000000FCFFFFFFFFFFFFFF3F	-11.982
4000000FCFFFFFFFFFFFFFF8B	-11.9821
89C089C148B8	-11.9828
488D7DC8488D75C0E800000000488B00	-11.9834
48C1E1044801C8488B4D	-11.9836
80E1010FB6D131C929D1	-11.9838
4000000FCFFFFFFFFFFFFFF35	-11.9855
A0441F6C201	-11.9857
488985B8FEFFFF488B85B8FEFFFF	-11.9859
488985C8FEFFFF488B85C8FEFFFF	-11.9867
80841F6C001	-11.9867
C4417970C0AAC539EFC	-11.9868
C4E37914D108F6C101	-11.9868
0000000000000005802000000000000	-11.9873
4000000FCFFFFFFFFFFFFFF81	-11.9873
4E3FD00D255C5FD6BD2C	-11.9875
31C066833C51008885	-11.9878
4000000FCFFFFFFFFFFFFFF40	-11.9884
4000000FCFFFFFFFFFFFFFF22	-11.9887
48898570FFFFFF488B8570FFFFFF	-11.9888
C1C5F171D008C5F9	-11.989
488985C0FEFFFF488B85C0FEFFFF	-11.9903
40887DFF408875FE	-11.9903
4000000FCFFFFFFFFFFFFFF34	-11.9907
4000000FCFFFFFFFFFFFFFF46	-11.9909
504132355F533	-11.993
504132305F533	-11.9932
5F5A34746573747469	-11.9935
6000000FCFFFFFFFFFFFFFF83	-11.9947
48898578FEFFFF488B8578FEFFFF	-11.9957
4C8B4D284C8B4D20	-11.9957
486BC0184801C	-11.9974
4000000FCFFFFFFFFFFFFFF4C	-11.9981
4000000FCFFFFFFFFFFFFFF66	-11.9982
486BC0484801C	-11.9986
83EA0289D2	-11.9989
5332345F	-11.999
4000000FCFFFFFFFFFFFFFF5D	-11.9997
7661725F383700	-12
4869C0E40100004801C	-12.0022
4000000FCFFFFFFFFFFFFFF4F	-12.0026
4000000FCFFFFFFFFFFFFFF1E	-12.003
48898528FFFFFF488B8528FFFFFF	-12.0047
4000000FCFFFFFFFFFFFFFF61	-12.0052
400AC20648	-12.0052
488985F8FDFFFF488B85F8FDFFFF	-12.0053
4000000FCFFFFFFFFFFFFFF3E	-12.0062
85C80000004C8B8	-12.0068
4000000FCFFFFFFFFFFFFFF16	-12.0069
0000000000000013000000100000000	-12.0074
486BD2124801D	-12.0075
4000000FCFFFFFFFFFFFFFF50	-12.0078
488985D0FEFFFF488B85D0FEFFFF	-12.0082
48898508FFFFFF488B8508FFFFFF	-12.0084
00000000E0010000000000000	-12.0086
4000000FCFFFFFFFFFFFFFF20	-12.0086
5F5A34746573746869	-12.0087
5F5A3474657374626A	-12.0118
488B8578FFFFFF4883C00	-12.0124
4000000FCFFFFFFFFFFFFFF75	-12.0129
B00166833C51008885	-12.0136
4000000FCFFFFFFFFFFFFFF64	-12.0138
5F5A34746573747968	-12.0143
800000000000000C0000000000000000	-12.0154
645DF01	-12.0158
280000000000002A0000006	-12.0163
740B8B45288985	-12.0166
4000000FCFFFFFFFFFFFFFF41	-12.017
5F5A34746573747873	-12.0171
4000000FCFFFFFFFFFFFFFF30	-12.0175
488985E8FDFFFF488B85E8FDFFFF	-12.0181
45184C8B4510	-12.0185
4000000FCFFFFFFFFFFFFFF2A	-12.0191
48898538FFFFFF488B8538FFFFFF	-12.0191
4000000FCFFFFFFFFFFFFFF55	-12.0197
894588488D7D90488D7588E800000000	-12.0199
801000000000000A8000000000000000	-12.0201
5F5A3474657374616A	-12.0211
000000000000F8010000000000000	-12.022
4000000FCFFFFFFFFFFFFFF2D	-12.0222
31C0803C11008885	-12.0224
5F163C9C4C37914C	-12.0231
5F5A3474657374686A	-12.0237
488985B0FEFFFF488B85B0FEFFFF	-12.0242
C5B1EFC8C4C101EFD1C4E26937C9C5F	-12.0244
4000000FCFFFFFFFFFFFFFF48	-12.0245
6172725F383500	-12.0246
6000000FCFFFFFFFFFFFFFF93	-12.0252
488985A8FEFFFF488B85A8FEFFFF	-12.0253
48898540FFFFFF488B8540FFFFFF	-12.0255
488985F8FEFFFF488B85F8FEFFFF	-12.027
4000000FCFFFFFFFFFFFFFF3D	-12.0271
39C80F9FC02401	-12.0275
6689C2488B4D	-12.0284
5F5A34746573746168	-12.0288
488D7D98488D7590E800000000488B00	-12.029
488985E0FEFFFF488B85E0FEFFFF	-12.0299
4869C0480500004801C	-12.0305
5F5A34746573746A61	-12.0319
4000000FCFFFFFFFFFFFFFF39	-12.0334
5332375F	-12.0334
5F504132345F533	-12.0338
488B8568FFFFFF4883C00	-12.0343
48898510FFFFFF488B8510FFFFFF	-12.035
4000000FCFFFFFFFFFFFFFF24	-12.0364
4000000FCFFFFFFFFFFFFFFC3	-12.0378
5F5A34746573746179	-12.0386
486BC0344801C	-12.0387
A0C41F6C201	-12.0392
48898518FFFFFF488B8518FFFFFF	-12.0396
8985F4FEFFFF8B85F4FEFFFF	-12.0406
A70C984C5A9EFC9C4E3FD00C955C5F	-12.0408
4131315F533	-12.0411
4869C0B80000004801C	-12.0414
16BC9C5A9EFC9C4E3FD00C955C5F	-12.0415
4000000FCFFFFFFFFFFFFFF2E	-12.0416
486BC05C4801C	-12.0425
554889E54881ECE00	-12.0426
0000000000B1000000	-12.0426
0000000000013000000000005000	-12.043
6172725F31313500	-12.0433
5332385F	-12.0436
0000000000000007802000000000000	-12.0438
6172725F31303600	-12.0439
