<unk>	0
FFFFFF	-4.53858
FFFF	-4.54401
4889	-4.57099
00	-4.70752
0000	-4.77741
48	-4.80414
00FCFFFF	-4.97398
000000	-5.06444
488B	-5.07478
01	-5.26294
E9	-5.29553
4C8B	-5.3221
85	-5.38425
10	-5.44872
FF	-5.45857
0	-5.46398
00000000000000000000000000000000	-5.46966
FCFFFF	-5.49205
EB	-5.49233
04	-5.54698
08	-5.54788
4C89	-5.59066
8B	-5.60474
10000000000000000000000000000000	-5.60497
02	-5.60781
C0	-5.63721
89	-5.65214
00000000	-5.68577
4C	-5.69857
D0	-5.70056
C	-5.7315
488B85	-5.77068
40	-5.77362
7	-5.80084
C8	-5.81005
74	-5.81896
F0	-5.82119
80	-5.82774
41	-5.83857
30	-5.86047
20	-5.87535
488B0500000000	-5.88495
03	-5.88834
6	-5.89224
8	-5.90251
F8	-5.90839
E	-5.91953
B	-5.93686
4	-5.93894
C1	-5.95791
FBFFFF	-5.97629
88	-5.97673
FE	-5.98794
18	-5.99116
B8	-6.00096
0C	-6.00522
2	-6.0063
38	-6.03004
D8	-6.04627
66	-6.04787
3	-6.06243
C5	-6.06473
E0	-6.06785
E8	-6.07293
0FB6	-6.07579
44	-6.09056
75	-6.0979
39	-6.11615
C6	-6.12845
20000	-6.13156
28	-6.13217
D	-6.14464
07	-6.14594
1	-6.14644
00000000000000	-6.15258
50000	-6.19087
4801C8	-6.20088
FAFFFF	-6.20569
5	-6.20851
0FB7	-6.21308
C2	-6.21354
90	-6.21466
10000000000000000000000000	-6.22493
C7	-6.2282
4489	-6.24295
F7	-6.24421
14	-6.24948
FD	-6.24999
0F	-6.25138
F6	-6.26321
60000	-6.27704
4989	-6.29529
D2	-6.30509
24	-6.30522
488B0D00000000	-6.33707
06	-6.34907
0A	-6.35121
10000	-6.35366
50	-6.35381
CA	-6.35564
11	-6.36743
49	-6.37719
D1	-6.38525
8D	-6.38588
488B8D	-6.39262
DB	-6.40017
C9	-6.40597
0E	-6.40674
EF	-6.41009
A	-6.42497
8B8D	-6.42536
00000010000000000000000000000000	-6.43335
0F84	-6.43469
8424	-6.44112
FC	-6.44294
31	-6.44358
4189	-6.45133
34	-6.46063
F9FFFF	-6.46668
9	-6.47068
488B1500000000	-6.47652
3C	-6.47747
B0	-6.48091
C3	-6.48512
09	-6.48811
16	-6.48814
45	-6.48845
70	-6.49339
000000000000000000000000	-6.50268
60	-6.50555
F2	-6.51134
0B	-6.51869
98	-6.52357
30000	-6.53359
F8FFFF	-6.54594
4D89	-6.54782
FA	-6.54989
80000	-6.552
58	-6.55318
7C	-6.55884
12	-6.55893
F9	-6.56716
17	-6.56915
A0	-6.57774
4803	-6.58116
BC24	-6.58262
84	-6.58275
C4	-6.58891
F	-6.58914
CE	-6.60028
1C	-6.62197
D6	-6.62373
78	-6.62495
32	-6.62496
EE	-6.62659
37	-6.64584
4C69	-6.65149
19	-6.6604
68	-6.66202
00000	-6.66286
DA	-6.66335
F1	-6.67059
D7	-6.67669
73	-6.68313
E4	-6.68806
D3	-6.69304
72	-6.6977
4000000FCFFFFFFFFFFFFFF	-6.6986
FFFFFFFF	-6.69933
3B85	-6.70836
D4	-6.71038
A8	-6.71137
40000	-6.7125
CF	-6.71743
29	-6.72396
EC	-6.72432
2C	-6.72709
13	-6.73094
83	-6.73668
8C24	-6.74534
F4	-6.74768
6689	-6.76218
D5	-6.76837
FB	-6.77158
2D	-6.77589
EA	-6.78803
BA	-6.7911
D9	-6.79903
9424	-6.80137
B424	-6.80548
54	-6.80706
000000000000002A0000000	-6.8088
94	-6.81284
B9	-6.81918
42	-6.81986
DE	-6.82376
3B	-6.8249
4188	-6.8264
33	-6.82669
CB	-6.82867
8C	-6.82922
0FB78D	-6.83071
05	-6.84233
3A	-6.84482
2A	-6.85727
76	-6.86591
81	-6.87062
7E	-6.8746
F3	-6.88762
2B	-6.8934
4C39	-6.90111
4589	-6.90515
DF	-6.90977
21	-6.91766
488B3500000000	-6.92053
A0000	-6.921
488D04	-6.92399
80000000000000018000000000000000	-6.92941
BC	-6.93058
0100	-6.93443
0FBF	-6.93567
43	-6.94026
ED	-6.9446
7000000FCFFFFFFFFFFFFFF	-6.94963
64	-6.95083
1A	-6.95243
DC	-6.95293
7D	-6.95366
02000010000000	-6.95389
410FB6	-6.9615
7C24	-6.96485
9C	-6.97195
3E	-6.97198
CC	-6.97338
7F	-6.9747
0FB68D	-6.97531
1E	-6.98211
4939	-6.99234
4839	-6.99917
36	-6.99991
4D	-7.00046
70000	-7.00599
CD	-7.01001
3D	-7.01175
E6	-7.01388
1F	-7.01798
3F	-7.02532
4488	-7.02722
BF	-7.02908
6C	-7.03046
22	-7.031
B4	-7.03113
E2	-7.03598
0F85	-7.04533
4B	-7.05142
57	-7.05803
9000000FCFFFFFFFFFFFFFF	-7.05918
440FB6	-7.06127
0FB64D	-7.06296
0F83	-7.06365
F5	-7.0671
4A	-7.07967
9C24	-7.08363
5C	-7.08586
2E	-7.08908
DD	-7.09056
E7	-7.09169
BE	-7.09689
4805	-7.10926
A4	-7.11263
8A	-7.11836
0D	-7.12862
79	-7.13078
488B3D00000000	-7.13367
AC	-7.13528
35	-7.13539
0FBE	-7.13599
000000000000000	-7.13632
E5	-7.14384
31C0	-7.1574
48638D	-7.16594
15	-7.18052
7424	-7.18166
486B	-7.18809
480FBE8D	-7.19301
23	-7.19452
4139	-7.21115
0F8D	-7.2203
55	-7.22187
E1	-7.22251
46	-7.22262
2F	-7.22623
5C24	-7.22926
0FB645	-7.25147
00000000000000000000000001000000	-7.25235
4D39	-7.25503
87	-7.25974
B6	-7.26276
47	-7.26732
1B	-7.27664
0FB74D	-7.28266
86	-7.28754
E3	-7.29014
480FBF8D	-7.29377
664189	-7.29603
4C8B0500000000	-7.29746
83E9014863C9	-7.29819
77	-7.29911
4801C1	-7.29998
01000000	-7.30466
000000000000	-7.30838
4439	-7.30866
0FB745	-7.30869
92	-7.31311
F000000FCFFFFFFFFFFFFFF	-7.31499
25	-7.31856
83C1014863C9	-7.33525
480FBE4D	-7.33797
48B8	-7.33928
6B	-7.34544
BB	-7.34568
97	-7.3469
894C24	-7.35676
82	-7.37064
100001000000000000000	-7.37096
26	-7.38078
96	-7.38241
448B	-7.3846
31D2	-7.38793
4588	-7.39062
4883	-7.39115
894424	-7.39303
010000000000002A0000000	-7.39607
4801D0	-7.40031
F7FFFF	-7.40477
51	-7.40988
4E	-7.41383
C785	-7.41482
9E	-7.4352
5B	-7.43804
52	-7.4402
4F	-7.44507
BD	-7.44508
450FB6	-7.45064
B2	-7.4509
4C8B0D00000000	-7.45385
8A45	-7.45791
010000000000000000000100	-7.46013
7F454C	-7.46207
460201	-7.46224
3E00010000	-7.46279
8E	-7.4748
747	-7.47525
8F	-7.47944
9B	-7.4795
69	-7.48611
31C9	-7.49
488D0C	-7.49914
B7	-7.50436
B5	-7.51028
61	-7.52182
000000300000000000000000000000	-7.5242
0000000000002A0000005	-7.52579
0400F1FF0	-7.53021
91	-7.53123
27	-7.53483
440FB7	-7.5443
C441	-7.5505
9A	-7.55189
895424	-7.55846
6689C1488B0500000000668908	-7.55848
10000000000000000000	-7.55868
0FBE45	-7.56142
9F	-7.56188
00000000000000004000000000000000	-7.56444
8885	-7.56469
71	-7.56559
4088	-7.56619
000000000000000000000000110	-7.56864
020000000000002A0000000	-7.5759
664489	-7.57667
7A	-7.5788
56	-7.58026
746162002E73	-7.5803
2746162002E7368737472746162002E7	-7.58037
59	-7.58103
2656C612E7465787400	-7.58119
88C1488B05000000008808	-7.58166
93	-7.58171
0000000000000000000000200000000	-7.5818
10000000600000000000000	-7.5829
1B00000004000000	-7.58429
95	-7.58461
AA	-7.58473
000F84	-7.58777
4C8B1500000000	-7.58826
4A8D04	-7.58935
4869D2	-7.59137
B1	-7.59746
10000000200000000000000000000000	-7.59773
8B4C24	-7.59991
53	-7.60064
4801	-7.60801
4180	-7.61753
89C1488B0500000000	-7.61845
99	-7.61907
AF	-7.61934
AE	-7.62563
1D	-7.62588
A7	-7.63129
01000000000000000000000000000000	-7.63141
90000000300000000000000	-7.63747
0000000000002A0000004	-7.64464
A6	-7.64566
4869C9	-7.64986
5A	-7.65505
0000000004000000020000000	-7.66112
4863	-7.6633
4869	-7.66656
5D	-7.67156
5F	-7.67493
39C80F8D	-7.67949
410FB7	-7.67973
8B5424	-7.68223
A2	-7.68253
0000000000000014000000	-7.68379
000000000000000000000000000000	-7.68746
48C785	-7.68976
0FBF45	-7.69607
40000000000000000000000000000000	-7.69758
5E	-7.70356
48698D	-7.70834
4C8B1D00000000	-7.71101
0FBE4D	-7.725
0FBF4D	-7.72804
63	-7.72942
AB	-7.73071
030000000000002A0000000	-7.7355
26000000000000000000000000000000	-7.73643
C442	-7.74319
488D14	-7.75605
C4E2	-7.76106
83BD	-7.76113
7B	-7.76359
B3	-7.77242
6E	-7.77328
4C8BA424	-7.77401
480FBF4D	-7.77671
6F	-7.78298
48B9	-7.78492
807C24	-7.78861
664589	-7.79211
80E1010FB6C9	-7.80281
F6FFFF	-7.80594
6A	-7.80623
4898	-7.80927
488B1D00000000	-7.81182
48038C24	-7.81426
488B05000000008908	-7.81456
24010FB6C0	-7.82521
8B4424	-7.82968
66666666662E0F1F840000000000	-7.83154
9D	-7.84658
483B	-7.85955
0F8E	-7.86231
090000	-7.86633
A9	-7.86902
450FB7	-7.86925
A5	-7.87183
418D	-7.87185
A3	-7.87397
000000000000001B000000	-7.87707
4801D1	-7.88421
488B0500000000488908	-7.88438
0F87	-7.88686
0200	-7.88706
90000000	-7.89146
66662E0F1F840000000000	-7.89282
4C8B3500000000	-7.89796
4C8BAC24	-7.89837
0F1F00	-7.89945
65	-7.90565
62	-7.91249
488B6C24	-7.91428
A1	-7.92266
040000000000002A0000000	-7.92416
0F1F4000	-7.92746
48039424	-7.92971
4C01	-7.93396
0F1F440000	-7.93966
6690	-7.95266
660F1F840000000000	-7.95695
448D	-7.95903
498D	-7.96651
4801CA	-7.96808
480FBE	-7.96843
4801C2	-7.9691
666666662E0F1F840000000000	-7.97095
0F1F840000000000	-7.97576
0F44	-7.97656
6666662E0F1F840000000000	-7.977
6666666666662E0F1F840000000000	-7.97987
67	-7.98091
8B6C24	-7.98857
4898488985	-7.98986
EB098B45	-7.98994
8A4D	-7.99008
0F1F8000000000	-7.99155
660F1F440000	-7.99377
90010000	-7.99742
662E0F1F840000000000	-7.9978
6D	-8.00514
AD	-8.00876
486B8D	-8.00896
8B0488	-8.01614
4C8B3D00000000	-8.02457
488B04C8488985	-8.02919
0FBF8D	-8.03212
31F6	-8.04345
488D34	-8.05103
480FBF	-8.05486
98000000	-8.05789
0F82	-8.05849
83C1	-8.06361
0000000000002A0000006	-8.06514
418B	-8.06608
488BAC24	-8.07379
0000000000002A0000003	-8.09226
0FBE8D	-8.10437
3796D	-8.10873
664183	-8.10949
C4E3	-8.11157
4C8B2500000000	-8.11207
0000000066756E632E63007465737400	-8.1121
050000000000002A0000000	-8.11491
EB0C	-8.11676
4500	-8.11761
000F95C180E101488B05000000008808	-8.12219
0000000000000000000000001000000	-8.12494
488D3C	-8.12556
0FBE85	-8.12834
C8000000	-8.13026
83F8	-8.13522
0000000022000000	-8.14437
31FF	-8.15001
A8000000	-8.15121
4801F2	-8.15943
488B04C8	-8.16151
F5FFFF	-8.16447
83C1024863C9	-8.16891
000	-8.17204
0FB60408	-8.17363
EB0E	-8.17474
488D4	-8.17612
89C2	-8.17667
898424	-8.17767
0000000000002A0000000	-8.17879
4881	-8.17992
83F0FF	-8.18105
2A00000003000000FCFFFFFFFFFFFFFF	-8.18383
488D84	-8.18855
83E9024863C9	-8.19121
4869C0	-8.19162
66C785	-8.19208
498B	-8.19989
4803B424	-8.20527
B8000000	-8.21003
4020	-8.21393
8B7424	-8.22078
4B8D04	-8.2252
C685	-8.2292
837D	-8.22948
B0000000	-8.23935
5DC30000000000000000000000000	-8.23946
488D8	-8.24636
8B7C24	-8.24985
20030000	-8.25771
897424	-8.25893
0424	-8.26503
410FBE	-8.26599
4D69F	-8.26787
458D	-8.2697
8B5C24	-8.27419
8B8424	-8.27638
AC24	-8.27661
4C8B2D00000000	-8.28195
0000000000002A0000002	-8.28202
48634D	-8.29427
500	-8.29935
0500	-8.30101
4008	-8.30398
0FB70448	-8.30709
060000000000002A0000000	-8.30785
0FBE0408	-8.30855
4408	-8.30863
4883BC24	-8.31667
80BC24	-8.31936
488D44	-8.32266
C8030000	-8.32393
4E8D	-8.3303
0FB6C0	-8.34379
0000000000002A0000001	-8.34614
0300	-8.3483
C5F9	-8.35133
83F80074	-8.35331
498D04	-8.35564
4C3B	-8.35707
4A8D0C	-8.36091
C5F96E	-8.36681
4883F8	-8.36857
897C24	-8.37081
4531C9	-8.37342
0F45	-8.37472
4C6B	-8.38458
4531C0	-8.38627
4881C1	-8.38682
0000001000000000000000000000000	-8.38962
200	-8.39383
0000000000000000000	-8.39884
4C899C24	-8.40721
96D	-8.40726
0000000000000000000000000000	-8.40783
0F95C0	-8.40863
00000000400000000000400006000500	-8.40876
4801C848698D	-8.41365
4803BC24	-8.42487
0075	-8.42625
488B2D00000000	-8.42645
88020000	-8.42734
A0000000	-8.43327
EB008B85	-8.43483
480F44	-8.44102
4801D6	-8.44292
0FB600	-8.44505
4C895C24	-8.44618
668B45	-8.44702
FEFFFF80E1010FB6C9	-8.44905
81E9	-8.45036
4C038424	-8.45298
837C24	-8.45807
0F94C0	-8.45999
0000000003000000010000000	-8.46008
FEFF	-8.4631
488914C8	-8.46566
C0000000	-8.46605
300	-8.46828
0A0000	-8.46844
3B45	-8.47011
458B	-8.47016
4D8B	-8.47131
002E737	-8.47284
488B95	-8.47666
88010000	-8.47941
424	-8.47984
02000000	-8.48096
898C24	-8.48316
600	-8.48428
6689C2	-8.48754
070000000000002A0000000	-8.49079
0FB7C0	-8.49376
489848	-8.49757
4801F0	-8.50131
66891448	-8.50347
4120	-8.50465
881408	-8.50594
8A040824010FB6C0	-8.50682
000000000000000066756E632E6300	-8.5102
0B0000	-8.51207
EB00	-8.51256
0400	-8.51671
400	-8.51885
0000000029000000	-8.51926
88C2	-8.52301
40020000	-8.52727
EB0D0FB785	-8.53248
83C0	-8.53756
89854	-8.53976
0C24	-8.5436
48837C24	-8.5455
8B8C24	-8.5461
4801F1	-8.54712
49FFC	-8.54821
700	-8.55058
48818424	-8.5508
4D00	-8.55105
FEFFFFE9	-8.56783
81C1	-8.56787
4883C1	-8.56828
4531D2	-8.56867
488B4568	-8.57424
891488	-8.57753
488B8580000000	-8.57773
50FFFFFF	-8.58016
4D69E	-8.58073
48030500000000	-8.58835
4B8D0C	-8.58993
100	-8.59373
0F8C	-8.59457
4801CE	-8.59488
70FFFFFF	-8.59804
48899C24	-8.59848
89C1	-8.59982
F3FFFF	-8.60022
488B4578	-8.60284
68FFFFFF	-8.60366
F4FFFF	-8.60559
78FFFFFF	-8.6155
4108	-8.616
4883C2	-8.61727
C462	-8.61824
0F4C	-8.6199
4883E901	-8.62009
8985C	-8.62362
E4010000	-8.62398
4C038C24	-8.62485
FFFFFF80E1010FB6C9	-8.62786
C4C2	-8.63156
A0020000	-8.63606
488B4570	-8.63657
4420	-8.63695
48034424	-8.6402
488B8588000000	-8.64147
000000000000020000000	-8.64601
488B4560	-8.64689
4C8D04	-8.64944
85C0	-8.65067
48814424	-8.65339
4C63	-8.65368
20FFFFFF	-8.65583
0FBF0448	-8.65623
F8FEFFFF	-8.65716
0F42	-8.65782
4883BD	-8.66045
488B8590000000	-8.66097
4881C4	-8.66111
EB0DB8	-8.66323
448B4424	-8.66326
03000000	-8.6642
448B4C24	-8.66432
41C1E	-8.66447
420FB6	-8.66453
30FFFFFF	-8.66589
F2FFFF	-8.67317
000F85	-8.6741
5500	-8.67576
0B0000000000002A0000001	-8.67947
450FBE	-8.67982
1424	-8.67985
8985B	-8.68093
480FAF	-8.68122
C5D9	-8.682
28FFFFFF	-8.68232
4801C6	-8.68358
0000000000002A0000007	-8.68371
C4A	-8.68541
A00	-8.68686
40FFFFFF	-8.68754
410FBF	-8.68827
090000000000002A0000001	-8.68831
0F43	-8.69005
83BC	-8.69007
31C029C8	-8.69263
8B9424	-8.69269
0A0000000000002A0000001	-8.69295
E8030000	-8.69491
FEFFFF24010FB6C0	-8.69562
10030000	-8.69586
0F92C0	-8.69634
4D63	-8.6975
80000000	-8.70446
4A8D14	-8.70446
39C8	-8.70544
C5C9	-8.70657
488B4558	-8.70688
EB0D0FBF85	-8.71142
496BC	-8.71201
8985E	-8.71255
4531DB	-8.71297
E0010000	-8.71445
080000000000002A0000000	-8.71511
89851	-8.71664
60FFFFFF	-8.71694
6683	-8.71723
8985D	-8.71889
48895C24	-8.72577
488B85A0000000	-8.72707
89855	-8.72838
3C24	-8.72879
0F8F	-8.72922
488B8598000000	-8.73126
0C0000000000002A0000001	-8.7326
0C0000	-8.73639
89852	-8.73923
F0000000	-8.74286
80020000	-8.7437
89850	-8.74394
48030D00000000	-8.74396
8985F	-8.74447
4B8D14	-8.74586
4883C0	-8.74802
C4E27D59	-8.74983
080000000000002A0000001	-8.75012
4801F8	-8.75298
807D	-8.75308
0FAF	-8.75418
0D0000000000002A0000001	-8.75528
8B9C24	-8.76221
58FFFFFF	-8.76337
89859	-8.76344
7D00	-8.76356
4801D7	-8.76377
4863C9	-8.7644
C4C1797E	-8.7679
488B0500000000488B	-8.77316
4C897424	-8.77496
20010000	-8.7757
C4C1796E	-8.77641
8B95	-8.77707
48050000	-8.77877
0F95C1	-8.7817
498D4	-8.78421
488B4550	-8.78425
A8FEFFFF	-8.78554
410F9	-8.79168
41B9	-8.79237
48031500000000	-8.79281
4801FA	-8.79302
440FBE	-8.79434
0FB64424	-8.79747
430FB6	-8.79847
E0FEFFFF	-8.79911
488B85A8000000	-8.80091
C4E279	-8.8024
B801000000	-8.8035
4963	-8.80364
83F8000F84	-8.80605
3424	-8.80623
884424	-8.80748
899424	-8.81068
4801F9	-8.81133
448B5C24	-8.81178
0F95C2	-8.81179
00000000000000000000400000000000	-8.81191
41B8	-8.81225
D8FEFFFF	-8.81718
0E0000000000002A0000001	-8.81919
31DB	-8.81948
0F94C1	-8.82062
38FFFFFF	-8.82504
48C1E1	-8.82554
486345	-8.82629
488B85B0000000	-8.827
4883FA	-8.82709
0F86	-8.82788
0D0000	-8.82966
48034C24	-8.83046
8BBC24	-8.83185
070000000000002A0000001	-8.83379
83BC24	-8.83593
488B4548	-8.83879
7D10	-8.83994
4883F9	-8.84029
8B04888985	-8.84042
8985A	-8.84241
4881C2	-8.84241
89858	-8.84421
F8010000	-8.85011
90000	-8.85043
4C039424	-8.8505
66837C24	-8.85386
D0FEFFFF	-8.85389
4801F7	-8.85436
10050000	-8.85614
F1FFFF	-8.85704
428B	-8.8572
18FFFFFF	-8.85807
486385	-8.85961
4C8D4	-8.86035
498D0C	-8.86191
488B85B8000000	-8.86526
4183C	-8.86542
8BB424	-8.86543
4520	-8.86633
488D5	-8.86967
0F0000000000002A0000001	-8.86983
B0FEFFFF	-8.86989
488D8C	-8.87088
4883F80074	-8.87147
C784	-8.87459
4839C8	-8.87527
89856	-8.87622
448B5424	-8.87691
F0FEFFFF	-8.87795
C8010000	-8.87956
98010000	-8.87973
488B85C0000000	-8.8827
EB0D0FB685	-8.8833
4C89A424	-8.88346
44894424	-8.88504
88000000	-8.88566
488B4540	-8.88687
4A89	-8.88726
C5F1	-8.88763
D0010000	-8.88768
41BB	-8.88817
4C8D0C	-8.88849
488B55	-8.88879
80FEFFFF	-8.89003
2FDFFFF	-8.89283
090000000000002A0000000	-8.89351
488B4C2480	-8.89388
470FB6	-8.89686
AFDFFFF	-8.89815
48035424	-8.89983
83C001	-8.9017
88FEFFFF	-8.90211
89C1488B05000000008908	-8.90279
00010000	-8.90303
8B55	-8.90446
80040000	-8.90446
4883C101	-8.90464
C0FEFFFF	-8.90608
4C897C24	-8.90624
4C01C0	-8.90709
48C1E	-8.90716
300004889	-8.90727
450FBF	-8.91233
FDFFFFE9	-8.91264
4801FE	-8.91436
60010000	-8.91632
486BC9184801C8	-8.91659
31ED	-8.91952
4F8D04	-8.92036
50FEFFFF	-8.92085
B8FEFFFF	-8.9212
04000000	-8.92181
F7FFFF488B85	-8.9219
4C01C1	-8.92383
89853	-8.92533
83C002	-8.92568
486BC9164801C8	-8.92691
89857	-8.9273
90FEFFFF	-8.9288
C5F97E	-8.92913
E8FEFFFF	-8.92931
C744	-8.92932
98FEFFFF	-8.92958
488B85C8000000	-8.93074
482D	-8.93208
4863D0	-8.93226
488D7	-8.93299
C5E9	-8.93644
83C004	-8.93814
486BC9144801C8	-8.93916
0000000000000003000000010000000	-8.93961
41F7D	-8.94104
70FEFFFF	-8.94108
8B00	-8.94146
A0FEFFFF	-8.94186
C4000000	-8.94297
480F45	-8.94364
B001	-8.94473
4801C7	-8.94596
41BA	-8.94679
420FB7	-8.94703
725F	-8.94718
D8010000	-8.94859
0600	-8.94877
83E9	-8.94918
C463	-8.94934
83E90189C9	-8.95236
44894C24	-8.95264
08010000	-8.95349
4881C7	-8.95542
4C01C2	-8.95651
000000000000003000000010000000	-8.95693
8A55	-8.95694
C8FEFFFF	-8.95803
C4C13	-8.96128
C0010000	-8.96304
44010000	-8.96323
837C	-8.96377
83C10189C9	-8.96412
4A8B	-8.96508
488B050000000066C700	-8.96528
428D	-8.9656
10FFFFFF	-8.96663
4801CF	-8.97091
060000000000002A0000001	-8.97096
0F924424	-8.97135
F00	-8.97243
898D	-8.97299
0F0000	-8.97475
83C6	-8.97503
99F7F9	-8.976
0000000000000D000000	-8.97729
83E9034863C9	-8.97881
0E0000	-8.97897
C5D1	-8.9793
301	-8.97938
0F92C1	-8.97989
4D0FBE	-8.981
4863C8488B0500000000488908	-8.98252
80010000	-8.98283
900	-8.98296
0700	-8.98381
4531FF	-8.98465
4C896424	-8.98678
10020000	-8.98733
0F4D	-8.98798
4F8D0C	-8.9882
50010000	-8.99084
488B85D0000000	-8.99096
100000000000002A0000001	-8.99308
4D0FBF	-8.99589
89B424	-8.9985
00000000000000003000000010000000	-8.99907
41F6C	-8.99938
58FEFFFF	-9.00131
18010000	-9.0026
83E8	-9.00368
60FEFFFF	-9.00416
488B45F0	-9.00454
71020000	-9.00548
DFEFFFF	-9.00638
F0010000	-9.00828
488B45E8	-9.01052
0F94C2	-9.01072
0FBEC0	-9.01166
48BE	-9.01402
418D4	-9.01505
488B4C2488	-9.01518
601	-9.01598
0FB6C9	-9.02151
83C2	-9.02329
488B442488	-9.02552
401F0000	-9.02576
48C1E00	-9.02595
4C89AC24	-9.02791
60030000	-9.03161
0F95C024010FB6C0	-9.03228
488B85D8000000	-9.03245
0800	-9.03357
4885C0	-9.03456
85D2	-9.03459
78FEFFFF	-9.03465
0F92C2	-9.0354
40060000	-9.03649
498D14	-9.03693
58020000	-9.03997
FFFFFF24010FB6C0	-9.04012
4C0FBE	-9.04193
4508	-9.04201
4801C84805	-9.04244
5D00	-9.04308
488B0500000000C700	-9.04639
440FBF	-9.04644
30010000	-9.04664
68010000	-9.04682
4C039C24	-9.04779
48837D	-9.04891
488D4C	-9.05288
1C24	-9.05508
A9000000	-9.05567
0F97C0	-9.05744
4901F8	-9.05837
48FEFFFF	-9.06004
7500	-9.06037
C4090000	-9.06121
4A8D84	-9.0632
C443	-9.06393
11020000	-9.06487
A424	-9.06905
110000000000002A0000001	-9.06992
C5E1	-9.07014
28020000	-9.07041
394424	-9.07271
8424A0000000	-9.07648
C5D5	-9.07776
98290000	-9.07932
60040000	-9.07947
4181F	-9.07952
486BC92C4801C8	-9.07954
4901F0	-9.07982
4C01C8	-9.08158
4901D0	-9.08164
F0030000	-9.08238
00020000	-9.08317
EB0D0FBE85	-9.08487
8801	-9.08531
884C24	-9.08611
20020000	-9.0873
00360000	-9.0875
8424A8000000	-9.08895
6D00	-9.08943
83C003	-9.08946
4A8D34	-9.0908
4531F6	-9.09309
4288	-9.09377
4B8D3C	-9.09388
B901000000	-9.0951
4C01C7	-9.09604
488B4538	-9.09748
F7D0	-9.09754
4883C7	-9.09788
0A0000000000002A0000000	-9.09961
498D8	-9.10036
20060000	-9.10124
FDFFFF24010FB6C0	-9.1016
101	-9.10193
00FEFFFF	-9.10275
4C896C24	-9.10423
D0000000	-9.1046
400F92C6	-9.10537
4C8D14	-9.10563
8424B0000000	-9.10747
69010000	-9.1082
480500	-9.10873
48C1E20	-9.1089
501	-9.10894
83E0	-9.11277
8901	-9.11286
C706	-9.11292
4B8D34	-9.11344
4889AC24	-9.11493
4883FE	-9.11565
401	-9.11585
4809	-9.11722
4869F6	-9.1198
488B542488	-9.1203
83C1034863C9	-9.12039
488B85E0000000	-9.12172
490FBE	-9.12608
F0FFFF	-9.12661
C701	-9.12736
8424B8000000	-9.1282
C4417970	-9.12895
496BF	-9.13003
050000000000002A0000001	-9.13112
0FBFC9	-9.13192
664289	-9.13252
30FEFFFF	-9.13376
800	-9.13564
486BC9644801C8	-9.13637
D0020000	-9.13664
EB0A0FB745	-9.1372
89C0	-9.1379
90070000	-9.13895
8802	-9.13937
C4E27D	-9.1397
30020000	-9.14016
4881C6	-9.14035
448B6424	-9.1419
F7D8	-9.14194
701	-9.14221
48FFFFFF	-9.14393
486BC9584801C8	-9.1443
8424C0000000	-9.14754
440F44	-9.14813
70020000	-9.14849
80E2010FB6D2	-9.14893
39C80F83	-9.15067
C5E9EFD	-9.15119
833F00	-9.15412
8B4DE4	-9.15474
FF0000	-9.15587
40010000	-9.15817
10010000	-9.15824
D3E0	-9.16166
0FB7C9	-9.16167
4C01D0	-9.16191
486BC9284801C8	-9.16234
08020000	-9.16269
4C01C6	-9.16377
4C8D8	-9.16425
0FB700	-9.16436
48033500000000	-9.16461
496BD	-9.16524
4D8D4	-9.16556
4885D2	-9.1666
48039C24	-9.16661
0000000000000000400000000000	-9.16723
4883C6	-9.16795
00100004C8B8D	-9.16796
A0010000	-9.16809
894D	-9.1683
4F8D14	-9.16908
4901C8	-9.16922
400004889	-9.16937
488B85E8000000	-9.16938
20FEFFFF	-9.17077
3B4C24	-9.17163
83F9	-9.17304
60020000	-9.17375
4539C	-9.1748
48037424	-9.1756
0D00	-9.17582
4883FF	-9.17652
C0060000	-9.17718
89D0	-9.17777
0FB655	-9.18052
0FB609	-9.18075
488D9	-9.18114
120000000000002A0000001	-9.18133
4883F8000F84	-9.18228
48C1E60	-9.18233
460FB6	-9.1834
30030000	-9.18348
83E1	-9.18393
38010000	-9.18562
4C0FBF	-9.1858
4D01C1	-9.18623
486BC9174801C8	-9.18691
410F97C	-9.18763
8424D0000000	-9.18895
5FEFFFF	-9.19046
70030000	-9.19086
488B05000000008A0024010FB6C0	-9.19104
B8010000	-9.19116
E0000000	-9.19372
0FB64C24	-9.19499
554157415641554154534881EC	-9.19587
448B7424	-9.19658
488B050000000048C700	-9.19701
C0020000	-9.19765
486BC9504801C8	-9.19857
80100004C8B8D	-9.19928
4869C9E40100004801C8	-9.20378
B9010000	-9.2046
498D44	-9.20474
40030000	-9.20569
8424C8000000	-9.20599
833C	-9.20623
400F95C6	-9.20709
394C24	-9.20714
400006000500554889E54881EC	-9.2074
66837D	-9.20838
68FEFFFF	-9.20927
4901C0	-9.20948
0F954424	-9.21171
6683BC24	-9.21268
00000FB785	-9.21329
8424D8000000	-9.21373
85C9	-9.2148
40FEFFFF	-9.21516
120	-9.21646
488B85F0000000	-9.2165
448B7C24	-9.21704
8424E8000000	-9.21882
00030000	-9.22176
4869C9900000004801C8	-9.22323
C5E1EFD	-9.22427
488B442480	-9.22428
C1E00	-9.22507
4289	-9.22587
488B7C2480	-9.22663
833800	-9.22694
668901	-9.22795
4C8D5	-9.22971
D8000000	-9.23004
842400010000	-9.23008
4183F	-9.23113
486BC9304801C8	-9.23186
488D1C	-9.23243
F7D1	-9.23391
4539D	-9.23559
8424E0000000	-9.23584
4C01CA	-9.23697
0048818424	-9.2381
F7D9	-9.2386
31D2F7	-9.24108
8902	-9.24172
740D	-9.24515
400F92C7	-9.24515
80030000	-9.24606
3FDFFFF	-9.24762
5CFFFFFF	-9.2491
48896C24	-9.24949
F8000000	-9.24961
83FA	-9.24997
E0020000	-9.2503
18020000	-9.25036
E1000000	-9.25147
EB0A0FBF45	-9.25313
0000668985	-9.25358
C5DD	-9.25472
486BC9604801C8	-9.25491
10FEFFFF	-9.25543
28010000	-9.25616
C0030000	-9.25708
21010000	-9.25785
28FEFFFF	-9.25799
08FFFFFF	-9.26029
80E201881408	-9.26126
F7D2	-9.26247
10040000	-9.26291
130000000000002A0000001	-9.26434
490FBF	-9.26745
38020000	-9.26851
89C8	-9.26853
488B0500000000488B00488985	-9.26964
488B4C24A0	-9.27022
08030000	-9.27028
4C8D1C	-9.27203
70010000	-9.27255
D3F8	-9.27358
8424F8000000	-9.27397
81C2	-9.27549
FFFFFF7F	-9.2759
68020000	-9.27602
38FEFFFF	-9.27639
4883E902	-9.2764
90040000	-9.27673
488B85F8000000	-9.27743
0345	-9.27752
842480000000	-9.27855
66C700	-9.27932
90030000	-9.27938
48BF	-9.27951
4000	-9.28096
48833CC80074	-9.28132
4A8D3C	-9.28155
486BC0	-9.28227
F0FDFFFF	-9.28431
4531ED	-9.28565
F8020000	-9.28567
4403	-9.28743
48C1E1044801C8	-9.28757
4869C9400200004801C8	-9.28841
4869C9900100004801C8	-9.28851
0FB604	-9.28905
4C03B424	-9.29004
00FFFFFF	-9.29057
48033D00000000	-9.29173
488B05000000008A008885	-9.29189
8424F0000000	-9.29238
4531E4	-9.29249
E8010000	-9.29272
0000000000000003E0000001	-9.29307
842408010000	-9.29346
842488000000	-9.29415
488B05000000008B008985	-9.29726
28040000	-9.29745
4869D1	-9.29757
833C8800	-9.2977
448B6C24	-9.29796
4429	-9.298
0B0000000000002A0000000	-9.29815
4869CE	-9.29936
4D8D8	-9.29981
54FFFFFF	-9.3024
740DB8	-9.30287
4C0F44	-9.30298
488B4C2490	-9.30397
C1E10	-9.30419
4C01D8	-9.30604
28030000	-9.30618
842490000000	-9.30639
EB0A0FB645	-9.30712
0FB65424	-9.30754
D8020000	-9.30757
78030000	-9.30849
08070000	-9.30852
833C880074	-9.31097
4829C8	-9.31112
C44139EFC	-9.31166
50020000	-9.31227
885424	-9.31263
85F6	-9.31282
41F7F	-9.31295
4388	-9.31336
C4E27978	-9.31374
2C24	-9.31411
48C1E204	-9.31415
4C01C9	-9.31424
0F97C1	-9.31491
7CFFFFFF	-9.31498
8C2480000000	-9.31555
4869C6	-9.31624
00050000	-9.31719
488B0500000000668B00668985	-9.3174
01C8	-9.31766
200A0000	-9.31979
B0040000	-9.32254
7661725F3230007661725F323100	-9.32427
E8020000	-9.32471
668902	-9.32547
4869C9C80000004801C8	-9.32608
08FEFFFF	-9.32823
B0020000	-9.32873
483B45	-9.33003
64FFFFFF	-9.33079
C5CD	-9.33172
842430010000	-9.33264
50040000	-9.33308
88100000	-9.33334
498D7	-9.33463
8B40	-9.33537
4839C80F8D	-9.33687
58030000	-9.33689
488B0500000000C600	-9.33779
488B8500010000	-9.33833
49C1E00	-9.34095
56FFFFFF	-9.34119
488B8508010000	-9.34164
201	-9.34184
38030000	-9.34261
400F95C7	-9.34312
58010000	-9.34353
486BC9154801C8	-9.34442
842410010000	-9.34449
8B4DD8	-9.34499
488B442498	-9.34517
488B442490	-9.34614
4981C0	-9.34627
842420010000	-9.34639
4869D6	-9.34859
76FFFFFF	-9.34916
486BC90D4801C8	-9.3493
803C0800	-9.35056
4981C3	-9.35072
1FEFFFF	-9.35103
4869C2	-9.35144
418D8	-9.35228
488B742488	-9.35239
49C1E	-9.35246
68040000	-9.35358
4901D1	-9.35496
4D6BC	-9.35686
8B4DD4	-9.35829
488B4528	-9.3586
C5D1EFE	-9.35985
668B0448668985	-9.36005
8C2488000000	-9.36172
4C01D2	-9.36197
18030000	-9.36268
833E00	-9.36273
488B542480	-9.36296
48020000	-9.3634
48037C24	-9.36346
EB0A0FBE45	-9.36366
920	-9.36452
842498000000	-9.3646
4F8D1C	-9.36545
48833CC800	-9.3659
4C8D9	-9.36604
488B4530	-9.36849
C4E37914	-9.36865
803C080074	-9.36869
4801C80FB78D	-9.36971
A8030000	-9.37013
FDFFFFEB00	-9.37018
4801D8	-9.37063
488B4424A0	-9.3709
488B45E0	-9.37104
8C24A8000000	-9.37153
5424C0	-9.37201
66833C480074	-9.37269
49F7D	-9.37483
488B4C24B0	-9.37494
CFFFFEB0C8B85	-9.3759
6CFFFFFF	-9.37614
488D94	-9.37785
EFFFFF	-9.37798
1CFFFFFF	-9.37812
58040000	-9.37837
EDFFFF	-9.37879
140000000000002A0000001	-9.37943
34FFFFFF	-9.38027
8808	-9.38122
E0FDFFFF	-9.38221
4883C102	-9.3833
4885C9	-9.38383
000000045	-9.38407
4869CA	-9.3843
4801C80FB68D	-9.38465
6EFFFFFF	-9.38482
488D54	-9.38521
4901F9	-9.38557
4889C2	-9.38599
842428010000	-9.38766
040000000000002A0000001	-9.38846
18FEFFFF	-9.38889
4883F0FF	-9.39045
4A8D44	-9.39099
4402	-9.39135
803C1	-9.39229
842418010000	-9.39303
7661725F3139007661725F323000	-9.39332
85ED	-9.39362
8C2498000000	-9.39464
942480000000	-9.39476
5000000FCFFFFFFFFFFFFFF002E	-9.39478
4869C9C80300004801C8	-9.39585
000F95C034FF24010FB6C0	-9.39652
78020000	-9.39725
842438010000	-9.39745
8806	-9.40015
D0FDFFFF	-9.4006
4D01C8	-9.40104
488B4C2498	-9.40166
00040000	-9.40177
488DB	-9.4021
B8040000	-9.4022
000F95C08885	-9.40324
488B4424B8	-9.4035
488B542490	-9.40439
EB0B	-9.40469
44080000	-9.40576
486BC9194801C8	-9.40606
8C24A0000000	-9.40608
E0040000	-9.40651
7661725F3138007661725F313900	-9.40859
4D01CA	-9.40895
842440010000	-9.40934
0000C785	-9.40934
400F94C6	-9.4097
498D5	-9.41017
68030000	-9.41042
66C78	-9.4106
3500	-9.41062
67FFFFFF	-9.41068
842448010000	-9.41282
98040000	-9.41319
40050000	-9.41385
83F1FF	-9.41463
78040000	-9.41502
C8020000	-9.41514
52010000	-9.41542
20040000	-9.41595
4869D7	-9.41599
8C24B0000000	-9.41653
4901C1	-9.41653
4C01CF	-9.41805
901	-9.41873
488D0480	-9.41882
A4020000	-9.419
66833C4800	-9.42106
70040000	-9.42262
4901F1	-9.42305
4983FE	-9.42358
486BC9134801C8	-9.42374
4D8D5	-9.42399
A0030000	-9.42445
4981C1	-9.42492
78000000	-9.42499
4983F8	-9.42569
0500000000	-9.42742
88040000	-9.42852
B0030000	-9.42901
0000000000002A0000008	-9.43005
83FE	-9.43149
482B	-9.43167
4869C7	-9.43222
24010FB6C089C1488B0500000000	-9.43308
A8020000	-9.43386
488B8510010000	-9.43454
0FB6D2	-9.43463
4C01D1	-9.43583
200F0000	-9.4362
833900	-9.4366
00000FBF85	-9.43723
4869C1	-9.43749
90020000	-9.43776
4869CF	-9.43889
4983C2	-9.44058
1500	-9.44058
120000000000002A0000002	-9.44142
48C1E004	-9.44205
486BC9124801C8	-9.44243
842460010000	-9.44276
488B4424A8	-9.4436
44895424	-9.44424
22040000	-9.44427
48010000	-9.44514
48898D	-9.4453
4881E9	-9.44539
4400	-9.44568
4901C9	-9.4458
842450010000	-9.44581
4829F	-9.44582
4C034424	-9.44609
84040000	-9.44649
803C0	-9.44858
170000000000002A0000002	-9.44884
4183E	-9.45356
C0FDFFFF	-9.4537
EEFFFF	-9.45466
4C03BC24	-9.45653
7EFFFFFF	-9.4568
D0030000	-9.45716
E8FDFFFF	-9.45751
80C1	-9.45774
140000000000002A0000002	-9.45795
9FEFFFF	-9.45828
28FDFFFF	-9.45873
4C030500000000	-9.45913
D0040000	-9.4594
664389	-9.45943
8C24B8000000	-9.46152
49C1E10	-9.46175
4C8D34	-9.46187
C5E5	-9.46212
66C701	-9.46269
000048818424	-9.4628
4D6BD	-9.46327
5EFFFFFF	-9.46335
4C01E0	-9.46385
800C0000	-9.46454
F4FEFFFF	-9.4667
C5BD	-9.46697
72030000	-9.46849
08FDFFFF	-9.46852
FCFEFFFF	-9.47027
48833C	-9.47146
81F9	-9.47156
7661725F323000	-9.47189
E0030000	-9.47234
FFFFEB00	-9.47241
F7DA	-9.47252
FDFF	-9.47359
130000000000002A0000002	-9.47522
48C1E70	-9.4756
EB11	-9.47562
803800	-9.47588
83E801	-9.47652
A0040000	-9.47659
8B4DE0	-9.4769
150000000000002A0000002	-9.47717
49C1E30	-9.47746
488B542498	-9.47772
81C6	-9.47779
488B8518010000	-9.47802
21C8	-9.47842
7661725F323100	-9.47849
4C01D9	-9.47884
4969C2	-9.4792
410F95C0	-9.48003
E2040000	-9.48024
4C01D7	-9.48027
4038	-9.48037
488B4520	-9.48053
49B8	-9.48156
98030000	-9.48174
4C01F0	-9.48232
842468010000	-9.48245
C0040000	-9.48317
4969C8	-9.48453
78FDFFFF	-9.48484
3CFFFFFF	-9.48554
110000000000002A0000002	-9.48557
4983C0	-9.48558
498D34	-9.48596
01C8668945	-9.48603
842458010000	-9.4861
803C3	-9.48698
400FB6C	-9.48816
443B	-9.48866
0D00000000	-9.4887
4981C2	-9.48892
488B0500000000488B0D00000000	-9.48999
08090000	-9.49034
7410	-9.49115
0C0000000000002A0000000	-9.4914
88130000	-9.49227
4C01CE	-9.49269
01C88845	-9.49281
410F4C	-9.49284
98020000	-9.49334
842470010000	-9.49381
150000000000002A0000001	-9.49384
60050000	-9.49462
0175	-9.49478
872F0000	-9.49486
41FFC	-9.49517
41BF	-9.49522
D8030000	-9.49523
50030000	-9.49557
000000000000004C0000001	-9.49563
8C24D0000000	-9.4957
488D0440	-9.49585
0FBEC8488B05000000000FBE00	-9.4963
C4E37D39D	-9.49683
C5FD	-9.49689
4C01F8	-9.49728
31D249F7F	-9.49768
48634DE0	-9.49834
4901D2	-9.49949
7661725F3137007661725F313800	-9.49988
48634DD8	-9.50017
1D00	-9.50099
4801C848638D	-9.50132
C57D6F	-9.50159
180000000000002A0000002	-9.50169
89F0	-9.50391
83C00183F8000F95C024018885	-9.50393
942490000000	-9.50396
C030000	-9.50404
4869C9200300004801C8	-9.50485
160000000000002A0000002	-9.5051
8C24E0000000	-9.50564
4969C0	-9.50616
4839C80F83	-9.50681
4969CA	-9.50762
0FBFC8488B05000000000FBF00	-9.50785
4983F9	-9.5085
F8030000	-9.5094
B80A0000	-9.51007
C4E27D58	-9.51008
498D3C	-9.51043
4829C	-9.51063
80F9	-9.51069
0F9500	-9.51086
66833C	-9.51135
8945E8	-9.51195
4969C1	-9.51212
4983C1	-9.51212
8B4DDC	-9.5128
110000	-9.51324
C53D	-9.51368
4869C9110200004801C8	-9.51398
88030000	-9.5147
480FBF45	-9.51536
942488000000	-9.51556
8B4DCC	-9.51585
4401C	-9.51606
9424A0000000	-9.51607
4B89	-9.51614
440A	-9.5177
486BC90A4801C8	-9.51815
85C00F84	-9.51836
80C2	-9.51842
4969D0	-9.51884
4863D2	-9.51893
498D84	-9.51987
84000000	-9.52065
488B4C24A8	-9.52211
B4000000	-9.52316
438B	-9.52355
190000000000002A0000002	-9.52499
488B4424B0	-9.52517
833B00	-9.52611
448B9C24	-9.52645
C2010000	-9.52646
70FCFFFF	-9.52705
4969C3	-9.52896
7661725F323200	-9.52991
4883C004	-9.53022
0FB6C8488B05000000000FB600	-9.531
89C1488B0500000000488908	-9.53166
41BE	-9.53185
4983C3	-9.53188
4585D2	-9.53214
410F95C1	-9.53217
1500000000	-9.5323
B0FCFFFF	-9.53254
48694424	-9.53297
4969C9	-9.53312
486BC9114801C8	-9.53351
488B742480	-9.53386
FCFF	-9.53421
4889C1	-9.53553
833A00	-9.53567
8C24C0000000	-9.53585
C70488	-9.53588
488901	-9.53661
120000	-9.53713
8C24C8000000	-9.53761
6642	-9.53767
488B8520010000	-9.53784
1000000000000000	-9.53846
4C01DF	-9.53878
410F92C1	-9.53884
48C7C0	-9.53885
488B5424A8	-9.53912
100000000000002A0000002	-9.53915
41BC	-9.53973
08040000	-9.54047
4969CB	-9.54066
29C8	-9.54103
3EFFFFFF	-9.54149
488B4518	-9.54194
C4C1F96E	-9.54244
EB118A85	-9.54312
0FBEC9	-9.5435
C8040000	-9.54373
30050000	-9.5441
84030000	-9.54416
7661725F313900	-9.54499
D0070000	-9.54529
4C8B742488	-9.54537
740A	-9.54592
FEFFFFEB00	-9.5461
842478010000	-9.54688
486355	-9.54759
488B7C2488	-9.54826
4C01DA	-9.54897
C60001	-9.54907
4901CA	-9.5495
48694C24	-9.54956
D2020000	-9.5496
0F9501	-9.54969
B8030000	-9.54984
0F95C034FF24010FB6C0	-9.55034
000000000000000530000001	-9.55036
A8FDFFFF	-9.55079
896C24	-9.55109
0FB755	-9.55227
480FBE45	-9.55271
B8020000	-9.55284
486BC90F4801C8	-9.55291
77FFFFFF	-9.55309
8424A8010000	-9.55434
C5ED	-9.55549
0FB7C8488B05000000000FB700	-9.55569
4C8D7	-9.55606
89F1	-9.55611
E4FEFFFF	-9.55619
488B8528010000	-9.5563
49B9	-9.55657
8B45EC	-9.55777
488B4DD8	-9.55783
8424B8010000	-9.55803
2CFFFFFF	-9.5583
40040000	-9.55839
48694DD8	-9.55842
30530000	-9.55848
C5796E	-9.55853
B01	-9.55863
C80D0000	-9.55886
0000000078000000	-9.55936
C4E27958	-9.55941
12000000000000000000000000000000	-9.55947
78010000	-9.5595
84FEFFFF	-9.56106
4869C8	-9.56162
4901D3	-9.56175
D8FDFFFF	-9.56204
4969E	-9.56266
488B4510	-9.56315
7661725F3136007661725F313700	-9.56355
942498000000	-9.56369
093D0000	-9.56443
842480010000	-9.56531
488B0500000000C60001	-9.56533
E8040000	-9.56562
8A04088885	-9.56603
78FCFFFF	-9.56638
486BC90E4801C8	-9.56656
83E2	-9.56705
B0010000	-9.56719
A8040000	-9.56728
8BAC24	-9.56819
486395	-9.5682
41BD	-9.56866
B902000000	-9.5699
C8160000	-9.57082
89F8	-9.57121
4883C002	-9.57176
A4050000	-9.57199
842498010000	-9.57223
A01	-9.57246
400F94C7	-9.57404
98FCFFFF	-9.57471
66C74	-9.57603
ECFEFFFF	-9.57699
AD00	-9.57714
440F4C	-9.57764
438D	-9.57775
C8FDFFFF	-9.58
4883FB	-9.58031
842490010000	-9.58038
C44279	-9.58041
0000000000	-9.58056
4869C9800400004801C8	-9.58128
42020000	-9.58134
F2000000	-9.58185
488B4424C0	-9.58206
4C03A424	-9.58244
48C1E1084801C8	-9.58307
80E2010FB6D24869D2	-9.58332
1A0000000000002A0000002	-9.58372
4969D1	-9.58393
480B	-9.58488
66C70448	-9.585
8424B0010000	-9.58539
8B45F8	-9.58601
38040000	-9.58607
8424A0010000	-9.58609
480B0000	-9.58617
4539F	-9.58666
0F97C2	-9.5872
4D01C2	-9.58724
E4060000	-9.58745
498DB	-9.58764
488B5424A0	-9.58912
0000000028000000	-9.58929
FFFFEB008A85	-9.58951
430FB7	-9.58959
4885F6	-9.59126
4981F	-9.59178
842488010000	-9.592
57FFFFFF	-9.59219
486BC90B4801C8	-9.59221
4801C8480FBF8D	-9.59287
4D01D1	-9.59332
00074	-9.59448
85FF	-9.59488
EB18	-9.59572
D8040000	-9.59581
8C24D8000000	-9.59612
4C8D3C	-9.59771
4869C9A90000004801C8	-9.5978
8C24E8000000	-9.59804
9424A8000000	-9.59808
4983FA	-9.5984
0FB67424	-9.59879
1F0000	-9.59907
9424B0000000	-9.59918
81C7	-9.5999
8B4DE8	-9.60002
C60408	-9.60027
84C0	-9.60077
EB1C	-9.60089
30040000	-9.60116
4F8D34	-9.60127
68FCFFFF	-9.6013
48C1E30	-9.60145
C1E60	-9.60308
9C000000	-9.60311
488B45F8	-9.60338
80074	-9.60377
488B8560010000	-9.60426
18040000	-9.60487
48C1E1074801C8	-9.60553
488B4424E0	-9.60557
83FA000F45C1	-9.60557
498D8C	-9.60593
44895C24	-9.60673
488B8568010000	-9.6069
44FFFFFF	-9.60794
40FDFFFF	-9.60815
488B742490	-9.60816
FEFFFF8A85	-9.60849
488B4424D0	-9.60883
C4E1F97E	-9.61096
FCFFFFEB00	-9.61136
F8040000	-9.61185
488B05000000000FB600	-9.61246
48695424	-9.61348
4C8B4C2488	-9.61373
488B5424B8	-9.61408
420FB604	-9.61465
8B4528	-9.61487
4969D3	-9.6163
58FCFFFF	-9.61631
48C1E1054801C8	-9.61895
4969D2	-9.61927
EB1A	-9.61935
4869D0	-9.62152
488B4DD0	-9.62159
8C000000	-9.62214
4409	-9.62222
8B09	-9.62238
000000000000000000005A0000001	-9.62261
4969C7	-9.62267
7661725F3135007661725F313600	-9.62269
8C24F8000000	-9.62277
49C1E20	-9.62329
24FFFFFF	-9.62341
4869C9982900004801C8	-9.62448
486BC95C4801C8	-9.62455
D4FEFFFF	-9.62634
83C7	-9.62636
000000002F000000	-9.62746
F0020000	-9.62765
7661725F313800	-9.62888
F8FDFFFF	-9.62938
4801C8480FBE8D	-9.62945
66C702	-9.62946
8424C0010000	-9.62988
6FFFFFFF	-9.63072
95080000	-9.63089
89CA	-9.63099
8C24F0000000	-9.63187
4969D6	-9.63199
4438	-9.63246
7661725F323300	-9.63287
4829D	-9.63395
4969CE	-9.63511
4901C2	-9.63524
488B4DB8	-9.63559
880A	-9.63608
4EFFFFFF	-9.6368
0F0000000000002A0000002	-9.6383
D0E8B85	-9.63855
1B0000000000002A0000002	-9.63889
488B4C24B8	-9.63896
24010FB6C8	-9.63992
18050000	-9.64004
F0040000	-9.64009
7661725F3231007661725F323200	-9.64044
4901FA	-9.64064
160000000000002A0000001	-9.64116
E8FCFFFF	-9.64118
4C01D6	-9.64135
EB1348B8	-9.64139
8C2400010000	-9.64234
488B8530010000	-9.64267
6683F8	-9.64366
48040000	-9.64506
10FDFFFF	-9.64556
80FA	-9.64576
48C1E1064801C8	-9.64684
0FB614	-9.6474
89C9	-9.64778
94FEFFFF	-9.64781
4869C9401F00004801C8	-9.64907
E0FCFFFF	-9.64939
410F4F	-9.64968
387C0100	-9.6508
4983FB	-9.65174
486BC90C4801C8	-9.65359
4183F9	-9.6542
84C9	-9.6546
A0FCFFFF	-9.65508
C4FEFFFF	-9.65573
542408	-9.65576
48C78	-9.65582
31D2F7F1	-9.65634
A8FCFFFF	-9.65669
8424D8010000	-9.65745
A0050000	-9.65788
410F44C	-9.65876
488B05000000004805	-9.65913
486BC92E4801C8	-9.6592
410F92C2	-9.65923
50050000	-9.66059
01C883F8000F95C024018885	-9.66097
66FFFFFF	-9.66332
4030000	-9.66337
4969C6	-9.66349
488B8538010000	-9.66354
F01	-9.66465
4869C9B90100004801C8	-9.66493
4C01F9	-9.66501
4C034C24	-9.66509
B8FDFFFF	-9.66607
488B4DE8	-9.66648
18FCFFFF	-9.66668
08050000	-9.66779
488902	-9.66873
4889442498	-9.66904
58050000	-9.66909
4863C8488B0500000000	-9.66954
14FFFFFF	-9.66959
3B5424	-9.67016
4C01E8	-9.671
39C87E0F0FB785	-9.67181
4883C003	-9.67224
2EFFFFFF	-9.67237
41C603	-9.67252
8B4510	-9.67309
4109	-9.67314
0CFFFFFF	-9.67404
4B8B	-9.67442
8C2410010000	-9.67454
4801D1488B95	-9.67527
480FBF55	-9.67547
4C8B442488	-9.67588
0FAFC1	-9.67609
D8FCFFFF	-9.67795
4869D3	-9.67798
4C8B4C2490	-9.67829
0FB612	-9.6788
488B4424C8	-9.67956
4801D9	-9.67957
28FCFFFF	-9.67965
0000C685	-9.67975
420FBE	-9.67983
480FBE55	-9.67985
4C0F42	-9.6806
4C8B4C2480	-9.68066
90FCFFFF	-9.68108
80FCFFFF	-9.68149
4881C3	-9.68211
66C704	-9.68217
31C8	-9.68231
4C035424	-9.68247
80FDFFFF	-9.68254
4969D7	-9.68311
4869C9003600004801C8	-9.68369
28050000	-9.68426
48894424A0	-9.68453
CCFEFFFF	-9.68489
7661725F323400	-9.6849
EB1D	-9.68563
008885	-9.68595
4969C4	-9.68601
2D240000	-9.68619
49C1E60	-9.68626
4C01F2	-9.68648
66833800	-9.68655
4C030D00000000	-9.68669
4688	-9.68671
1B0000	-9.68675
8424E8010000	-9.68761
9424B8000000	-9.68768
00100004C8B85	-9.68768
CB1A0000	-9.68818
46FFFFFF	-9.68843
488985E	-9.68941
8424E0010000	-9.69007
E0E8B85	-9.69081
74FFFFFF	-9.69085
4883C3	-9.69096
0FB60C11	-9.69101
4889859	-9.69208
205B0000	-9.6922
410F92C3	-9.69221
4529	-9.69292
4585DB	-9.69372
8424C8010000	-9.69403
488B8540010000	-9.69433
4F8FFFF8B85	-9.69445
00000000000000000000000061000000	-9.69635
4801D18B95	-9.6972
EB15	-9.69774
4869F2	-9.69838
B0FDFFFF	-9.69841
470FB7	-9.69858
4889442488	-9.69865
4801DA	-9.69923
4D01D0	-9.69924
C4E1F96EC	-9.69953
9424D0000000	-9.69994
49BA	-9.69996
20FDFFFF	-9.69997
4869C3	-9.70007
8A8DF	-9.70127
60FCFFFF	-9.70325
4D8D04	-9.70351
8B4530	-9.70374
4901F2	-9.7055
C4E27979	-9.70579
4539E	-9.70593
90FDFFFF	-9.70615
A4FEFFFF	-9.70631
4D01D3	-9.70663
842400020000	-9.70671
90050000	-9.70693
5FFFFFFF	-9.70712
4869C9690100004801C8	-9.70722
4389	-9.7077
488B4DC8	-9.70833
C04C0100	-9.70836
0F95C180E1010FB6C939C80F8D	-9.70907
1C0000000000002A0000002	-9.70912
4585C0	-9.70919
83F8000F95C2	-9.70926
8C2418010000	-9.70931
6000000FCFFFFFFFFFFFFFF002E	-9.70932
7413	-9.70937
48C1E205	-9.7106
8424D0010000	-9.71062
48634DE4	-9.71063
81FA	-9.71075
EB19	-9.71102
8B4518	-9.71137
8B45F4	-9.7116
488B4C24C8	-9.71196
60FDFFFF	-9.71223
89C1488B05000000004869C9	-9.71225
400F92C5	-9.71277
0FB74DD6	-9.71277
88FDFFFF	-9.71306
4969D4	-9.71399
C1E20	-9.71409
4889852	-9.71428
80100004C8B85	-9.71461
1D0000000000002A0000002	-9.71467
48FDFFFF	-9.71521
4969CF	-9.7165
CF8FFFF8B85	-9.71658
8B45FC	-9.71709
48634DCC	-9.7176
4C2450	-9.71777
488B4C24D8	-9.71806
9424C0000000	-9.71882
000F95C2	-9.71888
4C0FAF	-9.7193
48634DDC	-9.71934
1D00000000	-9.71959
8A8D4	-9.71971
DCFEFFFF	-9.71976
C60101	-9.72179
8424F8010000	-9.72259
498D4C	-9.72276
4969CC	-9.72278
410F95C2	-9.72297
488B742498	-9.72309
440F4F	-9.7233
8424F0010000	-9.7233
31D248F7F1	-9.7234
B4FEFFFF	-9.72442
488B8C24880	-9.72485
9424E8000000	-9.72486
4D01F9	-9.72515
0FB709	-9.72543
40B60000	-9.72602
006C0000	-9.72724
1CBE0000	-9.72797
68FDFFFF	-9.72882
80050000	-9.72933
486BC92A4801C8	-9.72937
8C2408010000	-9.73009
4869C9B80000004801C8	-9.7302
33050000	-9.73067
0FB7D2	-9.73087
4883E8	-9.73098
C5C1	-9.73179
F8FCFFFF	-9.73187
4E8D04	-9.73252
C5EDEFD	-9.73296
48894424B8	-9.7331
A0FDFFFF	-9.73365
0D0000000000002A0000000	-9.73398
4869CB	-9.73406
C8FCFFFF	-9.73454
89D1	-9.73529
4983C7	-9.7358
4889855	-9.73605
BA01000000	-9.73605
0FB7C02D	-9.73616
4C03AC24	-9.73642
488B4C24C0	-9.73702
4C01F1	-9.73718
0F9504	-9.73726
FF000000	-9.73765
EB1B	-9.73784
200004C8B	-9.73829
4C01DB	-9.73897
20050000	-9.73927
8C2428010000	-9.73989
400FB6F6	-9.7401
1FFFFFFF	-9.74018
60A60000	-9.7415
8C2420010000	-9.74154
442498	-9.74191
9424D8000000	-9.74217
542420	-9.74237
478B	-9.74263
4983E	-9.74301
31D248F7F	-9.74324
010F85	-9.74382
440F47	-9.74627
48833800	-9.74701
99F7	-9.74739
4D8D9	-9.74742
488985F	-9.74796
4869C9710200004801C8	-9.74815
440F45	-9.7483
668908	-9.74892
4969C5	-9.74931
395424	-9.75009
00060000	-9.75064
488B4424E8	-9.75105
4801D18B55	-9.75188
488DB4	-9.7521
7661725F3133007661725F313400	-9.75243
440F43	-9.75313
4869C5	-9.75402
4C8D24	-9.75425
7661725F3134007661725F313500	-9.75455
9424C8000000	-9.75505
70FDFFFF	-9.75524
41833C	-9.75546
EB17	-9.75551
0E0000000000002A0000002	-9.7566
895C24	-9.75667
4C8D6	-9.75684
486955	-9.75705
98FDFFFF	-9.75777
48894424A8	-9.75779
4C8B442480	-9.75917
0FB7C981E9	-9.76054
83C10289C9	-9.76248
4889442490	-9.76377
8C2430010000	-9.76382
4885FF	-9.76382
2F0D0000	-9.76408
48894424C0	-9.76533
2FFFFFFF	-9.76538
5A480000	-9.76581
4901C3	-9.76593
40887424	-9.76666
4B8D1C	-9.7671
37FFFFFF	-9.76802
5B415C415D415E415F5DC3	-9.76832
488B4424D8	-9.76864
7661725F3232007661725F323300	-9.76951
00FDFFFF	-9.76985
4538	-9.77009
48C1E104	-9.77124
001	-9.77163
9CFEFFFF	-9.77175
486BC91A4801C8	-9.77204
4869C9440100004801C8	-9.77254
488B5424B0	-9.77283
8845E	-9.77301
4401D	-9.77346
488B7C2490	-9.77379
1EFFFFFF	-9.77383
7661725F313700	-9.7752
50FDFFFF	-9.77551
48C704C8	-9.77622
4A8D8C	-9.77643
41C78	-9.77664
EB13	-9.77682
030000000000002A0000001	-9.77707
4C2458	-9.77726
450F44	-9.77756
0FB66C24	-9.77768
489948F7F9	-9.77776
488B4D98	-9.77801
8A8D5	-9.77808
410F94C0	-9.77819
C5F96F	-9.77935
4D8D7	-9.77937
ACFEFFFF	-9.78016
49BB	-9.78021
486BC9264801C8	-9.78027
890A	-9.78057
150000	-9.78081
38050000	-9.78118
83E90289C9	-9.78135
7661725F323500	-9.78165
842410020000	-9.78187
B8050000	-9.78219
B0050000	-9.78224
000000000000006F0000001	-9.7831
486BC9544801C8	-9.78325
0FB7C881E9	-9.78329
0FB67C24	-9.78367
70050000	-9.78419
803900	-9.78624
8A8D7	-9.78661
4D85C0	-9.78721
488985B	-9.78845
4869D5	-9.78863
0F9502	-9.78877
842408020000	-9.78927
842420020000	-9.78931
4801E8	-9.78944
24010FB6D0	-9.79008
9424E0000000	-9.79016
4869CD	-9.79034
170000000000002A0000001	-9.79059
4889856	-9.79068
8C2450010000	-9.79102
48C1F	-9.79113
4869F1	-9.7913
9424F0000000	-9.79266
8810	-9.7927
842418020000	-9.79315
842430020000	-9.79371
BCFEFFFF	-9.79545
8B4DD0	-9.79562
410F47	-9.79616
10000000000000D000000	-9.79658
400FB6FF	-9.79694
31130000	-9.797
488B4C24D0	-9.79712
488D040A	-9.7978
6685C0	-9.79837
842440020000	-9.79889
4138	-9.79923
488D74	-9.79968
7CFEFFFF	-9.80001
42C704	-9.80047
8A95	-9.80075
488B7424A0	-9.80107
4801D10FB795	-9.80116
4E89	-9.80163
442488	-9.80184
4F8D3C	-9.80197
30FDFFFF	-9.8024
4F8B	-9.80351
48C1E005	-9.80407
A8010000	-9.80415
4981C6	-9.80464
4863C94839C8	-9.80513
4585C9	-9.80544
FCFFFF24010FB6C0	-9.8057
4801D1488B55	-9.80661
0E5F0000	-9.80754
4C29C	-9.80763
4FFFFFFF	-9.80763
C3000000000000000000000000000000	-9.80796
4983C6	-9.80822
EB12	-9.80937
9424F8000000	-9.8098
488B8C24980	-9.81
4969D5	-9.81002
488985A	-9.81034
4801DE	-9.81043
10270000	-9.81089
000066C785	-9.81104
48F7D0	-9.81145
803F00	-9.81158
A00F0000	-9.81183
800D0000	-9.81211
48894424B0	-9.81243
C5E5EFD	-9.81258
4889853	-9.813
488B4424F0	-9.81321
478D	-9.81337
4969CD	-9.81339
0FBE0C11	-9.81479
20FCFFFF	-9.81514
7405	-9.81542
24010FB6C083F8010F8D	-9.81553
6641C78	-9.81598
00FA0000	-9.81608
8B4520	-9.81617
8C2440010000	-9.81671
78050000	-9.8174
4C035C24	-9.818
488B5424C0	-9.8185
F7D6	-9.8187
EFFFF	-9.81901
8C2438010000	-9.81909
4869C9B00000004801C8	-9.81948
4E8D0C	-9.81991
27FFFFFF	-9.82001
488B8548010000	-9.8201
486BC94C4801C8	-9.82081
5B415C415D415E415F5DC5F877C3	-9.82168
842438020000	-9.82207
48894424D0	-9.82258
410F92C0	-9.82274
0FB70C51	-9.82308
3B4424	-9.82335
4C29D	-9.82349
48894424E0	-9.82354
488B8424800	-9.82395
80000001200010000000000000000002	-9.82427
48C700	-9.8246
842428020000	-9.8258
4889851	-9.82648
4869F7	-9.82671
49C7C	-9.82686
39D00F4	-9.82696
6639	-9.82721
842460020000	-9.82741
89C0488985	-9.82806
8945A0	-9.82856
8945E0	-9.82889
C5796F	-9.8293
C4E26D3	-9.82989
842448020000	-9.83027
000000004883BD	-9.83082
40F6C	-9.83101
488B4C24F8	-9.83145
36FFFFFF	-9.8337
488B05000000000FB700	-9.83472
6641833C	-9.83476
7409	-9.83481
4839C1480F4	-9.83507
4D01CB	-9.8352
49833C	-9.83531
41C601	-9.83539
EB16	-9.83666
C4627D	-9.83691
48694DD0	-9.83814
4401F	-9.83824
06FFFFFF	-9.83841
48634DD4	-9.83924
8A8D0	-9.83968
486BC9244801C8	-9.83996
48694DE0	-9.84136
8A8D6	-9.84148
48C1E604	-9.84202
34FEFFFF	-9.84214
48894424E8	-9.84239
EB1E	-9.84262
803A00	-9.84297
58FDFFFF	-9.84325
4D01DA	-9.84327
FEFFFF0FB685	-9.84413
7F0000	-9.84444
1E0000000000002A0000002	-9.8448
468D	-9.84504
488B4DE0	-9.84592
4080C6	-9.84631
C4637914	-9.84639
0FB795	-9.84653
FDFFFF80E1010FB6C9	-9.84737
7661725F323600	-9.84742
4969F0	-9.84794
E02A0000	-9.84856
0FBF0C51	-9.84858
48894424C8	-9.84892
0F92C3	-9.84915
4E8D14	-9.85006
41F6D	-9.85075
486995	-9.85089
C4417D6F	-9.85096
4869FA	-9.85098
360000001000000000000000	-9.85107
4901DE	-9.85216
0FBEC983C1	-9.8528
4829D1	-9.85301
84D2	-9.85312
B42480000000	-9.85491
498D54	-9.8553
488B4DA8	-9.85543
4901CB	-9.85573
30060000	-9.85639
CC140000	-9.85675
E030000	-9.85791
68050000	-9.85802
4869C9A80000004801C8	-9.85842
C6043	-9.85936
BE01000000	-9.85964
A8440000	-9.85974
4C031500000000	-9.85987
8B45F0	-9.86057
4CFFFFFF	-9.86085
803E0000	-9.86248
00D80000	-9.86261
4C01DE	-9.86295
39C20F4	-9.86304
7661725F323700	-9.86328
842490020000	-9.86405
4869C9E10000004801C8	-9.86416
8B4DC4	-9.86462
448BA424	-9.86478
410F94C1	-9.86492
8B45E4	-9.86496
488B5424D0	-9.86506
18FDFFFF	-9.86517
440F4D	-9.86532
000000000000007D000000	-9.86563
480345	-9.86641
488B5424C8	-9.86642
488B4C24E8	-9.86687
00000000000000090	-9.86738
BC2480000000	-9.8674
488B8550010000	-9.86807
C0550000	-9.86837
664689	-9.86902
488B4424F8	-9.86919
160000	-9.8694
8A8DD	-9.86941
842450020000	-9.8695
488BB424900	-9.86953
486BC9324801C8	-9.86976
EB14	-9.86988
442490	-9.87
B42488000000	-9.87021
4084F6	-9.87082
48837DF000	-9.87109
8C2460010000	-9.87231
486BC9794801C8	-9.87323
4D01CF	-9.87424
49C1E70	-9.87435
C4C17	-9.87438
90060000	-9.87475
902D0000	-9.87487
48894424F0	-9.87494
490F44C	-9.87533
803E00	-9.87573
66890A	-9.8763
96350000	-9.87717
8F7FFFF488985	-9.87725
6030000	-9.87789
0E0000000000002A0000000	-9.87818
8C2448010000	-9.87887
6641C704	-9.87891
942408010000	-9.87909
4C01E1	-9.88015
4889857	-9.8805
89D6	-9.88056
8B45E8	-9.88101
1D0000	-9.88206
C5B9	-9.88209
00000000D8000000	-9.88244
F0050000	-9.88256
C5FA7E	-9.8827
740F	-9.88293
8C2478010000	-9.88311
FBFFFFEB00	-9.88328
4869C9C40000004801C8	-9.88336
0FB695	-9.88343
010000000000000000000000000000	-9.88363
4869C9210100004801C8	-9.88389
4801D10FB695	-9.88414
4183FF	-9.88423
C4E37D	-9.88512
4801CB	-9.88609
4C8DB	-9.88616
4869C9C00000004801C8	-9.88682
C5FD6FF	-9.88749
448BAC24	-9.88751
48FFC	-9.88772
8C2470010000	-9.88792
54220000	-9.88795
83C8	-9.88798
4803AC24	-9.88803
000000001B0000000	-9.88856
488B0424	-9.88867
488D0C89	-9.88881
668B4D	-9.891
942418010000	-9.89108
486BC9344801C8	-9.89139
4889858	-9.8916
0F96C	-9.89164
4D0FAF	-9.89177
8B4538	-9.89193
7AFFFFFF	-9.89198
4084FF	-9.8921
38FCFFFF	-9.89244
4D8D0C	-9.89247
488B442408	-9.89264
4D85C9	-9.89291
48FFC0	-9.89351
486BC9484801C8	-9.89397
4D01C3	-9.89401
488B5424E0	-9.89421
48894424D8	-9.89437
24018845E	-9.89447
C0050000	-9.89515
542498	-9.896
488D0C49	-9.89614
000F95C1	-9.89642
400F97C6	-9.89681
48C1E1094801C8	-9.89698
C60201	-9.89725
0FBE00	-9.89777
8945D8	-9.89794
488B4C24F0	-9.89801
EB1F	-9.89872
48697424	-9.8988
0FBEC883C1	-9.8993
88990000	-9.89944
488B8424880	-9.90014
486B4DD8	-9.90029
488B5424D8	-9.90054
48E80100	-9.90055
489948F7	-9.90061
4969F1	-9.90104
4489C0	-9.90106
4424A0	-9.90152
488B8558010000	-9.90235
4D8D6	-9.9029
488B84C8	-9.90296
C4E27D3	-9.90301
4C01FA	-9.90358
480FBE95	-9.90392
38FDFFFF	-9.90401
942400010000	-9.90437
000FBF85	-9.90498
8B4540	-9.9063
4863F6	-9.90736
FDFFFF8A85	-9.90762
0F47C	-9.90775
8C2458010000	-9.90845
488B7C2498	-9.90974
4869FE	-9.90981
2CFEFFFF	-9.90999
488B4C24E0	-9.91034
488B8424A00	-9.91053
0FB74DE2	-9.91061
942410010000	-9.91136
4983FC	-9.9115
0D0000000000002A0000002	-9.91155
448A4D	-9.91161
4869FF	-9.91186
C1E70	-9.91213
127A0000	-9.91232
450F42	-9.91319
00B00100	-9.91364
8A0C1180E1010FB6C9	-9.91405
BC2488000000	-9.91424
FEFEFFFF	-9.91425
000000001A000000	-9.91427
26FFFFFF	-9.91557
C5F970F	-9.91582
48C1E10B4801C8	-9.9163
C44129	-9.91676
7661725F313600	-9.91702
4839D0480F4	-9.91724
83F8000F95C024010FB6C8	-9.91775
0A4C24	-9.91826
48894424F8	-9.91833
8A8DC	-9.91858
4D8D14	-9.91914
24F40000	-9.91938
486BC9224801C8	-9.91976
74FEFFFF	-9.92
488B0500000000488B1500000000	-9.92009
8A4DDF80E1010FB6C9	-9.92047
4C8B542488	-9.92069
486BC9684801C8	-9.92073
842458020000	-9.92082
F7DF	-9.92152
C4C12	-9.92162
60060000	-9.9217
842470020000	-9.92205
8945DC	-9.92225
4D0F44	-9.92305
B802000000	-9.92342
488B8424E80	-9.92374
64FEFFFF	-9.92392
837D3000	-9.92396
440FB64424	-9.92429
4C8D2C	-9.9246
48C1E206	-9.92538
842468020000	-9.92583
83F8000F95C034FF24010FB6C0	-9.92631
894580	-9.92653
48894C24B0	-9.92703
83E80183F8000F95C024018885	-9.92728
4869F0	-9.9273
DFDFFFF	-9.92758
7661725F3233007661725F323400	-9.92791
4981C7	-9.92809
4969F3	-9.92864
C4C37914	-9.92886
FFFEFFFF	-9.92888
4788	-9.93005
4869C9872F00004801C8	-9.93023
9C4	-9.9303
F7DE	-9.93216
39C87D0F0FB785	-9.93404
48C1E10A4801C8	-9.93415
001B0000	-9.93453
498D9	-9.93453
48C1E10C4801C8	-9.93482
488B8424F00	-9.93611
6172725F313400	-9.93621
8C2480010000	-9.93626
842478020000	-9.93628
4869C9440800004801C8	-9.93629
C5FD6FE	-9.93637
EB0EB8	-9.93718
54FEFFFF	-9.93746
440FAF	-9.93788
420FBF	-9.93818
43C604	-9.93824
00000039C80F8D	-9.93836
448A	-9.93845
4929C	-9.93888
C4E37D39CA01	-9.94032
F6FEFFFF	-9.94044
4D01D8	-9.94091
7661725F323800	-9.9416
410FB604	-9.9418
488985D	-9.94205
4584C0	-9.94209
24018885	-9.9421
4D01D9	-9.94248
740C0FB745	-9.94279
C4E3754B	-9.94309
FEFFFF4869D2	-9.94349
410F95C3	-9.94365
0F7FFFF488985	-9.94367
0FB74DDE	-9.94385
00000000076000000	-9.94404
40887C24	-9.9451
8C2468010000	-9.94511
14010000	-9.94532
488B442410	-9.94603
490FAFC	-9.94679
488B4DB0	-9.94791
48C701	-9.94843
C5F970DAEE	-9.94846
180000000000002A0000001	-9.94847
942420010000	-9.94862
80000001200010000000000000000003	-9.9487
4869C9980000004801C8	-9.94902
4801D10FB755	-9.94927
1F0000000000002A0000002	-9.94987
2A110000	-9.95043
88050000	-9.95051
0000000000000000000000003D000000	-9.95058
942430010000	-9.95105
72FFFFFF	-9.95118
8A8D1	-9.95356
4901F3	-9.95378
4C0F45	-9.95388
400F95C5	-9.95432
4901DB	-9.9546
C44C0000	-9.95509
4C01D3	-9.95529
001000000	-9.95562
3CFEFFFF	-9.95582
4801D18A95	-9.9568
E8050000	-9.95684
B4900000	-9.95687
E7FEFFFF	-9.95702
4C8B442490	-9.95718
0FBF04488985	-9.95727
70150000	-9.95851
486BC9384801C8	-9.95894
FFFFFF0FB685	-9.9593
0F4FC	-9.95933
6CFEFFFF	-9.95988
4C01EA	-9.96067
4969F8	-9.96103
A8FBFFFF	-9.96103
68210100	-9.96177
4181C0	-9.96226
48C1E006	-9.9623
4969F2	-9.96233
4080FE	-9.96246
6AFFFFFF	-9.96266
4C8B542490	-9.96268
1C010000	-9.96381
4969F9	-9.96399
008A85	-9.9643
4183F8	-9.96452
EB0F	-9.96543
48694DC8	-9.96563
39C87D	-9.96576
98FBFFFF	-9.9658
2C6B0000	-9.96611
C4E37D39E	-9.96744
4983FF	-9.96762
B424A0000000	-9.96786
4801D3	-9.96838
488B8424C80	-9.96841
6681F	-9.96883
98050000	-9.96932
5CFEFFFF	-9.96968
488B7424B0	-9.97024
486BC93C4801C8	-9.97042
480FBF95	-9.97072
488B7C24A8	-9.9721
EB21	-9.9722
4801C3	-9.9722
7411	-9.9727
488B7424B8	-9.97283
D8FBFFFF	-9.97324
6685D2	-9.97348
4C8B5C2480	-9.974
48035C24	-9.97424
80000001200010000000000000000001	-9.9744
4C01E9	-9.97509
FFDFFFF80E1010FB6C9	-9.97537
4969F6	-9.97607
664139	-9.97622
842400030000	-9.97642
4801DF	-9.97692
4C8B7C2490	-9.97734
7FFFFFFF	-9.97769
4869F9	-9.97789
4869C9950800004801C8	-9.97795
6683F9	-9.97802
A8050000	-9.97862
4C8B542480	-9.97948
C4437D39C	-9.97995
8C24A0010000	-9.98006
7661725F323900	-9.98023
C60701	-9.98038
204E0000	-9.98059
488B5C2488	-9.98061
488B5424E8	-9.9814
4C8B442498	-9.98203
488B4DC0	-9.98209
0A4424	-9.98219
6172725F313300	-9.9831
78690000	-9.98311
842498020000	-9.98327
4869C9A00000004801C8	-9.98368
488BB424980	-9.98388
62260000	-9.98471
428B04	-9.98626
410FAF	-9.98664
4901FB	-9.98701
FDFFFF7E0E8B85	-9.98732
942428010000	-9.98767
30E8B85	-9.98866
09C8	-9.98869
4424B0	-9.98879
7661725F333000	-9.98939
4983C4	-9.9894
488B8590000000488B8588000000	-9.98943
FFFF000000008B85	-9.9896
489848B9	-9.98987
488B8424100	-9.99028
41C704	-9.99048
4C01C3	-9.99074
488B542440	-9.99102
4121	-9.99104
4901D8	-9.99142
E6FEFFFF	-9.99183
6685C9	-9.9922
C4432	-9.99261
52FFFFFF	-9.99265
4183FB	-9.99278
8C24B8010000	-9.9929
0000000000000000000084000000	-9.99335
C5F5	-9.99336
14FEFFFF	-9.99405
8C24A8010000	-9.99472
8C24B0010000	-9.99486
8C2490010000	-9.99489
C70001000000	-9.99523
6BC0	-9.99535
7661725F3132007661725F313300	-9.99572
000000000000004B0000001	-9.99576
A030000	-9.99601
0F95C180E101488B05000000008808	-9.99623
66833900	-9.99647
488B5424F0	-9.99661
4801D18A55	-9.99674
8CFEFFFF	-9.99692
486BC9784801C8	-9.9972
FEFFFF01C88885	-9.99721
488D7C	-9.99787
8424B0020000	-9.99867
4C031D00000000	-9.99999
486BC91E4801C8	-10
8424B8020000	-10
8A4DD780E1010FB6C9	-10.0013
4101D	-10.0018
4421	-10.0018
4D69C0	-10.002
00100500	-10.0028
4C01E2	-10.0032
44897424	-10.0038
31C02B45	-10.0041
486BC9444801C8	-10.0042
58D60000	-10.0043
842420030000	-10.0061
498D840	-10.0064
C6040	-10.0066
62FFFFFF	-10.0066
D0050000	-10.007
90FBFFFF	-10.0076
6500	-10.0087
C1E004	-10.0095
942440010000	-10.0096
8945C0	-10.01
49BE	-10.0101
F645E	-10.0102
C4C279	-10.0103
000000092000000	-10.0103
7415	-10.0108
48C1EA2074	-10.0109
4869C9880000004801C8	-10.0109
FEFFFF01C8668985	-10.011
4969F7	-10.0111
942448010000	-10.0112
4D01F8	-10.0115
4424A8	-10.0117
488B7424A8	-10.0117
41C600	-10.0122
8A8DB	-10.0123
8A8D2	-10.0139
47FFFFFF	-10.0142
007D0000	-10.0149
C44131	-10.0151
488B4C2418	-10.0151
488B442418	-10.0157
FFFFFF4869D2	-10.016
85C074	-10.0172
7BFFFFFF	-10.0173
490F4D	-10.0175
0F95C024010FB6C88A85	-10.0178
488B442438	-10.0179
000F95C0	-10.018
48FFC1	-10.018
4C037C24	-10.0185
F7FEFFFF	-10.0188
8A400	-10.0193
1CFEFFFF	-10.0199
488B8570010000	-10.02
EB22	-10.0204
488B8C24280	-10.0204
0F94C024010FB6C0	-10.0206
00710200	-10.0212
200000000000002A0000002	-10.0213
00000000000026000000	-10.0213
0F944424	-10.0213
000000000000000000008B0000001	-10.0215
48634DA4	-10.0216
488B4D90	-10.0219
488B8C24800	-10.0222
39C80F95C024010FB6C0	-10.0222
4F8D24	-10.0223
8A8D3	-10.0233
4E8D1C	-10.0234
4901D6	-10.0237
0000000000000099000000	-10.0238
41C703	-10.0241
4889442408	-10.0242
4D6BF	-10.0246
2C010000	-10.0251
7661725F3234007661725F323500	-10.0251
4869F8	-10.0255
C4E2713	-10.0258
8424C0020000	-10.0261
0FB74DE6	-10.0263
4901DA	-10.0264
740C0FBE45	-10.0267
488B442440	-10.0272
D8050000	-10.0272
4C8B5C2488	-10.0279
488B8C24100	-10.0281
488B7C24E8	-10.0287
000000052	-10.0287
04D1	-10.0289
8B4D28	-10.0291
4981C5	-10.0291
4869C9220400004801C8	-10.0293
4C69C6	-10.0304
740C0FBF45	-10.0306
0F940	-10.031
488B5424F8	-10.0312
8A040824010FB6C08985	-10.0323
3FFFFFFF	-10.0325
4A8D4C	-10.0329
F64424	-10.033
00000000000000000000000021000000	-10.0335
4969F4	-10.0337
741348B8	-10.034
488B05000000008A0024018885	-10.0348
488DBC	-10.0349
1F0000000000002A0000003	-10.035
B424C0000000	-10.0351
00745	-10.0354
4C8B4C2498	-10.0374
942458010000	-10.0378
24FEFFFF	-10.0381
48F7D8	-10.0387
0CFEFFFF	-10.0388
488B7C24A0	-10.0398
B424A8000000	-10.0406
21450400	-10.0409
741A	-10.0413
480FBF4DCE	-10.0416
04010000	-10.0417
4969FB	-10.0423
4A8D1C	-10.0424
BC24B0000000	-10.0425
E0050000	-10.043
4981C4	-10.0437
5E1A0000	-10.0439
6172725F313700	-10.0447
4C037424	-10.0447
7661725F333100	-10.0449
5C010000	-10.045
48694DB8	-10.0455
44FEFFFF	-10.0456
488B7C24B0	-10.0457
837D3800	-10.0458
942468010000	-10.0458
468B	-10.0459
4584C9	-10.0467
39C80F94C024010FB6C0	-10.0468
BF01000000	-10.0477
488B442430	-10.0487
4A8D94	-10.0488
488B9424400	-10.0488
480FBFC0	-10.0493
0F0000000000002A0000000	-10.0499
8F6FFFF488B85	-10.0499
842450030000	-10.0502
4883C103	-10.0503
942438010000	-10.0505
4183C2	-10.0505
4869C92D2400004801C8	-10.0508
63FFFFFF	-10.0511
BC340000	-10.0513
0C0000000000002A0000002	-10.0518
48833900	-10.0518
0FBEC083C0	-10.0521
1E0000000000002A0000003	-10.0521
5AFFFFFF	-10.0523
4B8D44	-10.0525
4C01F6	-10.0528
00000010000000000000000	-10.0532
498D94	-10.0533
05FFFFFF7F	-10.0535
2030000	-10.0536
BA02000000	-10.054
EB23	-10.054
54010000	-10.0542
4101C	-10.0542
4839C2480F4	-10.0546
85A0000000488B8598000000	-10.0549
488B0D00000000488B1500000000	-10.0553
4D0F42	-10.0562
E4FDFFFF	-10.0564
8424D0020000	-10.0565
C46279	-10.0567
942450010000	-10.0567
F604080174	-10.0569
EB26	-10.0572
4E8B	-10.0578
488B8C24A00	-10.058
1C0000000000002A0000003	-10.0586
8424A8020000	-10.059
488B8C24780	-10.059
00510000	-10.0596
440FB64C24	-10.06
488B8424B80	-10.06
10930300	-10.0601
EB25	-10.0603
4883E903	-10.0604
4883E9	-10.0607
31390000	-10.0608
B424B0000000	-10.0615
EB27	-10.0615
817C24	-10.0619
420FB704	-10.0624
4869F3	-10.0627
480FBF4DD6	-10.0627
486BC91C4801C8	-10.0635
8C24C8010000	-10.0635
740C0FB645	-10.0638
450F4C	-10.0655
942470010000	-10.0659
4080F	-10.0661
4869C9720300004801C8	-10.0663
7661725F313500	-10.067
1D0000000000002A0000003	-10.0674
8C24C0010000	-10.0675
4C69C7	-10.068
8424D8020000	-10.0681
4983C5	-10.0682
0FB74DDA	-10.0683
8B8488	-10.0687
418D5	-10.0691
480FBE4DDF	-10.0691
4D85D2	-10.0692
8424C8020000	-10.0695
842460030000	-10.0695
4901C6	-10.0698
4969FF	-10.0699
8B8558	-10.07
488B8424280	-10.0704
E1F50500	-10.0705
49C78	-10.0711
4889442418	-10.0717
97FEFFFF	-10.072
488B8424980	-10.0729
4929F	-10.0731
4801F3	-10.074
4C01CB	-10.0745
0FBE55	-10.0746
48894C24A0	-10.0746
488B542410	-10.0755
8945BC	-10.0759
460FB7	-10.0759
4869C9881000004801C8	-10.0761
01010101	-10.0762
8C24D0010000	-10.0762
48C1E704	-10.0762
F030000	-10.0773
49C1E40	-10.0776
942460010000	-10.0776
190000000000002A0000001	-10.0778
48697C24	-10.0791
40000000000000000	-10.0791
0FBFFFF483B85	-10.0794
660A0000	-10.0797
8C24D8010000	-10.0803
C44131EFC9	-10.0806
0F95C3	-10.0812
488B0C24	-10.0814
EB008B45	-10.0824
39C87D0F0FBF85	-10.0824
488B542408	-10.0827
8B0C91	-10.0827
BC24C0000000	-10.0828
31C0482B45	-10.0832
440FB65424	-10.0834
4983B	-10.0835
D030000	-10.0837
24010FB6C831C029C8	-10.0837
0FB74DE4	-10.0837
4869C9520100004801C8	-10.0845
7661725F333200	-10.0854
4C8B5C2490	-10.0858
664181F	-10.0861
0FBF55	-10.0862
FFFFFFFFFFFFFF7F	-10.0862
8424E8020000	-10.0862
8B4DBC	-10.0865
4969FA	-10.0865
664439	-10.0868
109A0100	-10.0872
0F47D	-10.0874
488B9424B00	-10.0876
740B8B45	-10.0877
488B7424D8	-10.088
24010FB6C8488B05000000008908	-10.088
442450	-10.0881
942478010000	-10.0889
4869C9CB1A00004801C8	-10.0889
4183FA	-10.0893
CCFDFFFF	-10.0897
4901CE	-10.0898
488B4C2408	-10.09
39C87E0F0FBF85	-10.0908
34FF24010FB6C0	-10.0912
4080C7	-10.0913
000F95C024010FB6C0	-10.0915
837D2800	-10.0918
4889442410	-10.0919
4901D9	-10.092
00000000AE000000	-10.0922
000000120001000000000000000000	-10.0925
48634DE8	-10.0926
210000000000002A0000003	-10.0929
4689	-10.0932
1B0000000000002A0000003	-10.0933
C6041	-10.0933
3030000	-10.0936
5FDFFFF	-10.0938
7661725F3235007661725F323600	-10.094
0FB64DD7	-10.0943
78060000	-10.0951
39C20F8	-10.0953
41807C	-10.0954
486BC9704801C8	-10.0955
488B7424D0	-10.0955
0FB64DDF	-10.0956
488B442420	-10.0957
BC2498000000	-10.0961
4E8D34	-10.0963
39CA0F4	-10.0964
6172725F313200	-10.0965
66833A00	-10.0967
488D2C	-10.0967
F8050000	-10.097
0C010000	-10.0975
842430030000	-10.0976
48FFC2	-10.0981
8FBFFFF483B85	-10.0983
0F974424	-10.0984
542480	-10.0987
8424F0020000	-10.0989
48894C24A8	-10.0992
0F6FFFF488B85	-10.0994
842410030000	-10.0995
8845F	-10.0997
488B7C24E0	-10.0998
488BBC24A00	-10.1002
410F94C2	-10.1002
C8050000	-10.1004
4585F6	-10.1004
B424D8000000	-10.1005
F645F	-10.1005
488B442428	-10.1009
842428030000	-10.1021
4889442430	-10.1023
488B9424880	-10.1028
4801C8488B8C24	-10.1029
442458	-10.1034
BC24A8000000	-10.1034
40F6D	-10.1035
488B7C24D8	-10.1039
B424D0000000	-10.1045
00000000000000000000A7000000	-10.1051
0F95C024010FB6C8	-10.1051
842440030000	-10.1061
4869C9000900004801C8	-10.1062
48C7C1	-10.1063
230000000000002A0000003	-10.1077
480FBF4DE8	-10.1077
FFFFFF01C8668985	-10.1084
6172725F313800	-10.1086
18060000	-10.1088
942480010000	-10.1096
41C684	-10.1098
8B45DC	-10.11
1A0000000000002A0000003	-10.1101
4869C9900700004801C8	-10.1104
4889442420	-10.1111
842438030000	-10.1114
488B8424700	-10.1116
4C0F43	-10.1118
4829C8488985	-10.1119
BCFDFFFF	-10.112
842418030000	-10.1122
00000000000000000000000590000001	-10.1126
486BF6	-10.1128
84141100	-10.1129
8C24E8010000	-10.1131
48894C2488	-10.1134
FEFFFF0FBE85	-10.1137
842468030000	-10.1138
4D8D1C	-10.1139
EEFEFFFF	-10.1142
486B4DD0	-10.1145
4183C1	-10.1146
4B833C	-10.1151
4080FF	-10.1151
66837C	-10.1153
488B8578010000	-10.1156
4801C8488B4DD8	-10.1158
7030000	-10.1176
0000000000000090000000	-10.1177
FFFFFF01C88885	-10.1179
200000000000002A0000003	-10.1182
B424B8000000	-10.1186
81C5	-10.1186
48894C2498	-10.1187
9030000	-10.1191
FCFDFFFF	-10.1193
80000004C8B85	-10.1196
4869C9093D00004801C8	-10.1197
6683FA	-10.1206
488B9424800	-10.1207
B424C8000000	-10.1209
4422	-10.121
4585E4	-10.121
4C8B4424A0	-10.1218
842490030000	-10.1218
0000000008010000	-10.1224
34010000	-10.1227
4929D	-10.1229
4969F5	-10.1231
741B	-10.1233
442460	-10.1233
48060000	-10.1234
4969FE	-10.1234
4C01F3	-10.1235
4889442428	-10.1237
741D	-10.1242
490F45	-10.1244
4869C9C81600004801C8	-10.1245
488B9424C00	-10.1255
488B8C24300	-10.1255
8945CC	-10.1257
210000000000002A0000002	-10.1258
4983C	-10.1258
5030000	-10.1264
0FB74DCE	-10.1267
4901C7	-10.1268
FDFFFF83C1014863C9	-10.1269
488B7424C8	-10.127
488B8424580	-10.1271
4C01F7	-10.1271
6172725F313900	-10.1278
4883FD	-10.128
44897C24	-10.1281
4D01DE	-10.1283
39C10F4	-10.1288
6642C704	-10.1289
C6040801	-10.1295
8424E0020000	-10.1301
000000000000000000000000000670	-10.1303
4C29F	-10.1305
488B4C2428	-10.1309
488B8424A80	-10.132
668945F	-10.1325
4F89	-10.1339
7661725F333300	-10.134
4889442438	-10.1344
00000000000300000000000000	-10.1349
11FD0100	-10.1352
4883C001488985	-10.1354
488B8580010000	-10.1354
488B8C24B80	-10.1355
8B4D30	-10.1356
7FDFFFF80E1010FB6C9	-10.136
0FB74D96	-10.1362
488B8424D80	-10.1364
10060000	-10.1372
80000001200010000000000000000004	-10.1374
480FBF4DC6	-10.1378
66C706	-10.1384
4C8DA	-10.1385
4C0F4C	-10.1387
488B4C2420	-10.1388
480FBE4DCF	-10.1391
4C8B4424A8	-10.1393
8A8DE	-10.1393
D4FDFFFF	-10.1407
48894C24B8	-10.1407
8424F8020000	-10.1408
488B8C24400	-10.141
48C1E105	-10.1411
488B8424680	-10.1417
6172725F313100	-10.1421
39D10F4	-10.1426
490F46	-10.1431
488B9424D80	-10.1435
4869FB	-10.1442
1FDFFFF	-10.1444
BC24B8000000	-10.1452
CF7FFFF8B85	-10.1453
488B442458	-10.1456
43833C	-10.1457
842408030000	-10.146
4F7FFFF8B85	-10.1462
8945B4	-10.1465
488B8C24200	-10.1468
488B8424780	-10.147
488B8424080	-10.1471
7661725F3236007661725F323700	-10.1477
85C90F84	-10.1477
8B4550	-10.1478
48694DB0	-10.1483
CEFEFFFF	-10.1486
39C60F8	-10.1491
220000000000002A0000003	-10.1492
1000000FCFFFFFFFFFFFFFF2	-10.1492
7661725F323	-10.1495
488B9424E00	-10.1495
488B8C24C00	-10.1498
4D69C1	-10.15
0FB6400	-10.1504
4D01D6	-10.151
0000000FCFFFFFFFFFFFFFF7	-10.1513
FFFFFFEB00	-10.1514
4983FD	-10.1516
442468	-10.1519
488B4DA0	-10.152
488B4C2410	-10.1521
4D01F7	-10.1528
488B8C24580	-10.1529
000000000000006E000000	-10.1536
842448030000	-10.1546
4869F5	-10.1556
48634DD0	-10.1556
49837	-10.1558
4869C9200F00004801C8	-10.1561
842458030000	-10.1563
08060000	-10.1563
488B5C2480	-10.1565
488945D048	-10.1571
C6840	-10.1576
488B9424A00	-10.158
664789	-10.1581
4869C9E80300004801C8	-10.1584
8945C4	-10.1585
8C24F8010000	-10.1585
F4FDFFFF	-10.1587
8A8D8	-10.1591
8945E4	-10.1594
488B8424E00	-10.1601
8B4D20	-10.1602
7661725F313400	-10.1606
8985C8FEFFFF	-10.1617
4889442440	-10.1628
B424E8000000	-10.163
49C1E004	-10.1637
488B8424C00	-10.1642
D6FEFFFF	-10.1645
D7FEFFFF	-10.1648
488B8C24380	-10.165
85A8000000488B	-10.1652
4869C9E40600004801C8	-10.1657
48837DE800	-10.1661
00000000000000000000B50000001	-10.1663
48894C2490	-10.1665
488B8C24680	-10.1665
48694DA8	-10.1665
10960000	-10.1666
1000000FCFFFFFFFFFFFFFF1	-10.1672
4885DB	-10.1681
400F97C7	-10.1691
00000000C3000000	-10.1695
B424E0000000	-10.1695
410F4E	-10.17
488B8C24700	-10.1702
4869C9880200004801C8	-10.1702
4869C9D20200004801C8	-10.1704
488B442450	-10.1705
488B442448	-10.1708
488BB424880	-10.1708
FAFFFFEB00	-10.1711
B6FEFFFF	-10.1712
7661725F333400	-10.1718
0000000BC000000	-10.1723
0A5424	-10.1725
4C0F47	-10.1727
B030000	-10.1728
48031D00000000	-10.1734
488B8C24A80	-10.1736
08292200	-10.1736
40000600050055415741564155415453	-10.1737
488B7424C0	-10.1749
C1E104	-10.1751
FDFFFF83E9014863C9	-10.1755
0000000FCFFFFFFFFFFFFFFF	-10.1758
8A45E724010FB6C0	-10.1759
488B8C24D00	-10.176
66C707	-10.1767
488B542418	-10.1768
8845D	-10.177
C4C379	-10.1778
BC24C8000000	-10.1778
4C0F4D	-10.1781
B0FBFFFF	-10.1784
916F0000	-10.179
8945A4	-10.1791
44884424	-10.1797
4D6BE	-10.18
4080C	-10.18
4809C8	-10.1806
8CFDFFFF	-10.1815
488B442478	-10.1819
488B8C24C80	-10.1819
4901D7	-10.1819
488B1424	-10.182
190000000000002A0000003	-10.1824
1000000FCFFFFFFFFFFFFFF0	-10.1826
842498030000	-10.1827
BC24D8000000	-10.1829
4C8B742480	-10.183
7661725F31323	-10.1838
483B4424	-10.1839
0FB64DE3	-10.1839
8945EC	-10.1842
1000000FCFFFFFFFFFFFFFF8	-10.1848
6172725F313000	-10.1849
0FBEC083E8	-10.1849
FCFFFF8A85	-10.1852
41C607	-10.1855
8C24F0010000	-10.1858
498D1C	-10.1858
488B8C24600	-10.1863
AEFEFFFF	-10.1866
FFFFFFFFFFFF7F	-10.1868
44896424	-10.1876
BC24E8000000	-10.1879
488B05000000008A00	-10.1879
41460100	-10.188
4869C9A40500004801C8	-10.188
42C784	-10.1883
4801D1486395	-10.1884
BFFEFFFF	-10.1885
488B8C24900	-10.1886
600000001000000	-10.1888
4801FB	-10.1889
6172725F31353	-10.1892
942488010000	-10.1897
4D85DB	-10.19
942490010000	-10.19
488B8424B00	-10.1908
8C24E0010000	-10.1912
04FEFFFF	-10.1913
4D8DB	-10.1918
28060000	-10.1921
480FBF4DDE	-10.1924
8000000488B85B0000000488B	-10.1924
4A8B04	-10.1929
4869C9E20400004801C8	-10.1929
942498010000	-10.193
488B45D8	-10.1931
180000000000002A0000003	-10.1934
400FBEC	-10.1935
488B7C24C0	-10.1936
842480030000	-10.1938
7661725F3131007661725F313200	-10.1938
488B8C24D80	-10.1939
220000000000002A0000002	-10.1946
B424F0000000	-10.1951
9424A0010000	-10.1951
488B9424D00	-10.1956
4CFEFFFF	-10.1962
C70200000000	-10.1967
4869C9400600004801C8	-10.197
4969FC	-10.1971
49C1E50	-10.1974
488B842490000000	-10.1974
B1F70200	-10.1975
1000000FCFFFFFFFFFFFFFFB	-10.1981
4101F	-10.1982
6643833C	-10.1984
4D69C7	-10.1985
41C60424	-10.1987
48C1E820	-10.1988
8A45FF24010FB6C0	-10.1988
4C8B4C24A0	-10.1989
48894C24C8	-10.1992
DCFDFFFF	-10.1994
488B442460	-10.1995
4901DF	-10.1996
4D69C3	-10.1999
38060000	-10.2
83EA014863D24869D2	-10.2002
488D1492	-10.2008
4869C9C80D00004801C8	-10.2009
488B8580000000488B4578488B4570	-10.2014
7661725F333500	-10.2014
4889442450	-10.2016
480FBEC0	-10.2017
83C00183F8000F95C024018845	-10.2021
1A0000000000002A0000001	-10.2022
80000000000000018000000000000002	-10.2026
48894C24C0	-10.2031
48894D	-10.2039
0FBF0C48	-10.204
4FCFFFFEB0C8B85	-10.2044
8B85F8	-10.2045
488B7C24B8	-10.2046
9424B0010000	-10.2047
48833A00	-10.205
488B8424D00	-10.2051
6172725F323500	-10.2053
44896C24	-10.2055
488B8588010000	-10.2057
4585FF	-10.2058
4909	-10.2059
450FB6C0	-10.2062
4869C9200A00004801C8	-10.2068
CC010000	-10.2069
4869C9A40200004801C8	-10.2078
4889442480	-10.2086
4901FE	-10.2086
4C8B642488	-10.2087
488B442470	-10.2089
488B9424180	-10.209
DEFEFFFF	-10.209
4801D1480FBF55	-10.2091
000000007C000000	-10.2092
488B8C24B00	-10.2096
442478	-10.2097
48834424	-10.2097
2401884	-10.2105
6172725F323300	-10.2106
42807C	-10.2108
420FB60C	-10.2113
41C68	-10.2113
8A45DF24010FB6C0	-10.2115
488B9424080	-10.2116
4801EA	-10.2116
48894C24E8	-10.2118
62EF0500	-10.2119
894594	-10.2125
488B9424100	-10.2127
0FB64DCF	-10.213
48894C2480	-10.2134
F7FFFF8985	-10.2139
89D08B95	-10.2143
488B05000000000FB700894424	-10.215
488B9424000	-10.2156
48C1E605	-10.2159
80060000	-10.2161
488B9424280	-10.2163
4D01F2	-10.2163
0F954	-10.2168
8C2400020000	-10.2171
5C0000000488B85B	-10.2183
83E9044863C9	-10.2189
6172725F323400	-10.219
6172725F313500	-10.2191
488B8C24000	-10.2192
488B0500000000488914C8	-10.2193
4084ED	-10.2202
48894C24F0	-10.2204
250000000000002A0000003	-10.2205
6172725F3900	-10.2215
9CFDFFFF	-10.2217
842488030000	-10.2217
8B4D18	-10.2217
4FBFFFFEB0C8B85	-10.2218
842470030000	-10.2222
01C883F8000F95C024018845	-10.2223
488B8C24080	-10.2225
31C04829C8	-10.2227
4181C1	-10.2231
83F8000F95C08885	-10.2237
9FDFFFF	-10.2238
80E2018855	-10.2241
48894C24D8	-10.2242
100000000000002A0000000	-10.2244
4869C9480500004801C8	-10.2251
4C8B7C2488	-10.2253
488B8C24F00	-10.2256
488B8D50FFFFFF	-10.2257
8B85D0	-10.2259
85D0000000488B85C8000000488B8	-10.2261
76FEFFFF	-10.2263
4839D1480F4	-10.2266
50060000	-10.2275
6172725F323700	-10.228
8945D4	-10.2281
00C40900	-10.2286
00807900	-10.2287
8A45EF24010FB6C0	-10.2288
8A8DA	-10.2292
39C10F8	-10.2294
00740DB8	-10.2295
4869C9100500004801C8	-10.2298
8C010000	-10.2299
9424D0010000	-10.2302
8C2408020000	-10.2304
29C86689C1488B0500000000668908	-10.2304
83C2024863D2	-10.2304
488B442468	-10.2306
4863C8	-10.2307
9424A8010000	-10.2311
8C2450020000	-10.2313
0000000600000001000000000000	-10.2318
488B542428	-10.2325
8945D0	-10.2326
4889442448	-10.2328
488B9424200	-10.2329
488B9424500	-10.2331
48C1E10D4801C8	-10.2338
488B842498000000	-10.2339
BC24E0000000	-10.2341
488B4C2458	-10.2345
56FEFFFF	-10.2349
4D85F6	-10.2358
4869C92F0D00004801C8	-10.2361
488B4C2430	-10.2362
C5F5EFC	-10.2364
7661725F3238007661725F323900	-10.2366
8C2438020000	-10.237
410F44F	-10.2371
488B8C24E00	-10.2375
CFFEFFFF	-10.2377
6C010000	-10.2377
CFBFFFFEB0C8B85	-10.2379
7661725F333600	-10.238
4D69C2	-10.2385
80D00C00	-10.2386
48630488488985	-10.2392
4401E	-10.2395
4869C9330500004801C8	-10.2398
20260700	-10.2406
66448B	-10.2407
4C0F4F	-10.2412
0FB74DEC	-10.2412
4801D14881C1	-10.2414
4869C9001200004801C8	-10.2415
8985F0FEFFFF	-10.2415
0B0000000000002A0000002	-10.2416
488B9424900	-10.2425
4869C9C40900004801C8	-10.2427
4585ED	-10.2429
ECFDFFFF	-10.243
9EFEFFFF	-10.2439
BC24D0000000	-10.2439
4889442470	-10.245
6172725F323600	-10.2453
488B842480000000	-10.2456
4C8B4424B0	-10.2462
240000000000002A0000003	-10.2463
442470	-10.2464
6685F6	-10.2465
8A1408	-10.2474
270000000000002A0000003	-10.2476
A7FEFFFF	-10.2477
4869C9881300004801C8	-10.2479
B42410010000	-10.248
488B842488000000	-10.2483
488B542420	-10.2487
29C888C1488B05000000008808	-10.2488
488B8424F80	-10.2489
C4431	-10.2489
488B9424C80	-10.2491
488B4C2440	-10.2491
0FB64DE7	-10.2492
0FB6C083E8	-10.2493
4801D1486355	-10.2493
488B8424180	-10.2494
480F4F	-10.2495
000000000003000000000000002A00	-10.2497
8378	-10.2497
488B7424F0	-10.2502
488B7424E0	-10.2504
00746	-10.251
0FB65C24	-10.2512
48894C24E0	-10.2517
4C036424	-10.2518
4C01EE	-10.2519
4C8B5C24C8	-10.2521
0FB74424	-10.2525
C1C50000	-10.2525
B42408010000	-10.2525
4C01EF	-10.2526
4869C9311300004801C8	-10.2527
488B9424F00	-10.2528
BC24F0000000	-10.253
4801C848694DD8	-10.253
6172725F323800	-10.2532
6CFDFFFF	-10.2536
EFFEFFFF	-10.254
0000000000000000000075000000	-10.2541
89C2488B05000000004869D2	-10.2545
39C87E0F0FB685	-10.2546
488B9424700	-10.2549
39C87D0F0FB685	-10.255
842478030000	-10.2551
B8060000	-10.2556
C44121EFDB	-10.2558
8C2418020000	-10.2559
8C2448020000	-10.256
4889458048	-10.2562
488B8C24E80	-10.2562
8B4DEC	-10.2562
FEFFFFEB00488B85	-10.2563
00E20400	-10.2567
488B4C2460	-10.2569
48894C24F8	-10.2571
410F92C6	-10.2573
4881C5	-10.2574
898588FEFFFF	-10.2576
8C2420020000	-10.2577
4D69C9	-10.2578
48C1E10F4801C8	-10.2584
450FB6C9	-10.2591
488B4C2450	-10.2593
542490	-10.2593
488B8C24180	-10.2605
404C0E00	-10.2607
83C2014863D24869D2	-10.261
0F93C024010FB6C0	-10.2618
4501D	-10.262
488945C048	-10.2625
C5D9EFE4	-10.2629
8945F0	-10.2631
400FB6D	-10.2634
9424C8010000	-10.2637
3C010000	-10.2638
4869C9100300004801C8	-10.2638
7EFEFFFF	-10.2642
C4C15	-10.2644
8C2430020000	-10.265
488B4C2438	-10.2651
7661725F333800	-10.2654
7661725F3237007661725F323800	-10.2656
4C01FE	-10.2658
48894C24D0	-10.266
41837	-10.2665
488B050000000066891448	-10.2666
410F42C	-10.2673
488B05000000008B00894424	-10.2673
42C684	-10.268
C4E27D2	-10.268
48895424A0	-10.2685
4869C9C20100004801C8	-10.2686
6683BC	-10.2687
48C1E21	-10.2688
400000000000400006000500554889E5	-10.2691
230000000000002A0000002	-10.2691
B424F8000000	-10.2692
83C1044863C9	-10.2695
488B9424300	-10.2698
BFEFFFF80E1010FB6C9	-10.2701
488B8598010000	-10.2701
89C1488B05000000004805	-10.2701
488B8D70FFFFFF	-10.2702
488BB424C80	-10.2705
88C90100	-10.2708
0FB74DC6	-10.2708
48C7C	-10.271
8424A0030000	-10.271
4869C9200100004801C8	-10.271
486B4DC8	-10.271
4889442458	-10.2721
410F92C04120	-10.2721
488BB424080	-10.2721
410F94C3	-10.2723
C4FDFFFF	-10.2725
4869C9B80A00004801C8	-10.2728
280000000000002A0000003	-10.2729
49C704	-10.273
740EB8	-10.2731
440FB65C24	-10.2732
4889442468	-10.2732
0000000D1000000	-10.2737
8424D8030000	-10.274
488B9424480	-10.274
488B8C24F80	-10.2742
4F8D2C	-10.2743
04170300	-10.2744
0F9CC0	-10.275
260000000000002A0000003	-10.2759
6EFEFFFF	-10.276
488B4C2478	-10.2765
488B0500000000881408	-10.2776
48C1E10E4801C8	-10.2778
8B4D80	-10.2778
00000000000000000000CA0000001	-10.2779
00000000000000000000000010010000	-10.2782
488BB424D00	-10.2787
C441796F	-10.2788
7661725F333700	-10.2789
FEFFFFC685	-10.2794
4869C9840300004801C8	-10.2794
4180C0	-10.2797
000003000000FCFFFFFFFFFFFFFF0A	-10.2801
488945C848	-10.2802
6172725F333100	-10.2803
8945AC	-10.2805
9424D8010000	-10.2805
C4C36	-10.2809
488BB424180	-10.281
4C8B5424A0	-10.281
0F96C024010FB6C0	-10.2811
4C01E6	-10.2813
8424B0030000	-10.2814
B7FEFFFF	-10.2814
BEFEFFFF	-10.2815
4D69C8	-10.2818
4901CF	-10.2819
83EA014863D2	-10.2821
6172725F3800	-10.2824
C4E2693	-10.2825
488B4C2448	-10.2827
D4010000	-10.2832
8A4DE780E1010FB6C9	-10.2836
488B9424980	-10.2839
41B801000000	-10.2852
89459C	-10.2854
A4010000	-10.2868
4C8B5424B0	-10.2872
01C888C1488B05000000008808	-10.2873
498DBC	-10.2874
40680600	-10.2875
4584DB	-10.2876
C1E204	-10.2878
00000000000000000000A0000000	-10.2878
842400040000	-10.2879
8945A8	-10.2886
8945B0	-10.2887
A6FEFFFF	-10.2888
4D01F0	-10.2891
4901F6	-10.2891
4883EA01	-10.2893
0F9506	-10.2895
488B0500000000891488	-10.2903
9424C0010000	-10.2903
C4E2593	-10.2911
8B85D8000000488B	-10.2917
4801C8488B4DD0	-10.2918
C5D9EFE	-10.2922
4869C9F20000004801C8	-10.2924
8B8508	-10.2926
89F08BB5	-10.2926
64FDFFFF	-10.2935
488B9424B80	-10.2936
0F95C034FF	-10.2936
24010FB6C04898488985	-10.2937
31C86689C1488B0500000000668908	-10.2943
89857CFFFFFF	-10.2949
488B9424380	-10.295
894584	-10.295
80000001200010000000000000000005	-10.2954
4C033500000000	-10.296
C8060000	-10.2961
D0060000	-10.2962
24010000	-10.2964
3B6C24	-10.2964
8C2470020000	-10.2964
4901C4	-10.2967
2EFEFFFF	-10.297
94FDFFFF	-10.2974
68060000	-10.2977
4C8B6C2488	-10.2985
488B7C24D0	-10.2985
9424E0010000	-10.2989
0000010000000000000000000000000	-10.2992
49C1F	-10.2992
170000000000002A0000003	-10.2993
8424D0030000	-10.2996
4869C9800C00004801C8	-10.2997
41C644	-10.2997
B42400010000	-10.2998
488B4D70	-10.3004
488B4C2470	-10.3007
6172725F313600	-10.3011
0F9507	-10.3011
8A4DCF80E1010FB6C9	-10.3012
488B7424F8	-10.3014
4869C91CBE00004801C8	-10.3016
664585C0	-10.3017
488B9424E80	-10.3026
7CFDFFFF	-10.3028
C6FEFFFF	-10.303
80E2010FB6D2486BD2	-10.3031
0000000FB685	-10.3033
803B00	-10.3033
488D1452	-10.3042
A8060000	-10.3045
488B05000000008B008945	-10.3046
0000000000002A0000009	-10.3048
C5FE7F	-10.3055
5EFEFFFF	-10.3058
488BB424D80	-10.306
48C1E207	-10.3061
4869C9480B00004801C8	-10.3063
6172725F323200	-10.3071
4889542488	-10.3072
483308488B0500000000488908	-10.3073
00A20000	-10.3086
4869C9420200004801C8	-10.3091
E8000000488B85E000000048	-10.3092
BAFEFFFF	-10.3095
4FAFFFFEB0C8B85	-10.3096
488BB424E80	-10.3102
488B7424E8	-10.311
488B7D	-10.3115
17E7F	-10.3118
48634D94	-10.312
80380100	-10.3122
488B9424F80	-10.3128
48895424A8	-10.3129
488B542458	-10.313
0FB6C02D	-10.313
48837C	-10.3133
84FDFFFF	-10.3136
89856CFFFFFF	-10.3137
1B0000000000002A0000001	-10.314
E0060000	-10.3141
58060000	-10.3142
488BB424200	-10.3142
4B8D84	-10.3142
4889442460	-10.3144
8B4DC0	-10.3145
4CFDFFFF	-10.3146
00200A00	-10.3146
7661725F3133	-10.3149
9FFEFFFF	-10.3149
B42418010000	-10.3154
4D01F1	-10.3156
39C80F9CC024010FB6C0	-10.3159
4D01E8	-10.3161
410F92C7	-10.3167
4969FD	-10.3173
4829C1	-10.3176
7661725F333900	-10.3178
480FBF4DDC	-10.3178
020000000000002A0000001	-10.3192
0FB6C881E9	-10.3192
4584D2	-10.3193
488B8D88000000	-10.3202
0FB6C983E9	-10.3208
4C8B542498	-10.321
4EFEFFFF	-10.3217
410F46	-10.3219
0FB6C883E9	-10.3221
F9FFFFEB00	-10.3235
887C0300	-10.3237
488B4C2468	-10.3244
8A8D9	-10.3246
31C888C1488B05000000008808	-10.3247
8F6FFFF488985	-10.3249
83EA024863D2	-10.3252
0000480385	-10.326
4183C0	-10.3264
898528FEFFFF	-10.3265
4D01CE	-10.3266
4C29E	-10.3268
E8060000	-10.3269
8855F	-10.327
4801D1480FBE95	-10.327
488B5C2490	-10.327
8C2428020000	-10.3271
4901F7	-10.3274
6172725F31363	-10.3275
8995	-10.3278
BC2408010000	-10.328
480FBF4DEA	-10.3281
1030000	-10.3283
898564FFFFFF	-10.3284
488B8C2490000000	-10.3286
0000000000000091000000	-10.3289
9424B8010000	-10.3289
B803000000	-10.3293
4D69D0	-10.3293
4D01C6	-10.3297
4869C9305300004801C8	-10.3297
4C01E7	-10.3298
488945A048	-10.3301
39C80F9EC024010FB6C0	-10.3304
4D69C6	-10.3312
488B4DF0	-10.3313
668B0448	-10.3315
4D69D1	-10.3316
488BB424E00	-10.3323
8C2458020000	-10.3325
8A040824018885	-10.333
7C010000	-10.3335
668378	-10.3337
842440040000	-10.3343
80E101	-10.3343
9C2480000000	-10.3345
20340300	-10.3348
4889442478	-10.3348
4C036C24	-10.3349
488B8424500	-10.3358
4183C3	-10.3359
3FFEFFFF	-10.3362
08000000000000	-10.3363
488BB424F00	-10.3366
41803C0	-10.3367
4D01F3	-10.337
9424F0010000	-10.337
39C80F9DC024010FB6C0	-10.3374
41C602	-10.3375
3EFEFFFF	-10.3377
8B4558	-10.3379
20000000000000D000000	-10.3381
0FB64DB7	-10.3387
C4E25D3	-10.3387
08320A00	-10.3387
48634DC4	-10.3392
4C8B5C2498	-10.3393
39C80F9FC024010FB6C0	-10.3402
8424A8030000	-10.3412
488BB424F80	-10.3415
4181C2	-10.3418
4869C9080900004801C8	-10.3421
488B8D80000000	-10.3424
34FDFFFF	-10.3425
0FAFC188C1488B05000000008808	-10.3429
898558FEFFFF	-10.3432
4801D1480FBE55	-10.3433
4B8D4C	-10.3442
4829C8480385	-10.3443
8C2410020000	-10.3444
C60601	-10.3449
8B8500	-10.3457
48694DC0	-10.3459
440F4E	-10.3461
488B4D68	-10.3462
4869C9840400004801C8	-10.3463
4C1F97E	-10.3464
488B9424780	-10.3469
BC2400010000	-10.347
488B7C24C8	-10.3471
48C74	-10.3471
942400020000	-10.3474
0FBEC883E9	-10.3475
4C694C24	-10.3483
842430040000	-10.3487
450F47	-10.3488
480FBF4DD2	-10.3491
C4E359	-10.3493
C4E40000	-10.3495
0F97C024010FB6C0	-10.3497
488BB424100	-10.3499
80070000	-10.35
74FDFFFF	-10.3501
488B8D60FFFFFF	-10.3503
80000001200010000000000000000006	-10.3508
4869C9080700004801C8	-10.3512
4A8D54	-10.3516
00440100	-10.3516
00000000000400	-10.3521
4869C9880100004801C8	-10.3522
488B9424A80	-10.3523
837DF400	-10.3525
9424E8010000	-10.3534
488B05000000008808	-10.3538
428A0800	-10.3538
0FB74DBE	-10.3546
4869C9C00600004801C8	-10.3551
420FB614	-10.3558
0F9DC0	-10.3565
80981C00	-10.3568
898548FEFFFF	-10.3568
40580200	-10.3569
160000000000002A0000003	-10.3573
6685FF	-10.3578
488B8C24480	-10.3581
B42430010000	-10.3581
4D29C	-10.3584
4D85FF	-10.3584
488B542448	-10.3588
488B8D38FFFFFF	-10.3593
0FB68D7FFFFFFF	-10.3593
4801D1480FBF95	-10.3594
8945C8	-10.3596
8C2468020000	-10.36
44884C24	-10.3607
48C74424	-10.3613
000000000000008A000000	-10.3615
942460020000	-10.3616
4C8B4C24B8	-10.3619
488B4D60	-10.3627
488B542450	-10.3628
4889542498	-10.3635
4C01FB	-10.3635
4A8DB4	-10.3645
4C8B4424B8	-10.3645
450F43	-10.3648
0F93C0	-10.3653
4C8B4C24A8	-10.3657
4C8B5424A8	-10.3661
8985E0FEFFFF	-10.3666
48895424B0	-10.3667
BC2410010000	-10.3669
BC24F8000000	-10.367
488B0500000000C60000	-10.3672
89F88BBD	-10.3673
C3D00	-10.3675
01C86689C1488B0500000000668908	-10.3679
488BB424280	-10.3682
4D01E0	-10.3683
48895424D8	-10.3685
488B7C2418	-10.3688
48FFC6	-10.3688
08AF2F00	-10.3692
488B050000000048B9	-10.3696
DFFEFFFF	-10.3699
4C694424	-10.3702
BC2418010000	-10.3702
8945B8	-10.3704
48895424B8	-10.3706
6642C784	-10.371
4D69C4	-10.3711
488B0500000000668908	-10.3711
83F8000F95C024010FB6C0	-10.3711
488BB424480	-10.3712
4D69CB	-10.3714
8C2440020000	-10.3715
8B4DF8	-10.3715
48C1EA20	-10.372
000000004A	-10.3721
3B7424	-10.3722
0E0F83	-10.3723
8B45D0	-10.3724
8985F8FCFFFF	-10.3725
8985D0FCFFFF	-10.3732
488B8C24500	-10.3735
0F4FD	-10.3739
488B85B8010000	-10.374
489949F7F	-10.3742
842420040000	-10.3743
4801D1486995	-10.375
488B05000000000FB600884424	-10.3753
450FB6D2	-10.3754
8424B8030000	-10.3755
483B04D1	-10.3758
6172725F3700	-10.3764
8B4D94	-10.3767
488B85A0010000	-10.3767
49C1E104	-10.3769
48895424E0	-10.3777
66448B4D	-10.3778
4C8B4C24B0	-10.3781
3308488B05000000008908	-10.3783
488BB424380	-10.3783
48694D90	-10.3787
44BE0100	-10.3789
202C0100	-10.3789
80E101488B05000000008808	-10.3798
0F6FFFF488985	-10.3798
488BB424800	-10.3804
FAFEFFFF	-10.3806
9424F8010000	-10.3808
488B5C24A0	-10.381
54FDFFFF	-10.3811
410F44D	-10.3812
898574FFFFFF	-10.3813
4901C5	-10.3815
842408040000	-10.3821
8B45E0	-10.3828
488B8D90000000	-10.3831
488B9424680	-10.3835
4D01FB	-10.3836
00000000000000020000000	-10.3838
4D69CF	-10.384
ACFDFFFF	-10.3841
488B4D78	-10.3842
018A85	-10.3843
488BB424000	-10.3845
B4FDFFFF	-10.3849
8B4D8C	-10.3851
898540FEFFFF	-10.3855
8424C0030000	-10.3857
488B542468	-10.3859
83F0FF8985	-10.3861
4183D	-10.3865
8985D0FEFFFF	-10.3866
80E201	-10.3867
0F94C3	-10.3868
C4817	-10.3871
4C8B4424C0	-10.3875
00401400	-10.3876
8B4548	-10.3877
010000008B85	-10.3883
31D2F7F6	-10.3888
480308488B0500000000488908	-10.3889
488B9424580	-10.3891
39F20F4	-10.3899
89458C	-10.3901
44FDFFFF	-10.3909
B42438010000	-10.3912
8424F8030000	-10.3917
C4427D3	-10.3919
4901CC	-10.3925
4901D5	-10.3926
43C684	-10.3933
C4E2753	-10.3937
488B7C2428	-10.3939
7661725F3330007661725F333100	-10.3939
5F0000000488B85	-10.3942
00010000488B85F8000000488B8	-10.3943
8C2478020000	-10.3944
C461F96E	-10.3946
B42420010000	-10.3947
480FBF4DE4	-10.3949
22DF0000	-10.395
440F46	-10.3953
41C64500	-10.3961
4889542490	-10.3962
4C8B5C24A0	-10.3967
000000000000000000009F0000001	-10.3967
0F95C180F1FF80E1010FB6C9	-10.3972
490F44F	-10.3975
4901CD	-10.3986
488B094829C1488B0500000000488908	-10.3987
894590	-10.3989
480FBE4DD7	-10.399
8C2450030000	-10.3992
8985B8FEFFFF	-10.3994
83C2014863D2	-10.3994
8B8D18FFFFFF	-10.3997
842450040000	-10.3997
E2FEFFFF	-10.3998
48898578FFFFFF	-10.4003
CFAFFFFEB0C8B85	-10.4004
0FB645FF	-10.4004
FF7F0000	-10.4005
8985C0FEFFFF	-10.4007
480FBF4DDA	-10.4008
488B4D88	-10.4024
898508FEFFFF	-10.403
409C0000	-10.4031
8424E0030000	-10.4033
38070000	-10.4035
8A4DAF80E1010FB6C9	-10.4039
488BB424680	-10.4043
B42428010000	-10.4045
488378	-10.4045
8B4DA4	-10.4045
0D0F83	-10.4049
BC2440010000	-10.405
110000000000002A0000000	-10.4051
488B542430	-10.4051
7661725F3239007661725F333000	-10.4051
39C80F8	-10.4055
8985A8FEFFFF	-10.4055
4901F4	-10.4061
4869C90E5F00004801C8	-10.4064
41BA01000000	-10.4066
00881300	-10.4068
0000000A6000000	-10.4069
D8060000	-10.407
C645D	-10.407
0F4DC1	-10.4075
488BB424580	-10.4075
8B8D74FFFFFF	-10.4078
0000000000000000000000003C000000	-10.4082
48895424E8	-10.4089
150000000000002A0000003	-10.4093
898538FEFFFF	-10.4097
898518FEFFFF	-10.4098
83F80D0F8D	-10.4099
8C2460020000	-10.4104
480FBE4DC7	-10.4104
8B85DC	-10.4108
4D01C7	-10.4109
898598FEFFFF	-10.4111
082E0600	-10.4118
0F95C180E1010FB6C9	-10.4118
8B0488488985	-10.4119
22FA0300	-10.4119
8985F8FDFFFF	-10.4119
0FB6C981E9	-10.4125
488B8424200	-10.4127
83FA00480F45C1	-10.413
0F444424	-10.4134
450F4F	-10.4139
00000000000000000000000000	-10.4145
4D8D3C	-10.4151
6172725F323000	-10.4152
8A4408	-10.4155
BC2420010000	-10.4156
4901D4	-10.4157
48694D80	-10.4158
C4E1F96ED	-10.4159
FDFFFF0FB785	-10.416
FBFEFFFF	-10.4161
5CFDFFFF	-10.4162
4801D0488B9424	-10.4163
48898570FFFFFF	-10.4173
490F4E	-10.4177
842418040000	-10.4177
4D01FC	-10.4179
0010000000000003	-10.4183
7661725F343000	-10.4189
47FEFFFF	-10.4191
0F4EC	-10.4193
8B4D9C	-10.4194
48C1E705	-10.4197
4901FF	-10.421
290000000000002A0000003	-10.421
FEFFFF0FBE8D	-10.4215
98060000	-10.4226
41803800	-10.4227
4D01DF	-10.4227
4D0F4C	-10.4228
9C2488000000	-10.4233
8985C8FDFFFF	-10.4236
48694DA0	-10.4236
488B542438	-10.4239
00000000000000AD000000	-10.424
8985A0FEFFFF	-10.4241
0FEFFFF4883BD	-10.4244
4829D14839C80F83	-10.4248
6643C704	-10.4255
6172725F333600	-10.4256
8C2480020000	-10.4259
8985F0FDFFFF	-10.4264
44F40700	-10.4267
488BB424300	-10.4267
4C8B742490	-10.4274
150F83	-10.4276
4D69CA	-10.4277
8C24A8020000	-10.4281
410F93C	-10.4281
488B8424380	-10.4284
400F94C5	-10.4296
A4FDFFFF	-10.4297
00880200	-10.4297
80000001200010000000000000000007	-10.4298
4D01E5	-10.4303
4869C9214504004801C8	-10.4305
480FBF4DE6	-10.4306
48FFC7	-10.431
00740F	-10.4315
80B00400	-10.4317
00120000	-10.4317
4D01FE	-10.4317
664585C9	-10.432
8985E0FDFFFF	-10.4323
46FEFFFF	-10.4327
000F95C024010FB6C8	-10.4331
9C24A0000000	-10.4331
C2EB0B00	-10.4334
898590FEFFFF	-10.434
4E8D3C	-10.4341
48694D98	-10.4347
0F47F	-10.4349
4D29D	-10.435
898510FEFFFF	-10.435
8985E8FDFFFF	-10.4357
83F800740DB8	-10.4358
4C8B4424D8	-10.4358
034C24	-10.4362
942430020000	-10.4363
4C0F46	-10.4363
FDFFFF0FBF8D	-10.4368
FDFFFF0FB685	-10.4372
48C704	-10.4373
66448B55	-10.4373
6172725F3500	-10.4373
96FEFFFF	-10.4374
66894DF	-10.4376
48895424D0	-10.4378
0F92C120C1	-10.4379
43807C	-10.4382
86FEFFFF	-10.4383
3CFDFFFF	-10.4384
488B542460	-10.4387
8B45D8	-10.4391
BC2448010000	-10.4396
488BB424400	-10.4398
0FB64DBF	-10.4401
842448040000	-10.4402
488BBC24880	-10.441
488BB424700	-10.4411
48895424C8	-10.4413
8B4D90	-10.4414
66833E00	-10.4415
88E80F00	-10.4416
EFCAC5F970D1EEC5F1EFCAC4E1F97EC	-10.442
88BD1700	-10.443
8F7FFFFEB0E488B85	-10.443
4C8B5C24C0	-10.4436
897DFC	-10.4436
4C8B4424C8	-10.4439
EB0DB8010000008985	-10.4447
488B85E8010000	-10.4453
4869C9200600004801C8	-10.4453
41C74	-10.4455
F6FFFF8985	-10.446
488B4D58	-10.446
4869C92A1100004801C8	-10.4461
0FAFC16689C1488B0500000000668908	-10.4465
D2FEFFFF	-10.4466
F9029500	-10.4469
FEFFFF39C87D0F0FB785	-10.4472
48894C2408	-10.4472
C4C14	-10.4473
488B8D78FFFFFF	-10.4474
898520FEFFFF	-10.4482
8A45D724010FB6C0	-10.4495
488B7C24F0	-10.4495
488945E0	-10.4497
488B8510010000488B8	-10.4504
8985B0FEFFFF	-10.4507
48895424F8	-10.4509
83F8130F8D	-10.4511
0F7FFFFEB0E488B85	-10.4514
48C1E1104801C8	-10.4518
480FBE4DE7	-10.4522
8C24B0020000	-10.4524
BC2428010000	-10.4524
4180F9	-10.4524
6641C706	-10.4526
942438020000	-10.4528
801C8	-10.4531
89C88B8D	-10.4534
020000000000000000000000000000	-10.4537
4883F1FF	-10.4538
4181C3	-10.4545
48C1E50	-10.4545
4869C9006C00004801C8	-10.4548
440F42D	-10.4553
4D69CE	-10.4553
6172725F333900	-10.4554
48036C24	-10.4559
43C704	-10.4561
7661725F343100	-10.4565
BC2430010000	-10.4565
488B5C2498	-10.4566
0000000000000002010000	-10.4567
7661725F3332007661725F333300	-10.4567
C4E37916	-10.4572
41C700	-10.4573
41C606	-10.4577
8000000FCFFFFFFFFFFFFFF002E	-10.4578
FEFFFF66C785	-10.458
410F9CC	-10.458
AFFEFFFF	-10.4583
6172725F333700	-10.4584
4869C9803E00004801C8	-10.4585
44248	-10.4586
C4DE0B00	-10.459
8985D8FDFFFF	-10.459
898578FDFFFF	-10.459
83F0FF83F80074	-10.4591
4885C074	-10.4595
1C0000000000002A0000001	-10.4596
48898568FFFFFF	-10.4596
0FB64DC7	-10.4598
FDFFFF0FBF85	-10.4602
7661725F3331007661725F333200	-10.4605
6683FE	-10.4605
488BB424780	-10.4605
83F8120F8D	-10.4612
F6040801	-10.4613
0FBEC983E9	-10.4615
00802800	-10.4622
884DF	-10.4626
0A0000000000002A0000002	-10.4626
8B45C0	-10.4629
4889C24C09	-10.4638
4D69C5	-10.4639
410F95C6	-10.464
668955F	-10.4642
4869C9387C01004801C8	-10.4643
8B4DB4	-10.4648
4584FF	-10.466
488B542470	-10.4664
0FBE400	-10.4664
C5C1EFF	-10.4666
450F4D	-10.4666
488BB424600	-10.4668
48694DE8	-10.4668
4D0F47	-10.4669
898578FFFFFF	-10.467
350000001000000000000000	-10.4673
488BB424C00	-10.4674
842438040000	-10.4677
488BB424B00	-10.468
89855CFFFFFF	-10.4683
4801C848694DD0	-10.4687
C5F9EFC	-10.4688
C4E3712	-10.4689
FEFFFF80E1010FB6C983E9014863C9	-10.4689
942428020000	-10.4695
898578FEFFFF	-10.4697
44885424	-10.4698
8FFEFFFF	-10.4703
8B4594	-10.4713
62720000	-10.4716
8B8D6CFFFFFF	-10.4718
39C87E0F0FBE85	-10.4718
41803900	-10.4719
0F7FFFF8B85	-10.472
4B8D54	-10.4726
488B8424480	-10.4727
83E9014863C98B0488	-10.473
4D01E1	-10.4736
8F7FFFF8B85	-10.4739
83F8140F8D	-10.4739
0FB64D9F	-10.4745
1796E	-10.4745
8FBFFFFEB0C8B85	-10.4748
8FEFFFF4883BD	-10.4749
0AA37C00	-10.4749
4A8DBC	-10.475
C5F970E355	-10.4754
8985D0FDFFFF	-10.4767
894598	-10.477
410F45C	-10.4772
41C6040	-10.4772
8C2498020000	-10.4776
4AC704	-10.478
4C8B4424D0	-10.4782
83C001668985	-10.4786
488BBC24980	-10.4788
83F80F0F8D	-10.479
C5F970E3EE	-10.4791
83F80A0F8D	-10.4791
36FEFFFF	-10.4794
C5E9EFD2C5E1EFDB	-10.4796
488B05000000000FBF00	-10.4796
488BB424B80	-10.4799
4869C960A600004801C8	-10.48
4D8D34	-10.4805
89853CFFFFFF	-10.4806
8C2418030000	-10.4813
4F9FFFFEB0C8B85	-10.4816
48634DEC	-10.4818
942450020000	-10.4819
8B85B4	-10.4825
F4010000	-10.4827
488B7C2410	-10.4829
4C8B6C2490	-10.4834
8B0929C1488B05000000008908	-10.4841
39C87D0F0FBE85	-10.4842
488985F8FEFFFF	-10.4853
240000000000002A0000002	-10.4856
4129C	-10.4859
24018845F	-10.486
4129F	-10.4861
41C74500	-10.4869
4889458848	-10.4869
4D8DA	-10.4872
488B8DA0000000	-10.4879
6172725F333800	-10.4879
CF9FFFFEB0C8B85	-10.4881
48898560FFFFFF	-10.4881
84D71700	-10.4882
B42458010000	-10.4886
D8A81300	-10.4887
488B7C2408	-10.4889
48894C2418	-10.4894
488B8D98000000	-10.4899
4869C900D800004801C8	-10.4901
C5F970E	-10.4912
508010000488B85	-10.4918
000000000000000B0	-10.4919
6172725F3600	-10.492
C5F1EFC	-10.492
B42440010000	-10.4927
8985B0FDFFFF	-10.4927
4869C9C04C01004801C8	-10.4929
8B8574FFFFFF	-10.4931
C70101000000	-10.4937
4D85ED	-10.4938
B42450010000	-10.4938
664539	-10.4941
4D69D3	-10.4942
8985A8FDFFFF	-10.4942
80780	-10.4945
EB000FBE45	-10.4946
488B85B0010000	-10.4949
09000000000000	-10.4953
4869C95A4800004801C8	-10.4955
6172725F343000	-10.4955
5FFEFFFF	-10.4956
4D01FA	-10.4964
480FBF4DE2	-10.4967
8C24B8020000	-10.4968
48894C2410	-10.4971
488945A8	-10.4972
6172725F343100	-10.4973
488BB424A00	-10.4974
4869C92C6B00004801C8	-10.4975
490F42C	-10.4975
7FFEFFFF	-10.4986
C4E2653	-10.4989
4501C	-10.499
2A0000000000002A0000003	-10.4996
442448	-10.4997
48894C2428	-10.5
488945A8488B45A8	-10.5004
5424A0	-10.5007
66FEFFFF	-10.5011
F8FFFFEB00	-10.5016
8B0C88	-10.502
5424A8	-10.502
BC2470010000	-10.5021
24FDFFFF	-10.5021
4D69CC	-10.5021
00000000000000BB000000	-10.5023
4869C9D00700004801C8	-10.503
942418020000	-10.5031
66C784	-10.5033
8A4DC780E1010FB6C9	-10.5033
83F8150F8D	-10.5034
488B85A8010000	-10.5038
C4E2613	-10.5041
410F92C4	-10.5045
24018845D	-10.5045
8B4DC8	-10.5052
4C8B7C2480	-10.5054
41803A00	-10.5055
6641C700	-10.5057
BC2438010000	-10.506
410F43C	-10.5061
0F9EC0	-10.5062
83F80E0F8D	-10.5065
488945A848	-10.5067
84010000	-10.5075
00000000000000DF000000	-10.5081
C531EFC	-10.5081
0FB75424	-10.5083
4D01D7	-10.5093
BC2450010000	-10.5096
8C2490020000	-10.51
4080E601408875	-10.5103
898590FDFFFF	-10.5103
6641C701	-10.5107
898568FFFFFF	-10.5107
00000000000000E6000000	-10.511
48895424F0	-10.511
49C1E204	-10.5111
0FBFFFFEB0C8B85	-10.5112
7FCFFFF80E1010FB6C9	-10.5115
8C24F8020000	-10.5119
942408020000	-10.5122
3C592E00	-10.5125
04190500	-10.5127
898570FFFFFF	-10.5127
942420020000	-10.5133
83F8110F8D	-10.5136
0FBFC981E9	-10.5137
B42448010000	-10.5142
8985A0FDFFFF	-10.5145
0000000017010000	-10.5146
898524FFFFFF	-10.5151
488BBC24C80	-10.5156
8955F0	-10.5158
4C8B7C24A8	-10.516
48894C2430	-10.516
480F42C	-10.5161
8C24C8020000	-10.5164
942410020000	-10.5164
EBFEFFFF	-10.5178
807DF	-10.5179
89854CFFFFFF	-10.5182
898580FDFFFF	-10.5184
C745D0	-10.5186
486B4DE0	-10.5188
034424	-10.5196
4869C9963500004801C8	-10.5202
440F42C	-10.5203
8845C	-10.5204
20010000488B8518010000	-10.5207
B42478010000	-10.5212
488945B0488B45B0	-10.5216
488B742418	-10.5217
00000000C0000000	-10.5217
F2FEFFFF	-10.5229
488BB424500	-10.523
EEFDFFFF	-10.5233
EB0E8A45	-10.5235
4883F0FF488985	-10.5238
83C002668985	-10.524
48894590	-10.5244
0FB74DEA	-10.5246
0F9CC1	-10.5247
488B8D68FFFFFF	-10.5247
898560FFFFFF	-10.5249
83C003668985	-10.5253
4869C9CC1400004801C8	-10.5257
6172725F333000	-10.5258
83F8100F8D	-10.5262
BC2478010000	-10.5262
74010000	-10.5265
4383BC	-10.5265
668B55	-10.5266
488BB424A80	-10.5271
00A86100	-10.5279
83F80C0F8D	-10.528
00200004C8B8D	-10.5281
120000000000002A0000000	-10.5285
48634DBC	-10.5288
8C24C0020000	-10.5288
B42460010000	-10.5297
000000001E010000	-10.53
0000000080010000	-10.5305
7661725F3334007661725F333500	-10.5307
B42468010000	-10.5309
4983D	-10.5314
488B742408	-10.5323
48894C2420	-10.5323
898558FCFFFF	-10.5325
48837DE000	-10.5331
FBFFFF8A85	-10.5335
898580FEFFFF	-10.5339
8C2408030000	-10.5339
000000000000000510000001	-10.5343
898570FEFFFF	-10.5347
8C24E0020000	-10.5348
837DEC00	-10.5351
48898558FFFFFF	-10.5353
488985D8FEFFFF	-10.5359
488B4D50	-10.5362
8985B8FDFFFF	-10.5362
83C10389C9	-10.5368
7661725F3333007661725F333400	-10.5369
C745D8	-10.5379
4C8B742498	-10.5384
9C2490000000	-10.5391
0000000000000008000000000000000	-10.5394
4869C9916F00004801C8	-10.5394
8C24D0020000	-10.5396
8A4D9F80E1010FB6C9	-10.5396
2B0000000000002A0000003	-10.5398
B42480010000	-10.5398
8B4D88	-10.5399
488B8DA8000000	-10.5403
4801C8488B4DC8	-10.5403
828C0200	-10.5404
83F80B0F8D	-10.5405
4C8B4C24D0	-10.5405
8B4560	-10.5416
4D69D2	-10.5418
48894598	-10.5426
4D01E9	-10.5427
0FB74C24	-10.5427
8A4DCB80E1010FB6C9	-10.543
4D01F4	-10.5433
00980700	-10.5434
750AB0018885	-10.5435
488994C8	-10.5435
0000000025010000	-10.5436
4C033D00000000	-10.5438
0F92C024010FB6C0	-10.544
898558FDFFFF	-10.544
488B04C84883F0FF	-10.5442
488B742410	-10.5444
4FFEFFFF	-10.5445
4801D1488B9424	-10.5447
4869C9902D00004801C8	-10.5452
8A4DA780E1010FB6C9	-10.5452
0308488B05000000008908	-10.5457
87FEFFFF	-10.5463
B4010000	-10.5463
898514FFFFFF	-10.5467
0183D	-10.5468
488B7C24F8	-10.5474
000000000000005F000000	-10.5482
0FBFC881E9	-10.5484
0F9EC024010FB6C0	-10.5491
942448020000	-10.5494
C4010000	-10.5497
66C745D	-10.5498
898570FDFFFF	-10.55
140000000000002A0000003	-10.5502
4F8D7	-10.5503
898554FFFFFF	-10.5508
898598FDFFFF	-10.5509
250000000000002A0000002	-10.5512
0FBFC883C1	-10.5514
942458020000	-10.5517
828B0100	-10.5519
480FBF4DA6	-10.5519
0000000000000000000043000000	-10.5522
6642837C	-10.5525
83F8160F8D	-10.553
0A000000000000	-10.553
488B8D58FFFFFF	-10.554
37914	-10.5541
0F9FC0	-10.5543
00000000000000ED000000	-10.5549
4D01E2	-10.5565
4869C9001005004801C8	-10.5567
8B857CFFFFFF	-10.557
04FDFFFF	-10.557
488BBC24B80	-10.5571
488B8500FFFFFF48	-10.5574
4869C9007D00004801C8	-10.5576
C7FEFFFF	-10.5579
C57A7E	-10.5583
488BBC24080	-10.5583
C5C9EFF	-10.5584
4901E8	-10.5592
DC010000	-10.5603
898588FDFFFF	-10.5604
4D01C4	-10.5605
4839CA480F4	-10.5608
4D69DB	-10.5608
83F8000F95C0	-10.561
4D69D9	-10.5612
3B0491	-10.562
4869C9B49000004801C8	-10.562
0F93C1	-10.5621
8B1488	-10.5625
80000001200010000000000000000008	-10.5627
942468020000	-10.563
488945B848	-10.5637
8F5FFFF488B85	-10.5637
4801D1486955	-10.564
8B45D4	-10.5649
00100000000000048	-10.565
488945B8488B45B8	-10.5651
4F6FFFF8B85	-10.5654
8C24D8020000	-10.5655
0FBFC981C1	-10.5659
898550FDFFFF	-10.566
17A7E	-10.5665
4901FC	-10.5668
8FAFFFFEB0C8B85	-10.567
898548FDFFFF	-10.5676
260000000000002A0000004	-10.569
00000000000000C9000000	-10.5691
1D0000000000002A0000001	-10.5691
4C8B4C24C8	-10.5694
488BBC24000	-10.5703
488B542478	-10.5708
488BBC24280	-10.5715
48B8FFFFFFFFFFFFFF7F	-10.5717
48837D1000	-10.5718
898528FDFFFF	-10.5718
450FAF	-10.5724
8C2448030000	-10.5724
00000000000000DE000000	-10.5725
48894C2440	-10.5725
8C24E8020000	-10.5726
7661725F3336007661725F333700	-10.5726
807DFF00	-10.5731
894588	-10.5733
000000002C010000	-10.5734
31C0482B04D1	-10.5736
48894C2468	-10.574
486B4DC0	-10.5742
CFCFFFF3B85	-10.5743
488B8D48FFFFFF	-10.5746
488945D0	-10.5746
490FAFD	-10.5748
898568FDFFFF	-10.5751
0FB74DDC	-10.5753
488945A0488B45A0	-10.5754
77FEFFFF	-10.5755
80000001200010000000000000000009	-10.5757
4C8B6C2498	-10.5763
898560FDFFFF	-10.5764
4C8B5C24B0	-10.5766
31C02B0491	-10.577
0000000000000027000000	-10.5772
8985E8FCFFFF	-10.5779
E8522D00	-10.5788
83C1014863C98B0488	-10.5789
8985C0FDFFFF	-10.5793
898558FFFFFF	-10.5796
4869C940B600004801C8	-10.5802
0F97C3	-10.5803
4869C9B1F702004801C8	-10.5804
4C8B4C24D8	-10.5806
0FBE0C08	-10.5808
0F5FFFF488B85	-10.5809
837DFC00	-10.5811
898508FDFFFF	-10.5811
898544FFFFFF	-10.582
FDFFFF01C8668985	-10.5825
4869C9542200004801C8	-10.5829
4869C9A00F00004801C8	-10.5831
48898548FFFFFF	-10.5838
488B14C8	-10.5839
8985E0FCFFFF	-10.5845
80200004C8B8D	-10.5846
290000000000002A0000004	-10.5846
2CFDFFFF	-10.5848
4869C9127A00004801C8	-10.5852
83F001	-10.5856
4889459848	-10.5858
0F9FC024010FB6C0	-10.5865
6172725F333300	-10.5866
6CD40900	-10.5871
74A91600	-10.5872
4869C9205B00004801C8	-10.5874
EE6BC400	-10.5875
48898550FFFFFF	-10.5885
EB000FB745	-10.5896
8985F8FBFFFF	-10.5897
488B45D8488985	-10.5901
C745C8	-10.5906
0F9503	-10.5913
48894590488B4590	-10.5913
898540FDFFFF	-10.5914
4183B	-10.5917
270000000000002A0000004	-10.5917
1CFDFFFF	-10.593
8C2400030000	-10.5931
8845B	-10.5932
4869C9109303004801C8	-10.5933
FDFFFF4869D2	-10.5936
942478020000	-10.594
6641C702	-10.5941
14FDFFFF	-10.5941
898538FDFFFF	-10.5944
4889459048	-10.5948
488BBC24380	-10.5949
898530FEFFFF	-10.5951
4D85E4	-10.5955
0FAFFFFEB0C8B85	-10.5956
89C1488B050000000066891448	-10.5958
942470020000	-10.5959
837D1000	-10.5975
8FAFFFF483B85	-10.5976
0000000033010000	-10.5977
72FEFFFF	-10.5978
740AB0018885	-10.598
48C1E920	-10.5981
83E90389C9	-10.5984
000000058	-10.5985
CF6FFFF8B85	-10.5989
4869C9682101004801C8	-10.5991
4D01FD	-10.5993
4889542410	-10.5996
410F42D	-10.5999
8010000000000003	-10.6003
837D1800	-10.6005
7661725F333	-10.6005
BC2458010000	-10.6006
488B4D48	-10.6013
8B4DAC	-10.6013
488945B048	-10.6018
80547300	-10.6018
4D0F43	-10.6021
4C8B6C2480	-10.6022
C645C	-10.6024
4F8D84	-10.6025
4869C9A84400004801C8	-10.603
4D01EA	-10.6031
4901DC	-10.6032
4869C95E1A00004801C8	-10.6034
C4E3792	-10.6036
89C1488B0500000000881408	-10.6044
4C8B4424F8	-10.6045
C3000000000000000000000000000	-10.6048
48898540FFFFFF	-10.6048
8845A	-10.605
4B8DB	-10.6052
4869C948E801004801C8	-10.6053
898508FCFFFF	-10.6055
6172725F31373	-10.6055
40886C24	-10.6055
BC010000	-10.6058
898550FFFFFF	-10.6059
0F95C024018885	-10.6063
488B742428	-10.6065
8F6FFFFEB0E488B85	-10.6071
00000000000000F4000000	-10.6075
66837DFE00	-10.6076
4869C900B001004801C8	-10.6079
488B4D40	-10.6079
2A0000000000002A0000004	-10.608
27FEFFFF	-10.6082
2B0000000000002A0000004	-10.6086
48894598488B4598	-10.6087
80D32000	-10.6088
488945D848	-10.6091
EB070FB745	-10.6092
C4E37D39C	-10.6093
488B8568FEFFFF48	-10.6095
280000000000002A0000004	-10.6099
488BBC24A80	-10.6103
48898568FEFFFF	-10.6104
0000000013000000	-10.6106
4869C924F400004801C8	-10.6108
837D4800	-10.6109
488BBC24100	-10.6112
0F9DC024010FB6C0	-10.6121
4C8B4424E0	-10.6123
898520FDFFFF	-10.6124
60A34E00	-10.6126
C5F970D	-10.6127
89851CFFFFFF	-10.6128
4D01E7	-10.613
4D69DA	-10.6133
4C8B4424E8	-10.6134
8985ECFEFFFF	-10.6135
89852CFFFFFF	-10.6138
488BBC24500	-10.6139
488BBC24180	-10.6139
48898530FFFFFF	-10.614
4C8B9C24980	-10.6141
4869C9BC3400004801C8	-10.6143
0F9DC1	-10.6145
43D00	-10.616
80100000000000048	-10.6162
740DB8010000008985	-10.6166
2E726F646174612E637374313600	-10.6174
898504FFFFFF	-10.6178
9424A8020000	-10.618
898530FDFFFF	-10.6188
898550FEFFFF	-10.6188
0FAFFFF483B85	-10.6188
898518FDFFFF	-10.6188
4801C848694DC8	-10.6191
6172725F343800	-10.6191
00D43000	-10.6197
9424F0020000	-10.6199
BC2468010000	-10.6201
4869C9E02A00004801C8	-10.6202
4869C900FA00004801C8	-10.6203
4869C911FD01004801C8	-10.6206
260000000000002A0000002	-10.6207
8B8528010000488B8	-10.6207
6172725F343700	-10.6213
0000000038010000	-10.6217
4D01EC	-10.622
B424A8010000	-10.6225
48698D70FFFFFF	-10.6227
B424A0010000	-10.6227
39F10F4	-10.6229
DCD78801	-10.6229
488B8D30FFFFFF	-10.6229
48898538FFFFFF	-10.623
0F9CC024010FB6C0	-10.623
4D69D8	-10.6233
FC010000	-10.6235
2C0000000000002A0000004	-10.624
38010000488B853001000048	-10.6244
6172725F333500	-10.6246
FDFFFF0FBE85	-10.6248
48894C2460	-10.6248
0B31C0488985	-10.6248
250000000000002A0000004	-10.6251
8B8D4CFFFFFF	-10.6252
8985B0FCFFFF	-10.6254
8EFEFFFF	-10.6255
8000000120001000000000000000000A	-10.6256
9C24E0000000	-10.6256
4D01DC	-10.626
4C8B5C24A8	-10.6262
4D0F4F	-10.6264
488B742438	-10.6265
0B000000000000	-10.6271
5B415C415D415E415F5DC3000000	-10.6273
000000003A010000	-10.6278
A2FEFFFF	-10.628
8000000120001000000000000000000C	-10.6281
8B4D98	-10.6285
48837DF800	-10.6286
8852AD00	-10.6287
8A8D7FFFFFFF80E1010FB6C9	-10.6289
4C8B9C24B80	-10.629
AC010000	-10.6293
FEFFFF48C785	-10.6295
4D69D7	-10.6295
BEFDFFFF	-10.6297
83F8170F8D	-10.6298
6172725F333200	-10.63
4C8B642498	-10.6301
4883F8000F95C034FF24010FB6C0	-10.6305
898510FDFFFF	-10.6306
488B8D28FFFFFF	-10.6307
39D00F8	-10.6316
B42470010000	-10.6319
898534FFFFFF	-10.6319
00000000000000D7000000	-10.632
EB0A31C08985	-10.6321
0050C300	-10.6322
8A45F724010FB6C0	-10.6331
48894580488B4580	-10.6331
488BBC24480	-10.6336
0CFDFFFF	-10.6336
488B742420	-10.6338
8B4D10	-10.634
4B8D8C	-10.634
48894C2448	-10.6341
837DF800	-10.6345
66837D1000	-10.6346
0F95C034FF24010FB6C8	-10.6348
83F0FF4898488985	-10.635
4D69D6	-10.6351
8945D48B45D4	-10.6351
8C24F0020000	-10.6374
FEFFFF39C87D0F0FBF85	-10.6374
2C0000000000002A0000003	-10.6379
48894C2438	-10.6386
8000000120001000000000000000000B	-10.6387
0000000041010000	-10.6387
488BBC24F00	-10.6388
00350C00	-10.6389
8985F0FCFFFF	-10.639
0FB604084898488985	-10.6393
4869C9007102004801C8	-10.6393
EB000FB785	-10.6394
801A0600	-10.6396
48894C2470	-10.64
4C8B642490	-10.6401
C645B	-10.6401
F6C10174	-10.6401
400F97C5	-10.6402
0000000000000006D0000001	-10.6405
4C8B4C24C0	-10.6409
4D29F	-10.6415
82FEFFFF	-10.6416
4869C9622600004801C8	-10.6421
31C929D1	-10.6423
035424	-10.6424
488B5C24B0	-10.6425
8945CC8B45CC	-10.6426
4C695424	-10.6428
1446F900	-10.6429
898538FFFFFF	-10.6429
0FB60C08	-10.6446
A0860100	-10.6449
C4C17E7F	-10.645
C0691000	-10.6452
898548FFFFFF	-10.6452
0F6FFFFEB0E488B85	-10.6452
BC24B0010000	-10.6453
4969DA	-10.6455
130000000000002A0000000	-10.6455
898500FDFFFF	-10.646
4C8B6424A0	-10.646
16FEFFFF	-10.6461
9C24E8000000	-10.6466
4D69CD	-10.6468
C745C0	-10.6473
410F42F	-10.6475
488945C8	-10.648
4869C9800D00004801C8	-10.6482
48898528FFFFFF	-10.6492
66897DF	-10.6493
4A8D74	-10.6496
4A837C	-10.6499
49C74	-10.6509
488945C0488B45C0	-10.651
0F9EC1	-10.6512
48837D1800	-10.6512
8945C48B45C4	-10.6513
8B8564FFFFFF	-10.6518
83F2FF	-10.6524
C70201000000	-10.6527
4F8FFFFEB0C8B85	-10.6529
8985C8FCFFFF	-10.6533
8A4DC380E1010FB6C9	-10.6536
48898C2490000000	-10.6536
C441796E	-10.654
80E101884DE	-10.654
F7356200	-10.6541
898540FFFFFF	-10.6541
40AA3900	-10.6542
488BBC24400	-10.6544
4869C9786900004801C8	-10.6544
488945D8	-10.655
8B85CC	-10.6553
4869C9E1F505004801C8	-10.6554
A040000	-10.6555
EB1048C7C0	-10.6557
8985C0FCFFFF	-10.6558
942490020000	-10.656
490FAFF	-10.6565
36EA0400	-10.6568
C5F970D155	-10.6582
BC24A8010000	-10.6582
FDFFFFC685	-10.6593
FEFFFF39C87E0F0FBF85	-10.6595
C645E	-10.6596
6172725F3400	-10.6599
898500FEFFFF	-10.66
288CF201	-10.6605
DAFEFFFF	-10.6605
1EFEFFFF	-10.6608
4B8D2C	-10.6612
0F92C220C2	-10.6614
0000000000000005001000000000000	-10.6622
48C7C2	-10.6624
488BBC24300	-10.6628
8B4598	-10.663
48694D88	-10.6632
7661725F343700	-10.6634
0000000000002000000000000000	-10.664
000000000000007B0000001	-10.6643
9C24D0000000	-10.665
7661725F3335007661725F333600	-10.6651
898530FFFFFF	-10.6652
FDFFFF01C88885	-10.6652
4D01E3	-10.6655
0FBFC881C1	-10.6656
CF8FFFFEB0C8B85	-10.6656
0000000001010000	-10.6661
83E8014863C8488B0500000000	-10.6662
89C1488B0500000000891488	-10.6669
00A08601	-10.6675
400FB6ED	-10.6675
39C87E0C0FB745	-10.6675
4869C9109A01004801C8	-10.6676
01C68	-10.6683
4C8B7C2498	-10.6686
4C8B5424C8	-10.6687
0000000000000000000048010000	-10.669
4C8B7424A8	-10.6691
7661725F343200	-10.6692
39C87E0C0FBF45	-10.6692
4869C9889900004801C8	-10.6692
4889742498	-10.6698
4869C9660A00004801C8	-10.6698
E40B5402	-10.6699
B42498010000	-10.6703
4869C9102700004801C8	-10.6704
2D0000000000002A0000004	-10.671
6172725F323900	-10.6716
400D0300	-10.6716
B424B8010000	-10.6718
0F9FC1	-10.6718
C4E37D39C101	-10.6725
7AFEFFFF	-10.6725
AAFEFFFF	-10.6725
80E1010FB6C939C87D138A85	-10.6728
FDFFFF0FB68D	-10.6732
8B45A8	-10.6734
4D69D4	-10.6735
4F8D44	-10.6744
4901F5	-10.6745
4FCFFFF3B85	-10.6748
C4E37D39F	-10.6761
4D01D4	-10.6762
4584E4	-10.6762
8985D0FBFFFF	-10.6766
488B742440	-10.677
837D5000	-10.6771
4889542440	-10.6771
8955F8	-10.6773
F4FFFF8B85	-10.6778
40420F	-10.6779
488B5C24A8	-10.6785
48898500FFFFFF	-10.6786
8A45E324010FB6C0	-10.6786
7661725F343300	-10.6787
C4C17A7E	-10.6787
240000000000002A0000004	-10.6791
0C219700	-10.6798
7661725F343800	-10.6801
8A4DBF80E1010FB6C9	-10.6816
00000000E5000000	-10.6816
42837C	-10.6817
8985A8FCFFFF	-10.6817
48894C2478	-10.6819
30000000000000D000000	-10.6821
00000000000000FA000000	-10.6834
EAFEFFFF	-10.6836
230000000000002A0000004	-10.6837
4C8B9C24180	-10.6845
29C883F8	-10.6845
8985D8FCFFFF	-10.6846
39C87D0C0FB745	-10.6851
48894588488B4588	-10.6852
C5F970C855	-10.6854
80E1010FB6C939C87E138A85	-10.6856
220000000000002A0000004	-10.6858
31C02B85	-10.6858
8B4DF0	-10.6859
4969DB	-10.686
48D1E	-10.6864
4D01EE	-10.6866
898528FFFFFF	-10.6869
4D01E6	-10.687
4C8B4C24E0	-10.687
20D51C00	-10.6871
488B7C2430	-10.6874
8A4DEA80E1010FB6C9	-10.6876
4869C9C44C00004801C8	-10.6877
488BBC24700	-10.6881
7661725F3130007661725F313100	-10.6882
8A4DB780E1010FB6C9	-10.6883
89C089C1488B0500000000488908	-10.6885
48630488	-10.6886
488B742470	-10.6893
8B048883F0FF	-10.6893
48898508FFFFFF	-10.6893
8985ACFEFFFF	-10.6903
7661725F3338007661725F333900	-10.6907
66837D2000	-10.6912
4901E9	-10.6913
8945D88B45D8	-10.6915
17FEFFFF	-10.6921
8A45EB24010FB6C0	-10.6921
4D01EB	-10.6924
8985FCFEFFFF	-10.6926
00000000000000EC000000	-10.6929
2E0000000000002A0000004	-10.6929
8985B8FCFFFF	-10.6932
43C82500	-10.6934
39C87D0C0FBF45	-10.6934
00000000000000FB000000	-10.6937
4901FD	-10.6937
44A95600	-10.6947
8000000120001000000000000000000D	-10.6948
00300F00	-10.6949
4901DD	-10.6952
C4437914	-10.6953
4C8B5424B8	-10.6957
540010000488B85	-10.6958
66C745C	-10.6959
B424B0010000	-10.6966
0010000488B8548010000488B8	-10.6971
8B4D84	-10.6973
98070000	-10.6975
A1CEAD00	-10.6975
C817A804	-10.6977
488BBC24680	-10.6979
EB000FB685	-10.6988
EB000FBF85	-10.6994
837D2000	-10.6997
4869C958D600004801C8	-10.7001
89C2488B050000000048694D	-10.7012
E7FDFFFF	-10.7014
89C1488B0500000000488914C8	-10.7019
410F92C5	-10.7024
4C032500000000	-10.7024
410F95C7	-10.7024
4869C9701500004801C8	-10.7027
8945BC8B45BC	-10.7028
4C0F4E	-10.7032
09C888C1488B05000000008808	-10.7037
26FEFFFF	-10.7038
48897DF8	-10.7047
39D60F4	-10.7053
48898520FFFFFF	-10.7056
4D69DD	-10.7058
8985C8FBFFFF	-10.7069
942498020000	-10.7071
8B4DB0	-10.7071
899488	-10.7072
6172725F333400	-10.7075
898588FCFFFF	-10.708
B3FEFFFF	-10.7084
898520FFFFFF	-10.7092
488945B8	-10.7096
898518FFFFFF	-10.7096
8A4DE380E1010FB6C9	-10.7097
48634D8C	-10.7103
7661725F343900	-10.7106
18422E01	-10.7111
4801C8488B4DE0	-10.7113
48897424B8	-10.7113
8B8D7CFFFFFF	-10.7114
4969D9	-10.7116
488BBC24200	-10.7116
8945D08B45D0	-10.7116
9424B8020000	-10.7119
889408	-10.712
488B8D08FFFFFF	-10.713
0010000488BBD	-10.7136
488B742448	-10.7142
898578FCFFFF	-10.7144
410F95C4	-10.7147
37FEFFFF	-10.7153
48898518FFFFFF	-10.7161
488B5C24B8	-10.7168
4501E	-10.7176
4D01CC	-10.7182
58010000488B855	-10.7183
42C644	-10.7195
4889542438	-10.7197
48898510FFFFFF	-10.7199
898578FBFFFF	-10.7202
7661725F343400	-10.7203
F645D	-10.7214
7661725F3337007661725F333800	-10.7216
89850CFFFFFF	-10.7217
80000001200010000000000000000000	-10.7217
0FBF04484898488985	-10.7218
8945B48B45B4	-10.722
FEFFFF24010FB6C08A8D	-10.7221
4889542430	-10.723
4C8B7C24A0	-10.7235
2F0000000000002A0000004	-10.7236
2D0000000000002A0000003	-10.7237
0FBE04084898488985	-10.7243
FDFFFF89C1488B0500000000	-10.7244
C5F1EFC9	-10.7247
4C8B5424E0	-10.7247
8A040824010FB6C04898488985	-10.7248
66C745B	-10.7251
7661725F3430007661725F343100	-10.7252
6172725F353500	-10.7252
4C8B9C24F80	-10.7254
4C8B8C24880	-10.7256
4F8D4C	-10.7266
CAFEFFFF	-10.7276
000000074	-10.7283
8945C88B45C8	-10.7285
C1E30	-10.7287
88459	-10.7289
8985C0FBFFFF	-10.7294
488B0CD1	-10.7295
000000000000004F010000	-10.7298
8985CCFEFFFF	-10.7302
488B742430	-10.7304
488BBC24580	-10.7306
898594FEFFFF	-10.7306
4889542428	-10.7309
488BBC24780	-10.731
8B45C8	-10.7319
1E0000000000002A0000001	-10.7322
6172725F3300	-10.7323
4D01C5	-10.7325
FDFFFF89853	-10.7326
C4E37915	-10.7327
490F44D	-10.7329
4C8B5C24B8	-10.7331
0FB704484898488985	-10.7338
4889742488	-10.7338
39D10F8	-10.7342
C5F970D1EE	-10.7342
7661725F3534007661725F353500	-10.7343
C4433	-10.7347
898598FCFFFF	-10.7347
4C8B642480	-10.7349
6172725F323100	-10.7351
090000000000002A0000002	-10.7352
4801C8488B4DC0	-10.7356
4869C9313900004801C8	-10.7358
4869C9001B00004801C8	-10.7358
488B9C24980	-10.7358
4869C9414601004801C8	-10.7358
130000000000002A0000003	-10.7361
8010000488BBD	-10.7361
7661725F3432007661725F343300	-10.7363
4863C848B8	-10.7365
FDFFFF83E9024863C9	-10.7366
8945A48B45A4	-10.7368
480FBE4DBF	-10.7379
B424C0010000	-10.7382
0000000000000097000000	-10.7386
78B25C00	-10.7399
A000000FCFFFFFFFFFFFFFF002E	-10.7403
48897424A0	-10.7404
DEFDFFFF	-10.7405
837DF000	-10.7411
488B4D38	-10.7412
C645A	-10.7416
83C0014863C8488B0500000000	-10.7419
8985A0FCFFFF	-10.7424
4801D08948	-10.7437
488B742450	-10.7446
0000000000000004801000000000000	-10.7447
4D01F5	-10.745
4A833CC	-10.7454
A2542B00	-10.7458
4501F	-10.7462
66C745E	-10.7463
4969D8	-10.7465
898570FCFFFF	-10.7467
140000000000002A0000000	-10.7467
000000000000000F010000	-10.7472
CFFFF730E8B85	-10.7477
4C8B5424E8	-10.7484
000000005D010000	-10.7492
8000000120001000000000000000000F	-10.7499
4584F6	-10.7507
6AFEFFFF	-10.7513
6172725F343300	-10.7514
488985E8FEFFFF	-10.7519
39CA0F8	-10.7525
807D1800	-10.7526
4D8D24	-10.7526
480FAF08488B0500000000488908	-10.7529
410F94C6	-10.7535
09C86689C1488B0500000000668908	-10.7537
898590FCFFFF	-10.7538
17A6F	-10.754
4889542418	-10.7546
807D2000	-10.7564
800000000000300	-10.7566
6172725F353600	-10.7567
7661725F343500	-10.758
8A4DDE80E1010FB6C9	-10.7581
5DAA0500	-10.7588
8F9FFFFEB0C8B85	-10.7589
48837D2000	-10.759
480F4DC	-10.759
0F928424	-10.7598
807D1000	-10.7613
74657374007661725F313200	-10.7616
4889542458	-10.7618
48897424C8	-10.7625
FEFFFF008A85	-10.7626
8A4DEF80E1010FB6C9	-10.7628
C745B8	-10.7629
490F4CC	-10.7629
488945C8488B45C8	-10.7629
00CC0300	-10.7631
898580FCFFFF	-10.7634
D3FEFFFF	-10.7636
42833C9	-10.7639
8985E4FEFFFF	-10.7641
4C8B6424A8	-10.7641
8985DCFEFFFF	-10.7643
83C0018845	-10.7644
0000000016010000	-10.7646
4D69DE	-10.7647
0F444C24	-10.765
0000000000000000000056010000	-10.765
48898560FEFFFF	-10.7651
C4E2553	-10.7658
39F00F4	-10.7659
4C8B4424F0	-10.7663
4C8B7424A0	-10.7665
885408	-10.7666
FAFFFF8A85	-10.7674
57FEFFFF	-10.7674
8985F4FEFFFF	-10.7681
440FB66424	-10.7681
48897424B0	-10.7685
48897424C0	-10.7701
48897424D8	-10.7702
8A45E624010FB6C0	-10.7703
488945B0	-10.7705
83F0FF83F8000F84	-10.7709
4D01EF	-10.771
FEFFFF39C87D0F0FB685	-10.7715
48BA0	-10.7716
7661725F3339007661725F343000	-10.772
C4427D2	-10.7722
06FEFFFF	-10.7723
488B742458	-10.7724
4B8D94	-10.7725
486B4DB8	-10.773
4C8B9C24100	-10.7745
8985F8FEFFFF	-10.7745
7661725F343600	-10.7749
8945AC8B45AC	-10.7753
21C86689C1488B0500000000668908	-10.7753
0D000000000000	-10.7754
01C883F8	-10.7756
66C745A	-10.7757
00601E00	-10.7758
488B7C2450	-10.7766
4801C848694DC0	-10.7767
48C1E1114801C8	-10.7776
EB070FBF45	-10.7778
00000000000000000000820000001	-10.7783
210000000000002A0000004	-10.7786
4129D	-10.7786
8000000120001000000000000000000E	-10.7788
48C1E1134801C8	-10.7788
0F9FFFFEB0C8B85	-10.779
4C8B9C24080	-10.7791
66894DE	-10.7792
8B8540FFFFFF	-10.7797
31D241F7F0	-10.7798
4C8B7C24C0	-10.7799
0000000004000000010000000	-10.7808
270000000000002A0000002	-10.781
898568FBFFFF	-10.781
92FEFFFF	-10.7815
FDFFFF66C785	-10.7818
8B4568	-10.7818
83F8010F8D	-10.7823
E0340800	-10.7824
89C089C2	-10.7827
2E0000000000002A0000003	-10.783
C2FEFFFF	-10.7832
6172725F353800	-10.7834
000000001D010000	-10.7835
898558FBFFFF	-10.7839
F5FFFFEB0C8B85	-10.7843
488B5C24C8	-10.7845
4D01DD	-10.7852
898584FEFFFF	-10.7859
488B05000000008B00898424	-10.7861
89C089C1488B0500000000	-10.7862
66837D1800	-10.7863
8985D4FEFFFF	-10.7867
0000000064010000	-10.7867
8A855	-10.7872
6172725F31383	-10.7877
FEFDFFFF	-10.788
EB000FBF45	-10.7881
6172725F343600	-10.7881
8945C08B45C0	-10.7886
48898578FFFFFF488B8578FFFFFF	-10.7895
6172725F353700	-10.7897
4D69DC	-10.7898
898500FFFFFF	-10.79
668B0448668945	-10.7914
884DE	-10.7916
9C24D8000000	-10.7928
410F4DC	-10.7929
4D69DF	-10.793
4C8B5424D0	-10.7931
FFCFFFF80E1010FB6C9	-10.7932
4C8B442410	-10.7939
8985BCFEFFFF	-10.7941
7661725F363000	-10.7948
4C8B9C24A80	-10.7948
4F8D54	-10.7958
89459C8B459C	-10.7959
51AA1500	-10.7961
486B4DB0	-10.7961
488B7C2440	-10.7964
0FAF08488B05000000008908	-10.7969
898530FCFFFF	-10.7969
4D0F46	-10.797
C745B0	-10.7974
488B7C2438	-10.7997
21C888C1488B05000000008808	-10.7997
0FAFC183F8	-10.7998
C1F81	-10.7999
4B8D74	-10.8
48897424E0	-10.8003
898568FCFFFF	-10.8004
4C8B7424B0	-10.8008
EFFDFFFF	-10.8009
4869C9C1C500004801C8	-10.8031
668945A	-10.8031
4889542450	-10.8044
898538FBFFFF	-10.8048
4C8B4C24F8	-10.8051
898508FFFFFF	-10.8055
8B45B0	-10.8061
48897424A8	-10.8072
8B4590	-10.8073
8945948B4594	-10.8074
898550FCFFFF	-10.8074
1B750200	-10.8075
6FFEFFFF	-10.8075
89857CFEFFFF	-10.8082
898574FEFFFF	-10.8091
FCFFFF760E8B85	-10.8095
43C644	-10.8098
9AFEFFFF	-10.81
4889542448	-10.81
898560FCFFFF	-10.8106
408A75	-10.8109
7661725F353000	-10.811
48698D38FFFFFF	-10.811
488B4568488B4560488B4558488B4550	-10.8112
C745A8	-10.8116
4C032D00000000	-10.8117
48634DAC	-10.8118
00000000000000AC000000	-10.8125
8985C4FEFFFF	-10.8128
89F08B75	-10.8131
89859CFEFFFF	-10.8136
000000006B010000	-10.8137
00000000B3000000	-10.8139
7661725F3434007661725F343500	-10.8141
807D2800	-10.8143
4584ED	-10.8146
410F43F	-10.8159
480F46C	-10.8161
0000000024010000	-10.8161
FDFFFF83C1024863C9	-10.8164
898550FBFFFF	-10.8169
66C703	-10.8177
4C8B442408	-10.8182
0FB68408	-10.8189
B8AF1103	-10.819
4C8B64242	-10.8192
0B08488B05000000008908	-10.8203
00000000000004000000000000000	-10.8205
4A8D2C	-10.8206
898528FCFFFF	-10.8206
85513E00	-10.8207
F6C201740	-10.821
480FBF4DAE	-10.8211
48898570FFFFFF488B8570FFFFFF	-10.8215
4869C9C05500004801C8	-10.8221
00A74100	-10.8223
898548FCFFFF	-10.8223
4F8D8C	-10.8223
AFFDFFFF	-10.8225
4869C9005100004801C8	-10.8225
66899448	-10.8226
8F5FFFF488985	-10.8234
07FEFFFF	-10.8237
4D01D5	-10.8247
4181E	-10.8249
488B742468	-10.8251
8985B4FEFFFF	-10.8251
FDFFFF0FBE8D	-10.8252
83C002668945	-10.8255
7661725F3536007661725F353700	-10.8255
7661725F3436007661725F343700	-10.8256
89855CFEFFFF	-10.8259
898520FBFFFF	-10.826
488B44C8	-10.8262
C5F970ECEE	-10.8264
4D69D5	-10.8273
4280BC	-10.8276
833C88000F95C034FF24010FB6C0	-10.8277
1F0000000000002A0000004	-10.8278
898540FCFFFF	-10.8282
EB0431D2F7F	-10.8289
400A7424	-10.8294
0F95C034FF24010FB6C04898488985	-10.83
41837D0000	-10.8311
89F88B7D	-10.8314
7661725F353300	-10.8322
48C1E1124801C8	-10.8326
B2FEFFFF	-10.8329
2F0000000000002A0000003	-10.8331
83C0028845	-10.8334
6172725F343400	-10.8337
4C8B6C24A0	-10.8339
7661725F3538007661725F353900	-10.8341
4C8B7C24B8	-10.8344
41C64	-10.8346
40887DF	-10.8353
4889542468	-10.8354
8B45BC	-10.8358
2308488B05000000008908	-10.8358
89D08B55	-10.836
7661725F3532007661725F353300	-10.8361
4C8B4C24F0	-10.8364
FEFFFF39C87E0F0FB685	-10.837
48898568FFFFFF488B8568FFFFFF	-10.837
898518FBFFFF	-10.8376
4869C9109600004801C8	-10.838
C4E2513	-10.8384
4869C9202607004801C8	-10.8388
4C8B8D900000004C8B8D880000004	-10.8391
8A8408	-10.8392
FEFFFF83C1034863C9	-10.8396
22010000	-10.841
4901EA	-10.8411
89458C8B458C	-10.8414
39FE0F4	-10.8416
4889742490	-10.8418
6172725F353000	-10.8423
488B9C24C00	-10.8424
898530FBFFFF	-10.8428
EB0B488B4580488985	-10.8438
000000089	-10.844
0000000020010000	-10.8444
7661725F353900	-10.8444
48833CC8000F95C034FF24010FB6C0	-10.8444
8A4DBB80E1010FB6C9	-10.8444
898548FBFFFF	-10.8451
3AFEFFFF	-10.8457
EB0E488B8578FFFFFF488985	-10.8459
4C8B9C24B00	-10.8462
0000000072010000	-10.8463
0F9DC2	-10.8471
488B7C2458	-10.8482
898534FEFFFF	-10.8485
488B7C2420	-10.8495
0000000000000002801000000000000	-10.8502
898554FEFFFF	-10.8505
89858CFEFFFF	-10.8507
482308488B0500000000488908	-10.8518
40000000000000D000000	-10.8519
000000002B010000	-10.8521
480B08488B0500000000488908	-10.8525
C6459	-10.8526
8A4DDB80E1010FB6C9	-10.853
4C8B442418	-10.8546
8AFEFFFF	-10.8552
C4C34	-10.8554
0D010000	-10.8561
48897424F0	-10.8565
9E2C1700	-10.8569
89853CFEFFFF	-10.857
490F43C	-10.8573
488B742460	-10.8575
898544FEFFFF	-10.8578
8985A4FEFFFF	-10.8578
4A8D7C	-10.858
8945B88B45B8	-10.858
4869C9841411004801C8	-10.8583
8B4DA8	-10.8585
48897424E8	-10.8589
AEFDFFFF	-10.8597
898520FCFFFF	-10.8599
4C8B4C24E8	-10.8602
0000000032010000	-10.8609
898510FBFFFF	-10.8613
410F94C7	-10.8616
4839F2480F4	-10.8617
8B8554FFFFFF	-10.8622
EB0B488B4598488985	-10.8624
488B9C24B00	-10.8625
66413	-10.8628
8945E08B45E0	-10.8632
39FA0F4	-10.8643
898564FEFFFF	-10.8652
8985E8FAFFFF	-10.8653
7661725F3431007661725F343200	-10.8653
488B9C24B80	-10.8654
8A854	-10.8654
480F42D	-10.8669
C745E0	-10.8677
00000000B0010000	-10.8681
0000000079010000	-10.8683
410F43D	-10.8692
4C8B5424F0	-10.8694
83F8180F8D	-10.8696
01000FB785	-10.8697
66837D2800	-10.8698
898508FBFFFF	-10.8702
EB0B488B4588488985	-10.8703
0000000039010000	-10.8706
00000000BA00000010	-10.8707
6172725F343200	-10.8711
7661725F353600	-10.8715
48897424F8	-10.8715
FEFFFF24010FB6C083F8010F8D	-10.872
E6FDFFFF	-10.8722
4D29E	-10.8732
39C87D0C0FB645	-10.8733
6641C744	-10.8734
6689459	-10.874
0F5FFFF488985	-10.874
83C003668945	-10.8741
93FEFFFF	-10.8741
48897424D0	-10.8743
EB0B488B45A8488985	-10.8745
EB070FB645	-10.8745
4C8B6C24D0	-10.875
0FB70C48	-10.876
C0469D00	-10.8765
E3FEFFFF	-10.8766
C5FE6F	-10.8781
C4E269F7	-10.8782
8985C8FAFFFF	-10.8786
EB0B488B45B0488985	-10.8786
8B4D38	-10.8786
898510FCFFFF	-10.8787
4C8B7C24B0	-10.8803
488B9C24A80	-10.881
898518FCFFFF	-10.8818
67FEFFFF	-10.882
740A31C08985	-10.8823
0F6FFFF8B85	-10.8826
8A45E524010FB6C0	-10.8827
898528FBFFFF	-10.883
8A45F324010FB6C0	-10.8832
4801D0488948	-10.8837
4C8B4C2410	-10.8845
8B8578FFFFFF	-10.8846
89851CFEFFFF	-10.8848
488B5C24C0	-10.8854
4D01CD	-10.8854
488B742478	-10.8859
8985F8FAFFFF	-10.8861
4C8B442428	-10.8862
0000000000000002001000000000000	-10.8863
410F95C5	-10.8863
39C87E0C0FB645	-10.8864
488B4DD84883E901	-10.8865
7661725F353100	-10.887
C4E271F7C	-10.8878
89854CFEFFFF	-10.888
42803C2	-10.8889
741048C7C0	-10.8892
8985E0FAFFFF	-10.8897
4C8B7424B8	-10.8906
39CE0F4	-10.8911
88458	-10.8915
B000000FCFFFFFFFFFFFFFF002E	-10.8929
898510FFFFFF	-10.8931
8985A0FBFFFF	-10.8932
0000000000000006000000000000000	-10.8933
8945848B4584	-10.8945
7661725F3438007661725F343900	-10.8957
0000000000000000000000003B000000	-10.8958
89852CFEFFFF	-10.8969
8985E8FBFFFF	-10.8971
4C8B9C24380	-10.8976
4C8B442438	-10.8977
89850CFEFFFF	-10.8981
898538FCFFFF	-10.8986
8985FCFDFFFF	-10.8989
83C004668945	-10.9001
7661725F353800	-10.9003
EB0B488B4590488985	-10.9004
8985E0FBFFFF	-10.9007
C74598	-10.9015
396C24	-10.9019
ABAAAAAAAAAAAAAA	-10.9024
4C8B5C24E0	-10.9027
74657374007661725F313400	-10.903
83EA014863D2486BD2	-10.9033
0EFEFFFF	-10.9035
4C8B9C24680	-10.9043
00A9E600	-10.9051
EB0B488B45B8488985	-10.9052
2E726F646174612E6373743800	-10.9057
8A4DF380E1010FB6C9	-10.906
83C001668945	-10.906
8A45CF24010FB6C0	-10.9067
C745A0	-10.907
490F42D	-10.9071
89C2488B050000000048698D	-10.9072
66837DFC00	-10.9073
8A45DE24010FB6C0	-10.9075
83C0048845	-10.908
8B85F4	-10.9085
8F6FFFF8B85	-10.9098
8DA00000004C8B8	-10.9104
C6FDFFFF	-10.9105
2E726F646174612E6373743400	-10.9105
4D8D2C	-10.9106
0000000000000006801000000000000	-10.9108
150000000000002A0000000	-10.9119
807D3000	-10.9122
4C8B5424D8	-10.9129
8B8530FFFFFF	-10.9131
31C883F8	-10.9133
83C2014863D2486BD2	-10.9136
48898540FFFFFF488B8540FFFFFF	-10.9141
400FB6F	-10.9144
A80174	-10.9149
8985F4FDFFFF	-10.9149
4C8B9C24C80	-10.9155
89857CFFFFFF8B857CFFFFFF	-10.9156
0FDFFFF4883BD	-10.9158
4C8B5C24F0	-10.9159
8945B08B45B0	-10.9166
66C7459	-10.9178
C3FEFFFF	-10.9182
837D5800	-10.9187
4F960B00	-10.919
486B4DA8	-10.9192
26010000	-10.9193
74657374007661725F313100	-10.9198
D6FDFFFF	-10.9198
B6FDFFFF	-10.9199
8985D8FAFFFF	-10.9202
74657374007661725F313500	-10.9204
EB00EB00	-10.9204
488B7C2478	-10.922
CEFDFFFF	-10.923
8985F0FBFFFF	-10.923
4C8B442440	-10.9231
0000000047010000	-10.9231
A6FDFFFF	-10.9232
8A4DDD80E1010FB6C9	-10.9232
898500FBFFFF	-10.924
4C8B6424B0	-10.9243
EB0B488B45A0488985	-10.9245
898504FEFFFF	-10.9252
48898558FFFFFF488B8558FFFFFF	-10.9252
400F9DC	-10.9253
66833C48000F95C034FF24010FB6C0	-10.927
4C8B7424C0	-10.9271
488B7C2460	-10.9273
4869C922DF00004801C8	-10.9281
6172725F363700	-10.9281
41803C2400	-10.9287
FDFFFF488B04C8488985	-10.9291
48898550FFFFFF488B8550FFFFFF	-10.9298
EB0E488B8570FFFFFF488985	-10.9299
8945A08B45A0	-10.93
014883D	-10.9301
7661725F3433007661725F343400	-10.9307
8010000488B8570010000	-10.9311
8985B8FAFFFF	-10.9311
4889C848C1E00	-10.9312
0000000000000007000000000000000	-10.9317
FEFFFF39C87D0F0FBE85	-10.9317
FEFFFFEB00488B45	-10.9325
4869C900E204004801C8	-10.9327
29081B	-10.9331
1F0000000000002A0000001	-10.9334
C4C179D6	-10.9343
83C0038845	-10.9343
39F90F4	-10.9345
4C8B9C24280	-10.9347
4869C900200A004801C8	-10.9347
4839F0480F4	-10.9348
8A45EE24010FB6C0	-10.9349
400A7C24	-10.9358
48BA8	-10.9358
74657374007661725F313300	-10.9361
440F42F	-10.9366
1FFEFFFF	-10.9366
490F42F	-10.9368
4A833CD	-10.937
4869C944F407004801C8	-10.9374
898524FEFFFF	-10.9374
000000000000005000000010000000	-10.9386
80E201488B0500000000881408	-10.9387
8B4DA0	-10.9391
2E726F64617461	-10.9392
F6FDFFFF	-10.9394
837DE800	-10.9397
BA540B00	-10.9397
EB0B488B45C0488985	-10.94
0000000000000006800000000000000	-10.9406
000000004E010000	-10.9409
8DA80000004C8B	-10.9414
0FBE4424	-10.9415
EB0D0FBF45	-10.9418
89856CFEFFFF	-10.9428
4969DF	-10.9431
898514FEFFFF	-10.9432
488B05000000008A0024018845	-10.9434
89856CFFFFFF8B856CFFFFFF	-10.944
0F9CC2	-10.9442
8985D0FAFFFF	-10.9444
2FFEFFFF	-10.9445
10000488B8580010000488B8	-10.9449
488B5C24E0	-10.945
4488C84C8B	-10.9452
8985E4FDFFFF	-10.9456
4801D1486B95	-10.9465
6642833C7	-10.9478
74657374007661725F313600	-10.948
8945A88B45A8	-10.949
C4E2493	-10.9491
8985C0FAFFFF	-10.9497
8A4DE680E1010FB6C9	-10.9498
74657374007661725F313700	-10.9511
000000400000000000400009000800	-10.9516
8985B8FBFFFF	-10.9517
90010000488B85880	-10.9525
80841E	-10.9531
740D488B45F0488985	-10.9533
898588FAFFFF	-10.9544
EB0531D241F7F	-10.9552
8985A0FAFFFF	-10.9553
898594FDFFFF	-10.9554
7661725F3530007661725F353100	-10.9554
000000060000000	-10.9557
48897C2498	-10.9559
F2052A01	-10.9571
ABFEFFFF	-10.9572
4C8B5424F8	-10.9586
CFFDFFFF	-10.9592
00000000000000C2000000	-10.9605
8B45AC	-10.9609
898574FFFFFF8B8574FFFFFF	-10.961
0000000055010000	-10.9612
EB000FBE85	-10.9613
4869C980981C004801C8	-10.9615
4969DD	-10.9616
EB0E488B8560FFFFFF488985	-10.9618
0000000000000087010000	-10.962
F3FEFFFF	-10.9627
50000000000000D000000	-10.963
42833CA	-10.9639
7661725F3630007661725F363100	-10.9641
488B9C24C80	-10.9641
8FDFFFF4883BD	-10.9643
0000000000000007001000000000000	-10.9644
EB0E488B8568FFFFFF488985	-10.9645
4801C10FB685	-10.9649
8B45A0	-10.9655
83F8000F95C024018885	-10.9659
EB070FBE45	-10.966
41FEC	-10.966
521036	-10.9661
898588FBFFFF	-10.9666
4969DE	-10.9666
8B8548FFFFFF	-10.9672
8985CCFDFFFF	-10.9676
FEFFFF000FB685	-10.9677
83E60	-10.9678
8A852	-10.9679
4C8B9C24580	-10.9681
8985D8FBFFFF	-10.9692
898590FAFFFF	-10.9692
80E101884DF	-10.9693
FDFFFF48C785	-10.9693
0FB78448	-10.9703
4C8B7424D0	-10.9713
6172725F353400	-10.9716
89855CFFFFFF8B855CFFFFFF	-10.9718
8B853CFFFFFF	-10.972
6172725F363800	-10.9722
7661725F383300	-10.9723
FDFFFF39C87D0F0FB785	-10.9728
0000000000000000000040010000	-10.973
837DE400	-10.9731
808D3A01	-10.9737
EB0E488B8550FFFFFF488985	-10.9739
67FDFFFF	-10.974
0F8FFFFEB0C8B85	-10.9747
8945908B4590	-10.9756
66C7458	-10.9762
C1F91	-10.9763
C74590	-10.9764
4869C900C409004801C8	-10.977
8DB00000004C8B	-10.9775
48897C24A8	-10.9777
4869C9082922004801C8	-10.9777
74657374007661725F313800	-10.9778
39C60F4	-10.9779
807DF700	-10.9782
FDFFFF8B0488	-10.979
490F43F	-10.9795
340000001000000000000000	-10.9797
4B8D7C	-10.9798
400AC206	-10.9805
8B8534FFFFFF	-10.9806
08FFFFFF488B8508FFFFFF	-10.9808
4839C6480F4	-10.9813
FEFFFF39C87E0F0FBE85	-10.9814
8A4DD380E1010FB6C9	-10.9816
4C8B6C24A8	-10.9817
8985D4FDFFFF	-10.982
000000008E010000	-10.983
48898548FFFFFF488B8548FFFFFF	-10.9837
6172725F353100	-10.9845
803C08000F95C034FF24010FB6C0	-10.9854
6172725F3139	-10.9859
8985ECFDFFFF	-10.9862
7661725F3632007661725F363300	-10.9866
488945D8488B45	-10.9867
8985A8FAFFFF	-10.9867
FCFFFF24010FB6C08985	-10.9868
668945B	-10.9873
EB0D0FB645	-10.9882
4801C10FB785	-10.989
8985DCFDFFFF	-10.9892
898564FFFFFF8B8564FFFFFF	-10.9896
898578FAFFFF	-10.9896
4829D14839C80F8D	-10.9898
000000000000000000009E000000	-10.9901
74657374007661725F313000	-10.9906
39F70F4	-10.991
0000000095010000	-10.991
6642833C4	-10.9918
8A857	-10.9925
D8FEFFFF488B85D8FEFFFF	-10.9926
6642833C5	-10.9928
668B1448	-10.9928
4F8D94	-10.9934
4C8B4C2408	-10.9936
8000000488BBD	-10.9941
48014424	-10.9949
C4E1F96EF	-10.9952
4C8B4C2418	-10.9954
8A8D6FFFFFFF80E1010FB6C9	-10.9956
4C8B9C24C00	-10.9962
4C8B9C24880	-10.9975
4969DC	-10.9979
C4E3FD00	-10.9982
898540FBFFFF	-10.9996
C4C13D73F020C5BDD4	-10.9997
898598FAFFFF	-11.0002
39C87D0C0FBE45	-11.0004
EB0D0FB745	-11.0014
8985B0FBFFFF	-11.0029
48BAF	-11.0029
8DB80000004C8B	-11.0031
0000000100000002000000	-11.0031
6641C707	-11.0034
7661725F3634007661725F363500	-11.0034
FBFFFF7E0E8B85	-11.0037
000000400000000000400008000700	-11.0041
C423791	-11.0046
0000000063010000	-11.0048
8B8544FFFFFF	-11.0054
8945988B4598	-11.0055
8985A8FBFFFF	-11.006
898570FAFFFF	-11.0072
C4C37D39	-11.0072
EB0E488B8548FFFFFF488985	-11.0086
0FBF8448	-11.0098
FFFFFF24010FB6C08A8D	-11.0101
7661725F353400	-11.0102
4C8B64244	-11.0106
4F8DB	-11.0109
EB0D0FBE45	-11.0115
6172725F343900	-11.0116
4C8B6C242	-11.0117
4380BC	-11.012
C4417A7E	-11.0121
8B4DF4	-11.0122
48897C24A0	-11.0129
4C8B9C24900	-11.0132
4A010000	-11.0137
8985BCFDFFFF	-11.0139
8985C4FDFFFF	-11.0148
8A856	-11.015
4C8B9C24780	-11.0154
F0FEFFFF488B85F0FEFFFF	-11.0154
39F80F4	-11.0158
898554FFFFFF8B8554FFFFFF	-11.0176
EB0E488B8558FFFFFF488985	-11.0177
C8FEFFFF488B85C8FEFFFF	-11.018
4080E601400FB6F6	-11.0187
E8FEFFFF488B85E8FEFFFF	-11.0188
DBFEFFFF	-11.0189
6172725F373800	-11.0193
8A45ED24010FB6C0	-11.0198
898590FBFFFF	-11.0201
EB0B488B45F0488985	-11.0214
898568FAFFFF	-11.0217
39CF0F4	-11.0227
BBFEFFFF	-11.0242
001B7502	-11.0247
4869C9C4DE0B004801C8	-11.0251
8B8524FFFFFF	-11.0259
7661725F3435007661725F343600	-11.0262
31D241F7F1	-11.027
8A040824010FB6C8	-11.0276
EB0B486345	-11.0284
62FEFFFF	-11.0292
C74580	-11.0296
4869C922FA03004801C8	-11.0299
554157415641554154534883EC	-11.03
EB0E488B8540FFFFFF488985	-11.0301
4A833CE	-11.0307
4869C9404C0E004801C8	-11.0312
486B4DA0	-11.0312
4869C9204E00004801C8	-11.0316
4883EA02	-11.0316
837DF80074	-11.0317
4869C9428A08004801C8	-11.0329
EB0E488B8538FFFFFF488985	-11.033
6689458	-11.0339
400F9CC7	-11.0348
8A853	-11.0353
4869C9C4E400004801C8	-11.0355
8B852CFFFFFF	-11.0364
000000400000000000400007000600	-11.0365
0FBF4424	-11.0367
4801D1486B55	-11.0372
8945888B4588	-11.0377
4C8B6424B8	-11.0379
39C70F4	-11.0384
898570FBFFFF	-11.0389
000000006A010000	-11.0395
8B8538FFFFFF	-11.0397
4839F1480F4	-11.0398
488B4DD04883E901	-11.0403
4F7FFFFEB0C8B85	-11.0414
408875F	-11.042
8F8FFFFEB0C8B85	-11.0427
898584FDFFFF	-11.0428
89859CFDFFFF	-11.043
74657374007661725F313900	-11.0434
CF7FFFFEB0C8B85	-11.0436
8B4DB8	-11.0439
0000000071010000	-11.0441
EB0B488B45C8488985	-11.0441
8A4DB380E1010FB6C9	-11.0446
8A04088845	-11.0448
0000000000000003001000000000000	-11.0449
00000000000000CF000000	-11.0449
8945E48B45E4	-11.0458
8B4DFC	-11.0464
8B45C4	-11.0472
4C8B6C24B0	-11.0482
0000000000000009001000000000000	-11.0488
39C87E0C0FBE45	-11.0491
86FDFFFF	-11.0491
8985A4FDFFFF	-11.0495
C5C1D4F6C5C973F620C5D9D4E6C	-11.0503
42833CB	-11.0507
4839D6480F4	-11.0508
24010FB6C0668985	-11.0512
410F45F	-11.0517
4C8B5C24D8	-11.0519
9EFDFFFF	-11.0521
400F9EC	-11.0521
C4427D59	-11.0522
450F4E	-11.0522
898574FDFFFF	-11.0533
89851CFDFFFF	-11.0534
8FFDFFFF	-11.0539
00000000000000DD000000	-11.0542
74657374007661725F323000	-11.055
86904B00	-11.0553
A8FEFFFF488B85A8FEFFFF	-11.0556
31C0482B85	-11.0558
000000000000001D000000	-11.056
488B050000000089088B45	-11.056
C4C1F97EC	-11.0566
89854CFFFFFF8B854CFFFFFF	-11.0572
0FBE1408	-11.0575
A7FDFFFF	-11.0577
C6458	-11.0583
598010000488B85	-11.0598
898558FAFFFF	-11.0598
D088B45	-11.0606
39C80F4CC8	-11.0608
8010000488B85A0010000488B8	-11.0615
898544FDFFFF	-11.0623
898580FBFFFF	-11.0624
4801D10FBF95	-11.0625
5000000000000000D000000	-11.0626
9BFEFFFF	-11.0627
00000000A3010000	-11.0628
89856CFDFFFF	-11.0629
D0FEFFFF488B85D0FEFFFF	-11.0639
7661725F313200	-11.064
C5F970DA55	-11.0645
4869C9887C03004801C8	-11.0656
8A4DE580E1010FB6C9	-11.0667
488BBC2490000000	-11.0682
B00183F9008885	-11.0682
6172725F363000	-11.0682
E0FEFFFF488B85E0FEFFFF	-11.0682
80FA000F45C1	-11.0689
83EA034863D2	-11.0699
8985ACFDFFFF	-11.07
4869C988C901004801C8	-11.07
C483791	-11.0722
00000000000000F9000000	-11.0733
C000000FCFFFFFFFFFFFFFF002E	-11.0736
7661725F383200	-11.0741
C5FD6FD	-11.0749
8B8570FFFFFF	-11.075
8985D8FEFFFF	-11.0751
898598FBFFFF	-11.0757
B8FEFFFF488B85B8FEFFFF	-11.076
42833C8	-11.0764
898570FFFFFF8B8570FFFFFF	-11.0764
89858CFDFFFF	-11.0771
6172725F343500	-11.0771
0000000000000005E0000001	-11.0775
FDFFFF39C87E0F0FB785	-11.0778
EB0A8B45	-11.0781
48014C24	-11.0786
400F9FC	-11.079
4869C9406806004801C8	-11.0794
8A851	-11.0794
7661725F3135	-11.0797
4869C9F73562004801C8	-11.0799
4F8D5C	-11.0799
4C8B6424C8	-11.0803
807D3800	-11.0804
898514FDFFFF	-11.0805
6EFDFFFF	-11.0806
7661725F3636007661725F363700	-11.0806
898538FAFFFF	-11.0821
0000000000000000000078010000	-11.0824
C0FEFFFF488B85C0FEFFFF	-11.0824
4869C962EF05004801C8	-11.0831
400FBED	-11.0834
4A833CF	-11.0838
EB0AB8	-11.0842
898564FDFFFF	-11.0848
FEFFFFEB008B45	-11.0851
4C8B6424C0	-11.0871
39C70F8	-11.0874
486B4DE8	-11.0875
4869C9004014004801C8	-11.0877
FBFFFF7D0E8B85	-11.0885
DC80000004C8B8	-11.0886
0000000015010000	-11.0891
410F4DF	-11.0894
A3FEFFFF	-11.0913
8985B4FDFFFF	-11.0914
7000000000000000D000000	-11.0916
410F45D	-11.0918
410F94C4	-11.0922
7661725F353500	-11.0923
8985E8FEFFFF	-11.0925
FFFFFF000FB685	-11.0927
6172725F363400	-11.093
0000000000000007800000000000000	-11.0931
00000000000000000000000007010000	-11.0936
B0010000488B85A	-11.0937
8010000000000006	-11.0939
8A8DC7FEFFFF80E1010FB6C9	-11.0948
000000000000000E010000	-11.0954
8985D0F9FFFF	-11.0958
740D486345	-11.0964
4C8B6C246	-11.0967
89855CFDFFFF	-11.0973
C8B8D800000004C8B4D784C8B4D704	-11.0977
4C8B64246	-11.0978
4869C9203403004801C8	-11.098
FDFFFF39C87D0F0FBF85	-11.0981
8A45DB24010FB6C0	-11.0985
8945808B4580	-11.0988
89853CFFFFFF8B853CFFFFFF	-11.0989
83C0048945	-11.1004
8945DC8B45DC	-11.1004
8B8504FFFFFF	-11.1005
4869C9627200004801C8	-11.1006
F3FFFF8B85	-11.1009
6689C20FB785	-11.101
898560FBFFFF	-11.1018
31C083F9008885	-11.1023
8985F8F9FFFF	-11.1036
4869C9008813004801C8	-11.1043
C4E1F96EE	-11.1045
F6C2010F8	-11.1053
0FB7C083E8	-11.1067
898550FAFFFF	-11.107
FFFFFF000FBE85	-11.1074
80FEFFFF488B8580FEFFFF	-11.1076
4C89C048C1E00	-11.1079
89857CFDFFFF	-11.108
4869C9C2EB0B004801C8	-11.1084
000000007F010000	-11.1095
00000000000016000000	-11.1101
83C20189D2	-11.1101
7661725F383700	-11.1108
7661725F353700	-11.1112
4801D10FBE95	-11.1113
83EA0189D2	-11.1118
A0FEFFFF488B85A0FEFFFF	-11.112
668975F	-11.1125
B0FEFFFF488B85B0FEFFFF	-11.1129
C4E26BF7	-11.1133
7661725F353200	-11.1136
4869C944BE01004801C8	-11.1136
898534FFFFFF8B8534FFFFFF	-11.1137
898534FDFFFF	-11.1139
83C0038945	-11.1146
488945D0488B45D0	-11.1163
E088B45	-11.1169
89854CFDFFFF	-11.1181
98FEFFFF488B8598FEFFFF	-11.1184
8DD00000004C8B8	-11.1188
8B4D40	-11.119
8B8560FFFFFF	-11.1212
B000000000000000D	-11.1221
0000000000000073000000	-11.1227
00000000AA010000	-11.1228
66837DF600	-11.1239
66837DEE00	-11.124
4C8B9C24E80	-11.124
4869C9828B01004801C8	-11.1241
898524FFFFFF8B8524FFFFFF	-11.1241
898524FDFFFF	-11.1247
0090D003	-11.1248
8F4FFFF488B85	-11.1252
00000000B1010000	-11.1253
4839CE480F4	-11.1254
005801000000000000	-11.1257
0FBF4448	-11.1262
450F46	-11.1265
514A8D0E	-11.1268
EB0E488B8528FFFFFF488985	-11.1271
4839C7480F4	-11.1278
8A45EA24010FB6C0	-11.1279
4869C9008028004801C8	-11.1286
78FEFFFF488B8578FEFFFF	-11.1287
898578FFFFFF8B8578FFFFFF	-11.13
898568FFFFFF8B8568FFFFFF	-11.1301
6172725F363600	-11.1322
89851CFFFFFF8B851CFFFFFF	-11.133
898554FDFFFF	-11.1334
EB0E488B8530FFFFFF488985	-11.1335
FEFFFF000FBE85	-11.1336
8985FCFEFFFF8B85FCFEFFFF	-11.1339
FFFFEB0E488B8518FFFFFF488985	-11.134
4BC704	-11.1343
83F9000F95C180E1010FB6C939C80F8D	-11.1348
8000000000000000D000000	-11.1348
6172725F363100	-11.1355
4869C9041703004801C8	-11.1355
0FB60C0831C029C8	-11.1356
8985ECFCFFFF	-11.136
C4C3592	-11.1365
89853CFDFFFF	-11.1366
4C8B64245	-11.1366
000000008D010000	-11.1373
4C8B6424D8	-11.1376
8985CCFCFFFF	-11.1379
6172725F3200	-11.138
4869C988BD17004801C8	-11.1396
EB0B488B45E8488985	-11.1419
0000000086010000	-11.1424
39D70F4	-11.1431
8DD80000004C8B	-11.144
898544FFFFFF8B8544FFFFFF	-11.1441
4C8B9C24D80	-11.1446
7661725F3437007661725F343800	-11.1449
408A7D	-11.145
00000000000000EB000000	-11.1455
807DEF00	-11.1461
4869C9828C02004801C8	-11.1462
4F8D6C	-11.1465
6172725F373700	-11.147
83C2034863D2	-11.1471
89852CFDFFFF	-11.1479
7661725F383800	-11.1483
6642833C6	-11.1493
486B4D90	-11.1504
8A4D9780E1010FB6C9	-11.1516
6172725F363500	-11.1522
8985DCFCFFFF	-11.1524
0FBF4C24	-11.1535
34929	-11.1542
89C180E201488B0500000000881408	-11.1548
4801D1488B5424	-11.1551
88FEFFFF488B8588FEFFFF	-11.1556
CF5FFFF8B85	-11.1561
4D18448B4D10	-11.1563
48898578FFFFFF488B458048	-11.1563
0FBE0C0831C029C8	-11.1576
4869C9803801004801C8	-11.1577
8985F4FEFFFF8B85F4FEFFFF	-11.1578
7661725F363900	-11.158
4863C9489948F7F9	-11.1585
7661725F3439007661725F353000	-11.1591
4869C908AF2F004801C8	-11.1595
7661725F383900	-11.1608
8F5FFFFEB0E488B85	-11.1615
486B4D98	-11.1616
83C0018945	-11.1619
39C80F42C8	-11.1623
0000000000000003801000000000000	-11.1626
4000000000000000D000000	-11.1628
89850CFFFFFF8B850CFFFFFF	-11.1629
39C80F4FC8	-11.164
89852CFFFFFF8B852CFFFFFF	-11.1642
898560FFFFFF8B8560FFFFFF	-11.1643
4869C9409C00004801C8	-11.1646
0000000000000009801000000000000	-11.1653
0000000023010000	-11.1657
8B8568FFFFFF	-11.1659
4F5FFFF8B85	-11.1662
0000A72166C786	-11.168
8DE00000004C8B	-11.1683
0F4FFFF488B85	-11.1687
8985D8F9FFFF	-11.1689
8A4DEB80E1010FB6C9	-11.1689
837D6000	-11.1691
488B9C24D80	-11.1692
4080E70140887DF	-11.1694
8A4DD580E1010FB6C9	-11.1695
EB0E488B8520FFFFFF488985	-11.1697
83F8190F8D	-11.1698
000000002A010000	-11.1699
8A45DD24010FB6C0	-11.1702
C8B4D684C8B4D604C8B4D584C8B4D504	-11.1705
EB0B488B45D0488985	-11.1708
8A45FB24010FB6C0	-11.1715
09C883F8	-11.1718
4869C908320A004801C8	-11.1723
6689C1488B05000000006689088B45	-11.1737
83C0028945	-11.1741
0000000006000000010000000	-11.1743
4C8B6424D0	-11.1746
4869C95DAA05004801C8	-11.1765
8B45E03B45DC7	-11.1772
898560F9FFFF	-11.1776
0F5FFFFEB0E488B85	-11.1778
0000000000000008001000000000000	-11.1787
7661725F373000	-11.179
D000000FCFFFFFFFFFFFFFF002E	-11.179
488B4DC84883E901	-11.1793
90FEFFFF488B8590FEFFFF	-11.1793
C5DDEFE	-11.18
7661725F3638007661725F363900	-11.1807
4869C9405802004801C8	-11.1809
4D0F4E	-11.1814
31D9D208	-11.1816
898560FEFFFF	-11.182
4869C980D00C004801C8	-11.1824
4D1081E9	-11.1834
486B4D80	-11.1834
0FDFFFF7D0E8B85	-11.1835
7661725F393000	-11.1841
6172725F353900	-11.1845
00000000000000001000000000000000	-11.1845
31D241F7F2	-11.1854
89850CFDFFFF	-11.1857
48FEFFFF488B8548FEFFFF	-11.1867
480FBF0448488985	-11.1869
8985D4FCFFFF	-11.1869
89C948D3E0	-11.1884
7661725F363800	-11.1897
664489C84C8B	-11.19
898514FFFFFF8B8514FFFFFF	-11.1903
488B9C24880	-11.1903
FDFFFF39C87E0F0FBF85	-11.1908
488945B8488B45	-11.1911
8985F4FCFFFF	-11.1917
0FB70C4831C029C8	-11.192
488B4DD84883C10	-11.1923
0000000031010000	-11.1927
8D4CAD00	-11.1931
8DE80000004C8B	-11.1942
8985E4FEFFFF8B85E4FEFFFF	-11.1945
88C2488B050000000048694D	-11.1946
000000000000000A801000000000000	-11.1953
66837DFA00	-11.1955
4869C984D717004801C8	-11.1963
898500FAFFFF	-11.1973
0000000000000000000083000000	-11.1982
ABAAAAAA	-11.1983
4801D088480	-11.1984
000000000000004F000000	-11.1992
88C1488B050000000088088B45	-11.1999
FBFFFF24010FB6C08985	-11.2002
8B4D48	-11.2004
898558FFFFFF8B8558FFFFFF	-11.2007
2E726F646174612E637374333200	-11.2008
00000000BF010000	-11.201
70FEFFFF488B8570FEFFFF	-11.202
FFFFEB0E488B8508FFFFFF488985	-11.2023
4869C900A200004801C8	-11.2028
21C883F8	-11.2039
898578F9FFFF	-11.2042
8985E4FCFFFF	-11.2069
8A040824010FB6C831C029C8	-11.207
000000000000000A001000000000000	-11.2072
4839FA480F4	-11.2082
4869C9041905004801C8	-11.2084
8985ECFEFFFF8B85ECFEFFFF	-11.2092
8A4D8F80E1010FB6C9	-11.2104
8985B4FCFFFF	-11.2111
898504FFFFFF8B8504FFFFFF	-11.2113
60FEFFFF488B8560FEFFFF	-11.2116
58FEFFFF488B8558FEFFFF	-11.212
38FEFFFF488B8538FEFFFF	-11.2129
898594FEFFFF8B8594FEFFFF	-11.2135
4801C18A85	-11.2138
7661725F383600	-11.2148
898588F9FFFF	-11.2153
83FA00480F45C1488985	-11.2158
4C09D	-11.2159
50FEFFFF488B8550FEFFFF	-11.2165
4869C988E80F004801C8	-11.2168
000000009B010000	-11.217
C5F172D010	-11.2189
E000000FCFFFFFFFFFFFFFF002E	-11.2195
0000000000000005800000000000000	-11.2197
4C8B6424E0	-11.2197
898568FEFFFF	-11.22
036C24	-11.2209
8FDFFFF7D0E8B85	-11.2213
40FC0602	-11.2216
31D241F7F3	-11.2217
EB0E488B8510FFFFFF488985	-11.2218
898548FFFFFF8B8548FFFFFF	-11.2232
9000000000000000D000000	-11.2233
8DF00000004C8B	-11.2233
4839F8480F4	-11.2235
8985B0F9FFFF	-11.2239
89C88B4D	-11.2239
488975F08955EC	-11.2239
48837DD800	-11.2242
F000000000000000D	-11.2244
8985DCFEFFFF8B85DCFEFFFF	-11.2249
8985F0FAFFFF	-11.2249
898550FFFFFF8B8550FFFFFF	-11.2257
7661725F363200	-11.2259
7661725F363600	-11.2259
7661725F363100	-11.2261
440F42E	-11.2263
8985A0F9FFFF	-11.2268
0000000000000000000044000000	-11.227
410F94C5	-11.2272
807C248700	-11.2273
8A45FD24010FB6C0	-11.2276
EB0E488B8500FFFFFF488985	-11.228
0FBE8408	-11.2281
8985FCFCFFFF	-11.2289
C463791	-11.2292
488B458048	-11.2302
28FEFFFF488B8528FEFFFF	-11.2318
0F9FFFF483B85	-11.2324
7661725F393100	-11.2336
E8FDFFFF488B85E8FDFFFF	-11.234
C443791	-11.2342
4839FE480F4	-11.2344
480FBE0408488985	-11.2344
EB0E488B85F8FEFFFF488985	-11.2349
8000000488BB5	-11.2351
C4437D39D	-11.2351
8955F4	-11.2359
7661725F363400	-11.236
31C989CA48F775	-11.2375
4869C9004401004801C8	-11.2376
898504FDFFFF	-11.2377
4869C9202C01004801C8	-11.238
EB0E488B85E0FEFFFF488985	-11.2382
C745DC	-11.2394
8A8D67FFFFFF80E1010FB6C9	-11.2397
4863C9480FAFC1	-11.2405
00000000000000000000420000001	-11.2407
F0000000000000003	-11.2411
898568F9FFFF	-11.2421
00000000000000000000650000001	-11.2421
E000000000000000D	-11.2423
4869C960A34E004801C8	-11.2429
6172725F353200	-11.244
48898570FFFFFF488B8578FFFFFF48	-11.2446
2000000000000000D000000	-11.2456
8A45D624010FB6C0	-11.2463
D8FDFFFF488B85D8FDFFFF	-11.2464
4C8B64247	-11.2464
6172725F353300	-11.2464
8985ACFCFFFF	-11.2464
4839F9480F4	-11.2475
08FEFFFF488B8508FEFFFF	-11.2475
000000000000C6010000	-11.2499
FCFFFF01C8668985	-11.25
4869C9008079004801C8	-11.253
48C1E1144801C8	-11.2543
4C09C	-11.2553
18FEFFFF488B8518FEFFFF	-11.256
0000000000000006C000000	-11.2561
00000000000000000000B8010000	-11.2561
4FEFFFF0FB785	-11.2567
48898560FFFFFF488B8568FFFFFF48	-11.2569
43803C2	-11.2571
00000000A9010000	-11.2571
8985BCFCFFFF	-11.2576
7661725F3730007661725F373100	-11.2581
20FEFFFF488B8520FEFFFF	-11.2586
000000003F010000	-11.2589
D000000000000000D	-11.2599
DF80000004C8B	-11.2601
8985C4FEFFFF8B85C4FEFFFF	-11.2602
8985B4FEFFFF8B85B4FEFFFF	-11.2607
0010000488BB5	-11.2607
8B856CFFFFFF	-11.2608
10FEFFFF488B8510FEFFFF	-11.2615
30FEFFFF488B8530FEFFFF	-11.2625
F0FDFFFF488B85F0FDFFFF	-11.2641
D0FDFFFF488B85D0FDFFFF	-11.266
FEFFFF80E2010FB6D2	-11.2661
00000000A2010000	-11.2661
8985C4FCFFFF	-11.2661
000000000000004E000000	-11.2663
8985A8F9FFFF	-11.2681
0000000000002A000000A	-11.2691
8985ACFEFFFF8B85ACFEFFFF	-11.2694
490F43D	-11.2697
39C80F47C8	-11.2703
0F4FFFF488985	-11.2708
A000000000000000D	-11.2708
C4E36D4B	-11.2717
C000000000000000D000000	-11.2718
40FEFFFF488B8540FEFFFF	-11.2719
39D60F8	-11.2722
FEFFFF00000FB785	-11.2724
89859CFEFFFF8B859CFEFFFF	-11.273
4839F7480F4	-11.2736
898540FFFFFF8B8540FFFFFF	-11.2737
898564FCFFFF	-11.2738
0000000007000000010000000	-11.2745
6172725F383700	-11.2756
898570F9FFFF	-11.277
88C20FB685	-11.2771
EB0E488B85F0FEFFFF488985	-11.2774
898594FCFFFF	-11.2776
7661725F393200	-11.2782
39D00F42D0	-11.2784
48898568FFFFFF488B8570FFFFFF48	-11.2795
C463312	-11.28
898584FCFFFF	-11.2804
0000000046010000	-11.2809
89857CFCFFFF	-11.2812
898520FFFFFF8B8520FFFFFF	-11.2813
002E4C435049305F3	-11.2819
8985D4FEFFFF8B85D4FEFFFF	-11.2826
4869C9082E06004801C8	-11.2829
1000000000000000D000000	-11.2839
66756E632E63002E4C435049305F3000	-11.2842
6172725F373000	-11.2848
4D2081E9	-11.2851
C745D4	-11.2854
FEFFFF83C0038885	-11.2858
898580F9FFFF	-11.2861
8985A4FEFFFF8B85A4FEFFFF	-11.2862
8985A4FCFFFF	-11.2862
00000000000008000000000000000000	-11.2865
000000004D010000	-11.2865
FFFFEB0E488B85E8FEFFFF488985	-11.2868
000000000000000B001000000000000	-11.288
89858CFEFFFF8B858CFEFFFF	-11.2888
6172725F373100	-11.2888
554889E5448945	-11.2888
8985BCFEFFFF8B85BCFEFFFF	-11.2891
D000100004C8B8	-11.2897
3000000000000000D000000	-11.2899
C4E279F7C	-11.2914
FEFFFF83C0048885	-11.2919
89859CFCFFFF	-11.2923
FBFFFF760E8B85	-11.2926
B0FDFFFF488B85B0FDFFFF	-11.293
8F4FFFF488985	-11.2934
898530FFFFFF8B8530FFFFFF	-11.2937
4869C9008802004801C8	-11.2948
8985B0FAFFFF	-11.2954
6000000000000000D000000	-11.2965
FDFFFF39C87E0F0FB685	-11.2973
89856CFEFFFF8B856CFEFFFF	-11.2978
A8FDFFFF488B85A8FDFFFF	-11.2982
000000000000CD010000	-11.2987
898538FFFFFF8B8538FFFFFF	-11.2998
4869C900D430004801C8	-11.3003
89857CFEFFFF8B857CFEFFFF	-11.3009
E0FDFFFF488B85E0FDFFFF	-11.3013
C4C3F916	-11.302
00000000DB010000	-11.3021
4801C8488B4D80	-11.3023
00FEFFFF488B8500FEFFFF	-11.3025
0000000000000007801000000000000	-11.303
488945C0488B45	-11.3034
0000000000000008801000000000000	-11.3039
6689C28B45	-11.3042
FDFFFFEB008B85	-11.3045
48898550FFFFFF488B8558FFFFFF48	-11.3047
A0FDFFFF488B85A0FDFFFF	-11.3072
488B45F0488945	-11.3079
48898540FFFFFF488B8548FFFFFF48	-11.3087
2B00000010000000	-11.3104
FEFFFF00000FBF85	-11.3107
488945B0488B45	-11.3111
30491	-11.3117
6172725F383800	-11.3118
EB0EB801000000488985	-11.3118
7661725F363300	-11.3126
B8FDFFFF488B85B8FDFFFF	-11.3127
898574FCFFFF	-11.3134
0FB60408668985	-11.3142
68FEFFFF488B8568FEFFFF	-11.315
8D080100004C8B8	-11.3155
4889F148C1E10	-11.3159
000000049	-11.316
668B7D	-11.3162
898518FFFFFF8B8518FFFFFF	-11.3166
8FBFFFF7610488B85	-11.3176
FDFFFF39C87D0F0FB685	-11.3182
000000000000330000000	-11.3183
8A45FE24010FB6C0	-11.3184
8010000488BB5	-11.3189
98FDFFFF488B8598FDFFFF	-11.3189
48898548FFFFFF488B8550FFFFFF48	-11.3196
00902D00	-11.3198
FEFFFF83C002668985	-11.3203
89856CFCFFFF	-11.3205
488B4DE04883E90	-11.3207
C0FDFFFF488B85C0FDFFFF	-11.3223
C4E27BF7C	-11.3224
39C10F42C1	-11.3235
898574FEFFFF8B8574FEFFFF	-11.3238
8D44ED00	-11.324
39C10F4CC1	-11.3242
8A45C724010FB6C0	-11.3245
FFFFEB0E488B85C8FEFFFF488985	-11.3246
410F4DD	-11.3265
4539C8450F4	-11.3266
8F9FFFF483B85	-11.3266
8A850	-11.3269
6172725F383000	-11.3283
488B45688B4D	-11.329
3000000FCFFFFFFFFFFFFFF002E	-11.3299
89853CFCFFFF	-11.3306
42C6042	-11.3311
4C8B6424F0	-11.3327
488B85E0010000488B8	-11.3333
C745E8	-11.3336
7661725F393300	-11.3347
EB0E488B85C0FEFFFF488985	-11.3349
8B45B4	-11.3349
4869C943C825004801C8	-11.3353
F8FDFFFF488B85F8FDFFFF	-11.3362
80FDFFFF488B8580FDFFFF	-11.3368
FFFFEB0E488B85D8FEFFFF488985	-11.337
EB0E488B85D0FEFFFF488985	-11.3379
4839D7480F4	-11.3388
38FDFFFF488B8538FDFFFF	-11.3391
FEFFFF83C0028885	-11.3393
898510FFFFFF8B8510FFFFFF	-11.3402
7661725F3137	-11.3403
89858CFCFFFF	-11.3404
4D1881E9	-11.3405
48898558FFFFFF488B8560FFFFFF48	-11.3412
FBFFFF730E8B85	-11.3434
6172725F363900	-11.3437
8FBFFFF7310488B85	-11.3438
00000000000000B7010000	-11.3445
FDFFFFEB00488B45	-11.3446
6172725F373600	-11.3453
FEFFFF83C004668985	-11.3455
C4C3712	-11.3459
00000000BE010000	-11.346
2000000FCFFFFFFFFFFFFFF002	-11.3466
0000000FCFFFFFFFFFFFFFF002E	-11.3475
0C4E37D19C	-11.348
898528FFFFFF8B8528FFFFFF	-11.3485
489948F73CF1	-11.349
FCFFFF01C88885	-11.3498
0FCFFFF4883BD	-11.3521
68FDFFFF488B8568FDFFFF	-11.3534
FEFFFFEB008B85	-11.3541
898564FEFFFF8B8564FEFFFF	-11.3545
898534FEFFFF8B8534FEFFFF	-11.3554
488B4578488B4D	-11.3555
89855CFCFFFF	-11.3565
898584FEFFFF8B8584FEFFFF	-11.3568
8985CCFEFFFF8B85CCFEFFFF	-11.3568
FDFFFF24010FB6C08A8D	-11.3572
0000000000000000D000000	-11.3576
88FDFFFF488B8588FDFFFF	-11.358
EB0E488B85B0FEFFFF488985	-11.3585
7661725F3734007661725F373500	-11.3592
8F7FFFFEB0C8B85	-11.3599
7661725F3732007661725F373300	-11.3602
0000000000000004001000000000000	-11.3603
40FDFFFF488B8540FDFFFF	-11.3611
48C1E820740	-11.3619
48898538FFFFFF488B8540FFFFFF48	-11.3619
10000000000000003400000001000000	-11.3621
8A4DA380E1010FB6C9	-11.3622
8945E88B45E8	-11.3623
4D184C8B4D10	-11.3638
4801D10FB655E	-11.3647
8985F0FEFFFF8B85F0FEFFFF	-11.3649
7661725F313100	-11.3651
4869C980B004004801C8	-11.3651
EB0B488B45E0488985	-11.3654
4883C2014869D2	-11.3659
B9A64900	-11.3662
0FBFFFF7610488B85	-11.3669
00000000E9010000	-11.3677
88C28B45	-11.3682
8B4D50	-11.3683
8B855CFFFFFF	-11.3685
89855CFEFFFF8B855CFEFFFF	-11.3691
8D100100004C8B	-11.3693
8A8D77FFFFFF80E1010FB6C9	-11.3696
7661725F3133007661725F313	-11.3699
83C10139C80F8D	-11.3701
C745CC	-11.3702
83E80148984869C0	-11.3707
7661725F373200	-11.3732
C8FDFFFF488B85C8FDFFFF	-11.3737
8B854CFFFFFF	-11.3747
48898560FFFFFF488B8560FFFFFF	-11.3754
70FDFFFF488B8570FDFFFF	-11.3764
00000000E2010000	-11.3778
C4E3654B	-11.3781
58FDFFFF488B8558FDFFFF	-11.3782
66448945FE	-11.3805
4863C94831C8	-11.3809
000000000000000000007A000000	-11.3813
0FBE0408668985	-11.3822
FEFFFF83C0018885	-11.3828
898544FEFFFF8B8544FEFFFF	-11.3839
00000000C5010000	-11.3847
99F7F983FA00	-11.3853
490F4FF	-11.3871
8985F8FEFFFF8B85F8FEFFFF	-11.388
488B45708B4D	-11.3888
6172725F393800	-11.3896
7661725F3531007661725F353200	-11.3904
CFEFFFF7E0E8B85	-11.3907
39CE0F8	-11.391
8985E8FEFFFF8B85E8FEFFFF	-11.3912
60FDFFFF488B8560FDFFFF	-11.3919
8A040824010FB6C0668985	-11.3924
89852CFEFFFF8B852CFEFFFF	-11.393
668945E6	-11.3931
6172725F363300	-11.3935
39F80F8	-11.3948
4869C9A08601004801C8	-11.396
FEFFFF83C003668985	-11.3971
48833CC8000F95C08885	-11.3983
8985E0FEFFFF8B85E0FEFFFF	-11.3984
C29EE002	-11.3997
FEFFFF83C001668985	-11.4001
90FDFFFF488B8590FDFFFF	-11.4015
FFFFEB0E488B85B8FEFFFF488985	-11.4022
6172725F363200	-11.4028
6088B45	-11.4035
89853CFEFFFF8B853CFEFFFF	-11.4035
83F8000F95C034FF24010FB6C8	-11.4042
6172725F393700	-11.4047
FDFFFF008A85	-11.4051
89850CFEFFFF8B850CFEFFFF	-11.4061
8A45F624010FB6C0	-11.4062
488B4DD04883C10	-11.4065
898504FEFFFF8B8504FEFFFF	-11.4073
000000000000000D001000000000000	-11.4085
C4C3512	-11.4091
898554FEFFFF8B8554FEFFFF	-11.4098
4539C1450F4	-11.4104
FDFFFF898D	-11.4108
C4E273F7C	-11.4109
8A4DD680E1010FB6C9	-11.4115
0B8B45D48985	-11.4128
00000040000000000040000A000900	-11.4141
88C99646	-11.4142
8985F4FDFFFF8B85F4FDFFFF	-11.4145
4869C985513E004801C8	-11.4155
8A45F524010FB6C0	-11.416
88C28A85	-11.416
F9DCCD02	-11.4169
CFEFFFF7D0E8B85	-11.4172
4869C951AA15004801C8	-11.4188
48898530FFFFFF488B8538FFFFFF48	-11.42
4C8B6424E8	-11.4203
488B4DC84883C10	-11.4206
0FDFFFF730E8B85	-11.4208
000000000000000B801000000000000	-11.421
488B85880000008B4D	-11.4214
0FBFC883E9	-11.4218
4D2881E9	-11.4222
898508FFFFFF8B8508FFFFFF	-11.4229
89851CFEFFFF8B851CFEFFFF	-11.4234
00FDFFFF488B8500FDFFFF	-11.4246
EB0E488B8580FEFFFF488985	-11.4246
8985FCFDFFFF8B85FCFDFFFF	-11.4248
4539D1450F4	-11.4249
89F8488BBD	-11.4255
4F6FFFFEB0C8B85	-11.4262
448945FC	-11.4263
488B45788B4D	-11.4263
8A45B724010FB6C0	-11.4265
6FEFFFF0FBF8D	-11.4279
4869C9F90295004801C8	-11.43
6172725F3135006172725F313600	-11.4303
7661725F3834007661725F383	-11.4303
4869C920D51C004801C8	-11.4303
FDFFFF3B85F	-11.4311
00F11B08	-11.4325
8985B8FEFFFF8B85B8FEFFFF	-11.4326
000000007E010000	-11.4336
898514FEFFFF8B8514FEFFFF	-11.4345
4889C24809CA48C1EA20	-11.4347
0000000000000006001000000000000	-11.4348
39D10F42D1	-11.4348
898524FEFFFF8B8524FEFFFF	-11.4349
D3E289D1	-11.4352
89858CFDFFFF8B858CFDFFFF	-11.4355
00000000F7010000	-11.4356
4C89C148C1E10	-11.4359
803C08000F95C08885	-11.4369
8A45D324010FB6C0	-11.4374
000000FEFFFFFFFFFFFFFF	-11.4389
F0FCFFFF488B85F0FCFFFF	-11.439
18FDFFFF488B8518FDFFFF	-11.4392
EB0E488B85A8FEFFFF488985	-11.4404
898574FDFFFF8B8574FDFFFF	-11.441
FFFFEB0E488B8598FEFFFF488985	-11.4423
0000000085010000	-11.4424
4869C91B7502004801C8	-11.4424
EB0E488B85A0FEFFFF488985	-11.443
48FDFFFF488B8548FDFFFF	-11.4432
89856CFDFFFF8B856CFDFFFF	-11.4438
1000000FCFFFFFFFFFFFFFF002E	-11.4447
8F5FFFF8B85	-11.445
4801C24969C	-11.4455
8985D0FEFFFF8B85D0FEFFFF	-11.4458
00000000000000D6000000	-11.446
0F7FFFFEB0C8B85	-11.4471
CFDFFFF7D0E8B85	-11.4472
833C88000F95C08885	-11.4472
FFFFEB0E488B8588FEFFFF488985	-11.4474
50FDFFFF488B8550FDFFFF	-11.448
898598FEFFFF8B8598FEFFFF	-11.4486
B8FCFFFF488B85B8FCFFFF	-11.4495
89854CFEFFFF8B854CFEFFFF	-11.4503
F6C1010F8	-11.4507
0000000000000008800000000000000	-11.4511
8A8D37FFFFFF80E1010FB6C9	-11.4514
66833C48000F95C08885	-11.452
488975F0488955E8	-11.454
6172725F383600	-11.454
8010000488B85C0010000488B8	-11.4541
6172725F373900	-11.4551
8A45E924010FB6C0	-11.4554
30FDFFFF488B8530FDFFFF	-11.4555
8985CCFDFFFF8B85CCFDFFFF	-11.4561
24010FB6C883C101	-11.4574
CF6FFFFEB0C8B85	-11.4579
898580FEFFFF8B8580FEFFFF	-11.4581
8A8D1FFFFFFF80E1010FB6C9	-11.4591
898500FFFFFF8B8500FFFFFF	-11.4609
48898518FFFFFF488B8520FFFFFF48	-11.4612
8985A4FDFFFF8B85A4FDFFFF	-11.4616
83F8090F8D	-11.4623
8D54AD00	-11.4625
7661725F363500	-11.4628
3088B45	-11.4628
8985ECFDFFFF8B85ECFDFFFF	-11.4629
7661725F3736007661725F373700	-11.463
000000000001100000000000300	-11.4636
80E101884DD	-11.464
EB0E488B8590FEFFFF488985	-11.465
8985BCFDFFFF8B85BCFDFFFF	-11.465
4869C9C0469D004801C8	-11.4651
8985C8FEFFFF8B85C8FEFFFF	-11.4654
8A45AF24010FB6C0	-11.4659
FEFFFF80E1010FB6C939C87D138A85	-11.4666
7508488B4424	-11.4677
8A45CB24010FB6C0	-11.4678
89852CFDFFFF8B852CFDFFFF	-11.4683
8FCFFFF4883BD	-11.4684
4889C24809F248C1EA20	-11.4699
0B8B45CC8985	-11.4714
48898528FFFFFF488B8530FFFFFF48	-11.4715
8985D8FEFFFF8B85D8FEFFFF	-11.4719
8A45F224010FB6C0	-11.473
8985DCFDFFFF8B85DCFDFFFF	-11.4736
8985C0FEFFFF8B85C0FEFFFF	-11.4739
8945D08B45D43B45D07	-11.4743
488B4570488B4D	-11.4747
8A45A724010FB6C0	-11.4748
48898530FFFFFF488B8530FFFFFF	-11.4751
488B45608B4D	-11.4763
614F7001	-11.477
20FDFFFF488B8520FDFFFF	-11.4773
4D3081E9	-11.4773
486BD2144801D	-11.4776
000000000000000C001000000000000	-11.4802
8985E4FDFFFF8B85E4FDFFFF	-11.4804
000000070000000	-11.483
E473370B	-11.483
8B8514FFFFFF	-11.4834
48C1E1174801C8	-11.4839
7661725F363700	-11.4843
8FDFFFF760E8B85	-11.4845
0FBFFFF7310488B85	-11.4851
4488C8448B4D	-11.4857
8985A0FEFFFF8B85A0FEFFFF	-11.4861
C745C4	-11.4895
400006000500554889E588D0	-11.4928
8FBFFFF7D10488B85	-11.4928
4889D148C1E10	-11.4942
48898520FFFFFF488B8528FFFFFF48	-11.4945
FDFFFF39C87E0F0FBE85	-11.4947
C745E4	-11.4953
FDFFFF39C87D0F0FBE85	-11.4955
488945A8488B45	-11.4957
668945EE	-11.4961
89857CFDFFFF8B857CFDFFFF	-11.4963
00000000D3010000	-11.4963
8A459F24010FB6C0	-11.4964
0B8B45C48985	-11.4974
8985C4FDFFFF8B85C4FDFFFF	-11.4977
898534FDFFFF8B8534FDFFFF	-11.4977
0B8B45848985	-11.4985
000000000000000E001000000000000	-11.4986
898564FDFFFF8B8564FDFFFF	-11.4998
7661725F383000	-11.4999
8985B0FEFFFF8B85B0FEFFFF	-11.5002
4801D06689480	-11.5012
000000000000000F001000000000000	-11.5014
898594FDFFFF8B8594FDFFFF	-11.5015
48C1E1154801C8	-11.5042
0FDFFFF760E8B85	-11.5042
898584FDFFFF8B8584FDFFFF	-11.5049
724D9300	-11.5064
4869C94F960B004801C8	-11.507
4839CF480F4	-11.5096
89855CFDFFFF8B855CFDFFFF	-11.5097
A4206C00	-11.5097
898558FEFFFF8B8558FEFFFF	-11.5105
7661725F373600	-11.5115
7661725F3738007661725F373900	-11.5123
488B4D904883E90	-11.5132
8985ACFDFFFF8B85ACFDFFFF	-11.5134
00000000000000000000A8010000	-11.5135
FEFFFF80E1010FB6C939C87E138A85	-11.5136
7661725F373400	-11.5136
8A8D4FFFFFFF80E1010FB6C9	-11.5138
0C4E37D19D	-11.5156
8985D4FDFFFF8B85D4FDFFFF	-11.5157
488B4568488B4D	-11.5161
6172725F383100	-11.5161
898514FDFFFF8B8514FDFFFF	-11.5167
8A4DC680E1010FB6C9	-11.5173
F4FFFFEB0C8B85	-11.5175
89859CFDFFFF8B859CFDFFFF	-11.519
62B2A511	-11.5197
0000000093010000	-11.5207
898588FEFFFF8B8588FEFFFF	-11.5215
4869C9BA540B004801C8	-11.5215
C4437D39E	-11.5218
8A8DEFFEFFFF80E1010FB6C9	-11.5221
898570FEFFFF8B8570FEFFFF	-11.5225
0F5FFFF8B85	-11.5227
000000000000000E801000000000000	-11.5227
400F9CC6	-11.5232
8985B4FDFFFF8B85B4FDFFFF	-11.5233
488B85800000008B4D	-11.5243
48C1E1164801C8	-11.5255
EB0E488B8560FEFFFF488985	-11.5267
EB0E488B8570FEFFFF488985	-11.5271
6172725F3230006172725F323100	-11.5273
000000000000000D801000000000000	-11.5277
6172725F3239006172725F333	-11.5293
8945E08B45E43B45E07	-11.5294
39C87E0E8B85	-11.5294
00000000A1010000	-11.5297
8A8D5FFFFFFF80E1010FB6C9	-11.53
898524FDFFFF8B8524FDFFFF	-11.5303
89854CFDFFFF8B854CFDFFFF	-11.5312
83F800741348B8	-11.5323
00000000DA010000	-11.5328
FDFFFFEB008B45	-11.5329
FDFFFF3B85A	-11.533
0000000003000	-11.5336
6172725F393900	-11.5338
8A4D9380E1010FB6C9	-11.5343
000000000000000C801000000000000	-11.5343
38FFFFFF488B8538FFFFFF	-11.5355
8A45F124010FB6C0	-11.5371
6172725F393000	-11.5382
B8B45DC8985	-11.5383
EFEFFFF0FBF8D	-11.5413
898554FDFFFF8B8554FDFFFF	-11.5422
020000488B8500020000488B8	-11.5427
898590FEFFFF8B8590FEFFFF	-11.5429
48015424	-11.5434
EB0B488B4518488985	-11.5439
4869C900CC03004801C8	-11.5443
488B0CD148BA	-11.5459
FAFFFF24010FB6C08985	-11.5459
4080E701	-11.5463
4839C8480F42C8	-11.5471
4439C7440F4	-11.5476
48898508FFFFFF488B8510FFFFFF48	-11.5487
740EB801000000488985	-11.549
488B4558488B4D	-11.5509
48898500FFFFFF488B8508FFFFFF48	-11.5512
320000001000000000000000	-11.5515
400006000500554889E588C8	-11.5525
4889F948C1E10	-11.5526
8A45BF24010FB6C0	-11.5527
488945A0488B45	-11.5538
F6C2010F45C1	-11.5556
400006000500554889E54088F0	-11.5557
898568FEFFFF8B8568FEFFFF	-11.556
48898538FFFFFF488B8538FFFFFF	-11.5561
7661725F373900	-11.5567
000000009A010000	-11.5568
4869C9DCD788014801C8	-11.557
898560FEFFFF8B8560FEFFFF	-11.557
6172725F3332006172725F333	-11.5573
488985E0FEFFFF488B85E8FEFFFF48	-11.5574
488945C8488B45	-11.5592
8985DCFCFFFF8B85DCFCFFFF	-11.5594
000000000000E1010000	-11.5596
0B8B45D88985	-11.5597
4869C9E03408004801C8	-11.5598
80E1010FB6C939C87E108A45	-11.5598
4863C94883C11	-11.5605
898538FEFFFF8B8538FEFFFF	-11.5606
FDFFFF0000000083BD	-11.5612
8985A8FEFFFF8B85A8FEFFFF	-11.5614
7661725F373100	-11.562
8A4DE180E1010FB6C9	-11.5637
8B45288A4520	-11.5645
89853CFDFFFF8B853CFDFFFF	-11.5646
48898528FFFFFF488B8528FFFFFF	-11.5649
668955E	-11.566
0000000005000000010000000	-11.5661
48898510FFFFFF488B8518FFFFFF48	-11.5672
E9AF1C05	-11.5683
89851CFDFFFF8B851CFDFFFF	-11.5686
898594FCFFFF8B8594FCFFFF	-11.5686
6172725F36006172725F3700	-11.5693
4C8B85900000004C8B85880000004	-11.5695
898550FEFFFF8B8550FEFFFF	-11.5701
6172725F373200	-11.5702
89850CFDFFFF8B850CFDFFFF	-11.5704
4139F8410F4	-11.5712
448945F4	-11.5716
898548FEFFFF8B8548FEFFFF	-11.5721
486BD2164801D1	-11.5725
8985C4FCFFFF8B85C4FCFFFF	-11.5726
4139C0410F4	-11.5755
488B8580000000488B4D	-11.5756
4C8B6424F8	-11.5759
8FDFFFF730E8B85	-11.5765
7661725F3830007661725F383100	-11.577
4FDFFFF7D0E8B85	-11.5775
83C00148984869C0	-11.5775
EB0E488B8530FEFFFF488985	-11.5792
FFFFEB0E488B8568FEFFFF488985	-11.5793
8A4DE280E1010FB6C9	-11.5795
488B4560488B4D	-11.5816
0F95C08845	-11.5822
488B4DB84883C10	-11.5826
898510FEFFFF8B8510FEFFFF	-11.5828
6172725F373300	-11.583
8985F4FCFFFF8B85F4FCFFFF	-11.5831
6172725F31303600	-11.5841
4801D080E10188480	-11.5844
EB0B488B4528488985	-11.5848
898540FEFFFF8B8540FEFFFF	-11.5849
C4A37915	-11.585
4439C0440F4	-11.5855
898544FDFFFF8B8544FDFFFF	-11.5861
80FA00480F45C1	-11.5865
00000000AF010000	-11.5868
488B85900000008B4D	-11.5875
8945C88B45CC3B45C87	-11.5887
EB0B488B45F8488985	-11.5888
EB0E488B8550FEFFFF488985	-11.5891
740D488B4518488985	-11.5894
0E8B8554FFFFFF8985	-11.5901
B8B45E08985	-11.591
EB0E488B8540FEFFFF488985	-11.5919
0020A1074	-11.5921
4C89C948C1E10	-11.5924
83F8070F8	-11.5925
8A4DE980E1010FB6C9	-11.5928
898518FEFFFF8B8518FEFFFF	-11.5931
6172725F373500	-11.5931
7661725F373800	-11.5933
00000000B6010000	-11.5933
EB0B488B4510488985	-11.5966
000000000000008000000010000000	-11.5977
8985CCFCFFFF8B85CCFCFFFF	-11.599
6172725F31303700	-11.5998
10488B8548FEFFFF488985	-11.6002
FDFFFF000FB685	-11.6016
898584FCFFFF8B8584FCFFFF	-11.602
89859CFCFFFF8B859CFCFFFF	-11.6021
00000000BD010000	-11.6026
4C89F148C1E10	-11.603
8985FCFCFFFF8B85FCFCFFFF	-11.6034
6172725F34006172725F3500	-11.6044
0000668945D	-11.6046
0000000000000001002000000000000	-11.6046
8985A4FCFFFF8B85A4FCFFFF	-11.6046
8985ACFCFFFF8B85ACFCFFFF	-11.605
8985D4FCFFFF8B85D4FCFFFF	-11.605
000000000000000F801000000000000	-11.6053
8A45E224010FB6C0	-11.6054
488985F0FEFFFF488B85F8FEFFFF48	-11.6057
898530FEFFFF8B8530FEFFFF	-11.6089
8985E4FCFFFF8B85E4FCFFFF	-11.6091
0FBFFFF7D10488B85	-11.6092
7661725F393900	-11.6105
8A040834FF24010FB6C0	-11.6111
740D488B4528488985	-11.6135
4869C9001B75024801C8	-11.6145
898578FEFFFF8B8578FEFFFF	-11.6152
6172725F32006172725F3300	-11.6157
6172725F373400	-11.6161
740D488B45F8488985	-11.6166
30FFFFFF488B8530FFFFFF	-11.6175
18FFFFFF488B8518FFFFFF	-11.6178
8A8D27FFFFFF80E1010FB6C9	-11.6179
898504FDFFFF8B8504FDFFFF	-11.6185
6172725F31313100	-11.6189
0000000000000000802000000000000	-11.62
EB0E488B8528FEFFFF488985	-11.6206
89857CFCFFFF8B857CFCFFFF	-11.6215
7661725F31303000	-11.6219
48898510FFFFFF488B8510FFFFFF	-11.6221
60FFFFFF488B8560FFFFFF	-11.6227
8985ECFCFFFF8B85ECFCFFFF	-11.6238
44894DEC	-11.6239
8A4D8380E1010FB6C9	-11.6239
4C89D148C1E10	-11.6241
8FCFFFF7D0E8B85	-11.6242
00000000000000000000F0010000	-11.6242
0B8B45E48985	-11.6244
668945DE	-11.6247
7661725F393600	-11.6251
8A4DDC80E1010FB6C9	-11.6255
8A8D57FFFFFF80E1010FB6C9	-11.6264
0000000000000001802000000000000	-11.627
4889D048C1E83F	-11.6272
0FBFFFF7E10488B85	-11.6272
48898518FFFFFF488B8518FFFFFF	-11.629
83F9000F95C180F1FF80E1010FB6C9	-11.6297
8A4DFF80E1010FB6C9	-11.6298
4801D10FB655D	-11.6305
0E8B856CFFFFFF8985	-11.6326
488B4DB04883E90	-11.6334
31C929C131C029C8	-11.6335
8985E0FDFFFF8B85E0FDFFFF	-11.6348
897DF88975F4	-11.6361
0000000020000000	-11.6372
8FCFFFF7E0E8B85	-11.6386
8FBFFFF7E10488B85	-11.6389
40F6C60174	-11.6401
4801D64969D	-11.6401
20000000000000003400000001000000	-11.6404
488985C0FEFFFF488B85C8FEFFFF48	-11.6405
8945D48B45D83B45D47	-11.6406
28FFFFFF488B8528FFFFFF	-11.6409
898564FCFFFF8B8564FCFFFF	-11.6413
8B45488A4540	-11.6436
8B45EC8945	-11.6447
EB0E488B8548FEFFFF488985	-11.6447
C4644B234	-11.6453
0B8B45D08985	-11.6461
898528FEFFFF8B8528FEFFFF	-11.6461
8B45208A4518	-11.647
488B45508B4D	-11.6471
898574FCFFFF8B8574FCFFFF	-11.6472
0E8B855CFFFFFF8985	-11.6478
20FFFFFF488B8520FFFFFF	-11.648
10FFFFFF488B8510FFFFFF	-11.6486
10488B8540FEFFFF488985	-11.649
80E1010FB6C939C87D108A45	-11.6495
488B4550488B4D	-11.6498
0091CB014	-11.6502
8985F0FDFFFF8B85F0FDFFFF	-11.651
83F800740B8B45	-11.6527
89855CFCFFFF8B855CFCFFFF	-11.6528
80F1FF80E101488B05000000008808	-11.6542
8B45843B45807	-11.6544
10488B8530FEFFFF488985	-11.6545
EB0E488B8510FEFFFF488985	-11.6562
10488B8518FEFFFF488985	-11.6573
10488B8520FEFFFF488985	-11.6576
6172725F393100	-11.6582
B0014883F9008885	-11.6582
4889C24C09C248C1EA20	-11.6583
8985F8FDFFFF8B85F8FDFFFF	-11.6594
8B45308A4528	-11.6595
8985B4FCFFFF8B85B4FCFFFF	-11.6595
6172725F393600	-11.6605
898500FEFFFF8B8500FEFFFF	-11.6609
6172725F3334006172725F333	-11.661
488985E8FEFFFF488B85F0	-11.6613
0F95C280F2FF	-11.6623
48B80000000000000080488985	-11.6627
8985E8FDFFFF8B85E8FDFFFF	-11.6638
EB0E488B8578FEFFFF488985	-11.6642
8A040824018845	-11.6646
4D39C84D0F4	-11.6649
C8B85800000004C8B45784C8B45704	-11.6693
0E8B852CFFFFFF8985	-11.6694
8985BCFCFFFF8B85BCFCFFFF	-11.6697
6172725F31303800	-11.6709
898508FEFFFF8B8508FEFFFF	-11.6715
488985D0FEFFFF488B85D8FEFFFF48	-11.6724
99F73CB1	-11.6734
488985B8FEFFFF488B85C0	-11.6741
EB0B488B4520488985	-11.6752
D3FA89D1	-11.6753
C8354D024	-11.6764
48898520FFFFFF488B8520FFFFFF	-11.6765
4869C90000F3004801C8	-11.6766
898590FDFFFF8B8590FDFFFF	-11.6771
31D248F734F1	-11.6778
7661725F373300	-11.6778
CFEFFFF730E8B85	-11.678
488985B0FEFFFF488B85B8FEFFFF48	-11.6787
4869C9B8AF11034801C8	-11.6794
4539DA450F4	-11.6794
8985E4FBFFFF8B85E4FBFFFF	-11.6796
39C87D0E8B85	-11.6797
740D488B4510488985	-11.6809
8014840D4	-11.6812
89858CFCFFFF8B858CFCFFFF	-11.6816
8A4DED80E1010FB6C9	-11.6817
8945C08B45C43B45C07	-11.6826
898520FEFFFF8B8520FEFFFF	-11.6826
8A4DF580E1010FB6C9	-11.6827
488B4548488B4D	-11.6833
006001000000000000	-11.6834
740D488B45E0488985	-11.6844
48898500FFFFFF488B8500FFFFFF	-11.6858
488985F8FEFFFF488B85F8FEFFFF	-11.6866
48894588488B45	-11.6882
EB0E488B8500FEFFFF488985	-11.6885
0000000000000000000037010000	-11.6892
4869C986904B004801C8	-11.6898
0FCFFFF7E0E8B85	-11.6927
8A0C08488B05000000008808	-11.6928
488B8588000000488B4D	-11.6931
8B856CFFFFFF3B8568FFFFFF7	-11.6931
0E8B8544FFFFFF8985	-11.6952
6172725F383900	-11.696
0B8B459C8985	-11.697
898524FCFFFF8B8524FCFFFF	-11.6976
6172725F383500	-11.6979
898514FCFFFF8B8514FCFFFF	-11.6981
8A4D8780E1010FB6C9	-11.6981
C4E3714BC0	-11.6987
0F4FFFFEB0E488B85	-11.6988
6172725F383200	-11.7009
8B45F88945	-11.7015
8985B8FDFFFF8B85B8FDFFFF	-11.7022
8975F88955F4	-11.7026
EB0E488B8538FEFFFF488985	-11.7027
8B855CFFFFFF3B8558FFFFFF7	-11.7028
EB0E488B8520FEFFFF488985	-11.7031
48894598488B45	-11.7032
4180E001448845	-11.7036
89856CFCFFFF8B856CFCFFFF	-11.7045
898588FDFFFF8B8588FDFFFF	-11.7058
898504FCFFFF8B8504FCFFFF	-11.7059
F8FEFFFF488B85F8FEFFFF	-11.7065
83E8024863C8488B0500000000	-11.7066
0E8B853CFFFFFF8985	-11.7068
4839C8480F47C8	-11.7073
8F3FFFF488985	-11.7087
4889C24809FA48C1EA20	-11.7088
898548FDFFFF8B8548FDFFFF	-11.7088
488B45588B4D	-11.7103
8945E48B45E83B45E47	-11.7111
0E8B8524FFFFFF8985	-11.712
10488B8528FEFFFF488985	-11.7144
89854CFCFFFF8B854CFCFFFF	-11.7161
8985D8FDFFFF8B85D8FDFFFF	-11.7162
7661725F3533007661725F353	-11.7168
6172725F3231006172725F323	-11.717
6172725F31313800	-11.7171
10488B85E8FDFFFF488985	-11.7175
48898580FEFFFF488B8588FEFFFF48	-11.7181
0000668945C	-11.7181
4439C8440F4	-11.7195
0B8B45C88985	-11.7203
31C04883F9008885	-11.7208
39C87E090FB745	-11.7209
8A8D3FFFFFFF80E1010FB6C9	-11.7209
00FFFFFF488B8500FFFFFF	-11.7212
EB0E488B85F8FDFFFF488985	-11.7215
898598FDFFFF8B8598FDFFFF	-11.7222
448B4D1866448B4D10	-11.7239
6172725F31313700	-11.7241
E49A26014	-11.7256
10488B8508FEFFFF488985	-11.7258
8985FCFBFFFF8B85FCFBFFFF	-11.7276
488985A8FEFFFF488B85B0FEFFFF48	-11.7278
8985C8FDFFFF8B85C8FDFFFF	-11.728
EB0E488B8508FEFFFF488985	-11.7305
8985D4FBFFFF8B85D4FBFFFF	-11.731
8985F4FBFFFF8B85F4FBFFFF	-11.7313
4139F0410F4	-11.7316
80EB08488B45	-11.7323
8A857FFFFFFF24010FB6C0	-11.7327
0A488B45E8488945	-11.7327
CFDFFFF730E8B85	-11.7331
4869C900A9E6004801C8	-11.7337
8985B0FDFFFF8B85B0FDFFFF	-11.7347
898570FDFFFF8B8570FDFFFF	-11.736
8A4D9B80E1010FB6C9	-11.7361
39C87D090FB745	-11.7365
898554FCFFFF8B8554FCFFFF	-11.737
8B45F48945	-11.7372
8985C0FDFFFF8B85C0FDFFFF	-11.7376
EB0E488B85E0FDFFFF488985	-11.738
89852CFCFFFF8B852CFCFFFF	-11.7381
488B85980000008B4D	-11.7384
4869C9808D3A014801C8	-11.7392
8F4FFFFEB0E488B85	-11.7402
0000000000000002802000000000000	-11.7406
664489C8448B	-11.7413
4869C90000E6014801C8	-11.7431
6172725F3432006172725F343	-11.7453
8985D0FDFFFF8B85D0FDFFFF	-11.7453
C173D520C5C9F4F5C5D9F4FFC5D9F4E5	-11.7459
89853CFCFFFF8B853CFCFFFF	-11.7459
4869C9F2052A014801C8	-11.7474
B00148833CD1008885	-11.7504
898520FDFFFF8B8520FDFFFF	-11.7505
0E8B8534FFFFFF8985	-11.7506
EB0E488B85F0FDFFFF488985	-11.7514
668B4520668985	-11.7515
0B8B458C8985	-11.7519
898544FCFFFF8B8544FCFFFF	-11.752
10488B8500FEFFFF488985	-11.7524
00000000000000000000E8010000	-11.7539
486BD22C4801D1	-11.755
0B8B45C08985	-11.7551
EB0E488B8518FEFFFF488985	-11.7555
898534FCFFFF8B8534FCFFFF	-11.7557
488B8548FEFFFF483B8540FEFFFF7	-11.7561
6172725F383300	-11.7562
898568FDFFFF8B8568FDFFFF	-11.7578
F2B99B054	-11.7587
89851CFCFFFF8B851CFCFFFF	-11.7611
90EB08488B45	-11.762
10488B85F8FDFFFF488985	-11.7621
4139C8410F4	-11.7627
31C0803C11008885	-11.7644
89850CFCFFFF8B850CFCFFFF	-11.765
486BD2644801D1	-11.7652
10488B8510FEFFFF488985	-11.7659
EB0E488B85B8FDFFFF488985	-11.7678
0000000000000002002000000000000	-11.7678
8985A4FBFFFF8B85A4FBFFFF	-11.7685
4863C94883C10	-11.7694
39D10F94C180E1010FB6C9	-11.7698
8985A8FDFFFF8B85A8FDFFFF	-11.7703
EB0E488B85D8FDFFFF488985	-11.7712
0B8B45B88985	-11.7718
898550FDFFFF8B8550FDFFFF	-11.7721
8B45188A4510	-11.7725
EFEFFFF0FB785	-11.7728
EB0E488B85C0FDFFFF488985	-11.7731
0B8B45B08985	-11.7747
10488B85C8FDFFFF488985	-11.7749
48898590FEFFFF488B8598FEFFFF48	-11.7755
EB0B488B4530488985	-11.7757
898530FDFFFF8B8530FDFFFF	-11.7757
8FEFFFF0FB785	-11.7766
488B85A80000008B4D	-11.7768
898518FDFFFF8B8518FDFFFF	-11.7771
898510FDFFFF8B8510FDFFFF	-11.7772
898578FDFFFF8B8578FDFFFF	-11.7778
88EB08488B45	-11.7783
31C048833CD1008885	-11.7794
8985A0FDFFFF8B85A0FDFFFF	-11.7797
8985E0FCFFFF8B85E0FCFFFF	-11.7798
39C87D090FBF45	-11.7801
8985DCFBFFFF8B85DCFBFFFF	-11.7808
740D488B4520488985	-11.7814
7661725F373500	-11.7815
0B8B45E88985	-11.7818
480345D8488945D8E9	-11.7823
89858CFBFFFF8B858CFBFFFF	-11.783
6172725F3439006172725F353	-11.783
F60411018885	-11.7839
8985B4FBFFFF8B85B4FBFFFF	-11.784
898580FDFFFF8B8580FDFFFF	-11.7845
10488B85E0FDFFFF488985	-11.7852
83F800740D488B45	-11.7859
31C0833C91008885	-11.786
0B8B45988985	-11.7869
0E8B8504FFFFFF8985	-11.7872
898594FBFFFF8B8594FBFFFF	-11.7874
488985A0FEFFFF488B85A8FEFFFF48	-11.7887
0B8B45A08985	-11.7905
488945C848837DC8	-11.7907
EB0E488B85C8FDFFFF488985	-11.791
486BD2584801D1	-11.7912
6172725F31303500	-11.7916
480B14C8488914C8	-11.7923
4801F74969F	-11.7931
10488B85B0FDFFFF488985	-11.7946
EB0E488B85E8FDFFFF488985	-11.7946
8985C4FBFFFF8B85C4FBFFFF	-11.7954
0FAFFFF7610488B85	-11.7966
0000000000000003802000000000000	-11.7988
89C948D3E8	-11.7996
B00166833C51008885	-11.8006
4863D0488B050000000048694D	-11.8016
89859CFBFFFF8B859CFBFFFF	-11.8018
4D39D14D0F4	-11.8027
CFDFFFF760E8B85	-11.8029
4429353A4	-11.8034
488945C048837DC0	-11.804
6172725F31313600	-11.8041
8945CC8B45D03B45CC7	-11.8051
8985C0FCFFFF8B85C0FCFFFF	-11.8054
898558FDFFFF8B8558FDFFFF	-11.8056
4539D3450F4	-11.807
CFEFFFF39C87E0F0FB785	-11.8085
10488B85C0FDFFFF488985	-11.8102
10488B85D0FDFFFF488985	-11.8102
10488B85F0FDFFFF488985	-11.8105
55184C8B5510	-11.8111
0000000000000000002000000000000	-11.8114
C8B45684C8B45604C8B45584	-11.8116
EB0231C	-11.8122
6172725F31303000	-11.813
898560FDFFFF8B8560FDFFFF	-11.8131
89C2488B0500000000486BD2	-11.8141
480345D0488945D0E9	-11.8142
7661725F373700	-11.8142
668B4518668985	-11.8149
898528FDFFFF8B8528FDFFFF	-11.8159
B001833C91008885	-11.8164
488B8530FEFFFF483B8528FEFFFF7	-11.8165
48898598FEFFFF488B85A0	-11.8169
8985F0FCFFFF8B85F0FCFFFF	-11.817
5000000030000000	-11.8171
31C066833C51008885	-11.8172
0F6FFFFEB0C8B85	-11.8188
898574FBFFFF8B8574FBFFFF	-11.819
898508FDFFFF8B8508FDFFFF	-11.819
48894590488B45	-11.8208
8F6FFFFEB0C8B85	-11.8211
8FAFFFF7310488B85	-11.8214
FAFFFF760E8B85	-11.8219
898584FBFFFF8B8584FBFFFF	-11.8222
898544FBFFFF8B8544FBFFFF	-11.8227
488B4DA04883E90	-11.8232
8FAFFFF7610488B85	-11.824
488B44C808488985	-11.8269
8985ECFBFFFF8B85ECFBFFFF	-11.8276
0B8B45A88985	-11.8287
EB0E488B85A8FDFFFF488985	-11.829
10488B85A0FDFFFF488985	-11.8305
488B8518FEFFFF483B8510FEFFFF7	-11.8308
488945D0488B45	-11.8309
EB0E488B8598FDFFFF488985	-11.8317
488B85A800000048694D	-11.8319
C5C9EFF6C5C1EFFF	-11.8327
78FFFFFFEB0B488B45	-11.8334
85BF627AC78	-11.834
CFEFFFF760E8B85	-11.8364
488B8540FEFFFF483B8538FEFFFF7	-11.8397
8985CCFBFFFF8B85CCFBFFFF	-11.84
83FA000F45C8	-11.8409
0F95C180E1010FB6C983E90139C80F8D	-11.842
4439C2440F4	-11.8422
8985BCFBFFFF8B85BCFBFFFF	-11.8423
0E8B854CFFFFFF8985	-11.8431
70FFFFFFEB0B488B45	-11.8436
0FEFFFF0FB785	-11.8439
8985B8FCFFFF8B85B8FCFFFF	-11.8448
480345C8488945C8E9	-11.845
4869C90000CC034801C8	-11.8451
8985A8FCFFFF8B85A8FCFFFF	-11.8457
7661725F3535007661725F353	-11.8461
4FDFFFF730E8B85	-11.8474
4439C1440F4	-11.8476
4FEFFFF39C87E0F0FB785	-11.8478
89851CFBFFFF8B851CFBFFFF	-11.8478
898500FDFFFF8B8500FDFFFF	-11.8479
6FEFFFF0FBF85	-11.8479
898538FDFFFF8B8538FDFFFF	-11.8487
668B0C48488B0500000000668908	-11.8487
0FCFFFF7D0E8B85	-11.8509
4839C3480F4	-11.8545
89857CFBFFFF8B857CFBFFFF	-11.8545
83EA0289D2	-11.8547
0FEFFFF4883C003488985	-11.8548
4FDFFFF760E8B85	-11.8556
83EE014863F6	-11.8557
B001803C11008885	-11.8558
8985F4FAFFFF8B85F4FAFFFF	-11.856
6FEFFFF0FB785	-11.856
0000000000000003002000000000000	-11.8566
898564FBFFFF8B8564FBFFFF	-11.8571
6172725F383400	-11.8581
45184C8B4510	-11.8586
6172725F31313000	-11.8588
740B8B45F88985	-11.8589
6172725F31323100	-11.8604
0E8B8514FFFFFF8985	-11.8606
0F95C024010FB6F0	-11.8607
8985D8FCFFFF8B85D8FCFFFF	-11.861
0B8B45EC8985	-11.8637
68FFFFFFEB0B488B45	-11.8643
4801F24969F	-11.8661
898540FDFFFF8B8540FDFFFF	-11.8674
6172725F393400	-11.8676
8985C8FCFFFF8B85C8FCFFFF	-11.8678
4801D74969D	-11.868
488B859800000048694D	-11.8681
488B8500FEFFFF483B85F8FDFFFF7	-11.869
488B8528FEFFFF483B8520FEFFFF7	-11.8697
488B8520FEFFFF483B8518FEFFFF7	-11.8709
48898550FEFFFF488B8558FEFFFF48	-11.8721
898560FCFFFF8B8560FCFFFF	-11.8727
0B8B45888985	-11.8736
0B8B45908985	-11.8737
A8EB08488B45	-11.8741
740D488B4530488985	-11.8742
EFEFFFF0FBF85	-11.8761
482314C8488914C8	-11.8772
0B8B45808985	-11.8781
6172725F31323800	-11.879
50FFFFFFEB0B488B45	-11.8796
898580FCFFFF8B8580FCFFFF	-11.8799
98EB08488B45	-11.8801
488B4DA84883E90	-11.8805
488B85E8FDFFFF483B85E0FDFFFF7	-11.8805
898598FCFFFF8B8598FCFFFF	-11.8806
4139D0410F4	-11.8815
0E8B851CFFFFFF8985	-11.8817
898578FCFFFF8B8578FCFFFF	-11.8822
39C87E090FBF45	-11.883
8985A0FCFFFF8B85A0FCFFFF	-11.8841
6172725F31323700	-11.8842
898570FCFFFF8B8570FCFFFF	-11.8847
894DE8448945E4	-11.8855
8985B0FCFFFF8B85B0FCFFFF	-11.886
00000000000000720000001	-11.8867
A0EB08488B45	-11.8878
231488891488	-11.8886
89850CFBFFFF8B850CFBFFFF	-11.8888
48898570FEFFFF488B8578FEFFFF48	-11.8897
D0FCFFFF488B85D0FCFFFF488985	-11.8903
10488B85D8FDFFFF488985	-11.8919
488B4540488B4D	-11.8926
0E8B850CFFFFFF8985	-11.893
898590FCFFFF8B8590FCFFFF	-11.8932
0E8B85F4FEFFFF8985	-11.8933
89852CFBFFFF8B852CFBFFFF	-11.8938
6172725F3531006172725F353	-11.8949
140821F2881408	-11.8952
8B854CFFFFFF3B8548FFFFFF7	-11.8966
55415741564155415453	-11.8973
10FDFFFF488B8510FDFFFF488985	-11.8984
58FFFFFFEB0B488B45	-11.8993
00000000000000000000EE010000	-11.8998
6172725F3434006172725F343	-11.8999
3000000FCFFFFFFFFFFFFFF23	-11.9016
89856CFBFFFF8B856CFBFFFF	-11.9016
488B4DB04883C10	-11.9019
89854CFBFFFF8B854CFBFFFF	-11.9028
8985E8FCFFFF8B85E8FCFFFF	-11.9048
4939C0490F4	-11.907
488B85B800000048694D	-11.9074
898588FCFFFF8B8588FCFFFF	-11.9076
4439D0440F4	-11.9101
48898530FEFFFF488B8538FEFFFF48	-11.9108
8985ACFBFFFF8B85ACFBFFFF	-11.9127
88FCFFFF488B8588FCFFFF488985	-11.9136
488945B048837DB0	-11.9137
668B45FE668985	-11.9144
898534FBFFFF8B8534FBFFFF	-11.9145
8985C4FAFFFF8B85C4FAFFFF	-11.9145
10488B85A8FDFFFF488985	-11.9146
8B851CFFFFFF3B8518FFFFFF7	-11.9155
8945D4837DD4	-11.9172
488B85C0FDFFFF483B85B8FDFFFF7	-11.9172
0B1488891488	-11.9175
89853CFBFFFF8B853CFBFFFF	-11.9176
7661725F31303800	-11.919
8985E4FAFFFF8B85E4FAFFFF	-11.9191
0FAFFFF7310488B85	-11.9196
10488B85B8FDFFFF488985	-11.9207
0000000000000005002000000000000	-11.9231
488B8510FEFFFF483B8508FEFFFF7	-11.9237
488B85E0FDFFFF483B85D8FDFFFF7	-11.9255
EB0E488B8578FDFFFF488985	-11.9258
488B85C8FDFFFF483B85C0FDFFFF7	-11.9271
6172725F3230	-11.9278
488B45D04883C00	-11.9295
EB0E488B85D0FDFFFF488985	-11.9297
488B85F8FDFFFF483B85F0FDFFFF7	-11.9307
898524FBFFFF8B8524FBFFFF	-11.9313
0E8B85CCFEFFFF8985	-11.9342
10488B8590FDFFFF488985	-11.935
0000000000000004802000000000000	-11.9361
898554FBFFFF8B8554FBFFFF	-11.9364
EB0E488B8580FDFFFF488985	-11.9368
39C80F92C024010FB6	-11.9374
50FCFFFF488B8550FCFFFF488985	-11.9379
EB0E488B8590FDFFFF488985	-11.938
89855CFBFFFF8B855CFBFFFF	-11.9384
894DF0448945EC	-11.9391
8985FCFAFFFF8B85FCFAFFFF	-11.9393
89857CFAFFFF8B857CFAFFFF	-11.9398
10488B8588FDFFFF488985	-11.941
10488B8580FDFFFF488985	-11.9417
7661725F31303700	-11.9419
740D488B4538488985	-11.9419
898548FCFFFF8B8548FCFFFF	-11.9423
740B8B45108985	-11.9438
4C8B4D284C8B4D20	-11.944
EB0E488B85B0FDFFFF488985	-11.9455
EB0E488B85A0FDFFFF488985	-11.9455
488B05000000008B0883E	-11.9463
898568FCFFFF8B8568FCFFFF	-11.9467
488B05000000000FBE0083E	-11.9473
6172725F31313300	-11.9481
488B85D0FDFFFF483B85C8FDFFFF7	-11.9483
897DF8408875F7	-11.9493
6172725F393200	-11.9499
8B45FC8945	-11.9509
EB0E488B8588FDFFFF488985	-11.9513
400006000500554889E5897DFC	-11.9514
6172725F31313500	-11.9522
488945B848837DB8	-11.9537
0FEFFFF4883C002488985	-11.9542
0E8B85FCFEFFFF8985	-11.9553
488B05000000008B0883C	-11.9556
89858CFAFFFF8B858CFAFFFF	-11.9557
8B850CFFFFFF3B8508FFFFFF7	-11.9561
C0FCFFFF488B85C0FCFFFF488985	-11.9561
488B85F0FDFFFF483B85E8FDFFFF7	-11.9569
668B4528668985	-11.9577
39C87D090FB645	-11.9595
8945DC837DDC	-11.9598
488B85B0FDFFFF483B85A8FDFFFF7	-11.9602
EB0E488B8570FDFFFF488985	-11.9607
7661725F383400	-11.9621
6172725F31323400	-11.9635
0FEFFFF4883C004488985	-11.9636
5518448A5510	-11.964
10488B8568FDFFFF488985	-11.9642
8945C48B45C83B45C47	-11.9648
EB0B488B4538488985	-11.9666
488B858800000048694D	-11.9666
400006000500554889E56689D0	-11.9674
C0FBFFFF488B85C0FBFFFF488985	-11.9696
8985ECFAFFFF8B85ECFAFFFF	-11.971
83FE000F45CA	-11.9717
488945E0488B45E8483B45E07	-11.9722
8B85F4FEFFFF3B85F0FEFFFF7	-11.9728
898514FBFFFF8B8514FBFFFF	-11.9739
144809F266891448	-11.9741
6172725F393300	-11.9768
10488B8560FDFFFF488985	-11.98
7661725F31313000	-11.9802
897DF8668975F6	-11.9803
6172725F3631006172725F363	-11.9835
7661725F3631007661725F363	-11.9838
EB0E488B8540FDFFFF488985	-11.9853
48FCFFFF488B8548FCFFFF488985	-11.9854
8A0C0880E101488B05000000008808	-11.9857
488B859000000048694D	-11.9859
20000488B8510020000488B8	-11.9866
7661725F31303900	-11.9873
488B4DE04883C10	-11.9878
39C87E090FB645	-11.9887
FDFFFF4883C003488985	-11.9889
400006000500554889E56689C8	-11.9896
000000000000000000000000C1000000	-11.9904
8A856FFFFFFF24010FB6C0	-11.9906
4180E10144884D	-11.9906
EB0E488B8548FDFFFF488985	-11.9909
6172725F31303900	-11.992
40FFFFFFEB0B488B45	-11.9923
4FDFFFFEB098B45	-11.9925
898504FBFFFF8B8504FBFFFF	-11.9933
8985ACFAFFFF8B85ACFAFFFF	-11.9939
30FCFFFF488B8530FCFFFF488985	-11.9942
7661725F3537007661725F353	-11.9948
740B8B45F48985	-11.9949
E8FBFFFF488B85E8FBFFFF488985	-11.9956
8B85FCFEFFFF3B85F8FEFFFF7	-11.9963
AFEFFFF0FBF8D	-11.9967
10488B8550FDFFFF488985	-11.9981
89859CFAFFFF8B859CFAFFFF	-11.9985
488B85A0FDFFFF483B8598FDFFFF7	-11.9985
8945DC8B45DC8945	-11.9986
0E8B85E4FEFFFF8985	-11.9993
740B8B45188985	-12.0004
898520FCFFFF8B8520FCFFFF	-12.0011
B0EB08488B45	-12.0014
0D488B45D0488985	-12.0022
8985D8FBFFFF8B85D8FBFFFF	-12.0025
898540FCFFFF8B8540FCFFFF	-12.0036
C1E00083F800	-12.0038
4939F8490F4	-12.0043
898510FCFFFF8B8510FCFFFF	-12.005
7661725F31313100	-12.0053
C5FD6FD9C5FD6F	-12.0054
68FBFFFF488B8568FBFFFF488985	-12.0056
40FCFFFF488B8540FCFFFF488985	-12.006
6172725F3539006172725F363	-12.0066
0E8B85DCFEFFFF8985	-12.0072
4D30448A4D28	-12.0072
38FCFFFF488B8538FCFFFF488985	-12.0092
10488B8598FDFFFF488985	-12.0095
48898578FEFFFF488B8580FEFFFF48	-12.0098
898528FCFFFF8B8528FCFFFF	-12.0111
C983C10D39C80F8D	-12.0121
80FBFFFF488B8580FBFFFF488985	-12.013
0E8B85D4FEFFFF8985	-12.0139
8985D4FAFFFF8B85D4FAFFFF	-12.0151
45284C8B4520	-12.0162
6172725F31323000	-12.0172
28FBFFFF488B8528FBFFFF488985	-12.0184
4088FE408875FF	-12.0197
3000000FCFFFFFFFFFFFFFF33	-12.0206
3000000FCFFFFFFFFFFFFFF2A	-12.0214
8985F0FBFFFF8B85F0FBFFFF	-12.0239
10488B8570FDFFFF488985	-12.0242
6172725F3435006172725F343	-12.0245
6172725F3639006172725F373	-12.0252
488B4DD84883E90	-12.0262
898590FBFFFF8B8590FBFFFF	-12.0277
EB0E488B8558FDFFFF488985	-12.0278
10FBFFFF488B8510FBFFFF488985	-12.028
400006000500554889E56689F0	-12.0285
898524FAFFFF8B8524FAFFFF	-12.0297
C983C10A39C80F8D	-12.0298
80E1010FB6D131C929D1	-12.0306
488B4548488B45408B4538	-12.0308
6172725F393500	-12.0325
EB0E488B8560FDFFFF488985	-12.0341
EB0E488B8530FDFFFF488985	-12.0354
3000000FCFFFFFFFFFFFFFF1D	-12.0357
0E8B8594FEFFFF8985	-12.0371
488B45C84883C00	-12.0371
0E8B85C4FEFFFF8985	-12.0388
898550FCFFFF8B8550FCFFFF	-12.041
480345C0488945C0E9	-12.042
6172725F31303300	-12.0426
6172725F31333300	-12.0431
10488B8548FDFFFF488985	-12.0431
740B8B45FC8985	-12.0434
3000000FCFFFFFFFFFFFFFF26	-12.0437
898530FCFFFF8B8530FCFFFF	-12.045
3000000FCFFFFFFFFFFFFFF27	-12.0455
488B05000000008B0881C	-12.0459
2E4C435049305F31007465737400	-12.0463
0E8B85ECFEFFFF8985	-12.0465
D8FAFFFF488B85D8FAFFFF488985	-12.0465
D3C5E172D210C5E	-12.0475
3000000FCFFFFFFFFFFFFFF25	-12.0477
10488B8578FDFFFF488985	-12.049
898554FAFFFF8B8554FAFFFF	-12.049
488B85A000000048694D	-12.0498
898598FBFFFF8B8598FBFFFF	-12.0503
E0FBFFFF488B85E0FBFFFF488985	-12.0504
C4437D39C001C539EFC4C441396BC0C4	-12.0511
6172725F31303400	-12.0512
48FBFFFF488B8548FBFFFF488985	-12.0514
FDFFFF4883C002488985	-12.0526
01000100010001000100010001000100	-12.0531
C8FBFFFF488B85C8FBFFFF488985	-12.0542
6172725F31303200	-12.0547
8B45B0483B45A8760D488B45B0488985	-12.0558
8B8568FFFFFF3B8564FFFFFF7	-12.0567
83E80183F8000F95C024018845D	-12.0573
6172725F31313200	-12.0587
48898500FEFFFF488B8508FEFFFF48	-12.0594
0E8B85ACFEFFFF8985	-12.06
48FFFFFFEB0B488B45	-12.0601
898518FCFFFF8B8518FCFFFF	-12.0601
C4423137C0C441396BC0C539EFC	-12.0623
7661725F3633007661725F363	-12.0629
8B45C8483B45C0760D488B45C8488985	-12.0662
FDFFFF4883C004488985	-12.0678
A0FBFFFF488B85A0FBFFFF488985	-12.068
6172725F34007661725F313	-12.0687
7661725F31313200	-12.0693
4518448A4510	-12.0702
B0FBFFFF488B85B0FBFFFF488985	-12.0703
898538FCFFFF8B8538FCFFFF	-12.0705
89854CFAFFFF8B854CFAFFFF	-12.0705
B8FBFFFF488B85B8FBFFFF488985	-12.0707
90FAFFFF488B8590FAFFFF488985	-12.0711
F8FBFFFF488B85F8FBFFFF488985	-12.0715
F6C201480F45C1	-12.0723
8985E0FBFFFF8B85E0FBFFFF	-12.0724
6172725F31313400	-12.0725
EB0E488B8550FDFFFF488985	-12.0727
2E4C435049305F30007465737400	-12.0735
EB0E488B8568FDFFFF488985	-12.0737
6172725F3231	-12.0763
3000000FCFFFFFFFFFFFFFF32	-12.0766
0E8B85BCFEFFFF8985	-12.0778
6172725F31333500	-12.0787
8B45C0483B45B8760D488B45C0488985	-12.0788
6172725F3533006172725F353	-12.0808
08FCFFFF488B8508FCFFFF488985	-12.0808
0E8B85A4FEFFFF8985	-12.0808
70FBFFFF488B8570FBFFFF488985	-12.0818
7661725F393400	-12.0822
40887DFF408875FE	-12.0832
E8FAFFFF488B85E8FAFFFF488985	-12.0834
0E8B85B4FEFFFF8985	-12.0837
898594FAFFFF8B8594FAFFFF	-12.0847
488B85B8FDFFFF483B85B0FDFFFF7	-12.0876
10488B8530FDFFFF488985	-12.0883
3000000FCFFFFFFFFFFFFFF35	-12.0885
488B4D804883C10	-12.0891
668B45FE668945	-12.0893
89856CFAFFFF8B856CFAFFFF	-12.0902
C983C10E39C80F8D	-12.0903
488975F08855EF	-12.0905
8985FCF9FFFF8B85FCF9FFFF	-12.0911
898564FAFFFF8B8564FAFFFF	-12.0912
488B8580FDFFFF483B8578FDFFFF7	-12.0916
488B85A8FDFFFF483B85A0FDFFFF7	-12.0918
EB0E488B8528FDFFFF488985	-12.0919
3000000FCFFFFFFFFFFFFFF31	-12.0925
488B85D8FDFFFF483B85D0FDFFFF7	-12.0928
488B85B000000048694D	-12.0939
0E8B8568FFFFFF8985	-12.0946
0E8B857CFEFFFF8985	-12.0956
7661725F3937007661725F393	-12.0956
3000000FCFFFFFFFFFFFFFF1F	-12.0957
8985E4F9FFFF8B85E4F9FFFF	-12.0961
3000000FCFFFFFFFFFFFFFF0D	-12.0969
10488B8538FDFFFF488985	-12.0977
8985A4FAFFFF8B85A4FAFFFF	-12.0983
8985A8FBFFFF8B85A8FBFFFF	-12.0984
488B8588FDFFFF483B8580FDFFFF7	-12.0986
38FBFFFF488B8538FBFFFF488985	-12.1007
80FAFFFF488B8580FAFFFF488985	-12.1008
898584FAFFFF8B8584FAFFFF	-12.1008
8B8570FFFFFF3B856CFFFFFF7	-12.1014
C5F9EFC1C5F970C8EEC5F9EFC1C	-12.1015
0E8B8574FEFFFF8985	-12.1021
6172725F3633006172725F363	-12.1052
3000000FCFFFFFFFFFFFFFF21	-12.106
488B0500000000668B00668945E	-12.1064
10488B8558FDFFFF488985	-12.1078
7661725F313000	-12.1086
897DFC408875FB	-12.1091
486BD20A4801D	-12.1095
488B4DC04883C10	-12.1095
486BD20F4801D	-12.1102
F0FAFFFF488B85F0FAFFFF488985	-12.1106
488B4DE84883E90	-12.112
