<unk>	0
<s>	0
</s>	0
B	-3.027
x	-3.0703
F	-3.19928
D	-3.21616
A	-3.2317
0	-3.24601
o	-3.30009
8	-3.31342
U	-3.33855
d	-3.33933
E	-3.37243
6	-3.39883
j	-3.4029
N	-3.41284
I	-3.44004
3	-3.44042
Y	-3.45467
hTQHcQ	-3.57754
EPGBCO	-3.57771
xgQ	-3.6117
Q	-4.11342
H	-4.19855
g	-4.5361
b	-4.58364
w	-4.6381
X	-4.70407
+	-4.71336
h	-4.74794
M	-4.76753
n	-4.7919
T	-4.79582
2	-4.8034
f	-4.81178
G	-4.86765
5	-5.0716
4	-5.13315
/	-5.14934
c	-5.1637
s	-5.18081
v	-5.21477
k	-5.31686
J	-5.32353
S	-5.34925
t	-5.35164
7	-5.43353
9	-5.47932
z	-5.48433
wB	-5.5082
e	-5.58406
u	-5.61572
1	-5.65965
i	-5.6947
p	-5.90307
m	-5.91158
P	-5.92845
O	-5.96574
QcYE	-5.99645
Z	-6.04832
TA	-6.14127
K	-6.16961
V	-6.20253
R	-6.33445
//	-6.33752
W	-6.47691
L	-6.54477
y	-6.55193
l	-6.55977
q	-6.60205
MA	-6.604
SQH	-6.64402
AAE	-6.64631
TIn	-7.13313
AAAA	-7.138
TjfTn	-7.25416
+2	-7.2791
xflw	-7.28793
QAAAAAAE	-7.29696
ScHlB	-7.30255
AADGh	-7.30504
AQAA	-7.30506
AABIu	-7.30643
EyLBQAAAAB	-7.31032
SDnQD	-7.31976
xflu	-7.32079
QcZFA	-7.32893
Ii	-7.33279
icJI	-7.3337
yLRCT	-7.33471
BNAe	-7.33977
TIslAAAAAE	-7.34187
kiJ	-7.3422
TBeX	-7.35881
SIn	-7.3638
TnQD	-7.36763
SI	-7.37284
SAHYS	-7.38464
uN	-7.39992
Iu	-7.40229
hMi	-7.48951
a	-7.56818
gAAAA	-7.57118
APh	-7.64003
Ei	-7.65467
kiLBQAAAAB	-7.67957
Ig	-7.69111
BAAB	-7.71512
HSSff	-7.76735
QAAE	-7.79002
AA	-7.79137
PH	-7.79368
xMF	-7.88991
EnB	-7.89082
RT	-7.89989
QAA	-7.96716
MO	-7.9924
AAAAAE	-8.04508
C	-8.11387
ja	-8.17226
Qk	-8.19439
DHSS	-8.30471
AABBD	-8.42704
AAAAAA	-8.63233
SY	-8.79996
///	-8.98722
AAAAA	-9.00317
r	-9.06025
iLBQAAAAB	-9.10024
wAA	-9.15684
BQAAAABm	-9.28901
kiL	-9.2995
EAAA	-9.4118
GwAA	-9.53647
CI	-9.628
SA	-9.92233
SDn	-9.94851
id	-9.96195
fhAAAAAAA	-10.0452
YuDx	-10.1845
STn	-10.2761
QAAAAAAM	-10.4001
QYPB	-10.45
xfHvy	-10.5368
QYn	-10.5382
AAAAE	-10.5413
AAA	-10.6047
RYn	-10.6341
Ewflu	-10.6435
TIslAAAAA	-10.6589
mYPH	-10.7031
wk	-10.7239
GJy	-10.7475
EGDw	-10.7548
AD	-10.7648
DnQD	-10.8271
EmJ	-10.8468
gAAA	-10.8828
iJ	-10.9678
fhAAAAAAAQQ	-10.9821
SD	-11.0003
Bic	-11.0562
RTHA	-11.0636
CgAA	-11.0759
fRAAA	-11.1043
AABFMc	-11.1175
AAEUx	-11.1199
wOs	-11.1702
AAB	-11.1796
ARTn	-11.2522
EAAAAAABB	-11.2928
FAAA	-11.3433
PtsB	-11.4413
FOd	-11.5693
AAEyL	-11.6804
RCTw	-11.6854
AAAAD	-11.7447
hBg	-11.9117
CD	-11.9304
McDr	-11.9571
CQ	-11.9766
AgAA	-12.0659
EAAB	-12.074
LRCT	-12.1043
RI	-12.1424
EUPt	-12.1834
+3	-12.1914
APks	-12.2182
ZmZmZmZ	-12.2645
EAAAAAAC	-12.3033
//4	-12.459
xeHv	-12.5456
Pt	-12.5786
SJ	-12.5852
mZm	-12.588
//9	-12.6385
AABIi	-12.6475
BQAA	-12.6586
iLBQAAAA	-12.6962
RA	-12.717
SWn	-12.7389
IA	-12.7696
BmDx	-12.777
IO	-12.788
wAAA	-12.8083
CR	-12.8227
ZmZmZmZm	-12.8709
SIu	-12.8742
EAAAAAAB	-12.8771
Zok	-12.8783
mQYP	-12.882
fhAAAAAAARQ	-12.888
SGn	-12.9102
GaJ	-12.9338
yLBQAAAAB	-12.9429
hIi	-12.955
BEi	-12.9569
CS	-12.9654
//0	-13.0007
BMi	-13.0794
PT	-13.089
SIt	-13.1071
CT	-13.1195
JN	-13.1416
AABmi	-13.1623
Zom	-13.1625
TDn	-13.1671
Pj	-13.1791
Ehp	-13.1859
AAAD	-13.2015
SIP	-13.2293
SL	-13.2353
Pv	-13.2361
QkoE	-13.2752
AAAB	-13.2843
SIsFAAAAAE	-13.3129
BAAA	-13.3242
AABIA	-13.3555
AAABIi	-13.3635
SIk	-13.3647
yLRCS	-13.3704
EgB	-13.3955
EPks	-13.4002
EyLR	-13.4027
QAAAAAAI	-13.4328
iLDQAAAABEi	-13.4407
LdCS	-13.4432
xOJ	-13.4502
yJ	-13.4579
iLFQAAAAC	-13.4876
Im	-13.5326
JO	-13.5362
AEAAE	-13.5488
BBD	-13.5563
SIs	-13.5568
EiL	-13.5865
AABFMf	-13.5982
TGn	-13.6269
ItEJK	-13.6534
jR	-13.6595
IiwUAAAAA	-13.6623
AEAA	-13.6811
TifVn	-13.6842
SG	-13.689
iLTCT	-13.691
EiJ	-13.6957
SIsNAAAAA	-13.7203
OdB	-13.7214
SIm	-13.7224
AHQ	-13.7432
kB	-13.7469
qN	-13.7502
//+	-13.7628
ZmZi	-13.7675
AIP	-13.8118
gCAAA	-13.8506
Jac	-13.8541
mi	-13.8654
IixUAAAAA	-13.8714
VQ	-13.8828
AABMi	-13.8889
RYXS	-13.8963
SIsVAAAAAE	-13.9
BgAA	-13.9006
AAPhA	-13.9132
AAAx	-13.9162
YPH	-13.9185
AAAAATIs	-13.9214
AAEiL	-13.9219
AIAA	-13.9239
Ia	-13.9305
AgAAA	-13.9592
maJ	-13.9599
Vw	-13.9777
iLjCT	-13.9781
AABI	-13.9862
RItcJ	-13.9914
APlc	-14.0008
Iac	-14.0046
iLRCS	-14.0146
hp	-14.0318
QkqE	-14.0375
SYn	-14.0408
EgDhCS	-14.0472
QAAA	-14.0481
SAO	-14.0589
iLTCS	-14.0599
AwAA	-14.0717
CQAA	-14.0798
MiUQk	-14.084
LbC	-14.0929
QkkE	-14.1036
SIO	-14.1115
mN	-14.1152
ItcJC	-14.1296
oAgAA	-14.1487
Elp	-14.156
9///	-14.1706
wkqAIAA	-14.1815
SIsNAAAAAE	-14.1954
FwA	-14.2002
iJTCR	-14.203
iJTCT	-14.2036
QAAAAB	-14.2087
fQAB	-14.2141
gLwk	-14.2249
AAAC	-14.2392
APlM	-14.2414
EGJ	-14.243
CAAC	-14.2566
AAAASI	-14.2679
AAAAATI	-14.2713
jY	-14.2874
AdB	-14.2994
iLXCQ	-14.3078
ZkGJ	-14.3211
Mcl	-14.3263
CAAA	-14.3371
AQAASWn	-14.3478
gBAAA	-14.3493
EiLhCR	-14.3543
BwAA	-14.359
BIA	-14.3609
gEAA	-14.361
AAAAASIt	-14.3796
AAC	-14.3977
AcAA	-14.4151
iJRCS	-14.416
wkmAIAA	-14.4164
Jad	-14.4212
EiLBQAAAACL	-14.4266
AAABMi	-14.4348
mZmZm	-14.4383
wAAAE	-14.4503
SIsdAAAAAE	-14.4572
AAPh	-14.459
xZLgB	-14.4603
EgBwU	-14.464
JPQAA	-14.4664
TItkJO	-14.4665
AgAAD	-14.4677
oAwAA	-14.4695
UiL	-14.4696
wksE	-14.4718
EiLjCS	-14.4758
CAAB	-14.476
EAPl	-14.4821
wUAAAAA	-14.4852
oCAAA	-14.4906
AkAAE	-14.4958
kgB	-14.4988
wGaJ	-14.5066
APt	-14.5136
iLDQAAAAB	-14.5211
EyLXCS	-14.5252
AAAAi	-14.5292
mZmZmZm	-14.5295
AQAATI	-14.5304
QAAAABIi	-14.5373
AAAAASI	-14.5384
iLdCT	-14.539
AYAAE	-14.5401
yLZCS	-14.542
7//0	-14.5433
SIuMJIA	-14.5476
UiLDQAAAAB	-14.5491
IAQAA	-14.5538
SIM	-14.5684
AAAAEiL	-14.5721
IEwAA	-14.5729
BQAAAAB	-14.5733
AQAAD	-14.5738
JKh	-14.5783
AACL	-14.5807
gAQAA	-14.5812
JIA	-14.5821
AQAASI	-14.5836
AEAAA	-14.5836
McBI	-14.5938
wBxk	-14.5952
yLfCQ	-14.5981
QkiE	-14.6055
IuE	-14.606
QYg	-14.6066
SDu	-14.6069
hcB	-14.6086
yLbCS	-14.6147
BJAc	-14.617
AIAAE	-14.6172
TIsVAAAAAE	-14.6175
iLDQAAAABMi	-14.6202
QksE	-14.6212
pMi	-14.6213
cQIAAE	-14.6224
OAB	-14.6256
AADE	-14.6262
SItMJM	-14.63
hj	-14.632
KdC	-14.64
jQz	-14.649
MixUAAAAA	-14.6491
fhAAAAAAASIt	-14.6501
QPt	-14.6527
AAGaJ	-14.6552
wkqE	-14.6564
MiZQk	-14.6723
oAQAA	-14.6728
SItMJP	-14.6772
fhAAAAAAARA	-14.6794
SIuEJMA	-14.6848
EiLjCQ	-14.6877
AABIa	-14.6899
QkuE	-14.6951
kPRM	-14.7046
BIaf	-14.7062
EiLBQAAAAB	-14.7063
AAAAElp	-14.7089
ICAAA	-14.7091
AEA	-14.7157
ZkWF	-14.7162
iLdCS	-14.7168
UiLTCS	-14.7277
EiLlCQ	-14.7304
Plc	-14.7317
AHR	-14.7375
Ulp	-14.7416
TAHG	-14.7431
YAQAA	-14.7451
BIOc	-14.7452
QksAAAA	-14.7467
iLvCS	-14.748
AdF	-14.7514
EgDhCT	-14.7522
iDvCS	-14.754
iLVCS	-14.7548
QEAA	-14.7559
IAwAA	-14.7597
wkCAEAA	-14.7599
JJAAAAB	-14.7651
AAEgB	-14.7662
lMi	-14.7686
BID	-14.7705
EUxw	-14.7737
AIAAA	-14.7745
wkaE	-14.7762
BIixUAAAAA	-14.7766
AABmg	-14.7783
AAAAASAH	-14.7819
wEA	-14.7822
GZEiQ	-14.7882
klp	-14.7897
EyLlCS	-14.7911
Byk	-14.7953
AACJ	-14.7956
JweA	-14.798
iLTCR	-14.8078
AADp	-14.8099
EiJRCR	-14.8107
EiLhCT	-14.816
gAATWn	-14.8184
LRCR	-14.8186
ScHgB	-14.8196
gDNQAAAAB	-14.8276
EAAAAAABIi	-14.8288
BAABMi	-14.8291
ISIsFAAAAA	-14.8297
ZEJI	-14.8303
BAAC	-14.8344
SIuEJKg	-14.8348
dCS	-14.8455
AQAAi	-14.8466
ACAAA	-14.8475
lUJJ	-14.8489
MiXwk	-14.85
QscE	-14.8527
QkgAAAA	-14.8534
SOgBA	-14.8544
AABIjZ	-14.8551
wCAAA	-14.8584
QkiAAAA	-14.8598
IPt	-14.8623
QAAAABMi	-14.8625
AMAA	-14.864
EiBx	-14.8662
QkuAIAA	-14.8669
SYk	-14.8706
ZmZm	-14.8723
EgPR	-14.8787
wkeAIAA	-14.8801
JLACAAB	-14.8804
AABJad	-14.8812
AABIAc	-14.8814
ItEJA	-14.885
TIsFAAAAAE	-14.8855
EiLtCS	-14.8871
TIsdAAAAAE	-14.8892
ItEJM	-14.891
BIiUQk	-14.8941
JjTQ	-14.8954
EyLfCS	-14.8957
QkmE	-14.8964
AQAAA	-14.8985
SYPB	-14.8992
GbHA	-14.9018
joAQB	-14.9058
TifVj	-14.9074
JAAB	-14.9079
AABBjU	-14.9092
iUQk	-14.91
MTBeW	-14.9122
BQB	-14.9129
QkIE	-14.9141
SItEJJB	-14.9171
QkkAAAA	-14.9178
AAABID	-14.9191
yLTCR	-14.9213
QAAAE	-14.9225
RItkJ	-14.923
EgD	-14.9256
ZmZmZm	-14.9266
AfCS	-14.9323
wkoE	-14.933
JMBIi	-14.9346
gDwAA	-14.9363
wkyE	-14.9401
wkcAEAA	-14.9401
AADHA	-14.943
LjQS	-14.9461
iBMAA	-14.9485
QkYAEAA	-14.9488
khr	-14.9518
AAAABMi	-14.9519
QkEE	-14.953
SYPC	-14.9546
ItUJJ	-14.9552
CAABIi	-14.966
SosE	-14.9665
mZmZmZ	-14.969
EiLlCR	-14.9698
PlMB	-14.9744
AAAPt	-14.9763
IlEJJ	-14.9804
AABIg	-14.9857
BJOd	-14.9895
SDtEJ	-14.9903
EiLPQAAAAB	-14.9913
BAABm	-14.9985
sFu	-15
yEiY	-15.0012
EQPt	-15.0024
3//8	-15.0036
QJwAA	-15.0055
AdR	-15.0059
JjX	-15.0087
iLTCQ	-15.0097
nECAAB	-15.0108
SItMJK	-15.0149
CAABIg	-15.019
AABIjQ	-15.0209
AEAAEiL	-15.0241
RTHJ	-15.0248
CwAA	-15.0276
yBSoB	-15.0288
ItMJP	-15.0308
///0	-15.0313
BQAASI	-15.0316
wkcAMAA	-15.0348
CSg	-15.0356
YtEJ	-15.0359
EiLjCT	-15.0362
IXSd	-15.0365
UiLjCQ	-15.0413
EAAAAAABMi	-15.0419
QkwAAAA	-15.0463
AAEiLBQAAAABIi	-15.0481
EPt	-15.0503
AAAAAEyJ	-15.0503
SIGE	-15.0525
AUAA	-15.0531
EiLvCS	-15.0543
AEAAEiJ	-15.0575
iQhIi	-15.0593
gAAAE	-15.0593
AvCS	-15.0604
gIAA	-15.0658
SMH	-15.0663
kjB	-15.0688
CAABMi	-15.0689
APv	-15.0707
AMAAElp	-15.0724
EEPt	-15.076
SAHI	-15.081
TIsNAAAAAE	-15.081
EgAA	-15.0812
JJABAAB	-15.082
Pto	-15.0822
hMA	-15.0848
kCA	-15.0869
AABIAd	-15.0879
EiLRCR	-15.0936
SItMJD	-15.0958
khp	-15.096
BIiYQk	-15.0964
BAAASI	-15.1008
gxy	-15.1047
SLl	-15.1081
QAAAAAAEiL	-15.1098
BAABIac	-15.112
EyLDQAAAAB	-15.1158
LgBAAAA	-15.1184
yLVCS	-15.1198
ItMJB	-15.1214
SIuUJLg	-15.1228
VA	-15.1237
iLFQAAAAAPt	-15.1238
AQAAAE	-15.1247
ApUA	-15.1256
SIsVAAAAA	-15.126
AABJac	-15.1267
IlMJP	-15.1268
ADYAAE	-15.1283
hID	-15.13
mQYk	-15.1318
EiJRCQ	-15.1323
JIgBAAB	-15.1325
AMAAE	-15.1332
JIgAAAB	-15.1343
KLBJ	-15.1353
//6	-15.1358
iLPQAAAAB	-15.1382
yLTCS	-15.1398
AABIiwUAAAAA	-15.1404
MdJI	-15.1413
IlMJD	-15.1415
AAAAAQQ	-15.1449
EyLJQAAAAB	-15.1466
AAAASA	-15.1488
QAwAA	-15.1518
AABED	-15.153
RMi	-15.1544
gDjCT	-15.1553
SItUJI	-15.1557
ZoM	-15.1558
JAgBAAB	-15.1569
MiVwk	-15.1583
wkuE	-15.1587
AEAAEgB	-15.1604
AgAATI	-15.1661
QkGE	-15.1674
EiLNQAAAAB	-15.1674
AABIac	-15.1714
iLfCS	-15.1719
ZkSJ	-15.1728
SItUJO	-15.1741
yLXCR	-15.1753
KjQT	-15.1754
AABIiZQk	-15.1761
JHgBAAB	-15.1784
gBAAAA	-15.1792
BIjQ	-15.1855
EiLDQAAAAB	-15.1865
hMac	-15.1867
SItMJJ	-15.1869
GZEi	-15.1883
EyLnCT	-15.1916
Igc	-15.192
AHU	-15.1933
SAOEJFA	-15.1936
SItUJK	-15.1958
AYAA	-15.196
yIn	-15.1961
SIsdAAAAA	-15.1971
EiLTCT	-15.1977
QkEAEAA	-15.2033
AABNa	-15.2041
SGlUJ	-15.2046
yLdCT	-15.205
EiLXCQ	-15.2075
QBwAA	-15.2088
kPv	-15.2125
hCRIAQAA	-15.2156
hEi	-15.2286
mRIk	-15.229
AdA	-15.233
ZkGD	-15.2337
SItEJF	-15.2338
QkuAEAA	-15.2357
wkmA	-15.2375
wkkA	-15.2431
SItEJM	-15.2445
IlEJP	-15.2447
iLXCS	-15.2463
EyLFQAAAABMi	-15.2471
gAAABIA	-15.2501
EgBy	-15.254
EPts	-15.2549
AAAAEiJ	-15.261
AgAAi	-15.2658
SItMJI	-15.268
ZkODP	-15.2711
hCQoAQAA	-15.2753
AABIixUAAAAA	-15.2764
ItcJB	-15.2771
EiLBQAAAAC	-15.279
wkkAAAA	-15.2801
IlMJN	-15.2802
SIuMJHA	-15.2808
BJOc	-15.2834
EiLjCR	-15.2837
wkQAEAA	-15.2848
SLr	-15.287
EPl	-15.288
AAAxwE	-15.2895
wksA	-15.2922
TIsdAAAAA	-15.2944
SIucJMg	-15.2972
wkMAEAA	-15.3018
JFgBAAB	-15.302
EiLFQAAAAB	-15.3037
uAEAAA	-15.3053
EAABMi	-15.3061
EjB	-15.3071
JLgAAAB	-15.3086
UiLjCS	-15.3096
ZkWJ	-15.3122
wEAA	-15.3138
CAABIA	-15.3142
AAACA	-15.3144
wkiAAAA	-15.3149
TAHS	-15.3151
QkkA	-15.3168
wkoAEAA	-15.317
AABIiYwk	-15.3172
iLfCT	-15.3178
BMAf	-15.3179
EgByE	-15.3228
SAHC	-15.3229
SIuUJLA	-15.3229
IAfF	-15.3232
AAAAADH	-15.3259
oAA	-15.326
NAAAAAE	-15.3299
FQAAAAA	-15.3299
AABBg	-15.3316
SItMJE	-15.3317
AABm	-15.332
SIlEJD	-15.332
JNAAAAB	-15.3321
7//4	-15.3321
EiLVCT	-15.3322
iEQk	-15.3343
SImEJBA	-15.3358
gDtCS	-15.3388
JOgAAAB	-15.3396
QkKAEAA	-15.3406
iJTCS	-15.3447
Miawk	-15.3467
gBAABMi	-15.3495
QkoAEAA	-15.3507
SImEJIA	-15.351
SAMNAAAAA	-15.3548
EgDhCR	-15.3565
JLAAAAB	-15.3577
SIsFAAAAAI	-15.3583
MTie	-15.3594
TAMVAAAAAE	-15.362
yLpCR	-15.3678
kGJ	-15.3686
AAEwB	-15.3695
SIuMJOg	-15.3712
JMgA	-15.3723
JNgAAAB	-15.3726
EyJbCT	-15.373
MAxUAAAAA	-15.3747
JHABAAB	-15.3751
MdJ	-15.3806
yLjCR	-15.3827
QAAAAAPt	-15.3861
3//0	-15.3865
SAHWS	-15.3872
SItEJP	-15.3931
mRYk	-15.3947
SIlsJ	-15.3948
kyLFQAAAAB	-15.3965
AABIiYQk	-15.3968
EyLrCS	-15.3969
AAEyJ	-15.3975
jXT	-15.3976
EwBw	-15.3976
SGnJ	-15.3997
kiNF	-15.3999
AAAAEi	-15.4013
ZmZmZ	-15.4019
IizUAAAAA	-15.4027
AAEiLhCS	-15.4036
EiLRCQ	-15.4047
jHSS	-15.4053
QkKE	-15.4054
wAwAA	-15.4055
wkmE	-15.4077
EPlM	-15.408
AoAA	-15.4081
oBwAA	-15.4106
jCToAAAA	-15.4141
JCABAAB	-15.416
EyJVCS	-15.4178
AAAAATAH	-15.4193
iLRCTI	-15.4221
AAGaD	-15.4229
wAPh	-15.4259
TItkJI	-15.4261
SItMJC	-15.4329
cAAE	-15.4333
EiLrCS	-15.4338
SIuEJHg	-15.4346
AEAAEmN	-15.4353
IweI	-15.4365
SIuMJLg	-15.4376
kAAA	-15.438
Elpy	-15.44
miQFIi	-15.4417
AABFD	-15.4422
wkKAEAA	-15.4422
iJRCT	-15.4428
ItMJA	-15.443
SIuMJPA	-15.4452
JlCQ	-15.4462
QkoAMAA	-15.4463
QkcAIAA	-15.4466
SIsVAAAAAA	-15.4482
IAcFIi	-15.4486
AABJg	-15.4492
SIlEJM	-15.4494
QkgAIAA	-15.4525
IlEJB	-15.4539
wkiAEAA	-15.4551
AAAATAH	-15.4551
wkmAAAA	-15.4551
EiLhCS	-15.4573
RCQI	-15.4584
BIiVwk	-15.4595
SItMJL	-15.4603
AABMA	-15.4605
SIuUJNA	-15.461
MiaQk	-15.4625
IAdZ	-15.4644
SAHK	-15.4651
AABIAcp	-15.4659
yLNQAAAAB	-15.4667
SImMJJg	-15.4686
IjQy	-15.469
hcAPh	-15.4728
SImEJBg	-15.4728
MiYwk	-15.473
Uhr	-15.4788
AEAAElp	-15.4792
SLp	-15.4794
LjCS	-15.4801
EjHA	-15.4826
gDlCT	-15.484
SImEJFg	-15.485
wksAEAA	-15.4857
JMi	-15.489
EJoBAE	-15.49
QkiAMAA	-15.49
EgPQs	-15.4907
wkqAMAA	-15.4913
JIiYQk	-15.4917
AMAAA	-15.4928
wkwE	-15.4934
GZmL	-15.4942
gIAAA	-15.4965
wDlCS	-15.4979
kmJ	-15.4989
AABIaf	-15.4999
yJVCT	-15.5006
ItUJI	-15.5009
BQAAAAA	-15.5014
SYHH	-15.5016
CFwA	-15.502
AABIgYQk	-15.5025
SImUJKg	-15.5048
GJw	-15.5064
kAEAA	-15.5065
Mcm	-15.5081
iJVCS	-15.5102
ItUJH	-15.5118
JPgAAAB	-15.5119
BJiQ	-15.513
RImMJ	-15.5139
iJRCQ	-15.5139
SLg	-15.5145
EkPQs	-15.5148
AABmDx	-15.5148
kiLlCT	-15.5151
JweE	-15.5154
hcAPlM	-15.5205
QKVAE	-15.5212
SIuEJJg	-15.5225
IAfl	-15.5228
AQAATIu	-15.523
AAgAA	-15.5245
EgAAAA	-15.5262
McB	-15.5266
IlMJO	-15.5277
SAOEJIg	-15.5294
wkGAEAA	-15.5303
wAAAC	-15.5313
SImEJFA	-15.5319
SAAAAD	-15.5327
IlEJF	-15.5327
AEAAEiN	-15.533
SIuUJPg	-15.5332
EyJrCS	-15.5348
AAEkB	-15.5369
JHACAAB	-15.5382
wkOAEAA	-15.5384
SIuEJLg	-15.5384
EwDhCS	-15.5394
JKgBAAB	-15.5404
BBxg	-15.5406
gDhCS	-15.5412
RCSw	-15.5415
SMHiB	-15.5415
EiJtCS	-15.5422
yYPB	-15.5424
SIuEJPg	-15.5437
TAHB	-15.5455
SGlEJ	-15.5461
ZkOJ	-15.5467
QccH	-15.5486
TAMdAAAAA	-15.5494
EiNDI	-15.5495
QkMAEAA	-15.5497
gHAAB	-15.5506
EiLRCTg	-15.5513
ZkHHR	-15.5523
SGnS	-15.5531
tsJ	-15.5544
ugEAAAB	-15.5546
JJgDAAB	-15.5551
OdAPj	-15.5566
AABJa	-15.557
SIlMJJ	-15.5572
EHGA	-15.5575
AAASIGEJ	-15.5589
AQAASAH	-15.5615
EyLtCT	-15.5616
IlUJL	-15.5621
SDnISA	-15.5644
SIsFAAAAAMYAA	-15.5655
IgUQk	-15.5661
BIOd	-15.5726
MdI	-15.5736
uV	-15.5746
KjU	-15.5753
CAABEi	-15.5769
EyLnCR	-15.5793
CLh	-15.5817
AEAAEyJ	-15.5822
lCSgAAAA	-15.5831
JKACAA	-15.5831
XhoAA	-15.5839
EkBy	-15.5839
VI	-15.5842
gAAABMi	-15.5847
IBwAA	-15.5862
ScHjB	-15.5875
IBQAA	-15.5892
MiUwk	-15.5894
hmg	-15.5913
QAPh	-15.5924
iLhCToAAAA	-15.5928
hCTAAgAA	-15.5958
IAdFIi	-15.5965
AgAASA	-15.5997
AAADr	-15.6011
fUFAE	-15.6011
SAOUJKA	-15.6024
AAESL	-15.605
icHr	-15.6053
iLhCR	-15.6072
CQAASI	-15.6095
RTHk	-15.611
wAASIGEJ	-15.6115
SAOEJLA	-15.6119
JMB	-15.613
wkuAIAA	-15.614
iLjCR	-15.614
iLlCQ	-15.6141
AkAA	-15.615
ZEJK	-15.6175
WZBi	-15.6182
TIucJNA	-15.6183
RCRY	-15.6215
AABIibwk	-15.6228
TItcJJh	-15.6229
AAPhK	-15.6258
iBRCQ	-15.6289
AcAAEiN	-15.6305
IAcFJac	-15.6325
QkuAAAA	-15.6337
AAEiLhCT	-15.634
RCH	-15.6344
SAHKSAH	-15.635
AEAAEkB	-15.6369
Ihd	-15.6385
AUAAE	-15.6404
AgAATAH	-15.6414
SIuMJOA	-15.6414
gDtCT	-15.6445
AABMa	-15.6465
wusLA	-15.6479
iLlCS	-15.6482
wkKE	-15.6484
AABBx	-15.6503
hCS	-15.6504
ixUAAAAA	-15.6508
omUJ	-15.6521
EiLlCS	-15.6527
lCQwAQAA	-15.6546
wkSE	-15.6582
MAAA	-15.6602
AgAASI	-15.6615
wkoAIAA	-15.6662
BMAe	-15.6665
yLDQAAAAB	-15.6669
ARIn	-15.6685
SGPJSGn	-15.6692
uQEAAAB	-15.6706
JCA	-15.6711
gPv	-15.6716
iZQk	-15.6717
RIlkJ	-15.6732
QLVAJ	-15.6752
YCAAA	-15.6752
EwPR	-15.6794
MPt	-15.6797
gAAD	-15.68
EiLnCT	-15.6801
AAEgD	-15.6815
SIXAD	-15.6826
AABMAd	-15.6883
AAPhC	-15.6895
SItMJN	-15.6898
Iry	-15.6915
YKQAA	-15.6917
EHGB	-15.6919
QkeE	-15.6926
wDHQAAAAB	-15.6926
RCTA	-15.6927
aDfCR	-15.6938
AAABED	-15.6948
SAHBSI	-15.6961
QkwE	-15.6972
SItMJB	-15.6978
haz	-15.6979
AgCgA	-15.6982
AQAATAH	-15.6989
hCSAAAAA	-15.699
Ptk	-15.7009
AsAEA	-15.7021
QkmAIAA	-15.706
AAAASAHI	-15.7078
iLR	-15.7092
gzkA	-15.7094
JIhMi	-15.7101
IweA	-15.7106
IlUJD	-15.7132
CAcAAE	-15.7133
AAAASo	-15.7134
AxwE	-15.714
JIAAAAB	-15.715
AAAAASIs	-15.7159
gQAAE	-15.7163
lCQQAQAA	-15.7168
EyLtCQ	-15.7179
IjQSASI	-15.7195
wkwAIAA	-15.7219
AABJaf	-15.7229
MAcp	-15.7255
TANkJ	-15.726
QkoAAAA	-15.7269
oXS	-15.7305
lCRwAgAA	-15.731
SItcJM	-15.7318
AOQB	-15.7322
AAAAAZok	-15.7349
AQAASAHI	-15.7356
rwGR	-15.7364
EmBx	-15.7384
AAAPtkQk	-15.7407
ABAFA	-15.7408
SIsFAAAAA	-15.7425
ItUJM	-15.7458
EiJhCT	-15.746
SIlEJFB	-15.7472
SAHKSI	-15.7473
yAAAAE	-15.7475
AAAAASIk	-15.7478
IAfd	-15.7487
EwBy	-15.7488
gDhCT	-15.7502
ATAEA	-15.7526
kiLlCS	-15.7527
lIiUwk	-15.7579
ICQAA	-15.758
CLfCS	-15.7592
hcAPlc	-15.7592
iJVCQ	-15.7628
GZBxw	-15.763
SIlEJAh	-15.7634
gBAABIi	-15.7649
IAdEPt	-15.7676
AABIiwUAAAAAxgA	-15.7679
CgLw	-15.7682
TIuMJHA	-15.769
BgAASI	-15.7697
gBgAA	-15.7705
RYXt	-15.7716
BMjQ	-15.7771
QkqAIAA	-15.778
SIuMJEA	-15.7792
RIlMJ	-15.7793
EyLFQAAAAB	-15.7794
AAAABIg	-15.7806
iJVCR	-15.7811
AwAASI	-15.7841
AAABIg	-15.7855
wkME	-15.7865
QAATIm	-15.7877
JJgCAA	-15.7885
AsAA	-15.7888
iLhCQ	-15.7911
AAAAARQ	-15.7939
ABIi	-15.7954
EmNN	-15.7972
RIhEJ	-15.7986
SImEJIAAAAB	-15.7989
uQEAA	-15.8004
ESLTCS	-15.8021
IAwUAAAAA	-15.8036
EgDlCS	-15.8038
QkYAMAA	-15.804
iLHQAAAAB	-15.804
AAAATYn	-15.8071
EnoAAE	-15.8086
EiLtCQ	-15.8092
AACAvCS	-15.8102
AgHkA	-15.8109
ZDgzx	-15.8127
SImMJNg	-15.815
SIHC	-15.8153
TAMFAAAAA	-15.8162
GZmZm	-15.8194
AABIad	-15.8208
AGAAB	-15.8224
IsVAAAAA	-15.823
HAABMi	-15.8235
MiWwk	-15.8277
IusJ	-15.8295
EyNL	-15.8317
iLjCS	-15.8319
AAABIx	-15.8333
AAAAAEiJ	-15.8333
TAHHS	-15.8334
AQAASIu	-15.8334
QkcAEAA	-15.8341
vCTIAAAA	-15.8387
gHAAA	-15.84
RTHS	-15.8404
wkkE	-15.8408
yLXCT	-15.8455
AABJi	-15.8462
uAEAAAC	-15.8501
gCAAAA	-15.8507
BAABIg	-15.8508
DAAA	-15.8522
QAAAAC	-15.8528
QkgE	-15.8548
JGgDAAB	-15.8562
iLdCR	-15.8565
APj	-15.8568
gAwAA	-15.8574
JIgAAAC	-15.8601
gDoA	-15.8615
wkuA	-15.8652
IadL	-15.869
BIiVQk	-15.8696
MiyUAAAAA	-15.8716
AEAAEqN	-15.8722
wkcAIAA	-15.8723
AABJAc	-15.8738
TItMJI	-15.8749
InA	-15.8768
BMiwUAAAAA	-15.8785
DQAAAAB	-15.8803
QAAgHwk	-15.881
InB	-15.8855
iYQk	-15.8856
EgByk	-15.8928
AAPhE	-15.8948
IsFAAAAA	-15.8955
EiLtCR	-15.8972
yLVCT	-15.8995
ItsJK	-15.9039
JjQS	-15.9068
iLbCS	-15.9081
ImEJG	-15.9105
lBD	-15.911
wkoAAAA	-15.9111
AABIiUwk	-15.9116
EiLtCT	-15.912
ZoN	-15.9125
FwHU	-15.9147
SItEJK	-15.9157
EyLhCT	-15.9164
TIl	-15.9167
AABNi	-15.9192
EiLhCQ	-15.9219
Fhcl	-15.9235
MiVQk	-15.9266
iJdCQ	-15.9269
EmBw	-15.9301
SImEJLg	-15.9306
TAHHT	-15.9344
AABIjR	-15.9351
EiJhCQ	-15.9359
EiJhCS	-15.9392
OdYP	-15.9446
SIuEJHA	-15.9453
EiLfCS	-15.9454
wkGE	-15.9456
iLVCQ	-15.9467
TCSI	-15.9496
JBgBAAB	-15.9521
RYXJ	-15.9531
UiJjCS	-15.9538
EiJBQAAAAB	-15.9571
rBb	-15.9573
Bmx	-15.96
yLjCT	-15.9635
hCRoAQAA	-15.9653
iJTCQ	-15.9658
QCAAA	-15.9671
CAfCQ	-15.9674
BMOc	-15.9677
TItcJKB	-15.9695
SIlEJJh	-15.9711
EWJ	-15.9744
Jyk	-15.9755
SIkFAAAAA	-15.9757
SMHmB	-15.9763
hIjQ	-15.9765
AABJAd	-15.9778
QkaE	-15.978
AADHJ	-15.9825
BAABIA	-15.9841
FQAAAAB	-15.9848
EiLlCT	-15.9858
IiRUAAAAA	-15.9889
SIuEJEA	-15.99
iLhCT	-15.9913
NQAAAAB	-15.9916
AAAAPt	-15.9933
JJgBAAB	-15.9937
EiJlCS	-15.9947
hIiYQk	-15.9981
SIuMJKg	-15.9983
mBw	-16.0014
EPlc	-16.0019
AABIjY	-16.0019
TItMJK	-16.0063
QBMi	-16.0076
JAfl	-16.0104
SAHGS	-16.0106
JDABAAB	-16.0133
GZFi	-16.0141
MizUAAAAA	-16.0169
AABEi	-16.0203
SItUJP	-16.0241
3//9	-16.0249
SPfQ	-16.0271
UxwE	-16.0279
ItsJM	-16.0295
SItcJI	-16.0303
wkiE	-16.0314
JIABAAB	-16.0316
UyLDQAAAA	-16.0324
IAchIi	-16.0339
AFMi	-16.0367
AcAAEiJ	-16.0373
oAAA	-16.0379
AABJic	-16.0384
QkmAAAAE	-16.0395
hCQQAQAA	-16.0395
UmJ	-16.0404
SMHgB	-16.0417
EiLvCT	-16.0419
JAfB	-16.042
hIA	-16.0424
EyLHQAAAAB	-16.0424
SItUJJ	-16.0436
QkGAEAA	-16.0458
IiUQkq	-16.0464
hCR	-16.0465
BNic	-16.0473
ZkE	-16.0473
yLbCT	-16.0477
Elpz	-16.0504
yLVCQ	-16.0509
iLfCQ	-16.0512
SoM	-16.0554
IAcF	-16.0556
QkOAEAA	-16.0574
SDtMJ	-16.0619
AAATI	-16.0624
YAwAA	-16.0638
AABJgc	-16.065
SItEJL	-16.066
PtsBI	-16.0666
CRI	-16.0669
EiLBQAAAABIi	-16.0751
EiDw	-16.0766
SItEJE	-16.0792
AAABIiwUAAAAA	-16.0795
rCQ	-16.0798
BAAD	-16.0811
gEAAA	-16.0826
hIiUQk	-16.0829
EiJhCR	-16.0833
iLdCQ	-16.0839
SImEJKg	-16.0848
TItkJL	-16.0866
yLlCR	-16.0883
SItMJO	-16.0894
jCSYAgAA	-16.0898
IiYQkgAAAA	-16.0911
QkAAEAA	-16.0914
AAAASIs	-16.0936
AAAAATIt	-16.0959
AABFMe	-16.0966
UiJjCT	-16.0975
GAAA	-16.1003
TYk	-16.1008
CAB	-16.1029
FIiYwk	-16.1031
wkkAIAA	-16.1042
lCSwAQAA	-16.1044
EiNhA	-16.1103
IAdBI	-16.1122
QkyE	-16.1123
wkqA	-16.1141
SItEJO	-16.1163
JIB	-16.1165
ItUJK	-16.1174
BNac	-16.1191
EiLvCQ	-16.1207
BJac	-16.1224
hmx	-16.1245
AAAPl	-16.1266
EyLhCR	-16.1267
AABJAf	-16.1269
ABAABIi	-16.1301
lCQAAQAA	-16.1315
SIkVAAAAA	-16.1318
mRYX	-16.1325
GAAB	-16.135
JMACAAB	-16.135
ItcJL	-16.1387
ZIiYQk	-16.1403
RYk	-16.1405
SJTCS	-16.1412
ZoO	-16.1412
gAASI	-16.1453
jCQwAQAA	-16.1486
Pls	-16.152
AcAAEiL	-16.158
fCSI	-16.1592
AAAASIu	-16.1597
Ehr	-16.1632
QkCE	-16.1651
cPt	-16.1656
EyLhCQ	-16.1675
IjQx	-16.1677
TANUJ	-16.1681
SLi	-16.1688
AIAAEiL	-16.1702
EyLhCS	-16.1722
hpy	-16.1745
QmgEA	-16.1746
TANEJ	-16.1753
ZkKJ	-16.1756
JJgAAAB	-16.1774
wkIAEAA	-16.1783
wkmAEAA	-16.1789
yLRCQ	-16.1797
EIPtgQ	-16.1801
AAEhp	-16.1872
iLVCT	-16.193
dMi	-16.1953
AAAAASIu	-16.1961
yLXCQ	-16.1961
AwAAi	-16.197
iLVCR	-16.1983
RCSI	-16.2014
EEPl	-16.2055
RCS	-16.2056
AwAASA	-16.206
AABBi	-16.2075
TCSQ	-16.2089
fgAAAAAB	-16.2089
SItEJJh	-16.2093
AEAPlc	-16.2108
QkkAEAAE	-16.212
xgAB	-16.2158
AABFi	-16.2193
gEAAE	-16.2194
iLHQAAAABMi	-16.2199
AABIiVQk	-16.2229
TIlsJ	-16.2235
JJB	-16.2237
oAAE	-16.2254
SYs	-16.2261
DnID	-16.2316
SAHOS	-16.2326
wkaAEAA	-16.2335
SImUJNg	-16.2341
hIY	-16.2376
TIsVAAAAA	-16.2426
ATWn	-16.2501
yLnCT	-16.2505
SMHiC	-16.2532
JOAAAAB	-16.255
gpgAA	-16.2596
wkaAMAA	-16.261
RCQw	-16.2659
SIuEJJA	-16.2689
iLhCSIAAAA	-16.2689
AAASI	-16.2699
UiLBQAAAABIi	-16.2703
Uhp	-16.2719
pIixUAAAAA	-16.272
EiLnCS	-16.2721
AAAASIl	-16.2724
SItUJL	-16.2732
RCSQ	-16.2743
yLfCS	-16.277
SYHC	-16.2775
IAfBI	-16.278
QkoA	-16.2804
QPwGAk	-16.2816
SLh	-16.2836
AsAAE	-16.2846
JJh	-16.2849
AABIiUQk	-16.2859
SIuEJIg	-16.2863
SIlEJJ	-16.2878
SIuUJJA	-16.29
EgPv	-16.2904
AAAPh	-16.292
ItEJL	-16.2925
yLjCS	-16.2953
LjUz	-16.2955
AABIjT	-16.2958
AAASAH	-16.2965
AAAAAAAAAAAAAAAA	-16.3001
JKABAAB	-16.3003
iLvCQ	-16.3008
AAAAEgPv	-16.3013
iLDQAAAAC	-16.3025
iLBQAAAABMi	-16.3077
ATYn	-16.308
AABJjY	-16.3084
QkgAEAA	-16.3088
BwAASI	-16.3093
CRIi	-16.3099
yLFQAAAAB	-16.3099
SAHB	-16.31
AAABBD	-16.3129
SIuUJDg	-16.3131
mZBg	-16.3135
gDkA	-16.3139
AAIC	-16.3154
QkCAEAA	-16.3184
AdC	-16.321
AQAAAA	-16.3213
PlcDp	-16.3218
MiwUAAAAA	-16.3261
wkyAAAA	-16.3266
xyWZ	-16.3294
QkiAEAA	-16.335
iLhCS	-16.3372
wkgE	-16.3394
EiLdCT	-16.3423
AADHS	-16.3434
OcF	-16.3441
JEABAAB	-16.3457
iLDQAAAAA	-16.3517
TIuEJKg	-16.3522
AIAAI	-16.3526
hCRwAwAA	-16.3537
iLNQAAAABMi	-16.3543
iLvCR	-16.3543
PttJ	-16.3584
AEGJ	-16.3604
SMHhB	-16.3644
AACAv	-16.3651
RCR	-16.366
iwUAAAAA	-16.3669
AwAATI	-16.3675
SLj	-16.3678
iLtCQ	-16.3727
ItUJD	-16.3744
QIAAA	-16.3757
GZBg	-16.3771
AAAPv	-16.3774
TQHK	-16.379
IAdBIA	-16.3793
GZBgz	-16.3795
Kgzz	-16.3827
MAwUAAAAA	-16.3828
TAHK	-16.3829
MiYQk	-16.3845
iJhCT	-16.3856
cAAA	-16.3859
AcAAA	-16.3875
EiJVCT	-16.3879
TIsFAAAAA	-16.3893
iLjCQ	-16.3896
hCRwAgAA	-16.3912
JBgCAAB	-16.3915
GZBiQ	-16.3925
lCTYAAAA	-16.3932
nBSIsFAAAAA	-16.3941
LRCS	-16.3944
TQHT	-16.3945
EiJjCS	-16.3951
hBi	-16.3968
SCn	-16.3988
qEQAA	-16.4005
lMJB	-16.4022
ZkaJ	-16.4128
mQYM	-16.4162
IiwUAAAAASIs	-16.4189
BIac	-16.4192
yLRCR	-16.4261
EyLlCT	-16.4304
AABID	-16.4316
EiY	-16.432
nCRQAQAA	-16.4321
QkmAAAA	-16.4336
AEyL	-16.4366
AIAAEgB	-16.4371
QkSE	-16.438
IweAE	-16.439
SSn	-16.4411
iLh	-16.4414
yLDQAAAAC	-16.4414
EyLjCQ	-16.442
gDAAB	-16.4456
EiLnCR	-16.4459
wkEAEAA	-16.4464
EyLPQAAAAB	-16.4491
ABAABMi	-16.4495
yLXCS	-16.4504
BIiQUAAAAA	-16.4509
FwHQ	-16.4511
GZBiT	-16.4533
AQAASA	-16.454
BImE	-16.4546
TIsNAAAAA	-16.4554
jCRAAQAA	-16.4562
SAHwSAH	-16.4563
AAElp	-16.4595
EiNR	-16.4602
JJhMi	-16.4603
GAABMi	-16.4611
kyLdCS	-16.4633
BJAd	-16.4655
hCTIAQAA	-16.4656
EyLjCT	-16.4726
EJKA	-16.4737
AABMAc	-16.477
AABMac	-16.4823
IhcAPh	-16.4828
SIXAd	-16.4831
ARYg	-16.4843
EyLTCT	-16.4844
EiJRCSg	-16.485
JPAAAAB	-16.488
yLHQAAAAB	-16.4892
SIsNAAAAAI	-16.4908
EyJy	-16.4909
QksAIAA	-16.4959
IaVQk	-16.496
SItEJI	-16.4979
jCSA	-16.499
AAAAQQ	-16.5025
TItUJN	-16.5029
Mad	-16.5039
SItMJH	-16.5064
QkqAAAA	-16.5065
AMAAEiN	-16.5073
kiLFQAAAAB	-16.5073
AABJjU	-16.5082
iBAAA	-16.5082
AiLwk	-16.5091
AgAARA	-16.5119
McA	-16.5129
IiwUAAAAAS	-16.5145
QIAA	-16.515
wkiAIAA	-16.516
BAAATI	-16.5166
jCSIAAAA	-16.5192
YBAAA	-16.5196
AIAAEyL	-16.5217
AAEiLhCQ	-16.5217
AIAAEiN	-16.5218
JGBIi	-16.5249
AHAAB	-16.5253
QksA	-16.5253
JAABAAB	-16.5268
gAPh	-16.5285
RCSo	-16.531
QkeAMAA	-16.5336
RTHb	-16.5383
EiJjCT	-16.5388
AiLQk	-16.539
SItEJIh	-16.539
SIsFAAAAAA	-16.5395
hMiwUAAAAA	-16.5399
kQPR	-16.5407
ItEJI	-16.5455
SItcJJ	-16.5458
ItEJH	-16.5478
TItkJJ	-16.5498
BAABEi	-16.5514
JGgBAAB	-16.5542
AQAASY	-16.5579
MibQk	-16.558
QkOAIAA	-16.5609
UjB	-16.5619
QkEAIAA	-16.5633
SIuMJCA	-16.5638
JDgBAAB	-16.5644
IweE	-16.5646
AEEPlc	-16.5655
TIuMJAg	-16.5657
QkqA	-16.5657
PtkQk	-16.5673
AwAAD	-16.5676
MRB	-16.5676
gAQAASI	-16.5719
wkuAAAA	-16.573
iLBQAAAABI	-16.5757
McC	-16.5799
ItUJO	-16.5806
yLnCS	-16.5819
JBABAAB	-16.5825
SImEJEA	-16.5832
ZkHHA	-16.5854
FAABMi	-16.5863
AABIibQk	-16.5911
AMAAEiL	-16.5917
TIucJNg	-16.5924
AgAASIt	-16.5932
Zse	-16.5947
gAATAH	-16.5953
ZkLHh	-16.5963
nCD	-16.5969
MAcl	-16.5983
wAATI	-16.5988
AEAAImEJ	-16.6
iLnCQ	-16.6011
VCSQ	-16.6048
GbH	-16.6048
hCSoAQAA	-16.6049
SIuMJBg	-16.6054
hCRgAQAA	-16.6057
SIuMJFA	-16.608
QAASAH	-16.6086
AEAAIu	-16.6097
APr	-16.6105
AAAAEyJ	-16.6113
wAASAH	-16.6131
iJdCT	-16.6146
YAAA	-16.6173
DlUJ	-16.6178
AEAAI	-16.6185
EiB	-16.619
hIiwUAAAAAi	-16.6195
AAAAAGaJ	-16.6197
QEAAA	-16.6199
EyLFQAAAA	-16.6209
SIlEJNh	-16.626
AAAAAESJ	-16.6306
AAATAH	-16.6321
SItcJK	-16.6321
AABIY	-16.6334
SIlEJKB	-16.6336
QseE	-16.6344
EyLtCS	-16.6396
kiLNQAAAAB	-16.642
yLPQAAAAB	-16.6424
Ihc	-16.6426
NAcp	-16.6448
QkaAEAA	-16.6452
RAgAA	-16.647
iJfCS	-16.6524
BIgYQk	-16.6538
JIad	-16.6552
EiLvCR	-16.6554
SItUJD	-16.6556
BMAc	-16.6589
hCRwAQAA	-16.6592
QAAAAAAA	-16.6606
SAMFAAAAA	-16.662
JJBMi	-16.6628
AJIi	-16.6659
QkmA	-16.6659
DAABMi	-16.6678
EgF	-16.6696
SItUJG	-16.6727
SGm	-16.6733
QkwAEAA	-16.6748
BJid	-16.6761
BIAd	-16.6778
EiLDQAAAABIi	-16.6786
AQAATY	-16.68
ItUJL	-16.6825
AAExp	-16.6833
BmZi	-16.6838
xwS	-16.6839
AEiJ	-16.6844
AAGYPH	-16.6848
SIuEJLA	-16.6934
EyLjCS	-16.6939
SItEJN	-16.6942
SIuUJBA	-16.6949
EiLj	-16.6951
EQB	-16.6984
yLhCS	-16.6994
IAcp	-16.6995
yEiLBQAAAA	-16.7007
AABNad	-16.7013
GZmZmZmZ	-16.7014
Elpw	-16.7021
hBD	-16.7027
SIuEJOA	-16.7038
lQgAAE	-16.7073
AAAAEyL	-16.7091
/3//	-16.7162
UnB	-16.7171
QAAAAAADH	-16.7184
IaUQk	-16.7191
iLtCS	-16.7192
SIuUJGg	-16.7206
iLnCS	-16.7227
AABMjQ	-16.7248
EqND	-16.725
AACAvCT	-16.7257
hMAd	-16.727
ItEJO	-16.7297
SIucJCg	-16.7305
BMAd	-16.7305
DAACL	-16.7314
wAASI	-16.735
JjCQ	-16.7352
OdAPl	-16.7371
iEwk	-16.7385
vDQAAE	-16.7386
wkqAEAA	-16.7397
SIstAAAAAE	-16.7412
TQHQ	-16.7475
iJdCS	-16.7497
IjRR	-16.7518
hIac	-16.752
JAfh	-16.7546
SImUJDA	-16.755
AAAASY	-16.7552
yLVCR	-16.7557
TItcJKh	-16.7578
BBif	-16.76
TIucJPg	-16.7655
AABIjU	-16.7669
AYAAEiL	-16.7669
EiLbCT	-16.7675
BmiQ	-16.7679
wkSAEAA	-16.7691
EyLdCS	-16.7693
EiJjCR	-16.7703
AQAATAO	-16.7714
BIiYwk	-16.7716
EEPtg	-16.7719
QkME	-16.7729
AEiD	-16.7743
YAAI	-16.7758
QkSAEAA	-16.7796
CAAASI	-16.7841
AQBIA	-16.785
gDPQAAAAB	-16.7884
ZscE	-16.7893
yLjCQ	-16.7918
gMAAE	-16.792
AABMixUAAAAA	-16.7921
hCSwAAAA	-16.7932
yLrCR	-16.795
AcAAEgB	-16.7964
AAEiJ	-16.7971
AwBI	-16.8019
AESJ	-16.8025
xdnv	-16.8043
QkAAIAA	-16.8049
LTCS	-16.805
jCQIAQAA	-16.8061
JLh	-16.8062
QkEAYAA	-16.8064
IgzgA	-16.8068
gDlCR	-16.8071
IAfJ	-16.8081
EmDw	-16.8093
IjQQ	-16.8101
EgDlCT	-16.8109
SWnG	-16.8131
AAAAEhp	-16.8164
QSn	-16.8193
EyLpCS	-16.8197
GZmZmZm	-16.8204
BBcDA	-16.8212
JJACAAB	-16.822
RYs	-16.8224
IjRQB	-16.8238
hCSYAAAA	-16.8267
IweY	-16.827
BIizUAAAAA	-16.8279
gAAAEiL	-16.8293
QksAEAA	-16.8303
iLtCR	-16.8311
lIa	-16.8313
iJhCS	-16.8391
gAASAO	-16.8393
AgAATIu	-16.8394
DAAC	-16.8397
AEiLl	-16.8401
EiLfCR	-16.8422
yLTCT	-16.8433
iclI	-16.8448
AAAATIm	-16.8468
SItEJAh	-16.847
Elpx	-16.8479
wkkAEAAE	-16.8484
SLn	-16.8486
MiWQk	-16.8495
gDlCS	-16.8518
SIuEJGA	-16.8579
SItUJE	-16.8583
iLfCR	-16.862
TIuMJDg	-16.8625
SIuEJNg	-16.8637
BAABIiYQk	-16.8639
RCSY	-16.8644
JHADAAB	-16.8653
SIuUJIA	-16.8657
eGgAA	-16.8663
ATIu	-16.8677
EiLXCT	-16.8681
SIuEJFg	-16.8683
SIuEJAg	-16.8698
wIAA	-16.8708
AABNAc	-16.871
ZkPHB	-16.8724
AQBIi	-16.8757
QkOE	-16.8766
AgAASAH	-16.8771
EiLBQAAAABI	-16.8779
QkYE	-16.8791
JjCR	-16.8801
LvBQB	-16.8802
RCQQ	-16.882
ZkKDP	-16.8835
AABMAe	-16.8838
WbHB	-16.8842
SIuEJCg	-16.888
BgAATI	-16.8889
SIsFAAAAAEiL	-16.891
JweM	-16.8918
EyLpCT	-16.8932
AQAARIu	-16.8982
SIuUJEg	-16.8989
BwAATI	-16.8994
IjQR	-16.8998
SIlEJNB	-16.9002
MAcF	-16.9012
lMJK	-16.9017
ABgAA	-16.9031
iDvCR	-16.9042
hCQwAQAA	-16.9058
gCAABMi	-16.907
iLvCT	-16.9091
EiJlCR	-16.9098
EyLnCS	-16.9113
jCSgAAAA	-16.9113
AEyJ	-16.9141
jCTIAAAA	-16.9149
QkwAUAA	-16.9155
AgAASIu	-16.9163
iLFQAAAAB	-16.9167
JKgAAAB	-16.917
mxwR	-16.9184
SYHB	-16.9201
NAcJ	-16.9202
EQIAAE	-16.9211
hCSgAAAA	-16.9214
Iwec	-16.9214
iLBQAAAAC	-16.9222
SImEJPg	-16.9232
wkgAIAA	-16.9243
ItEJJ	-16.9247
yLZCQ	-16.9249
GZCi	-16.9255
yLZCR	-16.9256
AIAAEiJ	-16.9256
EiJlCQ	-16.9262
SIPA	-16.9263
gCAAB	-16.9295
lUJK	-16.9301
BQAASAH	-16.9323
mDwQ	-16.9325
iLlCT	-16.936
jUj	-16.9365
AYAAA	-16.9397
wEAAE	-16.9403
SYHA	-16.9405
iTUAAAAA	-16.9407
hCTIAAAA	-16.9419
hCTQAAAA	-16.9428
ItEJB	-16.9438
SIuMJJg	-16.9458
MiZwk	-16.946
AYAAEiN	-16.9463
jCTQAAAA	-16.9476
JMAAAAB	-16.949
SIuMJIg	-16.9496
TIstAAAAAE	-16.9497
kEPt	-16.9517
EiNDE	-16.9518
ItsJP	-16.9524
iLFQAAAABMi	-16.9535
mZmL	-16.9536
kiLtCS	-16.9536
AQAAEiN	-16.9537
BgAASIu	-16.9541
Mibwk	-16.9542
EiLFQAAAABIi	-16.9546
QAAAEi	-16.9546
AAAAAAAAAAAAAAA	-16.956
EiBw	-16.9567
SIuUJEA	-16.9586
JPgBAAB	-16.959
QkWAEAA	-16.9607
EyLLQAAAAB	-16.9609
EiJlCT	-16.9615
AAAAASY	-16.9646
AAAATIu	-16.965
QcYC	-16.9656
AGAeAE	-16.9695
QkcE	-16.9708
SIucJCA	-16.9722
IiUQks	-16.9725
TItUJI	-16.9737
hCToAAAA	-16.974
yLTCQ	-16.974
BAAAPt	-16.9742
IidBI	-16.9758
SAMVAAAAA	-16.976
IAdFI	-16.9776
BAADr	-16.9776
wkeE	-16.978
QkqAEAA	-16.9782
gAASIu	-16.981
gAASY	-16.9826
iJvCT	-16.9828
FMdt	-16.9838
CLVCT	-16.986
hCRQAQAA	-16.9861
wksAAAA	-16.9886
iJdCR	-16.9895
JTCR	-16.9909
QkgAAAAE	-16.9924
AABmx	-16.9931
mZBi	-16.9931
SIuMJNA	-16.9944
knB	-16.9953
iLFQAAAAA	-16.9971
IXJD	-16.9981
gIAAE	-16.999
AABCi	-17.0022
KjQQ	-17.0031
TIstAAAAA	-17.0033
JweI	-17.0046
QkQAEAA	-17.0049
BIgUQk	-17.0081
SJlI	-17.009
EwDlCQ	-17.0119
EEPR	-17.0132
SIuEJBg	-17.0143
SImEJCA	-17.015
jCTwAAAA	-17.0151
WkgAAE	-17.0153
IuM	-17.0153
iJXCS	-17.0173
wAATAH	-17.0188
AwAASIu	-17.0192
TIlkJ	-17.0199
JHgEAAB	-17.0208
iDwQ	-17.0211
wkqAAAA	-17.0215
EyJfCS	-17.0268
RCTY	-17.0305
IjQS	-17.0312
Bmg	-17.0329
dBi	-17.033
BIAc	-17.0345
dqgUA	-17.0346
QPr	-17.0346
IOdBID	-17.0347
EyLlCQ	-17.0353
QkMAIAA	-17.0355
AAMTi	-17.036
SLVCS	-17.0368
ZkHHB	-17.0373
QkeAEAA	-17.0378
SIuEJIA	-17.0395
EiLBQAAAAAPt	-17.0398
SIlMJAh	-17.0404
yLlCS	-17.0407
gAATI	-17.0408
ItMJM	-17.0418
mQYl	-17.0421
EiLVCSo	-17.0422
gDDQAAAAB	-17.043
SIucJPg	-17.0432
SIsFAAAAAEjHA	-17.0447
MiXQk	-17.0449
SImEJLA	-17.0451
EAPlcd	-17.0468
BIibQk	-17.0478
AAAAATIu	-17.048
JFACAAB	-17.0482
ACAAB	-17.0487
hCTQAQAA	-17.0494
iJtCT	-17.0503
gDjCR	-17.0504
AABIizUAAAAA	-17.0517
QkaAMAA	-17.0533
SIuEJBA	-17.0559
KLAQB	-17.0568
AAEhr	-17.0584
CgAASAH	-17.0589
yLtCS	-17.059
EiLRCTA	-17.0599
yLdCR	-17.062
EiJjCQ	-17.063
AYAAEiJ	-17.0632
AABNAd	-17.0632
SItcJL	-17.0641
EiLXCR	-17.0659
SDnQSA	-17.0662
tMJI	-17.0672
aSAAA	-17.0682
BIiZQk	-17.0688
wkwAAAA	-17.0694
EgDhCQ	-17.0701
SIuMJLA	-17.0733
iLbCR	-17.0736
QkuA	-17.074
JKBIi	-17.0754
AUAAEiN	-17.0758
SImEJCg	-17.0769
CAABIiYQk	-17.0771
iLlCR	-17.0777
CAACL	-17.0786
jCSwAAAA	-17.0786
AABIx	-17.0787
JjU	-17.0808
EiLnCQ	-17.0826
SIuEJGg	-17.0845
RCTQ	-17.0856
AAAPlc	-17.089
gDjCS	-17.0891
McBm	-17.0897
RbwAA	-17.0928
SAsAAE	-17.0928
TCSo	-17.093
AAASGv	-17.0943
KhEAA	-17.0961
IiQUAAAAA	-17.0971
QkoAIAA	-17.0974
VCSo	-17.0977
JLBIi	-17.0988
EAAAC	-17.0996
iLPQAAAABMi	-17.0999
fgAAAAABIi	-17.1005
QkIAEAA	-17.1011
GZBiR	-17.1028
QkaAIAA	-17.1029
EyLvCR	-17.1033
EmNB	-17.1037
iJlCT	-17.1048
GbHB	-17.1062
JCgGAA	-17.1063
AMAAEhp	-17.1074
IXAD	-17.1082
wkWAMAA	-17.1086
EiFwA	-17.1088
JCgBAAB	-17.109
zUAAAAATI	-17.1095
EAAAAAAAPt	-17.1102
AEEPlM	-17.1109
WZBg	-17.1133
iLXCT	-17.1159
dAAAAAE	-17.1181
wBQAA	-17.1188
iLnCT	-17.1234
AxON	-17.1241
EwXlu	-17.1264
SImEJNA	-17.1286
SImEJJg	-17.1293
EEPlc	-17.1303
yJXCS	-17.1306
BIiXQk	-17.1326
SItUJF	-17.133
uAEAAAB	-17.1338
jTz	-17.1358
ZIizUAAAAA	-17.1385
wkgAEAA	-17.14
BIad	-17.1423
pIiZQk	-17.1428
yJvCS	-17.1442
yLpCQ	-17.145
ItcJM	-17.1457
yLtCT	-17.1461
AgAASY	-17.1476
JRCR	-17.1493
wkoA	-17.1495
KAAAAB	-17.1509
ItsJI	-17.1532
QkeAUAA	-17.1542
TANMJ	-17.1563
JVCS	-17.1565
QkWAMAA	-17.1566
QkmAYAA	-17.1575
TQHR	-17.1581
SIuMJBA	-17.1612
APtsB	-17.1627
mZFi	-17.1636
BxkUA	-17.1652
SIlEJKh	-17.1652
SIuMJCg	-17.1656
oRAAA	-17.1658
iDwAR	-17.1666
FMcB	-17.1672
RCQg	-17.1673
EyLvCT	-17.1689
AUAAA	-17.1698
JAgCAAB	-17.1707
ItEJC	-17.1708
ItcJH	-17.1731
QkUAEAA	-17.174
wkmAMAA	-17.1746
SMe	-17.1762
EiDvCT	-17.1768
gDgAd	-17.1774
JEgBAAB	-17.1778
TQHB	-17.1785
IPgA	-17.1791
FMfZ	-17.1808
ZscA	-17.1818
ouE	-17.1818
ItMJO	-17.1833
yJRCS	-17.1835
SIlEJL	-17.1842
yJRCT	-17.1849
gDFQAAAAB	-17.1851
AAAAAMX	-17.1861
PkkQk	-17.1867
AAAAEgB	-17.1876
QkmAEAA	-17.1881
JJBIi	-17.1882
fhAAAAAAATIt	-17.1885
JweY	-17.1891
kgPR	-17.1932
AAAAEyN	-17.1937
EAAAAAABEi	-17.1946
ItcJF	-17.1952
jCSYAAAA	-17.1956
TieTvBxfl	-17.1958
RTHt	-17.1963
wAAAEiLR	-17.197
BQAATIu	-17.1992
yLbCR	-17.2018
SItUJM	-17.2024
SIuEJDA	-17.2029
SIuUJNg	-17.2036
TIuUJNg	-17.204
IAcJ	-17.2045
AgAASGn	-17.2078
PvgQ	-17.2079
aQEAAE	-17.2083
AUAAEiL	-17.2093
QkYAIAA	-17.2099
kiLlCQ	-17.2113
SIsFAAAAAEiJ	-17.2114
EiNBI	-17.2126
JDgCAAB	-17.2129
eLJcAE	-17.2133
kEPR	-17.2136
JGAEAAB	-17.2156
EiLrCQ	-17.2164
gNAMA	-17.2168
BJgc	-17.2174
QkGAIAA	-17.2176
Ehjy	-17.2183
VCAAA	-17.2186
qQAAAE	-17.2209
GaDv	-17.2224
SImEJMg	-17.2226
aEJP	-17.2252
wEAAAB	-17.2256
GZBx	-17.2257
SImEJIg	-17.2258
SImEJAA	-17.2262
QAAAAAAJB	-17.2281
JAAC	-17.2282
JCB	-17.229
FhO	-17.2344
EiJtCR	-17.2347
SIuEJNA	-17.2358
IAcZ	-17.2371
kiLtCT	-17.2375
IAch	-17.2378
wMAAE	-17.2387
BJAf	-17.2406
QkQAIAA	-17.2416
AABCD	-17.2419
EAAC	-17.2424
JMgBAAB	-17.2426
wUiJ	-17.2461
ATIk	-17.248
EiNh	-17.248
iLNQAAAAB	-17.2489
yJTCS	-17.2493
JOgFAA	-17.2517
EiVQk	-17.2522
JMABAAB	-17.2548
IfAMA	-17.2587
hryS	-17.2599
EiJBQAAAABIi	-17.2629
AEAAEyL	-17.2637
wkCE	-17.2637
QkwAQAA	-17.2664
AOAB	-17.2665
KjQS	-17.269
SIuEJAA	-17.2701
yLfCT	-17.2711
TjeR	-17.2711
MjQUAAAAA	-17.2723
BAAAi	-17.2746
SIuEJKA	-17.2755
LhCQ	-17.2764
SIuEJOg	-17.2771
JCgCAAB	-17.2781
ImEJH	-17.2783
QBBi	-17.2791
SItEJJ	-17.2792
SIHB	-17.2799
ItEJN	-17.2799
IuEJA	-17.2801
SIlMJH	-17.2817
cgMAA	-17.2825
AwAASAH	-17.2834
AAATQH	-17.2836
QEAAE	-17.2838
SIuUJJg	-17.2857
QkyAAAA	-17.2857
SImMJIA	-17.2861
IPAA	-17.2861
AABMiwUAAAAA	-17.2869
AABNAf	-17.2877
EiJfCT	-17.2891
iLFQAAAAD	-17.2893
JKAAAABIi	-17.2902
IlEJO	-17.2904
AAAPHwB	-17.2907
kAcAAE	-17.2909
QAATWn	-17.2911
SImMJMA	-17.2917
AQAASGn	-17.2927
AABIiZwk	-17.2927
iFwA	-17.2931
QkCAIAA	-17.2939
ItUJG	-17.2943
TItEJIh	-17.2944
wAATQH	-17.296
gAATQH	-17.2973
TItkJK	-17.2984
tCSYAAAA	-17.2998
JMgDAAB	-17.2998
LGgAA	-17.3002
JKgCAAB	-17.3004
ZoXAD	-17.3039
UxyU	-17.3046
hCToAQAA	-17.3067
hCTwAAAA	-17.3074
SIuF	-17.3082
BMjR	-17.3086
QkCAUAA	-17.3096
IAxUAAAAA	-17.3117
wkuAEAA	-17.3118
BQAAAAD	-17.3125
JLgBAAB	-17.3133
AABNac	-17.3136
QAAAAAAEyL	-17.3146
Expw	-17.3151
QkwAMAA	-17.3152
SIuEJMg	-17.3153
EyLnCQ	-17.3162
ECIM	-17.3163
AMAAEgB	-17.3168
AABMad	-17.3171
lMJI	-17.3176
NAcF	-17.318
TIuUJJg	-17.3182
EkPR	-17.3186
EyLrCQ	-17.3186
JlCS	-17.3195
yLlCQ	-17.3207
hCSYAQAA	-17.3221
TIuEJNA	-17.3223
yLlCT	-17.3239
lmDx	-17.3241
hIiXQk	-17.3244
EgDvCT	-17.3269
BIiUwk	-17.3282
SImUJPg	-17.3303
iLNQAAAAA	-17.3314
SIuUJKg	-17.3317
SMHnB	-17.3318
IlEJC	-17.3333
EgPQ	-17.3336
JBAGAA	-17.3336
SLo	-17.3343
AABmQYk	-17.3344
CgAASI	-17.3346
APn	-17.3372
SYHD	-17.3375
InC	-17.3378
SIuEJDg	-17.3407
RIuM	-17.3417
wkiAMAA	-17.3424
SImEJOg	-17.3437
AYAAEgB	-17.3444
iAUAAAAA	-17.3453
SImEJJA	-17.3459
hckPl	-17.3466
pmg	-17.3486
GbHR	-17.35
SIXSD	-17.3504
AgBI	-17.3507
QkiAIAA	-17.3509
BAAASIu	-17.3514
JGABAAB	-17.3526
SAHwS	-17.355
EiDvCQ	-17.3552
Expx	-17.3563
AABMO	-17.3567
wkmAQAA	-17.3574
SIuUJOA	-17.3585
hCTYAAAA	-17.359
hIaf	-17.3601
sAAA	-17.3625
BJic	-17.3626
AABIAfJ	-17.3644
RIiYQk	-17.3667
icpI	-17.3674
AQAAEiL	-17.3677
mQoM	-17.3691
SMHjB	-17.3702
AgAASWn	-17.3706
RItMJ	-17.3709
AABBu	-17.3717
CAAAPt	-17.3734
IAdB	-17.376
bCSI	-17.3761
yLZCT	-17.3772
AABJD	-17.3793
SIPAA	-17.38
EyNH	-17.3825
iLRCTY	-17.3832
SImEJNg	-17.3846
AABMjR	-17.3857
QkKAMAA	-17.3875
BiR	-17.3877
mQYm	-17.3879
hCRABQAA	-17.3883
JFQAAAAB	-17.3884
hCQQAgAA	-17.3887
RYXb	-17.3889
EjHw	-17.3898
IAcd	-17.3903
BNad	-17.3911
SIHH	-17.3914
ATIm	-17.3915
hCTgAAAA	-17.3922
AABMiYQk	-17.3922
gDhCQ	-17.3924
iJfCR	-17.3932
SIuMJAg	-17.3932
AAAAESJ	-17.3948
ItcJP	-17.3949
AMAAI	-17.3961
AIAAEhp	-17.3972
SIuEJFA	-17.3972
PtrQk	-17.3978
ItEJG	-17.3978
QkOAQAA	-17.4
EyJjCQ	-17.4007
QMAA	-17.4013
iLLQAAAAB	-17.4029
SLRCS	-17.4032
iJhCR	-17.4036
iLtCT	-17.4056
RImE	-17.4057
IlUJN	-17.4059
IweIE	-17.4076
AEAAEgBy	-17.4079
BIjT	-17.4093
SAHxS	-17.4103
AEAAEhp	-17.4124
3//+	-17.413
yLNQAAAAA	-17.4145
IAfBIAfh	-17.4147
AABmRIk	-17.4151
SIuMJJA	-17.4178
mQYN	-17.4179
IAfh	-17.4213
SIucJKg	-17.4218
BQAAAACI	-17.4221
SItEJC	-17.4223
SItEJD	-17.4229
SIuUJIg	-17.4233
SGPIS	-17.4234
Ihf	-17.4238
TIuMJNg	-17.4238
TIuMJAA	-17.425
AQAAEgB	-17.4251
TAHC	-17.4251
EmNh	-17.4264
SJh	-17.4265
UgBy	-17.4266
gDAABMi	-17.427
MTifVk	-17.4282
SAOUJAg	-17.4282
ATIt	-17.4289
kGI	-17.4295
lCSIAAAA	-17.43
EgDlCQ	-17.43
Ptsl	-17.4319
JMgCAAB	-17.4322
AAABEi	-17.4331
BgHw	-17.4335
TIuUJFg	-17.4342
SDlEJ	-17.4343
AwAASIt	-17.4355
QkKAIAA	-17.4358
yLvCS	-17.4365
iLDQAAAAD	-17.4386
AQAASIsFAAAAA	-17.4414
EiJnCS	-17.4438
iRBIi	-17.4455
QkCAQAA	-17.4455
QkWE	-17.4458
Expy	-17.4458
EEPlQ	-17.4462
JtCR	-17.447
TIucJOA	-17.4473
TIuMJJA	-17.4481
SIuUJMA	-17.4482
JFABAAB	-17.4484
MAcZ	-17.4485
SIsVAAAAAI	-17.4499
SImEJDA	-17.4504
wkWE	-17.4504
SIHG	-17.4516
QccB	-17.4521
wAATWn	-17.4528
ugEAAA	-17.4572
JMgAAAB	-17.4576
EiJtCT	-17.4581
AABMD	-17.4582
RIukJ	-17.4586
lEJL	-17.4598
TIuEJOA	-17.4625
EAPlMZ	-17.4649
SImUJEg	-17.4667
JCACAAB	-17.4669
AQYk	-17.4673
BJaf	-17.4685
SItEJB	-17.4691
wEAAABIi	-17.4697
AMAAEiJ	-17.47
QBAABIi	-17.4712
GZEiR	-17.4714
SMfA	-17.4727
AGAABIi	-17.4738
khjyU	-17.4743
vCSIAAAA	-17.4746
QkSAQAA	-17.4751
wcUAAE	-17.4772
EyJjCT	-17.4775
BAAASAH	-17.4779
JJADAAB	-17.4784
yLtCR	-17.4801
AAAATIt	-17.4802
wAATAO	-17.4805
AAESJ	-17.4815
hpyeEAAAB	-17.4821
JCh	-17.4838
EiNBA	-17.4846
FMcl	-17.4861
MAcJ	-17.4868
IlUJO	-17.4878
RCQo	-17.4879
SImEJEg	-17.4883
VCSY	-17.4889
hIiYwk	-17.4896
DAABIiYQk	-17.4904
QAATAH	-17.4907
iLnCR	-17.4908
SDnBSA	-17.4928
EwXl	-17.4934
wkeAEAA	-17.497
wkgAAAA	-17.4973
hMl	-17.4973
BQAAAAAPt	-17.4977
sHFAAB	-17.5005
EJMA	-17.5012
SPfY	-17.5017
BAiD	-17.5035
ARDn	-17.5043
TQHC	-17.5046
PtlQk	-17.5061
SGlMJ	-17.5086
iDOAB	-17.5093
TIuMJLg	-17.5103
LQAAAAB	-17.5111
kgPQ	-17.5114
TIuMJBA	-17.5125
QkuAYAA	-17.5132
JGAGAA	-17.5165
AAPhH	-17.5183
JGgCAAB	-17.5185
QkyAIAA	-17.5205
SIucJGA	-17.5223
EjHB	-17.5225
QkqAYAA	-17.5234
QkUAIAA	-17.525
TIuUJDg	-17.5283
iLbCQ	-17.5307
TIuMJCg	-17.5308
TGlUJ	-17.5319
ATIs	-17.534
JLgEAAB	-17.5345
AIAoA	-17.5345
xfnvw	-17.5346
AUAAEgB	-17.5346
AAATAO	-17.5348
EQPR	-17.5374
AAADp	-17.5382
QsYE	-17.5417
IAzUAAAAA	-17.5425
iLhCSQAAAA	-17.543
otEJ	-17.5444
ImUj	-17.5466
gBAACL	-17.5484
SImEJPA	-17.5491
QkyAEAA	-17.5493
hCSIAAAA	-17.5498
wkUAEAA	-17.5498
AQAAAEi	-17.5514
wkYAEAA	-17.5516
IjQw	-17.5519
IAcFI	-17.5522
EiLNQAAAABIi	-17.5525
ANgAA	-17.5527
QkIAMAA	-17.5538
gAAi	-17.5553
AABIjb	-17.5557
gDAABIA	-17.5566
ItMJN	-17.5583
wkKAIAA	-17.5592
EHHA	-17.5594
iLPQAAAAC	-17.5599
AUiD	-17.5604
JBADAAB	-17.5607
TAHJ	-17.5609
gDtCQ	-17.5614
EkBx	-17.5619
LoBAAAA	-17.5639
AQAATIm	-17.5664
IiUQko	-17.5668
OcIPj	-17.5678
JIhIi	-17.5687
wkIE	-17.5688
wkQAUAA	-17.57
EyLrCT	-17.5738
IgYQk	-17.5761
QkWAIAA	-17.5777
gDRCR	-17.5778
hCRAAQAA	-17.5784
AABJx	-17.5787
ILgYA	-17.5794
EiJvCS	-17.5794
yLnCQ	-17.5801
AADGB	-17.5828
iLNQAAAAC	-17.5829
gDRCQ	-17.5842
LjQT	-17.585
Pvo	-17.5851
SLq	-17.5853
RIuc	-17.5853
AQAAEyJ	-17.5855
JKgFAA	-17.5856
RSC	-17.5861
gDjCQ	-17.5863
gzoAd	-17.5871
AIAAEyN	-17.5876
SIuMJHg	-17.5906
SIuMJNg	-17.5911
MAcB	-17.5916
//////9/	-17.5918
IAdd	-17.5923
QkeAIAA	-17.5936
SImMJJA	-17.5942
AgAAQQ	-17.5955
qBQB	-17.5962
MYAA	-17.5968
KjQw	-17.5972
BQAAAAC	-17.5979
jRz	-17.5987
MHgB	-17.6007
wkyAEAA	-17.601
mQccE	-17.6022
tJAAA	-17.6051
SIsNAAAAAEiJ	-17.6066
AQAASIt	-17.6078
SAHISA	-17.6084
EyLtCR	-17.6085
TIuMJPg	-17.6089
mRIl	-17.6098
JGACAAB	-17.61
SIsFAAAAAIsAiY	-17.6133
iQUAAAAA	-17.6134
yLdCQ	-17.6142
gDhCR	-17.6146
JGADAA	-17.6157
TAOsJ	-17.6166
RCRo	-17.6189
QcYB	-17.6198
BNie	-17.6198
LjRT	-17.6227
AABIaY	-17.624
ScHiB	-17.6253
IiUQku	-17.6254
ItEJD	-17.6256
EiJRCSo	-17.6259
wkwAEAA	-17.6268
NAct	-17.6272
BAAATIu	-17.6276
AAAATWn	-17.6283
CAACJ	-17.6311
lcJI	-17.6313
ZCgzx	-17.6319
mRIm	-17.6328
AMAAEyJ	-17.6338
SIuMJKA	-17.6359
iJBQAAAAB	-17.6376
gAASWv	-17.6404
gzgAd	-17.6419
IjRS	-17.6439
lBi	-17.6445
SAOEJKA	-17.6446
JLgCAAB	-17.6454
SIsFAAAAAGaJ	-17.6455
SItEJH	-17.6456
AABFMd	-17.6465
tCSoAAAA	-17.6474
QAATQH	-17.6488
KjQy	-17.6492
YAgAASI	-17.6494
SIuEJCA	-17.6495
Ptlwk	-17.6501
MaUQk	-17.6502
AvCR	-17.6507
QksAYAA	-17.6511
JBACAAB	-17.6511
EAABIiYQk	-17.6515
RYXk	-17.6534
JHgDAAB	-17.6536
kyLFQAAAA	-17.6542
ItMJH	-17.6543
JOBIi	-17.6549
JPBIi	-17.6563
EyJlCR	-17.6565
gDdCS	-17.6574
yLrCS	-17.6575
AABIAchI	-17.6575
JMh	-17.6576
RImcJ	-17.66
EwDRCT	-17.66
QksAMAA	-17.6604
NAch	-17.661
SAHKSGn	-17.6616
TQHL	-17.6621
yLLQAAAA	-17.6642
ItUJC	-17.6643
uAoAAE	-17.6645
EiJtCQ	-17.6646
SIstAAAAA	-17.665
LRCQ	-17.6656
AHAABIi	-17.6658
IKd	-17.6664
oAwAASI	-17.6677
JFgGAA	-17.6684
QcYA	-17.6689
SIuEJPA	-17.6698
SImEJKA	-17.6707
JOgBAAB	-17.6714
JFgEAAB	-17.6718
PlgsA	-17.672
JjV	-17.6748
IjQT	-17.675
oAgAASI	-17.675
eGkAAE	-17.6759
yLnCR	-17.6762
SIuEJEg	-17.677
SImEJGA	-17.6773
3//4	-17.6787
Ptkwk	-17.6793
IjYQI	-17.6796
AACLhCS	-17.6797
CgDw	-17.6806
JCADAAB	-17.6807
hNAd	-17.6826
AABIAdBI	-17.6827
SIlUJH	-17.6839
IAchI	-17.6852
SIuUJOg	-17.6861
iJhCQ	-17.687
BAAASGn	-17.6873
JOADAAB	-17.6874
BIibwk	-17.6894
ZpBIi	-17.6895
hCTwAQAA	-17.6896
SIuMJDA	-17.6912
EmDx	-17.6931
SAHQS	-17.6944
gAAQY	-17.6947
iJBQAAAABIi	-17.6953
SIlUJF	-17.6953
hdsPh	-17.6956
TIuUJEA	-17.6963
gDgAD	-17.6985
gDvCS	-17.7002
AwAASY	-17.7004
QkkAIAA	-17.7005
IAfpI	-17.7014
QkyAUAA	-17.7017
AAAASGn	-17.7019
MaVQk	-17.7024
hCSwAgAA	-17.7027
AgAATIm	-17.7029
IjTS	-17.7033
nCSI	-17.7035
TItEJJh	-17.7043
pIiVQk	-17.7055
mZEi	-17.7057
AIAAFtBXEFd	-17.7065
JKgDAAB	-17.7066
JMac	-17.7089
QkQAQAA	-17.7107
wkWAEAA	-17.7114
kgPv	-17.712
AVQAA	-17.7126
JIixUAAAAA	-17.7138
EiNBE	-17.7139
kkPT	-17.7147
TItcJIh	-17.7151
EyLvCS	-17.7166
IlEJE	-17.7173
JHgFAA	-17.7174
AUiJ	-17.7188
SAHHS	-17.7189
AgAARI	-17.7197
SIuUJAg	-17.7208
BgAASAH	-17.726
QkIAIAA	-17.7295
TAHAS	-17.7304
AkAAEgB	-17.7306
MAcd	-17.7331
QkaAYAA	-17.734
lCTQAAAA	-17.735
IkVAAAAA	-17.7356
CAkAAE	-17.736
SIuMJAA	-17.7362
hCRgAgAA	-17.7363
wkUAIAA	-17.7375
bNQJA	-17.7377
IOcpID	-17.7393
JIgCAAB	-17.7394
wkYE	-17.7402
hMB	-17.7405
TItMJLB	-17.7405
Ptpwk	-17.7406
QkqAUAA	-17.741
IlcJL	-17.7412
QkSAIAA	-17.7422
JFgCAAB	-17.7431
yxoAAE	-17.7445
EiNBM	-17.7446
IXAd	-17.7463
CAABIac	-17.7463
EiLTCSQ	-17.7483
AAAAARA	-17.7488
ESJy	-17.7493
AABmLg	-17.7494
EyLvCQ	-17.7498
TIuUJKg	-17.7526
AABEO	-17.753
Fhdt	-17.7548
AABIiXwk	-17.7551
SIlMJK	-17.756
wEAAA	-17.7563
SIucJIg	-17.7571
AEiBhCT	-17.7573
EkBwE	-17.759
mQYO	-17.759
AAEEPt	-17.7592
AEiBhCQ	-17.7635
XCSI	-17.7648
JNACAAB	-17.7648
QkuAUAA	-17.7681
QkqAMAA	-17.7684
gAATAO	-17.7693
TIuEJJg	-17.7697
SIkFAAAAAE	-17.7698
AAEQPt	-17.7707
hCSQAAAA	-17.7715
JBB	-17.7716
RCTo	-17.7743
QAASIFEJ	-17.7745
MdK	-17.7756
yLHQAAAABMi	-17.7758
AGAABIA	-17.7759
QkmAMAA	-17.7761
TIucJDA	-17.7773
AAAARIu	-17.7775
JNABAAB	-17.7783
AIAAElp	-17.7788
SImMJKg	-17.7799
hdIPh	-17.7803
yLJQAAAAB	-17.7811
TANcJ	-17.7832
Elr	-17.7839
EgDTCT	-17.7852
QkQE	-17.7856
yLrCT	-17.786
MAch	-17.7864
QccG	-17.7878
ZkLHB	-17.7879
QkQAMAA	-17.7879
EiNT	-17.7886
iLXCR	-17.7937
SImEJHg	-17.7941
ItsJN	-17.7943
ABAACJ	-17.7952
gDdCT	-17.7963
AQBQA	-17.7967
TIuEJJA	-17.7971
AwAASWn	-17.7971
ZsdF	-17.7984
JKgGAA	-17.7989
SAOEJCg	-17.7995
FMdJ	-17.8001
SIuUJBg	-17.8018
Jwes	-17.8019
lCTwAAAA	-17.802
TItMJJB	-17.8021
hCRIAgAA	-17.8032
SAHQSI	-17.8042
QkSAYAA	-17.8055
EyNF	-17.8062
hCRYAgAA	-17.8069
TQHI	-17.807
AEAAESL	-17.8075
JBh	-17.8086
JBgDAAB	-17.8098
JGgEAAB	-17.8129
SIuMJDg	-17.8133
ALABAE	-17.8134
PtpQk	-17.8142
IhMJ	-17.8173
ZBxw	-17.8177
AQAARIn	-17.8178
MTieT	-17.8179
MTjfRn	-17.819
BxoQ	-17.8202
DmMJ	-17.8203
SAOEJKg	-17.8204
wkaAIAA	-17.8204
SAHQSIkFAAAAA	-17.8206
EyJjCS	-17.8206
3///9	-17.8208
AABIAchIi	-17.8209
gDnCT	-17.8217
iJtCS	-17.8217
SAHyS	-17.8225
kFAAAAA	-17.823
YEC	-17.8233
wEwBAE	-17.8239
GZDi	-17.8248
kgBy	-17.8252
wkcAUAA	-17.8254
IPBA	-17.8257
ItMJD	-17.826
wAYAAE	-17.8266
QkkAUAA	-17.8273
EiLLQAAAA	-17.8279
GaDOQ	-17.8289
gDtCR	-17.8292
QkcAQAA	-17.8298
EyJlCT	-17.8313
gDlCQ	-17.8313
QkSAUAA	-17.8315
wkGAIAA	-17.8317
iLhCSwAAAA	-17.8335
JBgGAA	-17.8336
QlgAA	-17.8356
EFwMA	-17.836
IjTQ	-17.8369
SImEJAg	-17.8375
IOdhID	-17.8385
AAEiLh	-17.839
QAASIGEJ	-17.8405
JjCS	-17.8408
IlUJI	-17.8409
kiNN	-17.8429
CxgQ	-17.8436
hjyEi	-17.8449
7//8	-17.8456
AAAAAEjH	-17.8465
QkGAMAA	-17.8466
EgDVCT	-17.8485
wkOE	-17.8492
SIlEJFh	-17.8499
FIiYQk	-17.8499
hAQAA	-17.8511
cFAAAAA	-17.8513
hfYPl	-17.853
EyJhCT	-17.8533
AkiD	-17.8534
AAAPto	-17.8541
BIiZwk	-17.8543
xOL	-17.8546
icLr	-17.855
hJac	-17.8554
hJAd	-17.8562
IuEJH	-17.8579
EmNF	-17.858
EiJvCQ	-17.8585
Mae	-17.8586
FQAAAAC	-17.8589
QkyAQAA	-17.8593
IAoAAE	-17.8606
JjQQ	-17.8615
JGABAAA	-17.8632
BAAASWn	-17.8632
QkMAMAA	-17.8635
JJAEAA	-17.865
JPgCAAB	-17.865
DQDAB	-17.8656
SYM	-17.8683
QkCAMAA	-17.8688
JLABAAB	-17.8689
BxON	-17.869
iDOgB	-17.8705
BgDsA	-17.8714
ADAAC	-17.8716
hCQYBgAA	-17.8725
QkcAYAA	-17.8728
Lgzz	-17.8771
icG	-17.8773
hIAd	-17.8776
JAADAAB	-17.8784
SImEJOA	-17.8784
fQABIi	-17.8785
QkEAMAA	-17.8792
QkMAUAA	-17.8799
oAQAASI	-17.88
AABIAdBIi	-17.8834
JKBMi	-17.8838
SGO	-17.8838
TItcJJB	-17.884
TAMNAAAAA	-17.8851
JHgCAAB	-17.8862
RCTI	-17.8864
QkkAMAA	-17.8866
SYHG	-17.8873
RYTb	-17.888
ASGnA	-17.8907
3//2	-17.891
SImEJGg	-17.8913
hCQAAgAA	-17.8915
wkMAIAA	-17.8929
yLHQAAAAA	-17.8935
SJlJ	-17.8936
SIucJJA	-17.8937
SItUJN	-17.8937
MAeh	-17.894
AExp	-17.8942
IAdBIiYQk	-17.8945
JNBIi	-17.8951
ZscB	-17.8952
vCSwAAAA	-17.8958
//85	-17.8958
EnHA	-17.8969
SIlMJI	-17.8972
TQHY	-17.8978
SImMJFA	-17.898
hCSgAQAA	-17.8989
EiJRCSY	-17.8995
IuEJLA	-17.9004
wkEAMAA	-17.9006
gAASAH	-17.9009
iYSGn	-17.9019
jHh	-17.9038
QkcAUAA	-17.9048
JIiZQk	-17.9049
JhCT	-17.9052
BMjS	-17.9054
JFAEAAB	-17.9056
dIiYQk	-17.9058
KjZ	-17.9073
SIuUJFg	-17.9079
TIuMJMA	-17.9102
wkWAUAA	-17.9114
IlcJK	-17.9116
kxpw	-17.9118
wkkAMAA	-17.9146
xwABAAAA	-17.9149
JMAFAAB	-17.9167
JPgDAAB	-17.9174
wkQAIAA	-17.9181
cHhB	-17.9184
wkeAMAA	-17.9192
JLgFAA	-17.9201
EyJtCT	-17.9204
ZscC	-17.9215
QkSAMAA	-17.9221
EiNBN	-17.9233
AAAxyU	-17.925
fCSo	-17.9251
QkAAQAA	-17.9257
JDgFAAB	-17.9272
QkKAUAA	-17.9276
SIuMJPg	-17.9276
hCSAAgAA	-17.9286
JjTw	-17.9292
AGZB	-17.9299
JHAFAA	-17.9311
EiLVCSQ	-17.9323
SIuUJMg	-17.9324
CIh	-17.9324
hJaf	-17.9327
JweU	-17.9347
hWz	-17.9362
QLYAA	-17.9374
TIuEJMA	-17.9382
SIuUJCA	-17.9398
xXlu	-17.941
QkgAUAA	-17.9412
SGtEJ	-17.9421
hdIPlc	-17.9423
SIuUJDA	-17.9429
IAgAASI	-17.9432
QkuAMAA	-17.9451
SIuMJMg	-17.9452
EiJRCTQ	-17.9468
FhdJ	-17.947
ItEJF	-17.9475
QkiAUAA	-17.9499
AEAAAAPh	-17.9517
SImEJMA	-17.9517
TItkJP	-17.952
JAACAAB	-17.9538
Jwec	-17.9541
xOQAA	-17.9561
TIuEJIg	-17.9564
vCSYAAAA	-17.9569
yLpCS	-17.9588
EyLBQAAAAC	-17.9589
BNAd	-17.9611
KjRQ	-17.9612
JNgBAAB	-17.9615
SImUJJA	-17.9616
AmBwA	-17.9617
EwDjCS	-17.9624
IgFAAAAA	-17.9625
AABIgUQk	-17.9628
EiNBL	-17.9633
JVCQ	-17.9639
mgzx	-17.9646
QkoAUAA	-17.9647
IlMJE	-17.965
EnHB	-17.9654
SIuUJPA	-17.9656
AAAAARIg	-17.9657
wkCAIAA	-17.9659
IlUJM	-17.9664
TIuEJLg	-17.9674
KjYQ	-17.9683
JBAFAA	-17.9691
AwAASGn	-17.9704
JAcB	-17.9705
DQAASI	-17.9716
SAOEJNg	-17.9729
QkAAYAA	-17.9732
YlEJ	-17.9737
AwAASo	-17.9764
BIiXwk	-17.9767
gDVCS	-17.9774
JLAFAA	-17.9775
TIukJKg	-17.9786
AEAAEyN	-17.9787
SImMJAg	-17.9792
iLrCR	-17.9797
AAABIu	-17.9809
JFAFAA	-17.9813
EiNBB	-17.9816
wDBQAAAAB	-17.9825
JIACAAB	-17.9834
ItMJE	-17.9842
hCSAAQAA	-17.9846
JjYQ	-17.9874
TIuEJNg	-17.9897
JIADAAB	-17.99
QkUAYAA	-17.9907
SIucJPA	-17.9908
QkmAQAA	-17.9908
IaXwk	-17.9914
OcEPj	-17.9916
ACAKA	-17.9926
LGsAA	-17.9929
yAMAAE	-17.9934
Ptmwk	-17.9941
JMAEAAB	-17.9946
BAABIiUQk	-17.9958
GEIuAU	-17.9964
SIlMJM	-17.9967
BwAASIu	-17.9969
SIucJJg	-17.9983
hJAc	-17.9999
IaUwk	-18.0001
AAAAAIk	-18.0001
xwEiD	-18.0006
PHwBIi	-18.0006
AIAAEyJ	-18.0015
AEAAEhpw	-18.0022
ScHhB	-18.0026
QkWAQAA	-18.003
EPr	-18.0032
wkYAIAA	-18.0033
TIuUJFA	-18.0033
SIuMJGA	-18.0039
yEyL	-18.0042
AOgB	-18.0057
IaXQk	-18.0064
hCQIAQAA	-18.0074
AwAATIu	-18.0077
SIuUJGA	-18.0078
iRUAAAAA	-18.0079
IAcJIi	-18.0089
EJEg	-18.0102
AQAAEyN	-18.0104
hECAAB	-18.0119
yNDQAAAAB	-18.0121
JRCT	-18.0126
HLwAA	-18.0127
SMHgD	-18.0135
iJnCR	-18.0138
KjQR	-18.0141
IlUJP	-18.0161
JAgGAA	-18.0165
SItUJC	-18.0167
TIucJIA	-18.0168
SItUJH	-18.0174
SIuMJMA	-18.0177
Mdt	-18.0192
wkEAIAA	-18.0194
SAHISI	-18.0198
JMgEAAB	-18.021
SImMJNA	-18.0214
iJvCR	-18.026
QksAUAA	-18.0279
EqL	-18.0287
JAgDAAB	-18.0292
SIuV	-18.0309
AtgAA	-18.0321
IjQUAAAAA	-18.0325
JjRQ	-18.0327
AAABmg	-18.0333
EAAAAAAAx	-18.0343
mgzoA	-18.0344
uQBAAB	-18.0356
GbHh	-18.0361
SAOEJMg	-18.0383
SIucJLg	-18.0393
EiJRCTg	-18.0406
wkYAMAA	-18.041
TIucJGg	-18.0426
jCQQAQAA	-18.0455
wkOAIAA	-18.046
iLRCTo	-18.0474
EiLVCSI	-18.048
AqeYA	-18.0488
CAADr	-18.0488
AAEiBhCS	-18.0503
wFUAAE	-18.0516
OdcP	-18.0528
QkWAUAA	-18.0529
SImMJKA	-18.053
ljUAA	-18.0541
vCTQAAAA	-18.0553
IjRUAAAAA	-18.0563
NDIl	-18.0569
ZscH	-18.0591
LRS	-18.0592
sawAA	-18.0613
JHAGAA	-18.0625
iJBQAAAABI	-18.0634
QkMAQAA	-18.0637
QkOAMAA	-18.0641
cBUAAE	-18.0641
JDAEAAB	-18.0644
iJtCQ	-18.0653
EmNR	-18.0664
SItMJG	-18.0697
QkwAIAA	-18.0707
SImEJDg	-18.0714
CLR	-18.0716
BAABID	-18.0721
SIuMJFg	-18.0726
JIgAAAA	-18.0734
JNgEAAB	-18.0748
JPAEAAB	-18.0751
AAAPtoQk	-18.0752
IyQEA	-18.0761
EwBzk	-18.0762
JEAEAAB	-18.0774
wDnCS	-18.0775
JDADAAB	-18.0776
hfYPh	-18.0777
MAdJ	-18.0785
miY	-18.0785
SImUJEA	-18.0801
EiLBQAAAAA	-18.0809
JMgFAA	-18.0814
iJvCS	-18.0822
AABIjQUAAAAA	-18.0832
TWnA	-18.0832
SLfCS	-18.0835
EiLBM	-18.084
AMAAEmN	-18.0847
ItEJE	-18.0849
SImEJIgAAAB	-18.088
JEADAAB	-18.089
TAHwS	-18.0899
AQAASo	-18.0902
EJYAAE	-18.0903
mRDn	-18.0937
TIuMJLA	-18.0937
AABMjT	-18.0943
MAAI	-18.0948
QkqAQAA	-18.0953
QAAAEgB	-18.0982
lCRAAQAA	-18.0994
JKAEAAB	-18.1013
TIuUJOA	-18.102
iDwQJ	-18.1022
IkFAAAAA	-18.1035
hCTgAgAA	-18.1047
AEAUAE	-18.1049
xEwAA	-18.1049
EiLTCSI	-18.1051
AABAD	-18.1054
TCSY	-18.1061
jST	-18.1071
EiJhCSIAAAA	-18.1076
EwBx	-18.1079
TIuMJHg	-18.108
wkAAEAA	-18.1094
SMcA	-18.1103
SIuUJKA	-18.1105
IjTy	-18.1136
hdIPl	-18.1138
TIuMJGA	-18.1144
Cgzy	-18.1154
SegAA	-18.1161
AZkQ	-18.1167
EyJnCQ	-18.118
jZT	-18.1188
gBAAAPt	-18.1192
SIucJEg	-18.1209
QkmAUAA	-18.1212
ASIl	-18.123
ZCxwR	-18.1233
Mcnr	-18.1239
AABIAfp	-18.1256
kBAABIi	-18.1258
LSQAAE	-18.128
wkIAMAA	-18.1286
kiBw	-18.1292
hRQQA	-18.1292
IweM	-18.1305
hCSoBQAA	-18.1319
AEAAESJ	-18.1349
ItcJO	-18.1361
CgHw	-18.1367
JVCR	-18.1373
vCQwAQAA	-18.1376
gJgcA	-18.1377
SImUJCg	-18.1379
TGlMJ	-18.1381
AADGA	-18.1384
EwDhCT	-18.1386
EiLAE	-18.1397
TIuUJMg	-18.14
AQAATIt	-18.14
lCSoAAAA	-18.1404
SImEJHA	-18.1415
EiUwk	-18.1433
IOdZID	-18.1447
ImEJF	-18.1453
JEgCAAB	-18.1466
DnCD	-18.1469
MjQw	-18.1469
yLvCR	-18.1473
JGAFAA	-18.1484
mRYm	-18.1497
IQEAAE	-18.1507
SIuUJHg	-18.1518
IUUEAE	-18.1522
QkYAYAA	-18.1529
wkaAUAA	-18.1546
IweEE	-18.1547
2//8	-18.1554
hCQgAgAA	-18.157
mQcd	-18.1577
PtgCI	-18.158
QkUAMAA	-18.1581
IiUQkm	-18.1592
SItcJO	-18.1594
EgDvCQ	-18.1617
IweAESI	-18.1618
JFADAAB	-18.1632
KgAA	-18.1639
SAHQSA	-18.1646
hCSQAQAA	-18.165
kwBy	-18.165
QkYAUAA	-18.1658
ItcJD	-18.1659
GZCg	-18.1661
IjZQ	-18.1668
SImUJIA	-18.1675
AABNAe	-18.1675
hCTAAAAA	-18.1693
SIlEJBB	-18.1707
ZokFAAAAA	-18.1711
TQHZ	-18.1723
TIuEJPA	-18.1728
TIuEJKA	-18.1734
oIQEA	-18.1734
TAHq	-18.1739
hCQwAgAA	-18.1741
XaoFAE	-18.1757
VCSI	-18.176
DnBD	-18.1763
EiJhCSoAAAA	-18.1766
iJnCT	-18.1772
wkGAQAA	-18.1789
gFAAAAA	-18.1801
iZSPf	-18.1804
QkiAQAA	-18.1818
AHwAA	-18.1824
TAHY	-18.185
OEAAAB	-18.1851
AABIjX	-18.1854
JBgFAAB	-18.1857
hCQoAgAA	-18.1877
miQJIi	-18.1885
JNgCAAB	-18.1895
SIuUJHA	-18.1896
RImUJ	-18.1899
SDnKSA	-18.1902
fhAAAAAAADx	-18.1914
TIuEJPg	-18.192
wksAIAA	-18.1921
SImMJLg	-18.1935
icZIi	-18.1963
JOABAAB	-18.1979
QkKAQAA	-18.1985
TIuMJOA	-18.1998
TIucJKg	-18.2009
TieT	-18.2015
iNj	-18.2017
hNac	-18.2041
kkPR	-18.2041
JKgAAAA	-18.2043
kGB	-18.2044
IvoDA	-18.2047
JKAFAAB	-18.2057
iLPQAAAAA	-18.207
JCgHAA	-18.209
mRYl	-18.2092
SAOEJIA	-18.2094
mQTn	-18.2106
wkKAMAA	-18.2132
SIuUJCg	-18.2139
gAASA	-18.2146
SIuMJEg	-18.2146
IiwUAAAAAZscA	-18.2148
Jmg	-18.2148
TIucJKA	-18.2151
iLBM	-18.2157
yNHQAAAAB	-18.2158
PIJQB	-18.2164
IOfJID	-18.2172
wkGAMAA	-18.2176
IlEJD	-18.2195
AABMjY	-18.2206
SGPJ	-18.221
ZkHHh	-18.2213
BBOc	-18.222
JCAEAAB	-18.2225
AQAASAHQ	-18.224
TAOkJ	-18.2242
SImMJPA	-18.2246
iJnCQ	-18.2249
SIlMJL	-18.2254
EiNBQAAAAB	-18.2257
MaUwk	-18.2258
kyLBQAAAA	-18.2259
SIucJMA	-18.2261
EgPr	-18.2269
IAdBIi	-18.2289
xwAAAAAA	-18.2294
QkGAYAA	-18.2299
TIuEJOg	-18.2307
EiNNA	-18.2316
hCTAAQAA	-18.2332
SANcJ	-18.2332
MAdh	-18.2337
TIucJLA	-18.2343
EiLdCSI	-18.235
wkSAIAA	-18.2352
gPRM	-18.236
///////39	-18.236
RYh	-18.2362
QkUAUAA	-18.2365
ItsJL	-18.2383
QkcAMAA	-18.2385
EvgEA	-18.2396
TIuUJJA	-18.2402
SImMJHA	-18.2412
CLVCS	-18.2421
Jwus	-18.2429
▁	-18.2438
gABAAAAAAAAAA	-18.2444
yLfCR	-18.2454
wkuAMAA	-18.2455
SGmE	-18.2477
QboBAAAA	-18.2485
Ptrwk	-18.2487
SItUJB	-18.2488
ICwBA	-18.2496
JDACAAB	-18.2512
ImEJLA	-18.2514
SIlEJPh	-18.2546
SImUJNA	-18.2556
EqNh	-18.2557
ACwAQB	-18.2561
cEQQ	-18.2584
BIjU	-18.2601
AABIiwUAAAAAiwCJ	-18.2604
hCRQBQAA	-18.2607
iLPQAAAAD	-18.2614
gDTCS	-18.2625
xgUAAAAAA	-18.2628
JDAFAAB	-18.2635
JIiUQk	-18.2674
wAAQQ	-18.2679
SImUJHA	-18.2694
QkKAYAA	-18.2697
SIlUJC	-18.2701
TWPA	-18.2724
mEJPA	-18.2724
hCRQAgAA	-18.2727
SIucJHg	-18.2742
AABIAfB	-18.2749
SImMJCA	-18.2751
IFgAA	-18.2755
LkBAAAA	-18.2757
gDHQAAAAB	-18.2771
hIjU	-18.2775
ItMJG	-18.278
ZscG	-18.278
EwDjCQ	-18.2783
kAPtvZ	-18.2793
JOACAAB	-18.2793
lCRwAQAA	-18.2818
AIAAIu	-18.2827
EUPR	-18.2829
jCQAAQAA	-18.2839
IadI	-18.2839
OcgPj	-18.2842
EyJhCQ	-18.2868
QkCAYAA	-18.2884
JIY	-18.2899
SAOEJGg	-18.291
AFEAAE	-18.292
mRTn	-18.2921
AUAAEhp	-18.2925
hCQYAgAA	-18.2948
JHAEAAB	-18.2954
TGlEJ	-18.2966
SAHBSA	-18.2974
wkAAIAA	-18.2982
SIlEJOh	-18.2991
SImMJFg	-18.3002
EiJfCQ	-18.3002
AAAxwI	-18.3002
aDfCS	-18.3006
wkKAUAA	-18.3011
VAAAAAEgB	-18.3017
IAdh	-18.3022
lCToAAAA	-18.3024
QkeAYAA	-18.3043
CJRCS	-18.3048
MjRUAAAAA	-18.3048
EyNN	-18.3049
gAAACL	-18.3052
JPABAAB	-18.3053
RYXAd	-18.3055
SImMJLA	-18.3056
Ptnwk	-18.3058
SAOEJEA	-18.3061
SAHySI	-18.3065
IjTR	-18.3066
wkUAMAA	-18.3066
gDfCS	-18.3068
iBUAAAAA	-18.3069
JKADAAB	-18.3091
EiNBJ	-18.3109
jCSQAAAA	-18.3128
ZkeJ	-18.3154
AAAAAESL	-18.3165
ItUJA	-18.3175
SIlEJK	-18.3177
JLgDAAB	-18.318
EyJtCS	-18.3206
AMAAEyL	-18.3212
YmEJ	-18.3221
AABIjV	-18.3223
hCToAgAA	-18.3224
JFAGAA	-18.3236
ItEJP	-18.3238
QIAAE	-18.3246
EiNBF	-18.3251
EyJTCQ	-18.3257
hMj	-18.3271
hCTAAwAA	-18.3272
OdAPT	-18.3285
hryXl	-18.3296
wkuAUAA	-18.3298
bASIkFAAAAA	-18.3303
JGgFAAB	-18.3306
iyXAB	-18.331
QccE	-18.331
woXAD	-18.3311
IlEJN	-18.3324
MFMAA	-18.3334
SCH	-18.3343
hCSQBAAA	-18.3352
hdJBD	-18.3355
JEgFAAB	-18.3364
TIucJOg	-18.3367
EiNl	-18.3376
iDwAJ	-18.3379
SImMJBg	-18.3381
xwEAAAAA	-18.3387
AiHQk	-18.3388
yLtCQ	-18.3405
DyCUA	-18.3416
JIgDAAB	-18.3429
AQAASG	-18.3433
EiLRCTQ	-18.3434
HOrQB	-18.3437
TItkJM	-18.3448
QkEAUAA	-18.3448
SIucJFA	-18.3456
SAHxTAH	-18.3462
IlEJK	-18.3464
SAHRSA	-18.3467
JCgFAAB	-18.3483
hCRgBQAA	-18.3495
AKnmAE	-18.3507
gDRCS	-18.3516
SIuUJFA	-18.3521
hIad	-18.3542
QkAAMAA	-18.3542
QUAAAAA	-18.3558
ASYP	-18.356
SIPBAk	-18.3564
Iacm	-18.3565
TIuMJBg	-18.3566
CJw	-18.36
QkWAYAA	-18.3629
RCQY	-18.363
iOgPAE	-18.3636
QkGAQAA	-18.3647
wkQAMAA	-18.3649
SIucJOg	-18.365
EgBxk	-18.3654
SIsFAAAAAGbHA	-18.3664
JEgGAA	-18.3676
LBJC	-18.3677
AcQIA	-18.3691
IAcZIi	-18.3693
gBwUiJ	-18.3697
GZBiY	-18.3699
hCTYAQAA	-18.3728
ImEJE	-18.3757
wDjCT	-18.376
TIuUJAA	-18.3766
EyJnCS	-18.3774
EiDfCT	-18.3784
kiJFQAAAA	-18.3787
EiNFF	-18.3803
JCAFAAB	-18.3804
SAOEJHg	-18.3804
BMac	-18.3807
IacC	-18.3828
CiggA	-18.3832
AKIAA	-18.3848
iLhCSYAAAA	-18.3855
EiDfCS	-18.3862
AIhEJ	-18.3862
QFgCAE	-18.3864
EiLBQAAAADGAA	-18.3867
TIuMJFA	-18.3868
EiNFJ	-18.3876
ZBiT	-18.3878
Ljb	-18.3895
SIucJAg	-18.3898
gBwUlpw	-18.392
AEAAExp	-18.3923
EHGR	-18.3936
hpwI	-18.3942
SItcJN	-18.3943
AUAAEiJ	-18.3953
wkqAUAA	-18.396
iYV	-18.3972
ItMJJ	-18.3975
QkAAUAA	-18.3999
EqNF	-18.4012
WZEi	-18.4037
SIlEJCh	-18.4038
IlEJM	-18.4039
JAAFAAB	-18.4053
wkyAIAA	-18.4057
IiwUAAAAASItMJ	-18.407
JJgEAAB	-18.4075
SImMJCg	-18.4086
AABKi	-18.4088
SAOEJGA	-18.4094
ItUJE	-18.41
gBwUi	-18.4101
mQok	-18.4101
JHABAAA	-18.4109
ZoXJ	-18.4112
gAATY	-18.4115
qqqqqqqq	-18.4137
JCgEAAB	-18.4141
kiNBI	-18.4142
QkkAQAA	-18.4144
APRM	-18.4157
EyJvCT	-18.4157
RInI	-18.4162
SIucJGg	-18.4169
BMaf	-18.418
hCQAAQAA	-18.419
iLBQAAAABmxwA	-18.4206
SIuMJGg	-18.4215
LjQQ	-18.4224
TIuEJIA	-18.4234
JjQw	-18.4235
EiJRCSw	-18.4242
QAAAAAAEUPt	-18.4244
hMAPh	-18.4254
AAAAAAAAAAAAAAAB	-18.4265
vCSwAQAA	-18.4278
AwAATY	-18.4279
AwAARI	-18.4294
SAHPS	-18.4298
SImMJMg	-18.4305
QkOAYAA	-18.4338
maDv	-18.434
AQAAAOs	-18.436
uQEAAE	-18.4371
miQUAAAAA	-18.4373
gLAEA	-18.4378
EyLNQAAAABMi	-18.4382
BIjYQ	-18.4397
NIiYQk	-18.4399
KKCAB	-18.4401
WNYAAE	-18.4405
SImMJHg	-18.4427
cvgAA	-18.4454
nCSoAAAA	-18.4466
Expz	-18.4487
SLXCS	-18.449
EiNFA	-18.4496
wkOAUAA	-18.4497
jCRQAQAA	-18.4502
JOgEAAB	-18.4504
RIlcJ	-18.4512
AEAADH	-18.4519
JDgGAA	-18.4522
hckPh	-18.4536
TIucJJg	-18.4539
wcXxc	-18.4552
SAOEJNA	-18.4563
JweQ	-18.4568
TIuUJGA	-18.4573
WZmL	-18.4581
vCTwAAAA	-18.4593
iLRCQI	-18.4594
yNFQAAAAB	-18.463
SImUJOA	-18.4641
IichI	-18.4674
wAAQY	-18.4686
IvRcA	-18.469
QkQAUAA	-18.469
JLAEAAB	-18.4694
NBIB	-18.4706
FheR	-18.4712
EHHB	-18.4716
ItUJB	-18.4717
wkCAMAA	-18.472
AABIAxUAAAAA	-18.4727
JDgEAAB	-18.473
hCQYAQAA	-18.473
AEAAEwB	-18.4732
EiNFQAAAAB	-18.4736
AAAASGl	-18.4752
QkOAUAA	-18.4755
IAdBIiQUAAAAA	-18.4757
SDmE	-18.4761
JEAGAA	-18.4769
SIuUJAA	-18.4772
BYAgB	-18.4781
jCRYAgAA	-18.4799
gDTCR	-18.4804
lMJC	-18.4807
QEAAEiL	-18.4816
QAAAAAPv	-18.4821
SAOEJEg	-18.4823
AABJjZ	-18.4865
SGPS	-18.4869
SDnID	-18.488
IAdp	-18.488
TAHASAH	-18.4887
SIucJAA	-18.4891
TAHIS	-18.49
SMHiD	-18.49
vCSoAAAA	-18.4916
EyJnCR	-18.4918
ITIt	-18.4936
JLgGAA	-18.4939
hCRoAgAA	-18.4949
SImMJPg	-18.495
QAAAADp	-18.4954
SImMJGg	-18.4957
SImUJLg	-18.4963
hCTIBAAA	-18.4967
lCRQAQAA	-18.4967
ItcJG	-18.4972
FCP	-18.4976
QkEAQAA	-18.4977
mQce	-18.4984
TQHaT	-18.5002
AABIAcFIi	-18.5005
EiLRCTw	-18.502
AACLhCT	-18.5022
AIAAESJ	-18.5028
SIlEJGB	-18.5031
EQPtoQk	-18.5036
SMcE	-18.5051
SImMJDg	-18.5059
ItcJE	-18.5069
yBYAAE	-18.5087
JKABAAA	-18.5096
iLhCSoAAAA	-18.5099
RECAAB	-18.51
QkGAUAA	-18.5111
APvs	-18.5112
IweIESAH	-18.5132
hCRoBAAA	-18.5134
AAAAQTn	-18.5138
EyJtCQ	-18.5171
EyJbCS	-18.5179
IjTUAAAAA	-18.5188
SYPG	-18.5203
eLBcA	-18.5208
gAASIGEJ	-18.5215
mff	-18.5239
AxyU	-18.5265
AAGZE	-18.5274
QosE	-18.5286
TWnJ	-18.5303
gUAAE	-18.5305
SIsFAAAAAIsAiUQk	-18.531
hCSIAgAA	-18.531
JIiVQk	-18.5336
SImMJIg	-18.5337
AEiBhCR	-18.5338
EiJRCTY	-18.534
TXFwB	-18.5344
lIiYwk	-18.536
TItcJIB	-18.5365
TAHIT	-18.5366
SLZCS	-18.5375
SIucJLA	-18.5411
ItN	-18.5411
EyJhCS	-18.5414
QLQAA	-18.5419
SIlEJBh	-18.5422
GaJh	-18.5445
iJXCR	-18.5447
BJif	-18.5448
AEQBA	-18.5456
ImEJD	-18.5458
SIsEJ	-18.5467
EwDlCT	-18.5469
hCRAAwAA	-18.5475
GAPCQA	-18.5486
TIuUJIA	-18.5487
AABLjQR	-18.5491
yLNQAAAAC	-18.5493
IOcJID	-18.5506
JJgAAAA	-18.5511
xOJxO	-18.5517
IkNAAAAA	-18.5533
EiDwA	-18.5547
AEASAH	-18.556
hCQgAQAA	-18.556
TIuMJMg	-18.5571
AABIAcJIi	-18.558
AAAPtpQk	-18.558
JPADAAB	-18.5603
IAfhIA	-18.5604
4//8	-18.5606
lEJJ	-18.5627
MjQS	-18.5633
IAcpIac	-18.5635
EyJlCS	-18.5658
UiBw	-18.5662
RInY	-18.5667
JJgFAA	-18.5678
BQAASGn	-18.5697
TIuUJOg	-18.5702
SImEJMAAAAB	-18.571
SAHQSAH	-18.5738
EiNDM	-18.5769
aQEAAEgB	-18.5774
QkMAYAA	-18.5776
JCgDAAB	-18.5779
hCQoBAAA	-18.5792
AABIAdB	-18.5801
hIiwUAAAAAD	-18.5807
SAOEJPg	-18.5818
iBRCR	-18.5819
EyJTCT	-18.5828
TIucJBg	-18.5845
SAHXS	-18.5845
EiNBP	-18.5847
gBykwB	-18.586
mvEAE	-18.5888
TIuUJDA	-18.589
iLhCTYAAAA	-18.5902
AABIAdFIi	-18.5917
RPQHA	-18.5926
gEAAEiL	-18.5926
AEGI	-18.5933
SImMJEA	-18.5941
EiJRCTA	-18.5964
vDQAASAH	-18.5966
QUASAH	-18.5967
BmiU	-18.5972
TIukJJA	-18.5973
AEmD	-18.5976
AABMY	-18.598
SIucJEA	-18.6001
AIgCAE	-18.6005
AHECAE	-18.6007
iLRCQY	-18.6014
GaDPE	-18.6032
hCQYAwAA	-18.6034
SAOEJDg	-18.6043
MYFAAAAAA	-18.6044
SAOEJAg	-18.6049
SImMJGA	-18.6053
gAASAHISA	-18.6062
AHAAA	-18.6065
SDnCSA	-18.6071
FIiUwk	-18.6077
AAAAZoN	-18.6079
hCTYBQAA	-18.608
JBAEAAB	-18.6089
YuMJ	-18.6097
mmSQB	-18.6099
SAOEJOg	-18.6115
Cic	-18.6121
IAdBIad	-18.6124
mCkAAE	-18.6124
TIuUJHA	-18.6124
SAHwSI	-18.613
ZIaf	-18.6133
MsaAAB	-18.6143
EyJZCT	-18.6144
GaDOA	-18.6149
EAPtv	-18.615
hCQgBQAA	-18.6153
QkIAUAA	-18.6155
TIuUJIg	-18.6164
yIP	-18.6165
IDQDA	-18.6168
IadK	-18.6186
=	-18.62
EkBwU	-18.6203
TIuUJPA	-18.6215
SInIS	-18.6227
TIuMJOg	-18.624
QkUAQAA	-18.6241
QkIAYAA	-18.6243
gosBA	-18.6243
kiJVCT	-18.6262
AAEhj	-18.629
wcUAAEgB	-18.6297
iLHQAAAAC	-18.6299
JKAGAA	-18.6303
JHgGAA	-18.6306
hIiVQk	-18.6317
SpFgB	-18.6324
AIAAEmN	-18.6325
EiJRCTw	-18.6331
TYXJ	-18.6335
YFAAAAA	-18.6344
EgDRCT	-18.6347
AABIAfF	-18.6351
mkBAAB	-18.637
JjQR	-18.6377
IAfBIiYQk	-18.6395
SItMJF	-18.6401
AABIjQS	-18.6404
hCTQAgAA	-18.6414
SImUJOg	-18.6444
QkuAQAA	-18.6453
ZsdE	-18.6454
AAPhG	-18.6464
SImMJBA	-18.6492
RYXAD	-18.6507
AAAAAEQPt	-18.6517
BQAAAAAx	-18.652
PtnQk	-18.6527
SMHgC	-18.6531
IKSIA	-18.6532
wIAAE	-18.6533
iZSPe	-18.6542
OHwBA	-18.6566
xgIB	-18.6569
AMAAEyN	-18.6571
IjbQ	-18.6572
MwUAA	-18.6573
TIuMJNA	-18.6575
AAAAEgBy	-18.659
ByEhp	-18.6596
SIucJBA	-18.6596
hCTIAgAA	-18.6634
JIaf	-18.6639
SLTCT	-18.6657
yLpCT	-18.6658
PlUQk	-18.6664
SImUJGg	-18.6665
JNADAAB	-18.669
MjQQ	-18.6707
miYQk	-18.671
IaYQk	-18.6713
IiYQksAAAA	-18.6717
SIucJNg	-18.6721
hCRwBAAA	-18.6723
icBI	-18.6771
BAAAPv	-18.6781
PvwR	-18.6788
SIucJKA	-18.6805
IAfBMAc	-18.6814
SAHQTAH	-18.6816
SImUJIg	-18.6825
LdCR	-18.6829
QkaAQAA	-18.683
IAAAASAH	-18.6833
SANEJP	-18.6834
EiJRCTI	-18.6844
EgByEgB	-18.6861
hCTQBAAA	-18.6868
IAdBJad	-18.6869
LjRS	-18.6883
CSIkFAAAAA	-18.6886
tCToAAAA	-18.6887
TIuMJGg	-18.6897
lEJK	-18.6898
TYXS	-18.6904
IiYQkuAAAA	-18.6915
iLrCS	-18.6916
hry	-18.6916
sfcCAE	-18.692
EAAAAAAAPH	-18.6963
EyLDQAAAA	-18.6974
xwGaD	-18.6978
SImUJKA	-18.6988
miRUAAAAA	-18.6988
AzAMA	-18.699
SIlEJGh	-18.7012
ABsAA	-18.7025
SItMJAh	-18.7027
AABIjRUAAAAA	-18.7071
IjTx	-18.7073
SMHiBEgB	-18.7082
CLTCT	-18.7084
JPgFAA	-18.709
wkMAUAA	-18.7105
SAOEJMA	-18.7113
JDABAAA	-18.7124
AAAARIn	-18.7127
yLvCT	-18.7137
wkGAUAA	-18.7138
wkYAUAA	-18.7152
MAdp	-18.7154
JFgDAAB	-18.7162
IlcJN	-18.7166
TIucJPA	-18.718
SIkFAAAAAEi	-18.719
QkyAMAA	-18.7193
GZFhc	-18.7202
AAEgPv	-18.7228
VAAAAAEiJ	-18.7264
EiJBCR	-18.728
SImUJAg	-18.7287
CAABIiUQk	-18.7305
wkIAIAA	-18.7306
SImUJLA	-18.7309
IweAG	-18.7319
FAAAAAEgB	-18.7333
OcgPT	-18.7335
AABCgDw	-18.7349
gByEiL	-18.7353
hCSoBAAA	-18.7373
hIjT	-18.7382
gBxkhpw	-18.7392
vCSQAAAA	-18.7399
jnQD	-18.7406
IlMJJ	-18.741
AGbHh	-18.743
TIuMJDA	-18.7439
EwDjCR	-18.744
EiDfCQ	-18.7443
znID	-18.7444
EyNP	-18.7446
SAOEJPA	-18.7469
FAAAAAEiL	-18.7472
jCTYAAAA	-18.7517
AQAARA	-18.7526
ECId	-18.7549
JOgCAAB	-18.7553
SANEJL	-18.7567
JAgEAAB	-18.7575
mQoN	-18.7588
jCSoAAAA	-18.7594
FMeR	-18.7628
wkAAMAA	-18.7632
hCToBAAA	-18.7632
SMHgA	-18.7655
SAHQSIuUJ	-18.767
ZokVAAAAA	-18.7675
ZkODf	-18.7682
EFBEA	-18.7687
QUEQB	-18.7689
JEAFAA	-18.7693
icFIi	-18.7695
BCaAQB	-18.7701
iLBQAAAAAPtgCIRC	-18.7704
JJAFAA	-18.7721
SIucJBg	-18.7721
wkOAQAA	-18.7749
IlcJO	-18.7752
IlEJG	-18.7762
hCRABAAA	-18.7771
BAEgB	-18.7789
AMwDAE	-18.7795
SINEJ	-18.7826
wWaJ	-18.7835
AAImUJ	-18.7858
joDwB	-18.7858
EIPtwR	-18.7875
SIkEJ	-18.788
SImEJLgAAAB	-18.7886
JPACAAB	-18.791
SIlEJEh	-18.7913
wkWAIAA	-18.7926
hXj	-18.7935
ItUJP	-18.7945
IiUQky	-18.7945
wkwAMAA	-18.7956
MTkAA	-18.7968
JFgFAAB	-18.7968
QkeAQAA	-18.7983
BAABIaf	-18.7985
IBQAAAABIi	-18.8027
yLvCQ	-18.8029
SJhIi	-18.8031
hCQIAgAA	-18.804
iNPQAAAAB	-18.8058
hCRYBQAA	-18.8074
SIsFAAAAAEiLAEiJ	-18.8077
EiNDQAAAA	-18.8103
lCSYAAAA	-18.8121
ItMJF	-18.8132
JIiQUAAAAA	-18.8133
iJnCS	-18.8141
1//8	-18.8149
AAMwD	-18.8158
wkgAUAA	-18.816
AWAIA	-18.8161
ItUJF	-18.8169
IAcpIi	-18.8199
PlYQk	-18.822
SMHgBEgB	-18.8227
QkgAMAA	-18.8228
ulQLAE	-18.8235
QkwMA	-18.827
DCGXAE	-18.8306
SIlF	-18.8308
EiLBQAAAAAPtwCJ	-18.8321
TeCwB	-18.8339
EiJyEjB	-18.835
icJIiwUAAAAA	-18.8351
hCQYBQAA	-18.8351
SIucJHA	-18.8359
SImMJOg	-18.8382
CJBQAAAAB	-18.8388
JAcF	-18.8394
EiJRCTo	-18.8404
EiNHQAAAAB	-18.8421
EyJpCS	-18.8451
gXqAR	-18.8466
hCTYAgAA	-18.8475
iMkBA	-18.8482
TIuMJKg	-18.8499
QSIl	-18.8505
SAOEJLg	-18.8514
wkMAMAA	-18.853
SIucJDg	-18.8532
IAcpMAc	-18.8534
hCQABQAA	-18.8535
fgUAAAAA	-18.855
EyLBQAAAAA	-18.8556
wkSAUAA	-18.8567
hCSoAAAA	-18.8567
hCRYAQAA	-18.857
JPgEAAB	-18.8572
wAAAABIi	-18.8578
iLBQAAAADGA	-18.858
hCSgAgAA	-18.8586
UPttt	-18.8625
AAImMJ	-18.8641
QkaAUAA	-18.8642
WFyQ	-18.8643
AsAQA	-18.8685
GaJBQAAAAB	-18.8692
AAASIFEJ	-18.8714
ECcAA	-18.8732
hCTABAAA	-18.8735
LrCwB	-18.8764
iBRCS	-18.881
aEJI	-18.8815
mgzgA	-18.8827
hCQoAwAA	-18.883
AAAAGaD	-18.8835
hCQQBgAA	-18.8902
IweEESAH	-18.8907
iwCJ	-18.8915
wkyAMAA	-18.8919
SImUJGA	-18.8931
SAOEJBA	-18.8952
xwUAAAAA	-18.8964
hBQRA	-18.8993
qjfAB	-18.8996
EiDwAJI	-18.9001
SGnG	-18.9016
SAOEJOA	-18.9035
CwBAB	-18.9042
IAfhMAc	-18.9073
iNNQAAAAB	-18.9078
IlcJP	-18.9088
IlUJG	-18.9109
jCTgAAAA	-18.9118
IicJIi	-18.9119
YtMJ	-18.9119
TIuMJIA	-18.9122
YiYAA	-18.914
zBQAAE	-18.9145
wkSAMAA	-18.9154
vCQQAQAA	-18.9157
BmiR	-18.9177
RCTg	-18.9178
dKkWA	-18.9178
IFQAAAAB	-18.9184
ACAAD	-18.9185
vCTYAAAA	-18.9192
hCQAAwAA	-18.9195
kClQB	-18.9202
fhAAAAAAAZpB	-18.9203
SMHhC	-18.9217
SImUJJg	-18.9217
wkgAMAA	-18.9223
SAOEJBg	-18.9234
AMAAEiLh	-18.9242
Bxfl	-18.9251
hcj	-18.926
yxoAAEgB	-18.9275
aLR	-18.929
otUJ	-18.9295
SIlUJB	-18.9304
AABmiY	-18.9317
SAOEJFg	-18.9338
TIuUJNA	-18.9348
IgVAAAAA	-18.937
SAHRSGn	-18.9391
TIuUJLA	-18.9401
IjTT	-18.9401
hCSIBAAA	-18.9408
JBgEAAB	-18.9413
MIZcA	-18.9413
ARAEA	-18.9426
TItMJLh	-18.9428
xwUAAAAAAAAAA	-18.9442
TIuUJBg	-18.9452
hCQABAAA	-18.9464
wkOAMAA	-18.9483
wkoAMAA	-18.9501
xgUAAAAA	-18.9505
SImUJMg	-18.9531
EiNFI	-18.9575
hpTCS	-18.9595
TIucJMA	-18.9601
iYSI	-18.9603
AABBO	-18.9604
nCSA	-18.9644
SMHgE	-18.9657
SImMJOA	-18.9663
hCSQAgAA	-18.9664
TItkJN	-18.9671
TAHAT	-18.9677
SAOUJNA	-18.9682
SImUJMA	-18.971
ZEJP	-18.9714
AhPZ	-18.9731
4/////////39	-18.9734
DnRD	-18.9736
TIuMJEA	-18.9745
GZBiS	-18.9747
wksAMAA	-18.9764
EyJXCT	-18.977
Iack	-18.9805
JEgEAAB	-18.9824
mCkAAEgB	-18.983
SAHQi	-18.9832
EJMDA	-18.9868
AAPhD	-18.9869
EiJhCSQAAAA	-18.9891
MAfh	-18.9899
hXL	-18.9907
IiYQkqAAAA	-18.9912
JLgAAAA	-18.9919
aEJL	-18.992
gNMgA	-18.9922
IkdAAAAA	-18.9936
TIucJLg	-18.9937
wkKAQAA	-18.9952
AEAAEGN	-18.9952
IhUJ	-18.9955
AABIjQT	-18.9975
EgDVCR	-18.9991
gByEiJ	-18.9993
TIucJJA	-18.9999
IgFAAAAAE	-19.0013
AABmxwUAAAAA	-19.0024
AABIweA	-19.0031
aEJC	-19.0033
DQIAE	-19.0047
AAAAQYP	-19.0058
hCTgAQAA	-19.0058
AABIAcZ	-19.0074
PtsCJ	-19.0076
hmDx	-19.0077
EiNNQAAAA	-19.0095
TIucJAA	-19.0127
EiDwB	-19.0128
hCRAAgAA	-19.0133
TIuMJKA	-19.0154
JEACAAB	-19.0158
LjSz	-19.0163
IiwUAAAAAxgAB	-19.0167
ICYHA	-19.0181
RIlsJ	-19.0188
5//8	-19.019
EgBzk	-19.0201
hCQQAwAA	-19.0208
OSAH	-19.0222
IAciL	-19.0224
IjVAB	-19.0235
CDIKAE	-19.0245
gByEiD	-19.0251
SAOEJJA	-19.0252
mbHR	-19.0263
EGNR	-19.0285
AAOYB	-19.0301
wkeAUAA	-19.0303
AAAAAAAAAAEAAAAA	-19.0306
EiNNI	-19.0307
PtkU	-19.0312
IOchID	-19.0315
BxQAA	-19.0315
TIucJCg	-19.0317
IiYQkkAAAA	-19.034
pUCwB	-19.0342
APoAAE	-19.0356
lCSQAAAA	-19.0357
AABLjR	-19.0384
VRPgB	-19.0387
JBQAAAABIi	-19.0414
ZokFAAAAAE	-19.0424
SItcJP	-19.0449
AABIiVwk	-19.045
QksAQAA	-19.0451
jCRwAQAA	-19.0465
Tieff	-19.0471
iNBQAAAAB	-19.0473
CDVHAB	-19.0475
hCQwAwAA	-19.049
SIucJIA	-19.0502
JEgDAAB	-19.0507
gAAABIAc	-19.0519
AAAAgHwk	-19.053
SIlUJAh	-19.0532
aEJJ	-19.0534
LjUT	-19.0539
IOcFID	-19.0561
hCQQBQAA	-19.058
AADmAU	-19.0583
AwBIi	-19.0597
EyNDQAAAA	-19.0598
TWPS	-19.0609
TIuUJHg	-19.0617
SIlEJMh	-19.0621
JKgEAAB	-19.0631
hpwJUIAAB	-19.0631
zXiAF	-19.0632
AOIEAE	-19.0643
PtgQI	-19.0671
EiLTCSY	-19.0676
AEAAEhr	-19.0696
EiNFQAAAA	-19.0699
hUT	-19.0704
UUPts	-19.0706
wkIAUAA	-19.0717
IiwTI	-19.0717
gNAgA	-19.0736
SImUJBA	-19.0748
JMADAAB	-19.0775
TIuUJGg	-19.0777
SImMJDA	-19.0781
ssaAAB	-19.0813
jHBM	-19.0828
qkAAAB	-19.0836
yLHQAAAAC	-19.0839
QAAAACLR	-19.0868
iLBNBI	-19.0874
IadJ	-19.0884
TIucJEg	-19.0898
CEBAAB	-19.092
hCSIAQAA	-19.092
EAAAAAABmk	-19.0921
EiLRV	-19.0924
EjHR	-19.0924
gOEBD	-19.0942
RInA	-19.0942
iQUAAAAAD	-19.0951
GBQAAAAAA	-19.0953
SInKSMH	-19.0971
TnID	-19.0982
PtwBm	-19.0995
TIuMJJg	-19.1001
JDgDAA	-19.1041
aDOgB	-19.1049
hCToBQAA	-19.1089
iLBQAAAABmxwD	-19.1108
kiBx	-19.1117
aCEBA	-19.1144
onC	-19.115
JwkiLBQAAAAB	-19.1154
SDnwSA	-19.1166
vCToAAAA	-19.1185
SAOUJBg	-19.1216
QUYBAE	-19.1226
AxAkA	-19.1254
SImMJAA	-19.1254
GZBO	-19.1278
WaDv	-19.1281
APtk	-19.1287
hCRoBQAA	-19.1297
ZIiXQk	-19.1302
MRMAAE	-19.1307
FGAQB	-19.132
wkmAUAA	-19.1328
iAUAAAAAD	-19.133
TIuMJPA	-19.1337
SYPA	-19.1343
hCQIAwAA	-19.1357
wkUAUAA	-19.136
Elrx	-19.1373
TIuUJAg	-19.1418
JBABAAA	-19.1418
ASAHISA	-19.142
iwSI	-19.1422
AAAAxoQk	-19.1429
TANsJ	-19.1452
wkCAUAA	-19.1483
ImEJMg	-19.1495
SIucJNA	-19.1496
SIPCA	-19.1517
JFABAAA	-19.1524
AAAAAOm	-19.1526
EiLBQAAAACLAIlEJ	-19.1532
AiAIA	-19.1536
icdIi	-19.1538
hCSAAwAA	-19.1572
OdAPR	-19.1628
EyJvCQ	-19.1639
SAHRSI	-19.1654
SAOEJDA	-19.1663
hCWAAB	-19.1681
AABIiQUAAAAA	-19.1695
hmZi	-19.1713
AABBjY	-19.1716
CEwA	-19.1722
EhjyU	-19.179
wGkQAE	-19.1793
CFFBAB	-19.1803
yQBD	-19.1812
ZokNAAAAA	-19.1847
EyJRCQ	-19.1848
RInQ	-19.1851
IiwUAAAAASMcA	-19.1874
iJvCQ	-19.1909
QAAAAAPh	-19.1926
TBeW	-19.1927
URvkA	-19.1955
zViAE	-19.1956
IkFAAAAAE	-19.1972
EiNPQAAAA	-19.2002
ZkKDf	-19.2008
SImEJJAAAAB	-19.2025
DhAQ	-19.2026
LjQy	-19.2044
PvsCJ	-19.2045
SAOEJHA	-19.2048
EwByEgB	-19.2049
dCJ	-19.2074
SIucJFg	-19.209
aFb	-19.2101
gBwkiJ	-19.2122
AAAAAAAAAAAAAEAA	-19.2133
hSrQB	-19.2145
hCTwAgAA	-19.2154
SAOUJMg	-19.216
BAABIiXQk	-19.2182
TIucJBA	-19.219
wIPA	-19.2194
OdAPQ	-19.2213
YKYAA	-19.2224
IMgoA	-19.2226
jJAQB	-19.2237
EiNDB	-19.2238
ZEJJ	-19.224
SIlEJHB	-19.2247
TItsJJh	-19.2264
wkSAQAA	-19.2268
lCSwAAAA	-19.2282
gDnCS	-19.2286
aQSwB	-19.2287
SJhI	-19.2287
QEASAH	-19.233
SIucJOA	-19.2334
IjYQC	-19.2334
TIuMJIg	-19.2341
gQAAEgB	-19.2372
EAAAAAAAPHwB	-19.239
ZkKDv	-19.2432
olQrAE	-19.2434
hpyS	-19.2435
FwHR	-19.2444
EwHQ	-19.2456
GaDfCT	-19.2477
gUqAU	-19.2479
EyJrCR	-19.2489
AABmiQUAAAAA	-19.2508
hCSwAQAA	-19.2526
SAHCSWn	-19.2538
EiVwk	-19.2546
BmiQUAAAAA	-19.2566
TIuUJBA	-19.2568
EgPTM	-19.257
JLADAAB	-19.2574
TIucJAg	-19.2599
wkgPQ	-19.2602
AZjn	-19.2603
iJwki	-19.2674
BMjT	-19.2682
SIsFAAAAAMcA	-19.2684
AAAASIuF	-19.2687
EgPvo	-19.269
hNsPh	-19.2691
SImMJEg	-19.2695
ImEJJA	-19.2698
AAGaQ	-19.2721
MBMAQB	-19.2723
ZomF	-19.2761
EiNDA	-19.2773
iNFQAAAAB	-19.2774
EiJXCT	-19.2802
CjAIA	-19.2804
SAHaS	-19.2835
whlwB	-19.2845
IlEJA	-19.2858
EiDfCR	-19.2869
iLBQAAAABIiwBIiY	-19.2874
ItV	-19.2876
IiwUAAAAAiwCJh	-19.2885
QAAAAAAGaQ	-19.2887
lCTIAAAA	-19.2917
hCQwBAAA	-19.2932
EyJpCT	-19.2941
wkCAQAA	-19.2958
FheQPh	-19.2959
AbdQJ	-19.2961
OXwAA	-19.2962
aEJB	-19.2974
EAPts	-19.2977
hrwC	-19.3003
QbsBAAAA	-19.3006
jUb	-19.3011
IweAESAH	-19.3035
hpwBECAAB	-19.3042
hCQoBgAA	-19.3055
miTUAAAAA	-19.3092
EhpVCS	-19.31
hCQQBAAA	-19.3118
IBAABIi	-19.3118
TItMJJh	-19.3148
zHSS	-19.3151
AAAAAQAAAAMAAAA	-19.3154
AABIjQwC	-19.3161
TIuUJCg	-19.3161
PFkuAE	-19.3168
SIucJDA	-19.3173
SAOEJJg	-19.3173
AABIiwUAAAAASIsA	-19.3179
IAcJIac	-19.3193
icJIi	-19.3195
SANsJ	-19.3197
TIuMJFg	-19.3227
AAAAABIx	-19.3235
FaP	-19.3243
SAOUJLg	-19.3251
hCQIBAAA	-19.3254
SIsFAAAAAMYA	-19.3267
hCQoBQAA	-19.3298
gowCA	-19.3318
QAAAGa	-19.3321
SAHwSImEJ	-19.3328
PlcAPts	-19.3362
SAOUJKg	-19.3372
PlQUAAAAA	-19.3374
AAPlcAPts	-19.3447
YFAAAAAA	-19.3461
CCkiAE	-19.3481
IAdhIiYQk	-19.3486
iNNLZ	-19.3509
RImkJ	-19.3526
vCRQAQAA	-19.3529
SAHQD	-19.3549
ZjnCD	-19.3563
iYX	-19.359
IxwUAAAAA	-19.3594
SAOUJPA	-19.3599
TWPJ	-19.3614
ZokFAAAAAA	-19.3614
IFKgF	-19.3657
GaJBQAAAABIi	-19.3685
BMDgB	-19.3698
tcJI	-19.3703
AKdBAE	-19.3713
vCQYAgAA	-19.372
SANEJK	-19.3742
SMHgBEwB	-19.3747
SIPABE	-19.3748
AiHwk	-19.3751
TIucJIg	-19.3757
iNHQAAAAB	-19.3758
GBQAAAAAB	-19.3784
CYHAB	-19.3786
AABIxwUAAAAA	-19.3801
RImsJ	-19.3817
AwAASGv	-19.3832
TIucJGA	-19.386
yUjB	-19.3865
mvHAV	-19.3869
AAEiNk	-19.3869
AITAd	-19.3869
AABIjTUAAAAA	-19.388
TIucJMg	-19.3883
znCD	-19.3907
hCRQBAAA	-19.3942
EyJrCT	-19.396
hIiwUAAAAAiwCJ	-19.3966
SAOUJNg	-19.397
iBRCT	-19.3984
NeIAU	-19.4001
KMAgB	-19.403
hCRIBAAA	-19.403
CIBQAAAAB	-19.4032
GZBiU	-19.4035
GaDfCQ	-19.4092
wDDQAAAAB	-19.4137
EyNBQAAAA	-19.4148
iVCsA	-19.415
IlcJM	-19.4155
ANQwA	-19.4184
AABIAchIa	-19.4192
SANEJH	-19.4193
EyJpCQ	-19.4215
IAfhIiYQk	-19.422
SANUJJ	-19.422
SIsFAAAAAEhp	-19.4229
EwBwEgB	-19.4236
AAPhB	-19.4258
YVAAAAA	-19.4276
AITAD	-19.4287
hCTAwB	-19.4323
EiNNB	-19.4338
IOdFID	-19.4348
AEGL	-19.4366
SGnAEQIAAE	-19.4368
BQAAAABIg	-19.4372
ScHkB	-19.4374
JgpAAB	-19.4434
SAOUJJg	-19.4452
AAAAAAAAAAAEAAAA	-19.4457
hCQgAwAA	-19.4469
IOfBID	-19.4475
AEAAGaD	-19.4488
SMdF	-19.45
mxwUAAAAA	-19.453
SImUJDg	-19.4541
AAASAOF	-19.4559
SMHhD	-19.4562
PthUAAAAA	-19.4571
IFsAAE	-19.4573
SAOUJIg	-19.4595
AwAATIm	-19.4605
IweAETAH	-19.4607
NmZi	-19.4622
hpBLAE	-19.4682
TIukJJg	-19.4699
EiJhCSwAAAA	-19.4699
TiavfA	-19.4704
EgBwEgB	-19.4711
yNBQAAAAB	-19.4728
SAOEJAA	-19.4735
MjTUAAAAA	-19.4739
ESLtCS	-19.4748
AcJIi	-19.4768
aEJK	-19.4804
OcEPT	-19.4812
SAOUJMA	-19.4828
Tiaff	-19.4858
HBQAAAAAAAAAA	-19.4916
SAOEJCA	-19.4934
ZjnQD	-19.494
jXj	-19.4971
ImEhj	-19.4981
prxwF	-19.4989
hCTYAwAA	-19.5002
IsEg	-19.5003
INUcAEgB	-19.5028
RYTS	-19.5047
UUqNDk	-19.5051
LjTT	-19.5057
EiJhCSYAAAA	-19.5067
AEAAEyLh	-19.5073
SIkFAAAAAA	-19.5076
EyJfCT	-19.5087
Axfl	-19.509
PtwRI	-19.5091
SIlUJE	-19.5096
MjSUAAAAA	-19.5135
iNBMBIweA	-19.5136
pgpAAB	-19.5136
PtgUAAAAA	-19.5149
IifBIweA	-19.5154
AiDUAAAAA	-19.5155
rxED	-19.5159
SLVCT	-19.5179
iJXCQ	-19.5265
SIkNAAAAA	-19.5272
TIuMJEg	-19.5278
iJwkjB	-19.5295
QbgBAAAA	-19.5309
JwUiLBQAAAA	-19.5314
hCSYAgAA	-19.5331
vgEAAAB	-19.5364
IgFAAAAAA	-19.5366
QCwAQB	-19.5393
xCaAQB	-19.5397
IacARAgAA	-19.541
gBykgB	-19.543
AABmRIm	-19.5443
BRgEA	-19.5447
AEPh	-19.5462
gBoGAE	-19.5512
ADAPAE	-19.5517
AEAAEhj	-19.5559
McFAAAAAAEAAA	-19.5559
znQD	-19.5609
AEAAEgD	-19.561
EEPvs	-19.5611
ZEOd	-19.5674
CghgF	-19.5675
RYTJ	-19.5679
agAAAB	-19.5685
EiNDAJIi	-19.5687
HBQAAAAABAAAA	-19.5687
SANEJJ	-19.5689
GaDu	-19.5701
GZEOc	-19.5717
AAPlcA	-19.5727
AguBgB	-19.5752
JEABAAA	-19.5763
TIuUJPg	-19.5774
TIucJEA	-19.5784
ZoXAd	-19.5797
UaoVA	-19.5837
AAAAAAAAACwAAAA	-19.5845
SImUJPA	-19.5847
TGlcJ	-19.5868
AABIjQR	-19.5908
OcIPT	-19.5911
jWz	-19.5917
IgdAAAAA	-19.5953
iIV	-19.5958
YKNOA	-19.5965
SAOUJJA	-19.5973
AEAAEgPv	-19.5982
HLwAASAH	-19.5993
JBQAAAADp	-19.6027
CAABID	-19.6035
SImUJBg	-19.6077
IAdBIjRUAAAAA	-19.608
XwAAAASI	-19.6094
mCkAA	-19.6143
SIsEy	-19.6174
yEgPT	-19.6197
EgByA	-19.6208
EGQUA	-19.6215
gBxkiJ	-19.6223
IgNAAAAA	-19.6234
ocvAAB	-19.6237
yFFBAB	-19.6239
AqGEA	-19.6246
AAPlcDr	-19.6254
CNOgF	-19.6284
EiNHQAAAA	-19.631
BAAAPto	-19.6327
IKch	-19.6333
AMQJA	-19.6336
vCRwAQAA	-19.6364
hUj	-19.6384
TIuUJEg	-19.6405
IhcB	-19.6405
TIucJHg	-19.6421
aEJM	-19.6476
JAEPtsC	-19.6481
PvkU	-19.6533
hCTwBAAA	-19.6541
GqFQB	-19.6549
SMeF	-19.6554
IAcFIac	-19.6585
SAHBSG	-19.6607
ZomcJ	-19.6614
AABIOY	-19.6628
JUKwB	-19.6636
HECAAB	-19.6639
AQAASIl	-19.6644
YAhMB	-19.6651
CiwS	-19.6663
AAAAAAACA	-19.6681
QbkBAAAA	-19.6682
IAdAPt	-19.6695
AAEiBRCT	-19.6697
SAHKTAH	-19.6732
IAcJJac	-19.6755
xfluBQAAAA	-19.6775
bAZo	-19.6792
GaJBQAAAAC	-19.6817
nCSIsFAAAAA	-19.6844
SMHiA	-19.6875
IicJIweI	-19.6884
yEhj	-19.6903
IPts	-19.6906
yNNQAAAA	-19.6932
AIAAEgPv	-19.6935
SAHRi	-19.6957
AIgTAE	-19.6995
kOAAAASIuF	-19.7013
nCSYAAAA	-19.7027
IAchIjQ	-19.706
AAAAAwAAAAAAAAA	-19.7066
iFKtAE	-19.7074
EAAAADAAAAAAAAAA	-19.7088
ETAAA	-19.7098
uaZJAE	-19.7098
yUhpy	-19.7101
xwUAAAAAAQAAA	-19.7118
YWIALnRleHQA	-19.7144
AQAPt	-19.7147
CjTgB	-19.7181
IidFIweE	-19.719
EEPQs	-19.7197
BQAAAACD	-19.7202
SInISMHgB	-19.7204
cVAAAAA	-19.723
AAAABgAAAAAAAAA	-19.7231
udGV	-19.7232
QAAAAYAAAAAAAAAA	-19.724
wAPlcA	-19.7244
ZIad	-19.7268
IOfFID	-19.7282
bgUAAAAA	-19.731
gEAAEgB	-19.731
AAAAAEAAAAAAAEAA	-19.7344
IAdBIjRUAAAAASAH	-19.7348
SGvAKk	-19.7353
iLBQAAAABIiQhIi	-19.7359
gBwkiNB	-19.7362
AAAAAAAAAALAAAAA	-19.7449
QFIY	-19.7471
AADnID	-19.7507
AiBMA	-19.7559
AAAAAAAAAAAsAAAA	-19.756
CLtCS	-19.7572
SDtUJ	-19.7575
SAHITAH	-19.7583
QGgGA	-19.7598
CIBQAAAAC	-19.76
BQAAAABBD	-19.7643
IAcgPt	-19.765
gBwklpw	-19.7655
ZgpAAB	-19.768
AaAYA	-19.7703
kiLRCR	-19.7714
AWaJ	-19.7758
SIlEJHh	-19.7804
CLBI	-19.7825
gByEgB	-19.7827
AADGBQAAAAAB	-19.7889
DwQJIY	-19.7936
AtUAk	-19.7994
OdEPT	-19.8019
SGNEJ	-19.8032
LVCQ	-19.8038
iwSB	-19.8038
SAOUJPg	-19.8063
AmAcA	-19.8085
SIFEJL	-19.8085
GaJBQAAAAAPt	-19.8097
SDtF	-19.8098
AAAASItF	-19.81
RIklAAAAA	-19.811
VAAAAAEiN	-19.8133
EJoBAEgB	-19.8156
IOcZID	-19.8194
iDwgJ	-19.8215
SLbCS	-19.8219
hpwA	-19.8221
maJBQAAAAB	-19.8268
EEPTM	-19.8276
AAAAAAAAAIB	-19.828
iLhCQAAQAA	-19.8285
ZscFAAAAAAAA	-19.83
BkiLR	-19.8328
ZseF	-19.8376
IXSD	-19.8397
EiNFQAAAABIAdB	-19.8426
ANgAASAH	-19.8459
RqhUA	-19.8538
hpwC	-19.8546
SDnGSA	-19.8577
ghgEA	-19.8611
icFIiwUAAAAA	-19.8615
JImE	-19.8616
JyGaJ	-19.864
IichIweA	-19.8645
IAfCL	-19.866
MTicT	-19.8689
iDOQB	-19.8699
hWj	-19.87
EiNPA	-19.8709
kMAAAAi	-19.8713
AAAAZoP	-19.874
ECINQAAAA	-19.8759
LRR	-19.8768
McFAAAAAA	-19.8776
pDAAAAIuF	-19.8814
AACAfCR	-19.8821
jnID	-19.8832
mgzsA	-19.8845
wEadAE	-19.8846
OfAPT	-19.8889
iAUAAAAASI	-19.8914
IAcpIjQ	-19.8924
JBQAAAACAv	-19.8926
CiwEA	-19.8944
PtxUAAAAA	-19.8945
AAItF	-19.8948
KIzyAU	-19.8949
AAPlMAPts	-19.8951
QAAAEhp	-19.8981
AJgHA	-19.8985
SJhIiQUAAAAA	-19.9003
GaJNQAAAA	-19.9048
jZB	-19.9063
SANF	-19.9078
hMkPh	-19.9094
YKQAASAH	-19.9125
BXkFfXc	-19.9148
wDnCD	-19.9159
wogFAAAAA	-19.9171
AACIBQAAAAB	-19.9183
SANEJC	-19.9191
miQUAAAAAD	-19.9238
MicBIweA	-19.9247
APtsA	-19.9292
EyLT	-19.9293
GkEsA	-19.9298
EqVYA	-19.9304
ZscFAAAAAAEA	-19.9306
APtoQk	-19.9332
IgFAAAAAGaD	-19.9343
jnRD	-19.9358
bAZokFAAAAA	-19.9359
IjQUAAAAASAH	-19.9364
ISIsFAAAAAA	-19.9366
SInQSMHgA	-19.949
SAHwTAH	-19.9505
IweYESAH	-19.9535
SIkUy	-19.9592
iQUAAAAAgL	-19.9594
kiYSGn	-19.9596
SANEJN	-19.9622
AAQBQB	-19.9629
gByEwB	-19.9637
SGvAF	-19.9642
GbHBQAAAAA	-19.9643
iJBQAAAAC	-19.9662
hNIPh	-19.9715
SAOUJLA	-19.9733
GbHBQAAAAAAA	-19.9737
TIukJMg	-19.9738
ZgoAA	-19.9738
SJhIY	-19.9751
IkFAAAAAA	-19.976
EIPthQ	-19.9779
SJTCT	-19.9812
wImF	-19.9828
gFRzA	-19.9864
PtwUAAAAAZomEJ	-19.9869
cFAAAAAGaJ	-19.991
AAAAAAAASMeEJ	-19.9914
IjVD	-19.9964
EiNi	-19.9967
IAcIPt	-20.0013
hryR	-20.009
hpwE	-20.0099
SAHYSImEJ	-20.0113
SIFEJK	-20.019
TAHoS	-20.0204
IQEAAEiJ	-20.0231
GYPvo	-20.0237
AAPhF	-20.0243
kiNDQAAAA	-20.0251
hImE	-20.0284
AVHMA	-20.0284
SMfC	-20.0305
hbz	-20.0313
IAfFIa	-20.0358
ABxAgB	-20.0362
WoAAAA	-20.0371
Tievf	-20.0425
AEgPRc	-20.0433
CiAUAAAAA	-20.046
ykhj	-20.049
aDvCS	-20.0548
BBkFAE	-20.0548
IAchID	-20.0559
EiJBQAAAAC	-20.0575
EiLhZg	-20.0618
DHAK	-20.0672
SFFBAB	-20.0707
AQAASWv	-20.0725
IlcJE	-20.0725
hSb	-20.0789
XAhMAPh	-20.0799
MRMAAEgB	-20.0805
yTnID	-20.0807
SJhIa	-20.0813
SMHhE	-20.0815
AAAPtgUAAAAA	-20.0828
TGPC	-20.0828
PtwUAAAAA	-20.0839
ImEhpw	-20.0875
ImEhr	-20.0893
oIYBAE	-20.0904
EiLBQAAAABIa	-20.092
CIPQAAAAB	-20.0929
AjToB	-20.0957
SIsFAAAAAIkI	-20.0985
iLBQAAAADH	-20.1013
SAHCSGnB	-20.1017
IiRTI	-20.1085
csaAAB	-20.1103
QBxAgB	-20.1118
pDQAAAA	-20.1118
CSGP	-20.1223
ACAeQB	-20.1228
QORyAE	-20.1278
ZonBSIsFAAAAAGaJ	-20.1296
EjHBQAAAAAAAAAA	-20.1299
zETAAB	-20.131
wEhpw	-20.134
yBeoBE	-20.134
AAAAAAAAAAAAAAAC	-20.1345
SDnRSA	-20.1368
kNAAAAD	-20.1379
BIiwBI	-20.1413
xflvDQAAAA	-20.1414
KFwA	-20.1567
wkgPT	-20.1571
aJwUiLBQAAAABmiQ	-20.1581
TInASMHg	-20.1606
haD	-20.1628
IifhIweA	-20.1644
yNPQAAAAB	-20.1694
AAPlcGA	-20.1698
APRc	-20.1702
JBQAAAACL	-20.1722
IiwUAAAAASIkI	-20.1727
IweEGSAH	-20.1737
niwXAE	-20.1772
AABIAcJIac	-20.1784
SMcFAAAAAAAA	-20.1787
YqBMA	-20.1829
SMfB	-20.1865
hVj	-20.189
gBwUhpx	-20.1905
uAEAAADr	-20.1939
AADGR	-20.1946
ADYAAEgB	-20.1957
EBicl	-20.1958
SImEJKgAAAB	-20.1967
AADnQD	-20.1974
SAHyTAH	-20.2024
iLhd	-20.2028
hcAPlMAPts	-20.2042
QgpIgB	-20.2047
QEPtsl	-20.205
EiLBQAAAADHA	-20.2071
wEPh	-20.2074
gBwkhpx	-20.2189
iNBEBIweA	-20.219
GYt	-20.221
iNDQAAAABIi	-20.2322
iDwANI	-20.2331
LjVT	-20.2355
AAAPtgUAAAAAiIQk	-20.2424
ARIAdB	-20.2451
ZkHHg	-20.2455
EAAAAAAAEAACAAHA	-20.246
IBQAAAAAPt	-20.2464
FWQVVBVFNIgew	-20.2515
gRIAfJ	-20.2575
qQAAAEiJ	-20.2578
AwAASIuF	-20.2628
yNJQAAAAB	-20.263
EhjwU	-20.2658
jETAAB	-20.2692
AABIAcFIa	-20.2709
SAHCSGnG	-20.2729
PlAUAAAAA	-20.2739
SAHBSGnH	-20.2741
IidhIweA	-20.2779
SIsFAAAAAEhpy	-20.2801
SGPSSI	-20.2802
EyNBA	-20.2818
uAoAAEgB	-20.2818
ImEhp	-20.2828
iJyEjB	-20.2841
MRMAA	-20.2867
kiNFQAAAA	-20.2883
PtwRQ	-20.2885
jVj	-20.29
YFAAAAAIiEJ	-20.2912
CIBQAAAAAPt	-20.2912
oHq	-20.2929
AABbQVxBXUFeQV	-20.2973
OcYPj	-20.2997
ADUMAB	-20.3021
SAHISIuN	-20.3039
kBSGPJ	-20.3065
ZokFAAAAAEiL	-20.3069
cQIAAEiJ	-20.3086
EiNFM	-20.3097
OcgPQs	-20.3121
IlcJH	-20.314
AdCD	-20.3158
AAAAAOl	-20.3163
PlMAPts	-20.3187
ogVAAAAA	-20.3218
iFFBAB	-20.3222
hrwBd	-20.3268
ImEiJBQAAAA	-20.3273
SInYSMHg	-20.3288
ojPIB	-20.3301
EBSGPJ	-20.3312
DwQFIY	-20.3313
SANEJO	-20.3333
SGnAVCIAAE	-20.3356
IackA	-20.3368
iLBQAAAABIa	-20.3398
TAHQTAH	-20.343
IlcJG	-20.3455
BmiQUAAAAAD	-20.3458
AAAATIuN	-20.3462
AAAAAEQAAAAEAAAA	-20.349
jXgB	-20.3583
AAAAAMYFAAAAA	-20.3585
SItFY	-20.3587
SItcJAh	-20.3634
aQEAAEiJ	-20.3639
kYXRhA	-20.3683
AEAUASAH	-20.3684
AUMMA	-20.3728
AAAABEAAAABAAAAA	-20.3807
AAAAAHAAAAAEAAAA	-20.3825
micFIiwUAAAAAZok	-20.3831
AAAPtwR	-20.3879
SDlF	-20.3895
InCD	-20.3935
PvoV	-20.3974
LmRhdGEALmJzcwAu	-20.3985
APtsD	-20.3998
AAuZG	-20.4001
EiNPB	-20.4019
AqjkA	-20.4072
hbb	-20.4075
DiAQ	-20.4087
bHBQAAAAABA	-20.4119
SMHhF	-20.4121
PtpV	-20.4138
EjHBQAAAAA	-20.4145
wEhj	-20.4277
hZb	-20.4297
OcgPh	-20.4299
hpyQA	-20.4344
iBQI	-20.4345
IQEAAEgB	-20.4399
TAAAASIuF	-20.4414
EiLhZA	-20.4457
wIXAD	-20.4515
RCaAQB	-20.4531
AgAASAHCD	-20.459
NuoEA	-20.4594
EiLhag	-20.4633
BoBgB	-20.4647
TIukJKA	-20.4701
EiLhb	-20.4758
EAAAAAAAEAABgAFA	-20.4796
wokFAAAAA	-20.4807
IHQAAAAB	-20.4809
IBQAAAACAv	-20.4858
EiYSIkFAAAAA	-20.4866
OcIPQ	-20.4945
XAhMB	-20.4974
SANEJM	-20.5005
EiLRW	-20.5048
PfQSJh	-20.5086
PtpU	-20.5112
pCBsA	-20.5157
SMdEJ	-20.5161
AAAAAcAAAAAQAAAA	-20.5181
UhQAAAABIi	-20.5196
VwIgFAAAAA	-20.5217
iwSQ	-20.523
PtpX	-20.5232
EAAAAAAAEAAAwACA	-20.5233
APtsBIiQUAAAAA	-20.524
QIhsJ	-20.5276
GbHBQAAAAD	-20.5292
SJhIjQ	-20.5311
AABIAcgPt	-20.5322
JwUiLBQAAAAB	-20.5325
QEIPAE	-20.5328
yBYAAEgB	-20.5329
AAATGv	-20.5361
AivLwB	-20.5396
AAAAALAAAAAAAAAA	-20.5421
SGNN	-20.5429
AADHR	-20.5434
SGvJF	-20.5444
jMFAAB	-20.5464
VwITAD	-20.5479
GaJDQAAAA	-20.5502
SAHQSGnT	-20.5522
gDwIAA	-20.5552
AAAAEAAAwACAFVBV	-20.5566
AADHBQAAAAD	-20.5569
EiLhfA	-20.5593
AACLBQAAAACJh	-20.5604
IsEk	-20.5615
OMIPQ	-20.5633
iJBQAAAAAPt	-20.5651
bAiQUAAAAA	-20.5657
zjCD	-20.5657
AAAAQAAAAAAAAAA	-20.5679
PvwRI	-20.5707
SAHISItN	-20.5718
hpwJ	-20.5763
AAAAAAAAABAAAAAA	-20.5769
MHgAkgB	-20.5784
AAAASAHQD	-20.5873
PnMAPts	-20.5944
AAAPtwUAAAAA	-20.5946
EjHBQAAAAD	-20.5959
QEPtsk	-20.5988
hRj	-20.6033
SGvAaE	-20.604
SGnAQB	-20.6042
IAcpIAfp	-20.6044
OcIPR	-20.6091
SAHwD	-20.6097
SIuFuAAAA	-20.613
IAcEPt	-20.6132
mxwUAAAAAAQ	-20.6141
gAAAItF	-20.6154
BXEFdQV	-20.6177
DwAK	-20.6178
IAcgPto	-20.6203
SAHASI	-20.6203
wUhj	-20.6222
IAdBMAd	-20.6255
TieTnBxfl	-20.6258
kLAAAASItF	-20.6264
ZscFAAAAAA	-20.6269
hVz	-20.6305
wIPo	-20.6307
hWL	-20.6318
IAchIY	-20.6331
OcIPl	-20.6333
WaJh	-20.6334
AABIAdAPt	-20.6341
wGaJh	-20.6342
AACLRT	-20.6363
VwCQB	-20.6368
AAAABwAAAABAAAAA	-20.6381
CiQUAAAAA	-20.6388
EiLheg	-20.6415
SpVgB	-20.6448
VwIiF	-20.6505
AAMeF	-20.654
IweAESAOEJ	-20.6544
PtjUAAAAA	-20.655
AGaFwHQ	-20.6604
EiLhaA	-20.6607
PBAUhjyU	-20.6637
IidBIAcBIAdBIweA	-20.667
APtsC	-20.6679
hpycIBAAB	-20.6744
SInRSMHh	-20.6752
iwSC	-20.6754
hCaAQB	-20.6767
gpyE	-20.6814
hUz	-20.6843
CqOQB	-20.6877
IjTwQ	-20.6887
hVD	-20.6921
PtpW	-20.6929
gPtwR	-20.6937
PlsAPts	-20.7093
ABAFAEgB	-20.7184
AKCGAU	-20.7199
UiNDQAAAA	-20.7214
dBIweADSAHQSAHA	-20.7225
LjUStA	-20.7252
SAHRD	-20.7275
SGPSSGP	-20.7303
AAAAAEQAAAAAAAAA	-20.7325
AEiNk	-20.7337
iYXA	-20.7424
MHgBEgp	-20.7465
OcoPT	-20.7471
pCgAAAA	-20.7472
ivEQN	-20.7478
iLlS	-20.7495
IacBpAQAA	-20.7522
uQEAAEiJ	-20.7536
CJBQAAAAAPt	-20.7556
SJhIacA	-20.756
PvoW	-20.7562
iLld	-20.7563
FVP	-20.7564
SItFS	-20.7567
fUFAEgB	-20.7569
ugAAAABI	-20.7579
miYW	-20.7612
IweIETAH	-20.762
iJwg	-20.7642
iJhXj	-20.7646
IweADSI	-20.7666
kKAAAAD	-20.7698
AAAAQAAAAAAAAAB	-20.773
QJIY	-20.7761
BGnQB	-20.778
miYV	-20.7846
SItFQ	-20.7848
ECIPQAAAA	-20.7855
SAHQSGnR	-20.7868
RRBI	-20.7898
miYX	-20.7901
IAchMAc	-20.7911
hRz	-20.7936
SIuFgAAAA	-20.7941
bdQIA	-20.7965
EiLBQAAAABIxwA	-20.7968
EQIAAEhp	-20.7968
OfhID	-20.7968
LSQAAEgB	-20.7972
IAcKL	-20.7984
XAiAUAAAAA	-20.8044
wkgPTsJ	-20.8052
iLhbgAAAB	-20.8079
iJhWD	-20.8084
hUb	-20.8093
AACLRS	-20.8099
hZz	-20.8119
ACsIG	-20.812
jWj	-20.8161
iJhVj	-20.8164
kCINQAAAA	-20.8195
gBxAgB	-20.8223
IweACSI	-20.8228
UxQAAAABIi	-20.8228
YEAg	-20.8247
iJhVD	-20.827
PvgQI	-20.8272
AAAAAAAAAAAAAAAG	-20.8361
PvsCD	-20.8364
EiLheA	-20.8394
GghAQB	-20.8417
ZscFAAAAAP	-20.8429
SGPSSGnS	-20.848
iJhUD	-20.8507
pCQAAAItF	-20.8522
AGaFwA	-20.8542
AADGBQAAAAD	-20.8562
kJAAAAi	-20.8567
McFAAAAAAAAAAB	-20.8584
ZokUS	-20.8641
AABIAchID	-20.8665
wkiFwA	-20.8675
SANUJL	-20.8708
AJIjQ	-20.8742
EiJBQAAAAAPt	-20.8747
IiwTISImF	-20.8759
AACLRR	-20.876
bqBAB	-20.8791
CEwHR	-20.8791
iJhTj	-20.8832
JBQAAAABmg	-20.885
hVT	-20.8877
AJAtAE	-20.8882
ImFOP	-20.8889
PoAkiY	-20.8963
iZSPd	-20.8964
IwUiLBQAAAACIC	-20.9018
iLhWD	-20.902
AADHBQAAAAA	-20.9021
OcdID	-20.9023
IAcoPt	-20.9067
AAAAEgBwg	-20.9102
iLhXj	-20.911
iLhTD	-20.9125
SImFeP	-20.9126
QEPtslIa	-20.9147
RShI	-20.9148
aDPEgAD	-20.9191
iJhSD	-20.9196
AAAAAAAAAAAAAAAK	-20.92
AoIYB	-20.9202
bJSGnJ	-20.9261
SGvALk	-20.9284
SItFaE	-20.9284
SIuFmAAAA	-20.9287
EiLhYg	-20.929
AAEgBxkiJ	-20.9299
iJhRj	-20.932
AFDDAE	-20.933
SImFcP	-20.9335
IAcgPv	-20.9348
SIsFAAAAAEiJC	-20.9367
IAcgPtk	-20.9382
SAHIio	-20.9384
AGIh	-20.9394
haj	-20.9424
iLhXD	-20.9435
SAHQSIlEJ	-20.9454
iJhQD	-20.9479
iJhRD	-20.9483
UhjyU	-20.951
APlcCEwA	-20.953
iJhQj	-20.9544
jBSIsFAAAAAIgI	-20.9566
IiYVo	-20.9571
AAAAAOk	-20.9594
iLBQAAAABIiwBIiU	-20.9637
CJBQAAAAC	-20.9638
SImFYP	-20.9648
SInCSIuF	-20.9654
hrwBZ	-20.9659
BXkFfw	-20.9662
IiYVY	-20.9682
icIPt	-20.9715
iLhWj	-20.9716
SImFaP	-20.9727
iJhfD	-20.9739
ABAAAAAAAAAAAAA	-20.975
hjyUhj	-20.9753
SImFWP	-20.9759
iLhVD	-20.9779
hab	-20.9789
SAHISGON	-20.979
iLhUD	-20.9791
PtwAPt	-20.9801
SIuFqAAAA	-20.9817
iJhfj	-20.983
SImFUP	-20.9864
ItFM	-20.9868
SIuFSAEAA	-20.9876
EiLRU	-20.9886
iLhSD	-20.9917
hryQ	-20.9921
hIiwUAAAAASIkI	-20.9927
ZotF	-20.9938
miRRI	-20.9949
FQAAAAAPr	-20.9972
iJhdD	-21.0009
SDnCD	-21.0013
SIuFkAAAA	-21.0013
DwQNIY	-21.0019
WCmAAB	-21.0022
IiYVg	-21.0023
osEk	-21.0026
SImFQP	-21.0036
cQIAAEgB	-21.0038
IiYVI	-21.004
APAgAD	-21.0062
iLhdAAAABI	-21.0066
xoV	-21.0138
iLjdg	-21.015
dBIweACSAHQSAHA	-21.0151
IAdBIAchI	-21.0155
IafZEAQAA	-21.0163
QSMHgAkgB	-21.0177
OcIPn	-21.0196
iJhcD	-21.0204
SImFMP	-21.022
bAiYV	-21.0226
iLhRj	-21.0246
iJhej	-21.0249
iLhRD	-21.0287
SImFSP	-21.0298
iLhTj	-21.0338
PhhMAAABI	-21.0354
mOcIPQ	-21.0376
IiwUAAAAAiQhIi	-21.0396
gBykiL	-21.0404
gByEjB	-21.0404
QArCBk	-21.0408
iJheD	-21.0415
iNFABIi	-21.042
iJhdj	-21.0434
iLhQD	-21.0447
IiYVQ	-21.0455
IiYUg	-21.0464
YTAAAASIuF	-21.0477
IPwAQ	-21.0484
FWQVVBVFNIgez	-21.0502
OcgPl	-21.0503
IafBpAQAA	-21.053
oECCQB	-21.0531
SIuFMAIAA	-21.0535
iLhVj	-21.0538
MTAAAASIuF	-21.0552
kCSGPJ	-21.0597
PtwxR	-21.0606
SImFKP	-21.061
iLhUj	-21.0621
SImFIP	-21.0624
iJhcj	-21.0664
iLhSj	-21.0669
hpwGkBAAB	-21.067
SGvSF	-21.068
IAdBIAfhI	-21.0698
iJhZj	-21.0706
hpwF	-21.0713
PpAUhjyU	-21.0722
PgxMAAABI	-21.0726
KQgbA	-21.073
iLRWhI	-21.0738
MdnSCE	-21.0774
iLheD	-21.0798
YDhAUiLBQAAAACIC	-21.0829
iLhYgAAABI	-21.0839
BQAAAAAPtgUAAAAA	-21.0846
OcgPg	-21.0862
AAPlcAkA	-21.0865
wAAAADp	-21.0893
IgzzIA	-21.091
SAHQSGnX	-21.0917
IAcGLh	-21.0934
JImEhp	-21.0935
IiYVA	-21.0935
AABbXUFcQV	-21.0946
PtsCD	-21.0954
hpwP	-21.0956
iLhfD	-21.0966
IiYUw	-21.0981
iJhbD	-21.0989
hpwOQBAAB	-21.1003
AJIAdBIweAC	-21.1005
AciI	-21.1005
IiYUo	-21.1007
IiYUY	-21.1018
SIPpA	-21.1035
yYHp	-21.1037
JBQAAAAAPv	-21.1041
SIuFcP	-21.1059
SIuFYP	-21.1094
AdAe	-21.1102
iJhaj	-21.1119
KBAgkA	-21.112
SImFGP	-21.1126
SIuFeP	-21.115
ImEjB	-21.1159
iLhQj	-21.119
iJhbj	-21.1203
XBgOEBSIsFAAAAAI	-21.121
woXAd	-21.1221
iJhaD	-21.1226
AAAASMcFAAAAA	-21.1262
SAHQSIuV	-21.1297
iJhXD	-21.133
pAAAAAEiL	-21.1339
iJhZD	-21.134
IAdBMAc	-21.1352
IAfBIAch	-21.1382
ARIAch	-21.1407
hpyZgpAAB	-21.1421
SImFCP	-21.1425
OEQAAAIuF	-21.1429
CJwg	-21.1435
DfRAAD	-21.1441
hbT	-21.1489
iJhYD	-21.1505
SIuFqAEAA	-21.1509
iJhYj	-21.1521
IacDkAQAA	-21.1522
IiYUI	-21.1527
FWQVVBVFNIgey	-21.1533
iJhWj	-21.1533
SImFEP	-21.1555
SIuFUP	-21.1576
AAEgBwkhpx	-21.1578
SIuFIAIAA	-21.1612
iLhWABAABI	-21.1631
AAAAAAAFwAAAA	-21.1641
NEQAAAIuF	-21.1644
PjhMAAABIi	-21.1653
SIuFQP	-21.1662
SIuFaP	-21.167
haT	-21.1677
IsEh	-21.1687
AEAAEgBwg	-21.1689
JhXT	-21.171
hpwBCTAwB	-21.1723
ECSGPJ	-21.1742
SImFAP	-21.1743
bAiYU	-21.1743
ZolMJ	-21.1748
iLhdD	-21.1767
iLhej	-21.1772
IiYUQ	-21.1779
SIuFeAEAA	-21.1794
SInQSMHgBEgp	-21.1813
PjRMAAABIi	-21.1819
iLhcD	-21.1825
IjTQQD	-21.1842
SIuFAAEAA	-21.1846
DfTAAD	-21.1856
PttKD	-21.1868
EiLhcAAAABI	-21.1872
PfYSJh	-21.1876
AAMaF	-21.1879
IiYXY	-21.191
iLhfj	-21.1911
mgzxIAA	-21.1923
EiLhYAAAABI	-21.1935
SGPSSGn	-21.1951
SIuFSP	-21.1952
IiYXw	-21.1967
AAEgByA	-21.1996
SIuFMP	-21.2006
IuAAAAAAAAACA	-21.2007
hjBIhI	-21.2007
iJhTD	-21.2015
IiYXo	-21.2042
IiYXg	-21.2048
gBwkhpw	-21.2049
SIuFYAEAA	-21.2053
TMFAAB	-21.2107
SInQSMHgBEgB	-21.2109
SAHISGlN	-21.2113
pAAAAAIuF	-21.2117
iLBQAAAACJC	-21.2132
iJhUj	-21.2133
ARIKdB	-21.2134
LhUz	-21.2136
gAASIuV	-21.2148
SIuFGP	-21.217
McAr	-21.2174
SJhIacC	-21.218
SAHISGmN	-21.2197
iLhdj	-21.2206
gBwUgPv	-21.2209
SIuFsAAAA	-21.2227
EgByEgF	-21.2236
aFwA	-21.2243
SInQSAHASAHQSMHg	-21.2266
IiYXQ	-21.2291
iLlRgBAAB	-21.2292
EiJwkiJ	-21.2293
AAAAQAAAAAAAAAC	-21.2299
SAHCSIuF	-21.2328
bAiYX	-21.2329
IiYXI	-21.2333
iJwUiLh	-21.2352
iJhSj	-21.2367
AAAAAEAABgAFAFV	-21.2369
ItFG	-21.2382
JhWT	-21.2389
SImFqP	-21.2423
gzyIAA	-21.2457
wAHIg	-21.2459
SIuFIP	-21.246
SAHISGNN	-21.2466
iLhaj	-21.2472
FWQVVBVFNIgex	-21.2499
bQVxBXUFeQV	-21.2525
SImFwP	-21.2542
SGMEiE	-21.256
sEiImF	-21.2581
SImFuP	-21.2583
hcAPlcAPts	-21.2616
iLhYj	-21.2618
IjBSIsFAAAAAIgI	-21.2622
SIuFCAEAA	-21.2628
SIuFWP	-21.2646
iLhZD	-21.2647
hpwDETAAB	-21.2654
iLhZgAAABI	-21.2682
EiLRR	-21.2684
XoAAAASI	-21.2706
yUhj	-21.2723
IafYhAQAA	-21.2732
SImFyP	-21.2741
xflvFQAAAA	-21.2744
QEPtsmD	-21.2791
bAiYW	-21.28
iLhYD	-21.2819
iLhaD	-21.2832
JhVT	-21.2835
SMHhCUgBy	-21.2835
iLRXhI	-21.2851
hpwIcvAAB	-21.2854
iLhbj	-21.2869
SIuFcAEAA	-21.287
iLhcj	-21.2877
SImFsP	-21.2891
IAdCLl	-21.2892
SIPAAkiJh	-21.2893
kgPvo	-21.2908
SItFcE	-21.2909
JhVz	-21.2918
SIuFEP	-21.2919
wEiYSImF	-21.2925
uFYP	-21.2936
iNSP	-21.2973
iLlegAAAB	-21.2975
kAAAAASIuF	-21.2993
QUYBAEgB	-21.2999
iLhbD	-21.3018
AwAASAHQD	-21.3022
JhTz	-21.3027
IjRTFAAAAAE	-21.3028
gOIBD	-21.3029
IafZpAQAA	-21.3033
SIuFCP	-21.3065
AEAABgAFAFVIieWJ	-21.3073
DPIgAD	-21.3076
LhXz	-21.3084
AACLRU	-21.3092
SIuFOP	-21.3098
SIuFEAEAA	-21.3103
AAAAAAAAsAAAAA	-21.3107
SIuFWAEAA	-21.3127
OdAPTMK	-21.3135
wEAAADp	-21.3135
SImFoP	-21.3141
SIuFOAEAA	-21.3152
SIuFKAEAA	-21.3164
JhST	-21.3173
AAAAAAACwAAAA	-21.3181
iLhZj	-21.3184
JAEPtsBImEi	-21.3218
iLlc	-21.3222
khjyUhj	-21.3229
AAPlcAkAYiF	-21.3257
LhXT	-21.327
SImFmP	-21.3272
uFWP	-21.3274
IsAhcB	-21.3278
SGPwi	-21.3295
LhQD	-21.3308
gFIY	-21.3321
Jhez	-21.333
iwCFwA	-21.3341
SIuFKP	-21.3349
IiYWo	-21.3353
JhWz	-21.3354
SIuFAP	-21.3361
AABIAdAPv	-21.3385
IacAJPQAA	-21.3389
SImFkP	-21.3396
AAACKR	-21.3404
IiYWY	-21.341
SGvAMk	-21.3429
AJIAdB	-21.3435
SIuFiAEAA	-21.3436
iMFIiwUAAAAAiA	-21.3441
SGNF	-21.3443
iDPMgAD	-21.3446
SImFiP	-21.3459
AFEAAEgB	-21.3463
IiYWQ	-21.3468
JhRT	-21.3491
uFUP	-21.3513
DfSgAD	-21.3522
YDhAQ	-21.3529
AABIAdEPt	-21.3532
JhSz	-21.3533
wkgPRsJI	-21.3547
JhTT	-21.3551
gAAABIAchIi	-21.3558
iLhQABAABI	-21.356
IiYWw	-21.3584
dBIAcBIAdBIweAC	-21.3601
hpwO	-21.3606
AdBIjRSFAAAAAEgB	-21.3616
Jhfz	-21.3618
Jhcz	-21.3625
wHQg	-21.3627
SQBD	-21.3651
IiYWI	-21.3657
iLhegBAABI	-21.3671
LhXD	-21.3675
iLhQACAABI	-21.3686
ANIAdBIAcB	-21.3688
JhUz	-21.3694
SIuFCAIAA	-21.3706
XAJAEPts	-21.372
uFSP	-21.3723
LhWT	-21.3729
hjykhj	-21.374
LhWz	-21.375
iYUc	-21.3751
SImFgP	-21.376
iLRThI	-21.3769
JhQT	-21.3774
IiYWg	-21.3789
AABIAdFIa	-21.3803
BIidBIweACSAHQS	-21.381
IiYWA	-21.3813
SJgPtgQC	-21.3838
uFEP	-21.3849
AAAAAAAAAsAAAAA	-21.3868
EJYAAEgB	-21.3873
AAOsFu	-21.3887
uFKP	-21.3888
hjyUiJ	-21.389
SIsFAAAAAEiJCE	-21.3893
wIASAH	-21.3903
IacDLGgAA	-21.3905
uFOP	-21.3921
xwCnI	-21.3923
JhQz	-21.3929
EiYSImF	-21.3956
JhRz	-21.3963
LhTz	-21.3981
IacAxEwAA	-21.4008
JhbT	-21.4008
uFIP	-21.4031
IidBIweACSAHQS	-21.4034
iLlZgAAAB	-21.4044
AABIAcgPto	-21.4053
LhWD	-21.4063
EDwAAAA	-21.4076
JhfT	-21.4079
SIuFMAEAA	-21.4107
SIuFoAAAA	-21.4117
SAHCSGnH	-21.4131
SIuFGAEAA	-21.4133
DEQAAAIuF	-21.4138
PAAkiY	-21.414
iLRWBI	-21.4166
iYUs	-21.417
iYUE	-21.4186
IAdGLl	-21.4186
uFMP	-21.4211
SGnAxAAAAE	-21.4216
JhdT	-21.4234
Jhdz	-21.4236
IAchIaU	-21.4242
JhcT	-21.4246
icEPt	-21.4247
JheT	-21.4254
SIuFqP	-21.4262
uFGP	-21.4275
JBQAAAABID	-21.4301
SIPpAU	-21.4306
YFAAAAAIiF	-21.4311
hjyEiJ	-21.4341
iLleAAAAB	-21.4351
LhVj	-21.4355
RRCJh	-21.4364
EiLhbAAAABI	-21.4365
AABIAchIaU	-21.4365
GEQAAAIuF	-21.4366
AABIAchIaY	-21.437
LhVT	-21.4372
yEgBwEgByEjB	-21.4378
JhZT	-21.4378
Jhbz	-21.4381
iYUk	-21.4387
AABIAdCL	-21.4397
wAPlcDr	-21.4435
mFZP	-21.4443
IidBIweAESCnQ	-21.4451
EiLRdB	-21.4452
PvgwR	-21.4457
wkgPTcJI	-21.448
ARIKch	-21.4485
YFAAAAAAHGBQAAAA	-21.4498
iYSGv	-21.4499
iYUU	-21.4499
MRAAAAi	-21.4529
AgAASAHQD	-21.4531
EiLRfB	-21.4548
IidBIweAESAHQ	-21.4565
uFQP	-21.4568
iYUM	-21.4571
LhTj	-21.4579
iLlX	-21.4584
jwEhj	-21.4615
VwYDhA	-21.4648
iYUo	-21.4653
cQIAAEhp	-21.4661
LhSz	-21.4662
Lhfz	-21.467
iYUw	-21.468
AAAAAQAAAAAAAAAD	-21.4698
iYSGP	-21.4698
SIuFwP	-21.4732
AAAAAAAAABEAAAA	-21.4769
SAHQSIsA	-21.4771
SGPKS	-21.4782
JhWD	-21.479
iYUQ	-21.4792
PtgAPts	-21.4799
SIuFoP	-21.4804
LhTT	-21.4808
aJFEgPt	-21.481
bAZomF	-21.4814
JhSD	-21.4835
LhQT	-21.4843
LhRz	-21.4853
uFfP	-21.4866
iYUY	-21.4874
nQiQUAAAAA	-21.4911
uFeP	-21.4916
hVr	-21.4917
SGPQSInQSMHgA	-21.4918
JhYz	-21.493
iJFMhIi	-21.4933
iLhRgCAABI	-21.4934
PtgwR	-21.4953
PvpV	-21.4959
IidBIweACSAHQSI	-21.4964
iYXM	-21.4968
LhfT	-21.4972
hpwMQAAAB	-21.4976
WQAAAASI	-21.4977
iYUI	-21.4989
NWIASAH	-21.5007
IFAhIi	-21.502
DfSAAD	-21.5047
IUUEAEgB	-21.5063
iLReh	-21.5066
APtoV	-21.5082
SAHQSAHwSAH	-21.5109
JyESJ	-21.5128
iYXc	-21.5129
AJIAdBIAcBIAdB	-21.513
IAdBMAcBI	-21.513
AHECAEgB	-21.515
LhVz	-21.5154
Lhez	-21.516
ZolcJ	-21.5162
LhST	-21.5172
iMFIiwUAAAAAiAhI	-21.5184
uFdP	-21.5212
LhQz	-21.5216
SIuFGAIAA	-21.5219
LhfD	-21.523
iYSImF	-21.5232
JhaT	-21.5232
AAACLRe	-21.5236
gByEgPv	-21.5237
EwBwEiLBM	-21.5245
SInISMHgA	-21.5254
LhVD	-21.5261
BQAAAABmxwUAAAAA	-21.5261
AAAAAAAAARAAAAA	-21.5265
iYXs	-21.5269
AAAAEAABQAEAFVBV	-21.5272
SIuFuP	-21.5276
OcgPjRIAAAAPt	-21.5277
SAHxSGnS	-21.5298
SIuFyP	-21.5299
iYWs	-21.5306
IAdAPtgAPts	-21.5311
iLhQgCAABI	-21.5313
iYXk	-21.5321
SGPSSGv	-21.5322
JhXD	-21.5332
uFZP	-21.5332
JhYT	-21.5366
SIuFsP	-21.5376
PtwRC	-21.5387
ANIAdBIAcBIAdB	-21.5408
JhUD	-21.5418
iLhaAAAABI	-21.5426
SIuFwAAAA	-21.5439
uFwP	-21.5452
uFaP	-21.5453
ARIicJIi	-21.5468
LhUD	-21.5468
IwUiLBQAAAACICE	-21.5484
iLhZAAAABI	-21.5485
icKLR	-21.549
mFeP	-21.549
hpwMQJAAB	-21.5499
JhVD	-21.5521
AABIAdBIAfBI	-21.5523
LhRT	-21.5528
iYWk	-21.5531
LheT	-21.5549
uFyP	-21.5549
QoAAAAPv	-21.5553
SGPQS	-21.5558
uFVP	-21.5565
JhZz	-21.5592
QoAAAAPt	-21.561
iLBMhI	-21.5616
LheD	-21.5628
uFRP	-21.5637
iLhRABAABI	-21.5646
IAchIaY	-21.565
uFAP	-21.5653
uFoP	-21.5661
FWQVVBVFN	-21.5669
AJIAdBIAcB	-21.5672
OcIPTsK	-21.5675
LhQj	-21.5691
iYWE	-21.5702
LhXj	-21.5713
SJhIacB	-21.5714
SJhIacD	-21.5722
SIuFkP	-21.5724
LhbT	-21.5728
SIuFiP	-21.5732
LhcT	-21.5738
OcgPjhIAAAAPt	-21.5743
GBAgB	-21.5756
uFcP	-21.5761
JhRD	-21.5767
LhdD	-21.5772
EiLReB	-21.5777
SGnAkAEAAE	-21.5781
Lhdz	-21.5788
uFPP	-21.5792
AAEgBwUhpx	-21.5805
AQBIAchI	-21.5813
iNFMUAAAAASIuF	-21.5821
bHBQAAAAAAA	-21.5831
LhRD	-21.5835
IAchIAfB	-21.5839
bAicFIiwUAAAAA	-21.5861
JhTj	-21.5877
iYWw	-21.5886
Lhfj	-21.5897
IacCYKQAA	-21.5904
hpyWkBAAB	-21.5927
uFLP	-21.5935
iLRVBI	-21.5936
uFqP	-21.5939
JhRj	-21.5957
LhSj	-21.5962
iLhYAAAAB	-21.5965
JhUj	-21.5969
OcIPTcJ	-21.5993
iLhSABAABI	-21.5998
nBSIsFAAAAAIkI	-21.6001
JhVj	-21.6008
uFNP	-21.6011
icFIiwUAAAAAZokI	-21.6014
SIuFmP	-21.603
SIPBAU	-21.6043
LhdT	-21.6044
HQiQUAAAAA	-21.6046
nBSIsFAAAAAEhpy	-21.6051
JAEPtsCD	-21.6051
JhWj	-21.607
SGPJSGP	-21.6073
uFDP	-21.6085
JhSj	-21.6094
BIiwBIhcB	-21.6108
LhRj	-21.6116
WYAAAASI	-21.6126
iYWc	-21.6131
wdIx	-21.6138
AAADrBb	-21.6144
IjRQASIuF	-21.6148
iLBQAAAACJCE	-21.6153
iYXE	-21.6157
xflvBQAAAA	-21.6163
iLhXACAABI	-21.6172
SItFOE	-21.6178
AABIAchIY	-21.6181
wAAAItF	-21.6182
hpwMsaAAB	-21.6189
PvpW	-21.6189
AAAASAHCD	-21.6204
AABIAcgPv	-21.623
iYWM	-21.6232
SIuFoAEAA	-21.6233
iYXo	-21.6242
mOcIPRsIPt	-21.6273
Jhfj	-21.6278
LhZT	-21.6279
APtsBmiQUAAAAA	-21.6293
uFHP	-21.6299
EiLhUABAABI	-21.6304
SJhIiYV	-21.6308
AAIpF	-21.6318
iYXY	-21.6326
AAAAEiNDBAPt	-21.6351
iLhfAAAABI	-21.6355
SIuFIAEAA	-21.6356
dBIweACSAHQSMHgA	-21.6362
WoAAAASI	-21.6369
EiLBMFI	-21.6369
gByIuN	-21.6374
uFsP	-21.6378
iYSGvAF	-21.6381
hcAPlcCEw	-21.6423
Mckp	-21.6436
JheD	-21.6439
uFkP	-21.6457
SIuFuAEAA	-21.6468
XgAAAASI	-21.6468
Jhej	-21.6474
SJhIiYU	-21.6477
OcgPn	-21.6478
Lhbj	-21.6478
IichIweAESCnI	-21.6501
iYWU	-21.6501
iYWo	-21.6517
QEPtsm	-21.6525
iLDQAAAABIiwlI	-21.6532
AAAAPtkX	-21.6543
OcIPTcK	-21.655
LhYz	-21.6568
IAdBIAfBI	-21.6571
iYWA	-21.6577
JhXj	-21.6578
JhQj	-21.6581
iLhfgBAABI	-21.6583
EiLRdh	-21.6587
PwAYTA	-21.659
ZImEhj	-21.6593
XYAAAASI	-21.6604
KkAAABIi	-21.6612
AAASIuV	-21.6626
Lhbz	-21.6628
mFSP	-21.6629
hpyQB	-21.6634
Lhcz	-21.6642
gJIjQ	-21.6655
iNFIUAAAAASIuF	-21.6656
SIsFAAAAAEhr	-21.6656
LhUj	-21.666
SIuFaAEAA	-21.6665
Lhej	-21.6665
AAEgBwkhpw	-21.6665
uFBP	-21.6681
ANIjQ	-21.6682
iYWg	-21.6695
PtsiD	-21.6701
iYWY	-21.6704
DfSAAd	-21.673
gRIAcp	-21.6734
Jhbj	-21.6756
LhaT	-21.6759
JAEPtsBm	-21.677
IjZA	-21.6786
lQgAAEgB	-21.6793
FwHV	-21.6804
iYWQ	-21.6813
hjyUhp	-21.6837
uFmP	-21.6844
SIsExk	-21.6883
AcIPv	-21.69
uFJP	-21.6931
LhYT	-21.6945
uQEAAEgB	-21.6984
ciIwUiLBQAAAACIC	-21.6989
SAHQiwC	-21.7008
lImEhj	-21.7009
DfRgAD	-21.7014
SIuFsAEAA	-21.7055
uFFP	-21.7057
yIjBSIsFAAAAAIgI	-21.7059
AJIAdBI	-21.7064
SIuFyAEAA	-21.7072
PpAUhjyUhpy	-21.7082
PvpX	-21.7098
AQAAAOsFuAAAAA	-21.7106
UhQAAAABIAdB	-21.7123
iLhSgBAABI	-21.7136
SIuFyAAAA	-21.714
Jhdj	-21.7147
AABIAdFID	-21.7149
IacAQkwMA	-21.7166
IBQAAAABID	-21.7167
LhbD	-21.7182
EgByEgPv	-21.7185
AABIAcgPtk	-21.7186
LhcD	-21.7198
icKLh	-21.7204
jVABD	-21.723
iLhRACAABI	-21.7232
SIuFwAEAA	-21.7238
AAEgByEgPv	-21.7246
iJRchI	-21.7259
IiwUAAAAAiQh	-21.7259
mFKP	-21.7277
iLhWACAABI	-21.7283
CSAHQSMHgAkgB	-21.729
uFvP	-21.7305
iYiwSC	-21.7314
ARIAfB	-21.7314
igQIJAEPtsC	-21.7316
iLhbgBAABI	-21.7317
AAPhBAAAAC	-21.7321
SJhIiwTC	-21.7337
wonB	-21.7337
iLheAAAABI	-21.7338
IAciLTd	-21.7361
LhZz	-21.7372
hpwK	-21.7376
iYWI	-21.7407
IacCHLwAA	-21.7407
Jhaj	-21.7408
SIuFgAEAA	-21.742
LhYj	-21.7421
JhZj	-21.7422
uFCP	-21.7446
DwAOIh	-21.7446
hpwHECAAB	-21.7447
SJgPtwRC	-21.747
SJhIaf	-21.7484
SGPSSJh	-21.7556
SGnAuQEAAE	-21.7564
bJOcgP	-21.7569
SAHRSIuV	-21.7582
acCpAAAA	-21.7583
SGvJGEgBy	-21.7594
uFpP	-21.7607
JwUiLBQAAAACJC	-21.7619
SIsFAAAAAGaLAGaJ	-21.765
SJhIiYX	-21.7675
JhbD	-21.7675
SGPQi	-21.7683
SGvJD	-21.7687
EiLVfhIi	-21.7691
icFIiwUAAAAASGnJ	-21.7698
EDSGPJ	-21.77
OcIPRsK	-21.7718
iLhcgAAABI	-21.7734
jQwCD	-21.7751
iJwkiLR	-21.7784
iLhSACAABI	-21.7786
DfTgAD	-21.7795
yUhryR	-21.7806
JhYj	-21.7808
iYVU	-21.7809
kUiE	-21.7825
FAAAAAMcFAAAAA	-21.7829
SGPSSJhIa	-21.7836
PvwxR	-21.785
RhdGEu	-21.787
kBSGPJSGnJ	-21.7882
LhaD	-21.7895
AQAASAHCD	-21.7897
SGnARAEAAE	-21.79
iLhXABAABI	-21.7905
LhZj	-21.7907
AAAAikX	-21.7922
iLRXB	-21.7929
AZIicJIi	-21.795
AAAASIuFuAAAA	-21.7969
JhYD	-21.7999
AAAABAAAAAAAAAAB	-21.8025
gByIpN	-21.8031
LhZD	-21.8035
hcAPlcCIBQAAAA	-21.8044
iLhVgBAABI	-21.8051
OcgPjhIAAAAPv	-21.806
IjZC	-21.8064
OcgPjRIAAAAPv	-21.8078
PtsmD	-21.8089
iYXg	-21.8105
IAcqL	-21.8108
SItFME	-21.8121
PtgCEwA	-21.8128
PBAkhjyU	-21.8131
ANIAchIweA	-21.8135
AAAAASIkEC	-21.8148
Lhaj	-21.8148
kYXRhLmNzdD	-21.8151
CLAIXAD	-21.8159
iLlagAAAB	-21.816
XQAAAASI	-21.8162
IidBIweADSAHQS	-21.8195
mFyP	-21.8204
dBIjRUAAAAASAHQ	-21.8205
SInQSAHASAHQS	-21.8225
SIuFUAEAA	-21.8263
TWPASGP	-21.8306
BgAFAFVIieVIiX	-21.8308
DwAOJ	-21.8316
mOcIPTsKY	-21.8323
OcIPTsJ	-21.8337
hmiUX	-21.8338
ByGaJh	-21.8342
EiLRXBI	-21.8346
WgAAAASI	-21.8362
iLhTABAAB	-21.8384
zHAK	-21.8398
PksAPts	-21.8416
uFnP	-21.8417
IacAwUwAA	-21.8439
iLRTBI	-21.8446
JhZD	-21.845
iLhUACAABI	-21.8453
IAcgPvo	-21.8469
mOcIPTcKY	-21.8486
iLhagAAAB	-21.8498
OcIPTcI	-21.851
IweIDSI	-21.8528
JwUiLBQAAAABIa	-21.8537
AAACLRc	-21.8542
SAHISGuN	-21.8569
wHIZomF	-21.8585
iJRdhI	-21.8601
ByIiF	-21.8639
SJhIiYW	-21.8646
hjyUhr	-21.865
IacAzBQAA	-21.8658
BmiYU	-21.8669
EiJhXD	-21.8674
InBSIsFAAAAAEhpy	-21.8677
SItFUEi	-21.8695
SGnAyxoAAE	-21.873
WwAAAASI	-21.8736
QQAAAASItF	-21.8739
iYXI	-21.8742
AGEwA	-21.8749
EiLhQgBAABI	-21.8762
AAAABAAAAAAAAAAE	-21.8773
SGvJFkgBy	-21.879
AAACLRf	-21.8799
SAHQTAHASAH	-21.8804
EJMDAEgB	-21.8806
AhcAPlcCI	-21.8819
IadLkAQAA	-21.8838
OcgPk	-21.8943
EiNFIUAAAAASAHQ	-21.895
uFhP	-21.8957
AQAAAOsFuAAAAAC	-21.8969
iNFMUAAAAASItF	-21.8971
dBIweADSAHQSMHgB	-21.8989
AAAAPvkX	-21.899
sfcCAEgB	-21.9001
SItFGE	-21.9004
QFIiwUAAAAAiAhIi	-21.9004
SGPJSJhIY	-21.9004
IjRSFAAAAAEiLR	-21.9021
hryVx	-21.9023
XAiAUAAAAAD	-21.9025
gNIAcJIidBIweA	-21.9031
DSAHCSInQSMHgB	-21.9041
AHASAH	-21.9067
SItFWE	-21.9126
iLlYABAAB	-21.913
hpwDMFAAB	-21.9137
EgByIqN	-21.9138
IjRQASItF	-21.9161
BXkFfXcM	-21.9166
AAAAEgBwouF	-21.9167
SItFEE	-21.917
bAAciD	-21.9196
gByItN	-21.9226
SJiLBI	-21.9242
ABhMAPh	-21.9291
iNDQAAAACJF	-21.9299
wmaJBQAAAAAPt	-21.9304
iJRfhIi	-21.9311
mFqP	-21.9314
iNUAF	-21.9315
AQAASInQSMHgA	-21.9336
SGPJSGPS	-21.935
EiJhWj	-21.9372
iLBQAAAABIiQh	-21.9382
IjRTFAAAAAEiLR	-21.939
AJIAdBIweACSAHQ	-21.9417
XAiIV	-21.9417
iLRUBI	-21.9425
iLhUgCAABI	-21.9439
kiJwkiJ	-21.9476
iLVVh	-21.9477
DfUgAD	-21.9479
MwUAAEgB	-21.9483
yIHp	-21.9484
SIuFmAEAA	-21.9487
SIuFOAIAA	-21.9512
SGvALE	-21.9537
SItFIE	-21.9544
iJRbhIi	-21.9589
iLhegAAABI	-21.9603
ECcAAEgB	-21.9627
PBAYnJ	-21.9633
iLhZgBAABI	-21.9636
TGPG	-21.9646
iLlbgAAAB	-21.9659
IAciKTe	-21.9679
JAEPtsBIY	-21.9726
hcAPlcDr	-21.9727
iLhYABAABI	-21.9732
AAPlcAkAYhF	-21.9751
kAAAAASItF	-21.9776
DfVgAD	-21.978
AAFtdQVxBXUFeQV	-21.9808
AAAASIuFoAAAA	-21.9813
AAPhBAAAABIi	-21.9818
AAMZF	-21.9822
PpAYnJ	-21.9826
MTkAAEgB	-21.9847
gOEBSIsFAAAAAIgI	-21.9857
iLlXj	-21.9866
SAHBSGnG	-21.9869
kDSGPJ	-21.9873
BmiYV	-21.9887
AAAAEAABAADAFVBV	-21.991
SAHwSAHID	-21.9915
iNFIUAAAAASItF	-21.9948
AAAABwAAAABAAAA	-21.9958
AAAAASIkUC	-21.9959
AAAAAEAABwAGAFV	-21.9977
gByEgF	-21.9987
McApy	-21.9997
DwASIh	-22.001
AHASAHQSMHgAkgB	-22.0016
AEAAEiNDBAPt	-22.0021
EiJhUj	-22.0038
AAEgByIuN	-22.0047
QFIiwUAAAAAiAh	-22.0049
uQEAAEhp	-22.0049
igQIJAEPts	-22.0056
IadIRAgAA	-22.0065
JAEPtsB	-22.0073
SMHhBEgBy	-22.0078
gByIqN	-22.0093
hpyYA	-22.0107
MjQQQD	-22.0129
iLlYgAAAB	-22.015
SGvJYEgBy	-22.0152
bSSGnS	-22.0166
XAiIX	-22.0178
iLlZAAAAB	-22.0179
SGvADk	-22.0191
EiLhQABAA	-22.0192
iLlWj	-22.0214
SGvJFEgBy	-22.0219
SAHISGtN	-22.0219
EAAAwACAFVIieVIg	-22.0222
gEPttI	-22.0222
SMHhBUgBy	-22.0244
iLVXB	-22.0247
SJgPt	-22.0258
khjyUhp	-22.0265
IacBAHwAA	-22.0272
iNDQAAAABIiRQI	-22.0273
SGPwSI	-22.0297
ImIsEg	-22.0308
iLRShI	-22.0336
EAABgAFAFVIieVIg	-22.0349
OMIPRsIPts	-22.0349
iJRZBI	-22.0371
iLhaABAABI	-22.0392
SAHQSIPA	-22.0398
hpyZABAAB	-22.0429
AAAAEQAAAAAAAAA	-22.0439
EiNFQAAAABIAdCIC	-22.0442
EiNFAdIac	-22.0449
AAEgByIqN	-22.0451
SGvJMEgBy	-22.0456
EwByEwBw	-22.0464
iJRahIi	-22.0472
IBQAAAAAPv	-22.0472
EBSGPJSGnJ	-22.0473
wIPAAYP	-22.0481
IAchIAfh	-22.0497
iLlYAAAAB	-22.0503
CItF	-22.0507
SGnAMwUAAE	-22.0516
SGnALSQAAE	-22.0517
gNIjQ	-22.0531
EiLAEiFwA	-22.0533
iLhTgBAABI	-22.0535
pwKkAAAB	-22.054
iLlaAAAAB	-22.0542
JAEPtsCDwAGD	-22.0543
EiJhSj	-22.0585
PCAkhj	-22.0611
iNDQAAAABIiQQK	-22.062
AAAASGNN	-22.0623
iLhcABAABI	-22.063
UAUhpx	-22.0665
iLlVj	-22.0672
AAEgBykhpw	-22.0684
iLlZgBAAB	-22.075
DwAKIh	-22.0779
AAAAEiNDBAPv	-22.0783
ZokFAAAAAGaD	-22.0791
SItFKE	-22.0816
EiLRVhI	-22.0843
InCSItF	-22.0843
SGvJLEgBy	-22.0847
SAHASAHQSMHgAkgB	-22.0848
gBwUhpw	-22.0862
iLhQgBAAB	-22.0864
gEPttJIa	-22.0867
YECImF	-22.0868
IAciKTd	-22.0876
hpyeQBAAB	-22.0883
SGvJZEgBy	-22.0889
hpyXECAAB	-22.0906
wAPlcGA	-22.0923
IAciLTc	-22.0939
iLlbAAAAB	-22.0958
SMHgAkiNFQAAAACJ	-22.0964
SIuVeP	-22.0972
SAHQSAHwSI	-22.0996
iLBMhIiYV	-22.1001
XBgOEB	-22.1002
hjykiLl	-22.1004
AAAAPtoV	-22.1009
IaclAAgAASAHI	-22.1013
SIuFQAEAA	-22.1014
hryWR	-22.1024
AABIAdBIAfhI	-22.1036
AAACLRb	-22.1048
bASJhI	-22.1048
hjyEiLBQAAAABIiQ	-22.1075
icFIiwUAAAAASIkI	-22.11
hpwJABAAB	-22.1108
ImEhrwBd	-22.1113
xwEgr	-22.1125
IichIweAESAHI	-22.1148
AQAASAHCSIuF	-22.1184
JFIhIi	-22.1212
SAHwiwSB	-22.1231
EAAAAAAAEAABwAGA	-22.1262
wInBSIsFAAAAAE	-22.1278
IacnkAQAA	-22.1278
wIPoAY	-22.1282
EmNFABIac	-22.129
ImEiLBMJI	-22.1299
EiJhTD	-22.1306
iLhcAAAAB	-22.1315
SAHCSItF	-22.1333
PlcAkA	-22.1347
hpybAAAAB	-22.1348
iYSMHg	-22.1373
XAiIW	-22.1376
kiYSGv	-22.138
hrwFx	-22.1382
IsFAAAAAImF	-22.1431
iJRZhIi	-22.1432
IPtoV	-22.1433
EDgAAAItF	-22.1439
iJRcBIi	-22.1466
iYSIsEwk	-22.1473
gByEgPvo	-22.1477
IiwUAAAAAiQi	-22.15
idCLl	-22.1504
hpybgKAAB	-22.1512
cAZoXAd	-22.1524
DiAYgUC	-22.1531
iLhVABAABI	-22.1551
PAAmaJh	-22.1561
iLhXgBAABI	-22.1582
PtsAt	-22.1582
SInCSMHiBEgB	-22.1582
SGnAuAAAAE	-22.16
SGnJQAIAAEgBy	-22.1602
IacDIAAAA	-22.1611
hpyUAfAAB	-22.1614
EiYSIlF	-22.1615
wUAAAAAZosAZomF	-22.1629
iLVWh	-22.1655
iNFQAAAABIAdBAiD	-22.168
IiwUAAAAASGlN	-22.1702
AAAASAHQSIsA	-22.1704
SGPySGP	-22.1708
yYPp	-22.171
SGnAqAAAAE	-22.1712
IacmQAAAASAHI	-22.1715
iLlRABAAB	-22.1721
iLlTj	-22.1725
FWQVVBVFNIg	-22.1733
iLlRj	-22.1741
iLlUj	-22.1743
wAPlcAPtsA	-22.1746
PpAkhjyU	-22.1755
SGnAyAMAAE	-22.176
pAAAAAItF	-22.1781
VAAAAAMcEE	-22.1794
SMHhBkgBy	-22.1816
jRUAAAAASAHQiA	-22.1822
iLhbABAABI	-22.1828
SGvAZE	-22.1834
QEPtsmDwQFIY	-22.1846
iJRYhIi	-22.1855
AwACAFVIieVIgey	-22.1861
OkGAAAAi	-22.1864
iYSGPS	-22.1866
AEPtsAByI	-22.1879
kBAABIidBIweA	-22.1882
iLRRhI	-22.1905
iLhTgCAABI	-22.1921
EiLRch	-22.1925
SInISMHgBEgpy	-22.1943
EhjTc	-22.1954
NAAAAAIkUC	-22.1959
jTQCD	-22.196
wkgPRsJ	-22.196
PtrV	-22.1962
bAiAUAAAAA	-22.1967
SGPKSGPQSInQS	-22.197
hIiwUAAAAAigAkA	-22.1976
iLBMhIiYU	-22.1976
bAhcAPlcCIBQAAAA	-22.1986
hmiUW	-22.1988
SIuFEAIAA	-22.2002
EiLVehIi	-22.2015
yYPBAUhjy	-22.2027
SInISMHgAkgByE	-22.2029
iMFIiwUAAAAAiAh	-22.2038
EiLRSBI	-22.2045
PqAUhj	-22.2064
SGvJWEgBy	-22.207
IjXD	-22.2093
rCki	-22.2095
jRUAAAAASAHQQIg	-22.2117
bISIsFAAAAAA	-22.212
AHQHuAEAAADrBbgA	-22.2126
JgAAAAAAAAAAAAAA	-22.2136
IacDIAwAA	-22.2148
iJRbBIi	-22.215
SGvJKEgBy	-22.2154
SIuFAAIAA	-22.2156
iLBQAAAABmiwBmiY	-22.216
hpyRAnAAB	-22.217
AAEgByIpN	-22.2191
SIPpAk	-22.2195
BAIPts	-22.2201
EiLRUhI	-22.2206
PtrX	-22.2207
SAHGSGnB	-22.2211
AAAAPtoU	-22.222
iJRehIi	-22.2233
IsAic	-22.224
SGnJkAAAAEgBy	-22.2245
IAdAPv	-22.2259
VAAAAAIkME	-22.2276
IacBxAgAA	-22.2278
PttAPt	-22.2282
SIuNu	-22.2283
wEiNFQAAAABmiQwQ	-22.2287
SGPxSGP	-22.2302
EiNFAFIi	-22.2302
IacnEAAAA	-22.2307
AAAASAHCi	-22.2316
SGnAcQIAAE	-22.2319
miwRIZomF	-22.234
cBIjRUAAAAAZscEE	-22.2344
EiNFQAAAABIAdDGA	-22.2344
SIuFSAIAA	-22.2345
SGPISIsFAAAAAE	-22.2351
UAEhpx	-22.2356
yEiLBQAAAAAPtgA	-22.2359
SGvJGUgBy	-22.2362
wAHQhcAPlcCI	-22.2369
SIsFAAAAAEiJCEiL	-22.2376
iJRaBIi	-22.2379
PvtKD	-22.2386
AAAAAiRQI	-22.2396
ImFbP	-22.2405
AQAASAHCi	-22.2406
IAdAPtgCEw	-22.2408
InISAHASAHISMHgA	-22.2412
yEiLBQAAAACJC	-22.2417
iLlVgBAAB	-22.2418
chIweADSAHISMHgB	-22.2446
jXIBD	-22.2454
PtrW	-22.2456
SJjr	-22.2465
gOIBiBQI	-22.2469
MEIuF	-22.2472
EiNFIUAAAAA	-22.2474
fAZokFAAAAA	-22.2501
yYPpAUhjyU	-22.2519
EiNDAIPt	-22.2542
SIsEwU	-22.2562
kBicl	-22.2562
IacnIAAAASAHI	-22.2609
HIiMFIiwUAAAAAiA	-22.2618
IacmQAQAASAHI	-22.2622
SGvAeE	-22.2634
wEiNFQAAAABmxwQQ	-22.2636
wAPlMAPts	-22.2646
PtrU	-22.2655
DwQGJy	-22.266
ANIicJIi	-22.2668
ZosESGaJh	-22.2672
AAAAPtoX	-22.2696
ImFdP	-22.2698
jUgBD	-22.2711
iLlegBAAB	-22.2712
SGPySGPQSInQS	-22.2746
JwkgPv	-22.2786
iLBMhIiYX	-22.2794
hpwMgNAAB	-22.2808
YAhMAPh	-22.2811
wkgPTsJIiQUAAAAA	-22.2812
EiLhfgAAABI	-22.2847
AAAABAAAAAAAAAAH	-22.2885
SGPJSGv	-22.2889
iLhagBAABI	-22.2908
IidBIweAESAHQSAH	-22.2934
iLhVACAABI	-22.294
iLlQj	-22.2941
iLRUh	-22.2958
IoAJAEPtsA	-22.2959
SGnAmCkAAE	-22.2961
aCGAQB	-22.2982
PpAkhj	-22.2984
iLlQABAAB	-22.2987
cBIjRUAAAAAZokME	-22.2987
BIAcIPv	-22.3012
rBbgBAAAA	-22.3029
InBSIsFAAAAAEiJC	-22.3033
iLBMhIiYW	-22.3035
AEkBwEiJ	-22.3037
bAiUW	-22.3047
AJIAdBIAfB	-22.305
iLlcgAAAB	-22.3081
IAciKTc	-22.3094
kiYSGPSSGn	-22.3106
gByEiLTd	-22.3122
mLBIi	-22.3123
wkgPRsJIiQUAAAAA	-22.3137
wkgPTcJ	-22.3143
SGPwSGP	-22.3148
DfUAAD	-22.3153
pIicJIweI	-22.3154
cEQWaFw	-22.3156
jRUAAAAASAHQxgA	-22.3159
PCAUhj	-22.3165
AEAAEgBwouF	-22.3182
hryVh	-22.3192
AEgPvsBI	-22.3205
SGPySGPQSInQSMHg	-22.3208
SGvJUEgBy	-22.321
AJIjRUAAAAAxwQQ	-22.3217
wkgPRsK	-22.322
ImEhrwBZ	-22.3225
iLlfj	-22.3255
LBIhIi	-22.326
ItFOI	-22.3263
AAEAAAwACAFVIieV	-22.3273
SAHwSIsEw	-22.3274
AAAAEiNNBAPt	-22.3282
LBQAAAACJh	-22.3285
sEkIXAD	-22.331
yEiLBQAAAACKACQB	-22.3317
DfVAAD	-22.3333
iLhWgBAABI	-22.3353
SGnJyAAAAEgBy	-22.3369
AAACKRe	-22.337
hpwMgWAAB	-22.3379
SGPQSGP	-22.3383
yEiLBQAAAAAPvwA	-22.3387
pEAAAALg	-22.3391
iLldgAAAB	-22.3394
EiLVdhIi	-22.3404
JAGIRe	-22.3407
SIuVSP	-22.3416
EiLhRgBAABI	-22.3416
IiUXoSItV	-22.3425
DHAKci	-22.3425
IAdEPv	-22.3425
bAAdCFw	-22.3449
SGPISIsFAAAAAEiJ	-22.3517
SIuVWP	-22.3545
iLhYgBAABI	-22.3551
SGnAADYAAE	-22.3551
ImFVP	-22.3553
iwSIiYV	-22.3583
SGPJSGPSSJh	-22.3586
NAAAAAEgByIgQ	-22.359
PpAkhjyUhpy	-22.3597
ImFTP	-22.36
EiLBQAAAACKAIiF	-22.36
IxwTI	-22.3608
XAJAEPtsCD	-22.3616
bAiUX	-22.3616
MHgBEiJwkiLh	-22.363
FwHQHuAEAAADrBbg	-22.3631
IacmABAAASAHI	-22.3635
iLhYACAABI	-22.3636
SGnJkAEAAEgBy	-22.3637
iLVXh	-22.3645
AAAAPtoW	-22.365
SIuVaP	-22.366
EiNDQAAAABIAciIE	-22.3671
ItFII	-22.3677
ImFNP	-22.3693
AwACAFVIieVIgez	-22.3706
AJIAdBIad	-22.3709
SIuVKP	-22.3709
iLlVABAA	-22.3721
AAAAAZokUC	-22.3722
pEQAAAIqF	-22.3722
AAAABAAAAAAAAAAG	-22.3727
SGvJFUgBy	-22.3727
SIuVGP	-22.3744
iNFQAAAABIxwQQ	-22.3748
PvsiD	-22.3763
nQZokFAAAAA	-22.3824
QAAAOsFu	-22.3835
PBAkhjyUhpy	-22.3845
LBQAAAACJR	-22.385
pAAAAAIqF	-22.3853
SIuFKAIAA	-22.3858
CmGaJBQAAAA	-22.3869
gQIAQ	-22.3874
aJFEhIi	-22.3878
iLjVD	-22.3879
hpwLkBAAB	-22.3886
iLjRj	-22.3888
AAAAAiQQK	-22.3889
AAEgByItN	-22.3917
AAAASIuFiAAAA	-22.393
hpybkBAAB	-22.396
IweICSI	-22.3964
IAfBIiwTB	-22.3978
PAAoiF	-22.399
SAHBSInQSMHgA	-22.4007
hpwKgAAAB	-22.4016
iLhcgBAABI	-22.4034
yEiLBQAAAAAPtwA	-22.4056
yEiLBQAAAAAPvgA	-22.4084
AVIicJIi	-22.4084
iLlej	-22.4088
QxNgAu	-22.4089
hpyYcvAAB	-22.4135
IAcBIjQ	-22.4135
icIPtwUAAAAA	-22.4137
AJIAfB	-22.4146
AJIjRUAAAAAiQwQ	-22.4151
iLjQj	-22.4158
PvshIiwUAAAAAD	-22.4164
KBAiIh	-22.418
PpAUhjyY	-22.4183
JBQAAAADHh	-22.4188
AIqF	-22.4195
OcIPTcKFw	-22.4197
AAAASIuFyAAAA	-22.4207
SGnAcgMAAE	-22.4214
EiLRcB	-22.4214
PABGaJh	-22.4218
DffAAD	-22.4221
hpwLgKAAB	-22.424
pycQAAAB	-22.4254
AEAAEiNDBAPv	-22.4264
NAAAAAIkEC	-22.4275
SGnJmCkAAEgBy	-22.4282
JAEPtshIiwUAAAAA	-22.4299
AAASAHID	-22.4301
SAHQTAHASI	-22.4301
iLlfAAAAB	-22.4302
pDgAAAIpF	-22.4328
OkIAAAASItF	-22.433
iLjTD	-22.4337
AHQHu	-22.4338
SGvAWE	-22.4344
IXAdAe	-22.4348
PBAUhjyY	-22.4359
DrBbj	-22.4365
aJhX	-22.4366
pFgAAAEi	-22.437
iLhfABAABI	-22.4396
oDhAQ	-22.4397
PtgCEwHQ	-22.4399
EEAAAALg	-22.4402
AHGSInQSMHgA	-22.4412
ANIjRUAAAAASMcEE	-22.4417
SAHwSMHgA	-22.4426
DfSgAd	-22.444
hjyIuF	-22.4441
HgAAAAAAAAAAAAAA	-22.4442
wHQZi	-22.4449
iLlcAAAAB	-22.4451
iwSIiYU	-22.4459
PqAkhj	-22.4462
iLldAAAAB	-22.4463
gBykjB	-22.4475
AwACAFVIieVIgew	-22.448
SGvJDkgBy	-22.4483
PCSIXAD	-22.4483
EAABgAFAFVIieVBV	-22.4497
ksSAHI	-22.4523
EFgAAAEi	-22.4533
OMIPTsIPvsC	-22.4536
SGvJEkgBy	-22.4544
oECIiF	-22.4544
SGvJE	-22.4546
BAgBD	-22.4572
VwCQBiIV	-22.4576
AdBmL	-22.4594
QEPtslIack	-22.46
JwUiLBQAAAABIack	-22.4613
ImFRP	-22.4621
bASGPI	-22.4622
SGPKSGPQ	-22.4635
MHgBkiJwk	-22.464
SGPJSJh	-22.4658
ACZomF	-22.4665
xAAAAEhr	-22.4682
iLhZABAABI	-22.4683
QFIiwUAAAAAiAi	-22.4686
eFeP	-22.4688
GSInCS	-22.469
iLlaj	-22.4694
cEQmaFw	-22.4694
IacDIFgAA	-22.4706
bISIsFAAAAAIkI	-22.4718
hpwJFvAAB	-22.4721
IacnIAwAASAHI	-22.4722
SGvJC	-22.4723
iLjTj	-22.4738
bAio	-22.4743
PAAkhj	-22.4745
AAAAAOgAAAAAAAAA	-22.475
SIlFuEiLR	-22.4759
iLlWD	-22.4763
SGvJEUgBy	-22.4769
ANIAdBIweAG	-22.4775
ZonCS	-22.4777
EiLBQAAAACLAImF	-22.4782
iLjXj	-22.4785
iLRfBI	-22.4806
YECAEPh	-22.481
hpySEBAAB	-22.4839
JAEPtsA	-22.4839
SGnJgAQAAEgBy	-22.4846
SGnJyAMAAEgBy	-22.4851
iNDAZIac	-22.4852
uAEAAADrBbgAAAAA	-22.4854
nCSIsFAAAAAEhp	-22.4858
ItFKI	-22.4872
iLjVj	-22.4873
VAAAAAIgME	-22.4875
iLjXD	-22.4902
iNFQAAAABIiQwQ	-22.4908
QEPtslIacm	-22.4935
iLlVD	-22.4938
DwgFIY	-22.4939
IichIAcBIAchIweA	-22.494
SGnAyAAAAE	-22.4943
JwYuF	-22.4945
ByIhF	-22.4955
iLjSj	-22.4958
VwOt	-22.4973
SGvAGk	-22.4987
AEZomF	-22.4987
SGvAeU	-22.499
SGPQSIu	-22.4993
AJIAchI	-22.4997
eFcP	-22.4997
SIuNeP	-22.5
PtshIiwUAAAAAD	-22.5
iLjWj	-22.5
SAHKSIHC	-22.502
QAAAItF	-22.5041
hpyUQBAAB	-22.5052
OcIPTsKFw	-22.5055
iJRdBIi	-22.5059
iLhUABAAB	-22.507
SAHKSIsE	-22.5075
bCSIXAD	-22.5076
JwkiLBQAAAABIa	-22.5077
iLlUD	-22.5093
iLlTD	-22.5104
AAAASGON	-22.5111
SGvJDUgBy	-22.5116
IacnkAQAASAHI	-22.5123
SItFsEg	-22.5127
SItFcEgB	-22.5127
wUAAAAASIsASImF	-22.5148
ANIAdBIweAE	-22.5162
IAcZIidBIweA	-22.5182
AdAkPto	-22.5191
hjyouV	-22.52
IiUXYSItV	-22.52
SItFmE	-22.5227
SIsFAAAAAIoAJAGI	-22.5229
EiLTdB	-22.5236
SIlFsEiLR	-22.5243
EiNFQAAAABIAdBEi	-22.5247
IAdAPtgCEwHQ	-22.5248
iNDIUAAAAA	-22.527
QGJyUhpy	-22.5271
IackANgAASAHI	-22.5279
chIAcBIAchIweAD	-22.5288
AJIAdBIweACSAH	-22.5308
ANIjRUAAAAASIkME	-22.5311
iLhXgCAABI	-22.5313
cwCQB	-22.5318
iLReBI	-22.5319
SIuVCP	-22.5326
GaDff	-22.5326
AQAASGmN	-22.5333
IAdBIAfBIAcgPtg	-22.5337
JAEPtsCJwU	-22.5339
AMchm	-22.5349
ImFrP	-22.5349
AJIicJIi	-22.5362
iLlbj	-22.5373
ewCQB	-22.5378
iwSIiYW	-22.5403
SIlFwEiLR	-22.5417
IichIweACSAHIS	-22.5418
chIAcBIAchIweAC	-22.5428
iwSIiYX	-22.5433
hpyZgAAAB	-22.5434
OMIPTcIPvsC	-22.5437
DwAJIY	-22.5439
iLjej	-22.5444
IacnhAAAASAHI	-22.5452
iLlYj	-22.5452
JAEPtsAPt	-22.5466
JBQAAAAAPtoV	-22.5469
IjRQGSGnB	-22.5471
SGPKi	-22.5485
SAHISMHgA	-22.549
UBkhpw	-22.5501
PABIiF	-22.5522
EgByEiDw	-22.5526
iDwQFIa	-22.5531
FWQVVBVF	-22.5532
EiNDAIPv	-22.5536
ImFHP	-22.5536
EwBwEgF	-22.5545
ABhMB	-22.5562
iLhRgBAAB	-22.5564
AwACAFVIieVIgex	-22.5574
AAEgByEgPvo	-22.5582
SIlFyEiLR	-22.5583
iLjUD	-22.5585
WYAAAASAHQ	-22.5589
VwCQBiEX	-22.5592
YAhMAPlc	-22.5601
dwCQB	-22.5622
bAOcIPj	-22.5624
IjRQHSGnG	-22.5625
SIuNcP	-22.563
iLlRD	-22.5632
SIsFAAAAAIkISIuF	-22.5635
bASIlF	-22.5636
hpwOgDAAB	-22.5657
hryVR	-22.5663
SAHxSGnA	-22.5678
IAciLTb	-22.5681
ANIAdB	-22.5699
xjxkhj	-22.57
iLjeD	-22.5715
SIuVcP	-22.5718
SIuVOP	-22.5745
gOEBiE	-22.5746
DwgJIY	-22.5749
cAZoXAD	-22.5754
RTCJh	-22.5754
sEiIPw	-22.5764
DhAYhN	-22.5766
ZotN	-22.5782
KReckA	-22.5788
wkgPTcK	-22.5789
DwASJh	-22.58
hpyakAAAB	-22.5806
TGPHSGP	-22.5823
FVIieVBV	-22.583
VwCQBiIU	-22.5856
RYAAABIu	-22.5863
iLTeB	-22.5889
WQAAAASAHQ	-22.5898
KgAAAAAAAAAAAAAA	-22.5911
//414/	-22.5912
jXABD	-22.5913
rBbgAAAAA	-22.5913
SGvJMkgBy	-22.594
iLlfgAAAB	-22.5948
BEhImE	-22.5964
SInISAHASAHISMHg	-22.5965
iLjWD	-22.5976
wkgPTsK	-22.5979
EFXQVZBVUFUVVN	-22.5993
SGvJHkgBy	-22.6005
iLjfj	-22.6006
yIqF	-22.6013
OcgPlMAkA	-22.6037
iLhVgCAABI	-22.6037
JAEPtsBIi	-22.6048
iLhdABAABI	-22.6052
OcgPlcAkA	-22.6062
IAfFIadI	-22.6065
SGnJADYAAEgBy	-22.6068
SIuVYP	-22.6074
BgAFAEFXQVZBVUGJ	-22.6079
yYoECCQB	-22.6081
wEiNDQAAAABmiRQI	-22.6082
AGEwH	-22.6086
BAhImE	-22.6102
ImFWP	-22.6104
EiLAEiFwHQ	-22.6114
IAfFIadK	-22.6134
AfAPtwRB	-22.6146
iNDQAAAACIFA	-22.6146
EiNFAZIac	-22.6169
DffgAD	-22.617
hpwOQGAAB	-22.6183
SGvJLkgBy	-22.6188
IiUXISItF	-22.6195
SMHhCEgBy	-22.6197
DfRgAd	-22.6199
PpAUhjyQ	-22.62
AAAABAAAAAAAAAAJ	-22.6208
ImFlP	-22.6215
IAciLTa	-22.6215
IAdGLV	-22.6224
iLhfgAAAB	-22.6234
ImFnP	-22.6242
IaclxAgAASAHI	-22.6244
SGvAXE	-22.625
AQAASGON	-22.6266
JwouF	-22.6272
AQAAAImF	-22.6278
IAcBIjRUAAAAAZok	-22.6283
IiwUAAAAASGmN	-22.6302
AAAABAAAAAAAAAAK	-22.6302
RUCJh	-22.6308
FKImF	-22.6318
wAAAIpF	-22.6321
SIuVqP	-22.6324
iLlTABAAB	-22.6331
Ehjxkhj	-22.6363
EAAAAAAAAAAQAAAA	-22.6372
OcIPRsKJw	-22.6373
iJReBIi	-22.6374
SIuVMP	-22.6379
IPtsCFw	-22.6379
SGvSFkgB	-22.6381
iLlQD	-22.6402
iLBQAAAABIiQi	-22.643
QRAAAAu	-22.6433
AdBmB	-22.6457
bASJhIiYV	-22.647
iLlQgBAAB	-22.6471
KiFUAQYsTS	-22.649
SAHRSItV	-22.6494
SGnJcQIAAEgBy	-22.6504
IackACQAASAHI	-22.6514
IsEgYXAD	-22.6514
IackgAwAASAHI	-22.6516
CQBiEX	-22.6517
XISItFwE	-22.6527
iLlagBAAB	-22.6534
SIlFqEiLR	-22.6552
QAAAIuF	-22.6553
hIAdCLA	-22.6554
kRAAAAu	-22.6558
hjyUiYSGPS	-22.656
SAHSSI	-22.657
iLlZj	-22.6581
hjyUiYSGPSSGnw	-22.6601
wCKh	-22.6604
SIsFAAAAAIkISItF	-22.6605
eFqP	-22.6605
IacnAAAAASAHI	-22.661
iLBQAAAABIack	-22.6616
SAHQSIsASIXAd	-22.6631
SIlFoEiLR	-22.6635
iLjSD	-22.6637
ImFEP	-22.6638
iLjaj	-22.6668
gBykiBw	-22.6678
kOAAAAikX	-22.6686
IaclAHwAASAHI	-22.6686
iLhTACAABI	-22.6689
PtwUAAAAAZomF	-22.6697
iLjRD	-22.6702
SJhIiUW	-22.6717
SItVeEgB	-22.6719
iLhYAAAAC	-22.6719
IFAgPt	-22.6727
iUXISItVyEiLR	-22.6736
SGnJuQEAAEgBy	-22.6742
iYSIuN	-22.6745
IjRQHSGnB	-22.6755
SGPJSDnID	-22.6759
IAfBIAfhIAcgPtg	-22.6763
BImOs	-22.6771
DwgNIY	-22.6792
SGPISGP	-22.6794
iLVWB	-22.6795
iLheABAABI	-22.6818
iLlSj	-22.6825
SGvJCkgBy	-22.6826
AAAABAAAAAAAAAAC	-22.6835
ImFMP	-22.6839
AAAPtwUAAAAAZomF	-22.6845
PBAonJ	-22.6853
iLhYAAAAAPt	-22.6857
gUCEiLh	-22.6864
JBQAAAADGh	-22.6869
NUAEPt	-22.6876
iLjYj	-22.6879
AdAPtwAPt	-22.6887
IAcoPtwRQ	-22.6906
WIAAAASAHQ	-22.6918
IacmYKQAASAHI	-22.6918
iLlfD	-22.6921
bAiMFIiwUAAAAAiA	-22.6941
IAfBIweACSI	-22.6956
hcAPlcCIBQAAAABI	-22.6965
EEwAAAIpF	-22.6969
iLjQD	-22.6977
SIlFyEiLVchI	-22.699
yUhryS	-22.6994
hmiYU	-22.6997
ImFaP	-22.6997
nIiMFIiwUAAAAAiA	-22.701
iLRWgPt	-22.702
IAfiLBI	-22.7023
bIMcApy	-22.7037
gByEiLTc	-22.7043
SGvJVE	-22.7051
IkFAAAAAItF	-22.7061
AGaY	-22.7068
iLlcj	-22.707
hryWBIAc	-22.7075
SGvJXEgBy	-22.7088
SGvJKkgBy	-22.7093
ItFKE	-22.7095
ImIuV	-22.7099
PtgAPvs	-22.712
gAPRcG	-22.7125
IweEISAHI	-22.7138
hpwMgAAABIi	-22.7153
EiLTchIg	-22.7157
SGnJIAMAAEgBy	-22.716
PBAUhjyQ	-22.7163
SItVcEgB	-22.7167
SItFeEgB	-22.7177
AwBIAchI	-22.7177
SIuNYP	-22.7182
iLjdj	-22.719
SIsFAAAAAIgUC	-22.7197
IAdCLAI	-22.7214
InQSAHASAHQSMHgA	-22.7215
SAHQSImF	-22.7215
JAEPtsgxwCnI	-22.7217
IAciKTb	-22.722
AAACwAYiF	-22.7224
wIAAADp	-22.7229
iLjcj	-22.725
YEAoTAd	-22.7258
EiNFIUAAAAASAHQS	-22.7271
SItFaEgB	-22.728
IAfgPtwRB	-22.7281
PpAonJ	-22.7287
PttKB	-22.7294
SGvAVE	-22.7298
SDuFcP	-22.7298
SIsFAAAAAIkUi	-22.7317
SGnAIAMAAE	-22.7321
AJIAdBIweACSAHQS	-22.7325
IaclEAQAASAHI	-22.7359
SGnARAgAAE	-22.7365
BIAdBIiwBI	-22.7376
SIuVmAAAAEgB	-22.7378
iLhdgBAABI	-22.7384
IAdBMAchI	-22.739
IackRAgAASAHI	-22.7391
EAABwAGAEFXQVZBV	-22.7401
SAHKiwSQ	-22.7403
AdAPtwBmhcB	-22.7415
iLjbj	-22.7419
SGvJeEgBy	-22.7434
SIuNSP	-22.745
EhjTZ	-22.7458
bASJhIiYU	-22.7462
SIuVkAAAAEgB	-22.7467
SIuNMP	-22.747
iLjZj	-22.7473
IAdBIAfhIAfAPtg	-22.7476
OMIPRsIPtsCFw	-22.7498
NAAAAAIgUC	-22.751
AAABIAdBIiwBI	-22.7512
SItVuEiLRb	-22.7516
uVZP	-22.752
iYSAHASI	-22.7525
iLjcD	-22.7542
sQAAABIa	-22.7545
IiwUAAAAAiQgPt	-22.7561
SIuNCP	-22.7567
IsEgYXAd	-22.7569
iRSISIuF	-22.7572
BFBmhcB	-22.7573
SIuNGP	-22.7574
ImFcP	-22.7576
VwCQBiEW	-22.7586
SGPSSIHC	-22.7586
IAdGKl	-22.7597
gUAAAAAiIU	-22.7598
JAGIRd	-22.76
AAAABAAAAAAAAAAM	-22.7602
iLhcAAAAAPt	-22.7602
SGvJeUgBy	-22.7607
icKLBQAAAAA	-22.7617
iLTdh	-22.7629
SGvJJkgBy	-22.7639
SGvJPEgBy	-22.7642
hpwCFFBAB	-22.7648
OcIPTsI	-22.765
SIuVuP	-22.7659
iLleD	-22.7661
SGPSSGPJSGP	-22.7664
IAchMAcBI	-22.7684
IAdJIjQ	-22.7693
EEAAAALj	-22.7711
EAABgAFAEFXQVZBV	-22.7717
XAJAEPtsiKh	-22.7718
SItVYEgB	-22.7727
AAPhBEAAAC	-22.7741
bASIuN	-22.7742
yUhryQ	-22.7759
iLjdD	-22.7763
pEAAAALj	-22.7767
IacmpAAAASAHI	-22.7773
pAAAAAIpF	-22.7783
hpybgAAAB	-22.779
IicJIAdJIAcJI	-22.7795
iLjaD	-22.7815
SItNyEiD	-22.7816
gwRgOEB	-22.7818
iLlUgBAAB	-22.7829
SGvJJEgBy	-22.7832
SGPSSMHiA	-22.7841
KDBGA	-22.7851
icIPtoV	-22.7855
SAHQSMHgA	-22.7858
EiLRfh	-22.7867
SIlFuEiLVbhIi	-22.787
SGvJDEgBy	-22.7875
AEAAEiNNBAPt	-22.7882
SItFUEgB	-22.7883
IidBIweAESCnQSAH	-22.7888
BYtF	-22.7895
IweEHSAHI	-22.7899
VAAAAAGbHBBA	-22.7903
LlXT	-22.7915
wAAAACDv	-22.7915
SGnJwAAAAEgBy	-22.7918
iJFMhI	-22.7938
IAciKjf	-22.7938
ImFhP	-22.7952
EiLBMFIhcB	-22.7952
AAAAEiLheAAAABIi	-22.7954
SAHQSDmF	-22.7956
SIlFiEiLR	-22.7958
IacmoAAAASAHI	-22.7972
PoAkhj	-22.7983
bASJhIiYX	-22.7987
VwITAdA	-22.7989
hrwFh	-22.8003
AAAABAAAAAAAAAAN	-22.8014
iLRXAPt	-22.8022
QAPlcGA	-22.8044
kAYiF	-22.8046
EiJRdBI	-22.805
AJIAchIweAC	-22.808
AAAAEiNNBAPv	-22.8083
IackhAQAASAHI	-22.8083
hrwGRIi	-22.8087
McApyIP	-22.8089
FGImF	-22.8101
iLlaD	-22.8103
SItFWEgB	-22.812
VwCQBiIX	-22.8121
wkgPTcJIiQUAAAAA	-22.8126
IMdBIiQUAAAAA	-22.8135
LlVz	-22.8142
QTAAAAikX	-22.8143
LlWT	-22.8145
LlWz	-22.8155
AHASAHISMHgAkgB	-22.8176
iDfegAD	-22.818
JjRQASGnG	-22.8187
AAPhBYAAABIu	-22.8188
iJRfBIi	-22.8191
SIuVyP	-22.8192
IAciKTZ	-22.8202
IiUWQSItF	-22.8214
PlMAkA	-22.8243
gHIZolF	-22.8246
iLlTgBAAB	-22.8249
wUAAAAAigAkAYiF	-22.8251
IAciKjX	-22.8253
VoSAHQ	-22.8259
SIuVmP	-22.826
ImFuP	-22.8279
EhjTa	-22.8284
gUAAAAAiIV	-22.8289
SGnJIQEAAEgBy	-22.8295
XgAAAASAHQ	-22.8302
IacmwAAAASAHI	-22.8305
ZosES	-22.8311
AQAASAHQSIuV	-22.8317
iLhSgCAABI	-22.832
AQAASGlN	-22.8322
jHhXj	-22.8323
QAAAIpF	-22.8349
BEFmhcB	-22.8351
JBQAAAAAPtoU	-22.8357
JAEPtsAPv	-22.836
weAESInCSIuF	-22.8373
SInCSMHiA	-22.84
kXSAHI	-22.8409
AAAAIAAAAAAAAAAg	-22.8411
hryRZIAchI	-22.8415
SGnJRAEAAEgBy	-22.8427
FiPz	-22.8429
IiwTQSIXAd	-22.843
AAAAEiNPBAPt	-22.8431
SCnISImF	-22.8442
SItVaEgB	-22.8448
SGnJEQIAAEgBy	-22.8451
kiNDQAAAABmiQQK	-22.8458
BgAFAFVIieVIgey	-22.8465
JwUiLBQAAAABIacm	-22.8489
iLjZD	-22.8489
WYAAAASAHC	-22.8522
cEUGaFwH	-22.8523
SDuFeP	-22.854
SGnJsAAAAEgBy	-22.8542
LlVT	-22.8552
JBQAAAAAPtoW	-22.8553
QVZBVUFU	-22.8571
iLhZAAAAAPt	-22.858
uVLP	-22.8589
OwomF	-22.8594
iMJID	-22.8597
pDgAAAEiLhWj	-22.8601
ImEhjykiJwk	-22.8607
iLlbABAAB	-22.861
QAAAADDAC	-22.8613
SGnJxAAAAEgBy	-22.8629
iYSIsEw	-22.865
OcIPTcJImE	-22.8655
gUAAAAAiIX	-22.8661
LlTz	-22.8663
SAHQSAHwSIPA	-22.8663
JABAABIidBIweA	-22.8664
SMHhDEgBy	-22.8685
hryRhIAchI	-22.8693
wHIiIV	-22.8694
IAciKjW	-22.8697
yUhjyUg	-22.8705
OcgPncAkA	-22.8707
SIuViAAAAEgB	-22.8709
AEAAAwACAFVIieWI	-22.8716
SInCSAHSSAHCSI	-22.872
AAAABAAAAAAAAAAF	-22.8722
iLRXgPt	-22.8729
VwYDx	-22.8749
iLlZD	-22.8753
IaclpAQAASAHI	-22.8754
hpycAGAAB	-22.8762
iLlYD	-22.8797
SGnJuAAAAEgBy	-22.8797
xkiJyEjB	-22.8809
ImFtP	-22.8814
AAAAxwImF	-22.8815
SIsASIXAd	-22.8822
SJhIweACSI	-22.8824
SAHQSAHwTAHA	-22.8826
SItVWEgB	-22.8828
LlUT	-22.8837
iLlWgBAAB	-22.8841
AAAAAKgAAAAEAAAA	-22.8862
iLjbD	-22.8863
NwomF	-22.8868
LlTT	-22.8873
IAciKjU	-22.8887
IAdAPtgAPvs	-22.8897
SIuNqP	-22.8899
pDgAAAEiLhXj	-22.8906
eFmP	-22.8914
OcIPTcKJBQAAAA	-22.8923
wEhjyEiLBQAAAABI	-22.8931
YAAAASIuFkAAAAE	-22.8933
ZokFAAAAAItF	-22.8937
SMeFeP	-22.8943
SCnRSDnID	-22.8957
LlSz	-22.896
BEJmhcB	-22.896
bASGPQ	-22.897
SGvJSEgBy	-22.8971
ImFoP	-22.8974
PvsCNU	-22.8976
SGvJGkgBy	-22.8991
ImFYP	-22.8993
SGnJqQAAAEgBy	-22.8998
LlST	-22.9004
DfRAAd	-22.9022
IiUWoSItVqEiLR	-22.9025
IackvDQAASAHI	-22.9026
AAAAAAqAAAAAQAAA	-22.9027
WQAAAASAHC	-22.9031
WQAAAASIuFiAAAA	-22.9031
SGvJREgBy	-22.9044
LlQz	-22.9044
iLhZgAAAAPt	-22.9046
hpycgWAAB	-22.9047
IidBIAcBIAdBI	-22.9052
UiLBQAAAACICEiLh	-22.9056
SGvJTEgBy	-22.9065
AKciD	-22.9067
gAASAHISGmN	-22.9074
JwUiLBQAAAABIiQh	-22.908
gpyEgD	-22.9083
LlUz	-22.9092
tdQVxBXUFeQV	-22.9108
AwACAFVIieVEiM	-22.9111
iLTZh	-22.9111
SDHQSIkFAAAAA	-22.9121
SGnJaQEAAEgBy	-22.9128
PpAkhjyUhry	-22.9132
yWaDPEgAD	-22.9133
ImFCP	-22.9151
BwAGAEFXQVZBVUGJ	-22.9153
IacnCAQAASAHI	-22.9163
EhjTeB	-22.9168
SIuVgAAAAEgB	-22.9173
SGPyi	-22.9174
icIPtoU	-22.9174
IAfhIiwTB	-22.9178
AAAAACoAAAABAAAA	-22.9181
EiciIh	-22.9188
SGvJNEgBy	-22.919
TGPGSGP	-22.9201
iLBNBIhcB	-22.9204
jQyFAAAAAEgByE	-22.9213
EiLTdhIg	-22.9221
AAAAEiLhZAAAABIi	-22.9236
ECicl	-22.9236
gCAABIjQwQ	-22.9244
VAAAAAEjHBBA	-22.9245
SDuFaP	-22.9245
EiLTcB	-22.9246
IAciKTa	-22.9246
SGvJHEgBy	-22.9251
ESInCSInIS	-22.9263
SGvJIkgBy	-22.9265
yYPpAUhjyUhpy	-22.9269
TAHHSGn	-22.9277
AAAAAgAAAAAAAAAC	-22.9283
SGnJqAAAAEgBy	-22.9285
IAciLTZ	-22.9294
hjyUiY	-22.9295
hryRRIAchI	-22.9333
MHgBUiJwkiLh	-22.9337
JwotF	-22.9344
hryWBIAchI	-22.9355
Llfz	-22.9357
kCicl	-22.9359
OcIPTsJImE	-22.9359
iUWci	-22.9374
kiNFQAAAADHBBA	-22.9377
AITAdAe	-22.9389
iNFQAAAACIDB	-22.9392
iLhYgAAAAPt	-22.9399
ImFQP	-22.9401
pDgAAAEiLhXD	-22.9404
IAchIAdAPtg	-22.941
TGPASGP	-22.9413
hryTBIAchI	-22.9413
IAdGKV	-22.9416
SGnJAAkAAEgBy	-22.9417
pDgAAAEiLhWD	-22.9426
yYPpAUhjy	-22.9427
iwSQhcB	-22.9431
BgAFAFVIieVIgez	-22.9451
IaclyAwAASAHI	-22.9458
yYsEiImF	-22.9471
IAciKjT	-22.9479
SLgAAAAAAAAAgE	-22.95
AwACAFVIieVAiP	-22.9503
ANIAfBIweA	-22.9514
AIAAEgBwkiLh	-22.9516
bAZonC	-22.9516
kAAAAAikX	-22.9535
SJiLBIKFw	-22.9547
hpyZAAAABIAchI	-22.9553
AAAABAAAAAAAAAAL	-22.9572
IacmgAAAASAHI	-22.9576
hpwGCmAAB	-22.9583
iLjYD	-22.9586
WIAAAASAHC	-22.959
IuNOP	-22.9603
AchmiYV	-22.9606
EiNNAIPt	-22.9606
bASJhIiYW	-22.9609
jVACD	-22.9623
SInwSAHASAHwSMHg	-22.9628
WoSItFoE	-22.9629
jHhWj	-22.9631
chIweACSAHISMHgA	-22.9636
dBIweADSAHQSMHgA	-22.964
McApyImF	-22.9655
iwUAAAAASIkISItF	-22.9666
UiLBQAAAACICItF	-22.9669
OwphmiQUAAAAA	-22.9674
IAfBIweADSI	-22.9681
ESEiYSImF	-22.9694
MhQAAAABIAch	-22.9706
iLjfD	-22.971
chIweADSAHISAHA	-22.9711
DwQKJyU	-22.9711
VwCQBiIW	-22.9715
hpwJgpAABIi	-22.973
SGPwSGPSSInQS	-22.9735
IAcBIjRUAAAAA	-22.9738
SIsEwUiFw	-22.9753
hpyUACAABIAchI	-22.9753
IAcpIiwTQ	-22.9772
gUAAAAAiIW	-22.9803
SGnJiBMAAEgBy	-22.9806
AHASAHQSMHgA	-22.9807
GwomF	-22.9808
SJgPtgQChMB	-22.9812
SGvJcEgBy	-22.9812
LlRz	-22.9821
IweEJSAHI	-22.9823
SCnQSIkFAAAAA	-22.9834
hpyQQZBQB	-22.9853
pDgAAAEiLhUj	-22.9866
bXUFcQV	-22.9868
SGnJLSQAAEgBy	-22.9868
SGnJwgEAAEgBy	-22.987
ANIAchIAcB	-22.9871
hryVhIAchI	-22.9873
OcgPnMAkA	-22.9875
gByosEk	-22.9887
iNcAFIi	-22.989
IacmYAAAASAHI	-22.9895
wAPlcCEwHQ	-22.9901
pDgAAAEiLhSj	-22.9904
FUVVOJ	-22.9905
AQAAAIuV	-22.992
pDgAAAEiLhSD	-22.9924
IackiBAAASAHI	-22.9925
LlfT	-22.9928
SGnJxAkAAEgBy	-22.9949
SGvJOEgBy	-22.9952
IAciKTY	-22.9955
SAHQSAHASI	-22.9957
UiLBQAAAACICIpF	-22.996
AAAAABEAAAABAAAA	-22.9968
iLBQAAAABIiRTI	-22.9969
BIAdCLAIXAd	-22.9975
pDgAAAEiLhVj	-22.9976
SGnJcgMAAEgBy	-22.9976
Llez	-22.9986
SGPJSGPSSGvSF	-22.999
SAHQSAHISAH	-22.9995
VAAAAAMYEE	-23.0009
hpyQAQBQB	-23.0036
SMHhCkgBy	-23.0036
JRdiLR	-23.004
EhjTdx	-23.0047
IacmIAAAASAHI	-23.0049
IacmYKQAASAHx	-23.0049
ImFsP	-23.0052
SGnJoAAAAEgBy	-23.0056
WYSItFkE	-23.0066
wkgPRsJIhcB	-23.0069
MHgAkiJwkiLh	-23.0074
AwACAFVIieVmif	-23.0079
SIlFqEiLVahIi	-23.0081
IackIBwAASAHI	-23.0083
SwCQB	-23.0099
iUWsi	-23.0103
wEAAACLl	-23.0105
SDuFCP	-23.0107
wAAAACLl	-23.0111
EgBwEhp	-23.0114
IacmEAwAASAHI	-23.0146
rBEiLR	-23.0149
AAAABAAAAAAAAAAO	-23.0151
OcgPnsAkA	-23.0158
JReCLR	-23.017
oBSGPSSGnS	-23.0173
ImFkP	-23.0179
jUoBD	-23.0195
IuNyP	-23.0198
IacnECQAASAHI	-23.0218
AwACAFVIieVEiU	-23.0218
PAAomF	-23.0224
LleT	-23.024
IsEgYmF	-23.0266
AAAABAAAAAAAAAAI	-23.0267
xwCtF	-23.0269
AAEgByEhjT	-23.0278
iLBQAAAABmiRRI	-23.028
SGvJaEgBy	-23.0283
OFgAAAIqF	-23.0286
SGnJIgQAAEgBy	-23.029
AAAAEiLhagAAABIi	-23.03
iJRbBI	-23.0304
SAHHSInQSMHgA	-23.0307
iNDIUAAAAASAHI	-23.032
SIuVoAAAAEgB	-23.0325
wEAAADHh	-23.0332
AAAAEiLRXhIi	-23.034
SGnJCAcAAEgBy	-23.0341
bHhX	-23.0347
icIPtoX	-23.0349
Llbz	-23.0349
SAHQTAHITAHA	-23.0354
gAASAHKSGnA	-23.0366
SIuVuAAAAEgB	-23.0375
SIuVsAAAAEgB	-23.0377
AABIAdAPtwBm	-23.0382
ZonCi	-23.0397
SAHRSGOV	-23.0398
kFUVVN	-23.0409
NwphmiQUAAAAA	-23.0417
hjykiY	-23.0418
hrySxIAchI	-23.042
IAciKjS	-23.0429
AJIAchIAcB	-23.0482
hpyTETAAB	-23.0484
DffwAD	-23.0487
IAciKjV	-23.0505
pDgAAAEiLhfj	-23.0548
JRdjp	-23.055
NFgAAAIqF	-23.0557
bCSIXAd	-23.0558
sEkIXAd	-23.0569
SGnJABIAAEgBy	-23.0569
hpyZUIAAB	-23.0573
IAfhIAfBIB	-23.0582
hryWRIAchI	-23.0597
PtwBmhcB	-23.0607
AAACLRdy	-23.0622
ANIAdBIweAHS	-23.0623
pDgAAAEiLhVD	-23.0632
JjRQASGnH	-23.0634
SGnJiAAAAEgBy	-23.0639
pDgAAAEiLhTj	-23.064
EiNFQAAAABIAdAPt	-23.065
SGPJSGPSSGnJ	-23.0657
wAPlMCIh	-23.066
SIuNoP	-23.0673
IAdBIweACSI	-23.068
IackJPQAASAHI	-23.0684
IaclECAAASAHI	-23.0699
wAAAIuF	-23.0715
DwomF	-23.0716
iYSGPKSInCSMHi	-23.0718
ZokUSEiLh	-23.0732
ARIKdBIAfB	-23.0733
wkgPTsJIhcB	-23.0733
jHhVj	-23.0739
KRfckA	-23.0756
MHgBEiJwkiLR	-23.0759
EhjTdh	-23.0763
hpwHIDAAB	-23.0771
icIPtoW	-23.0789
pDgAAAEiLhTD	-23.0789
IweEKSAHI	-23.0793
pDgAAAEiLhUD	-23.0802
iLVUh	-23.0803
CmImF	-23.0815
IacmIEwAASAHI	-23.0826
SGnJmAAAAEgBy	-23.0826
ACAABIjQwQ	-23.083
WAAAAASItFeEiLRX	-23.0851
WgAAAASAHC	-23.0852
hpycgAAABIAchI	-23.086
hpwBCWAAB	-23.0868
IackAEgAASAHI	-23.087
ikXnJAEPts	-23.088
hryRhIAcgPt	-23.0886
AAAAEiLhcgAAABIi	-23.0889
IafhEAQAA	-23.0904
AAMTievfC	-23.092
PAAYiF	-23.0923
AAAAAEAABgAFAEF	-23.0934
iLBQAAAABIiQgPt	-23.095
xwEgpy	-23.0958
SAHwSAHASI	-23.096
iLBQAAAACKAIhF	-23.096
hpwMHFAAB	-23.0961
IAcBIjVD	-23.0968
DwAGIh	-23.0991
QEPtslIweE	-23.0999
IAciKjR	-23.1002
DiAYhV	-23.1004
AAAAEiLhdAAAABIi	-23.1005
SIlFmEiLVZhIi	-23.1007
IacnABgAASAHI	-23.1011
PAAYmF	-23.1011
IacktJAAASAHI	-23.1015
SGPwSInQSMHgA	-23.1036
WISItFgEg	-23.1057
PAAWaJh	-23.1067
ECEiYSImF	-23.1071
IAchIweACSI	-23.1075
IafjhAAAA	-23.108
IacnSAgAASAHI	-23.1088
IYwSISImF	-23.109
LlbT	-23.1096
IAcqLBJC	-23.1106
iLlbgBAAB	-23.1119
IiUWgSItF	-23.1131
LlaT	-23.1133
hpycwUAABIAc	-23.1137
IweEMSAHI	-23.1147
IAciKjb	-23.115
QFIiwUAAAAAiAj	-23.1159
IAchIweADSI	-23.1178
YFAAAAADHQ	-23.1198
iUWYSItVmEiLR	-23.1226
SItVUEgB	-23.1229
pEAAAALi	-23.1236
pDgAAAEiLhdj	-23.1243
JyUjT	-23.126
gBykiLBNBI	-23.1263
DfTAAd	-23.1269
NAAAAAEiJBApI	-23.1271
gOIBiFX	-23.129
DwAGJh	-23.1297
wUAAAAAZosAZolF	-23.13
lFzItF	-23.1309
GwonA	-23.1313
SJhIjRUAAAAAiAwQ	-23.1327
PBAkhjyY	-23.1333
iLldj	-23.1337
BAKEwHQ	-23.1341
IacnkBgAASAHI	-23.1343
BIAdCLAImF	-23.1353
SIuNwP	-23.136
IackzBQAASAHI	-23.1375
hpyaQFAAB	-23.1376
IafghAQAA	-23.139
SIuNsP	-23.142
IacmQBwAASAHI	-23.1423
ImFmP	-23.143
NIAdBIAcBIAdBIad	-23.1432
KcFIiwUAAAAASIkI	-23.1432
SAHQiwCFwHQ	-23.1444
igQIJAGIh	-23.1452
FUVVNIg	-23.1453
WoAAAASAHQ	-23.146
NAAAAAEiJFAhI	-23.1466
gFAiHX	-23.1473
WwAAAASAHC	-23.1473
cEUGaJh	-23.1476
hpyeQBAABIAchI	-23.1477
AEAAEiNNBAPv	-23.1483
QFIiwUAAAAAiAgPt	-23.1483
bJOcgPjhYAAACKh	-23.1488
PABImF	-23.1493
iLRVgPt	-23.1493
RAgAASGvSF	-23.1496
pwUiLBQAAAABIiQ	-23.1508
SGnJhAMAAEgBy	-23.1511
SGnJgAwAAEgBy	-23.1519
gBwEiNUP	-23.1534
SGnJRAgAAEgBy	-23.1536
hjyEiLBQAAAABI	-23.1539
NUAEPv	-23.1541
hpyfIAAAB	-23.1542
hryVBIAchI	-23.1543
PksAkA	-23.1544
hpyQgHAABIAc	-23.1547
IacmVCAAASAHI	-23.1552
iLhbAAAAAPt	-23.1553
pDgAAAEiLhbj	-23.1554
iLlaABAAB	-23.156
BgAFAFVIieVIgew	-23.1562
SGnJMwUAAEgBy	-23.1563
SAHQTAHISI	-23.1566
fBIweADSAHwSMHgB	-23.157
PoAon	-23.1582
APtwRBZoXAd	-23.1605
IacmIAgAASAHI	-23.1617
QEPtsmKBAgkA	-23.1619
IiUXYSItF	-23.1626
SIsNAAAAAEiLCUg	-23.1626
kYSAHIi	-23.1659
hpyegDAAB	-23.1666
IacnIFgAASAHI	-23.168
AAAAEiNDBBIi	-23.1684
dBIweACSAHQSMHgB	-23.1692
xjwkhj	-23.1692
pAAAAAOkAAAAA	-23.1695
IAfBIAcgPtgAPts	-23.1722
pDgAAAEiLhRD	-23.1724
SGPISInQSMHgA	-23.1726
ZokFAAAAAIuF	-23.1734
iLlZABAAB	-23.1738
AchmiYU	-23.1739
YAiIU	-23.1742
wHIiIU	-23.1746
AAAAEiNDBCLh	-23.1758
JRdCLRd	-23.1764
IAdBMAchMAcAPtg	-23.1764
SGnJiAIAAEgBy	-23.1767
hpyUFGAQB	-23.1779
SGnAsAAAAE	-23.1788
SGnJlQgAAEgBy	-23.1796
hpyYgTAABIAc	-23.1804
IackgDwAASAHI	-23.1807
khpyRECAABIa	-23.1809
AIAAEiNDBAPt	-23.1811
SGnAiBAAAE	-23.1824
pDgAAAEiLhej	-23.1836
iLhaAAAAAPt	-23.1837
SGPQSInQS	-23.1846
bJOcgPjRYAAACKh	-23.1857
icCJwUiLBQAAAABI	-23.186
IacnIDQAASAHI	-23.1872
YFAAAAAIhF	-23.1872
MAciLBI	-23.1879
hpyZABAABIAchI	-23.1885
hpwIgQAAB	-23.1892
IacmHLwAASAHI	-23.1897
OcIPTsKJBQAAAA	-23.1903
AABIAdFIY	-23.1904
pDgAAAEiLhQD	-23.1908
SAHRSGNV	-23.1923
pDgAAAEiLhQj	-23.194
IBSGPSSGnS	-23.1943
gBwYtF	-23.1949
IacmIEAAASAHI	-23.196
AzCEiLBQAAAACJC	-23.196
IweELSAHI	-23.1968
gAAAIuF	-23.1977
EEAAAALi	-23.1994
AEAAEiNPBAPt	-23.2002
BQAAAABmiYU	-23.2002
AAAAEiLhegAAABIi	-23.2002
igQIJAEPtsBIi	-23.2018
bSSGvS	-23.2019
SGnJiBAAAEgBy	-23.2026
icJIiwUAAAAASGnS	-23.2029
pDgAAAEiLhRj	-23.203
SGnJMRMAAEgBy	-23.2038
IacnyAAAASAHI	-23.2041
SGnJEQIAAEhr	-23.2052
weADSInCSIuF	-23.2066
IAciKjc	-23.2076
RhmRIt	-23.211
SGnJQgIAAEgBy	-23.2113
DwQRIY	-23.2125
EhjTeR	-23.2128
SGvSFkgBykgB	-23.2131
IaclSAQAASAHI	-23.2136
khjyUiYSGn	-23.2148
AAACLRdS	-23.2158
ACZolF	-23.2166
SIlFiEiLVYhIi	-23.2174
SAHQTAHISAH	-23.2181
QAASAHKSGnA	-23.2191
DHASCtF	-23.22
InQZolF	-23.2203
SItVSEgB	-23.2209
SAHRSIHB	-23.2213
SGnJwAYAAEgBy	-23.2217
IacmkBQAASAHI	-23.2219
AAACLRdi	-23.2225
IackQBQAASAHI	-23.2231
iLlWABAAB	-23.2231
aLBEhmiYV	-23.2232
DMISIsFAAAAAEiJC	-23.2239
hpycgDAABIAchI	-23.2247
MFIiwUAAAAAiAgPt	-23.2253
EiLVfBIi	-23.2261
JRbyLR	-23.2265
iLhWgCAABI	-23.2283
yYsEi	-23.2284
UhQAAAABIAdBIAfB	-23.229
SGnJUgEAAEgBy	-23.2294
SMHhDUgBy	-23.2313
NcAEPt	-23.2351
SGnJAGwAAEgBy	-23.2353
IAdBMAcBIAfAPtg	-23.2354
hpyYAEAABIAchI	-23.2357
IacnLGgAASAHI	-23.2366
SGnJkAcAAEgBy	-23.237
IacmEBAAASAHI	-23.2372
PBAUhj	-23.2382
IackAbAAASAHI	-23.2383
SGnJpAUAAEgBy	-23.239
iLVUB	-23.2399
gByEhjTe	-23.2404
SGnJhAQAAEgBy	-23.2406
SGPGSGPSSGnw	-23.2413
SCnISAOF	-23.2418
jRUAAAAASAHQRIgA	-23.242
YAiIX	-23.242
AAACLRdC	-23.2423
SGPQSInQSMHgBEg	-23.2427
hpyYQEAABIAc	-23.2436
pDgAAAEiLheD	-23.2462
IAfFIadL	-23.2476
SGnJIAoAAEgBy	-23.2488
IacnoAwAASAHI	-23.2494
sEiEiLj	-23.2512
PtwRQZoXAd	-23.2516
IAfIPtwRQ	-23.253
AAAAEiLhdgAAABIi	-23.254
OcIPRsKJBQAAAA	-23.2541
SGnJEAUAAEgBy	-23.2547
IackxEwAASAHI	-23.2549
BgAFAFVIieVTSIHs	-23.2598
hryRlIAchI	-23.2605
SItFcEiLRWh	-23.2607
IAciKjQ	-23.2608
iLhagAAAAPt	-23.2619
SGnJyBYAAEgBy	-23.2655
NAAAAAEiJFAgPt	-23.2656
JBQAAAAAPtoX	-23.266
sEiIlF	-23.2665
IOwTRD	-23.2671
EiNNAIPv	-23.2685
KRdckA	-23.2689
hpyYgBAAB	-23.2695
pDgAAAEiLhaD	-23.2706
BIAdBMAcBIAfgPtg	-23.2711
iwSISIuN	-23.272
AchIjRUAAAAASAHQ	-23.2722
DfTgAd	-23.2728
JRciLRc	-23.273
IacmIAQAASAHI	-23.2732
gzCEiLBQAAAABIiQ	-23.274
pDgAAAEiLhcD	-23.2741
SGnJCAkAAEgBy	-23.2746
pDgAAAEiLhfD	-23.2749
SCHQSIkFAAAAA	-23.2765
IackwUwAASAHI	-23.2772
KBAgkAYiF	-23.2774
VAAAAAGaJDBAPt	-23.2785
hryRRIAcgPt	-23.2788
NAAAAAEiJBAoPt	-23.2819
BgAFAFVIieVIgex	-23.2821
cEUGaFwA	-23.2869
JAGIRf	-23.2885
SGnJpAIAAEgBy	-23.2899
weAFSInCSIuF	-23.2902
IiwTISIuN	-23.2904
AdAPtwCY	-23.2911
iLhcAAAAC	-23.2919
AJIAdBIAch	-23.2922
kWSAHIi	-23.2943
gBAACKj	-23.2946
EEAAAALh	-23.2947
IaclICwAASAHI	-23.2948
IaclCAgAASAHI	-23.2949
IAciKjd	-23.2963
hryShIAchI	-23.2964
IAfBIAcgPtgCEw	-23.2966
IaclABgAASAHI	-23.2967
nJSNP	-23.2988
IacmkAgAASAHI	-23.3007
pEAAAALh	-23.3009
IacleGgAASAHI	-23.3025
SGPKSIuV	-23.3041
SGnJyxoAAEgBy	-23.3042
hpyYcvAABIAfFIa	-23.3045
YAiIW	-23.3051
gByEhjTd	-23.3053
IackOXwAASAHI	-23.3063
ANIAdBIAcBIAfB	-23.307
pDgAAAEiLhdD	-23.3077
iDvXj	-23.308
DffQAD	-23.3096
IackICQAASAHI	-23.3099
AAAAASIsJSCn	-23.3103
chIweACSAHISAHA	-23.3103
JRcCLRc	-23.3104
SJgPtwRCZoXAd	-23.3104
IackSegAASAHI	-23.3108
yQBiEX	-23.3116
KReskA	-23.3117
IAciKje	-23.3128
JRcSLRc	-23.3136
iwUAAAAAiYU	-23.3137
SMHhDkgBy	-23.3137
DwAFIY	-23.3148
sEiEiJh	-23.3155
AMISIsFAAAAAEiJC	-23.3186
SDuFuP	-23.3207
PpAUhj	-23.3213
pDgAAAEiLhaj	-23.3222
ANIAdBIweACS	-23.3224
IacmADAAASAHI	-23.3231
UiLBQAAAACICEiLR	-23.3234
hpwMgDAABIi	-23.3243
SGnJiAEAAEgBy	-23.3245
iQUAAAAASIOF	-23.3249
IiwTQSImF	-23.325
hryRdIAchI	-23.3263
iUWISItViEiLR	-23.3267
AAAAEiNPBAPv	-23.3269
EiLVeBIi	-23.3276
VAAAAAGaJDBBI	-23.3281
IjRUAAAAAiAwQ	-23.3292
QABAAEAAQABAAEAA	-23.33
DfewAD	-23.3302
SGnAiBMAAE	-23.3313
IackgCgAASAHI	-23.3316
lkSAHIi	-23.3317
wkgPRsI	-23.3319
