<unk>	0
<s>	0
</s>	0
/	-3.94226
A	-3.97144
0	-4.03932
K	-4.04506
3	-4.05704
B	-4.09288
Q	-4.1004
g	-4.1155
8	-4.12099
4	-4.1356
I	-4.13837
D	-4.14186
E	-4.14685
w	-4.15926
C	-4.1653
e	-4.16953
2	-4.17342
+	-4.17606
o	-4.18148
G	-4.18153
U	-4.18189
6	-4.18325
9	-4.18497
h	-4.18635
R	-4.18658
F	-4.1886
P	-4.19263
5	-4.19709
1	-4.19869
H	-4.20284
M	-4.20375
k	-4.20495
Y	-4.20517
S	-4.20517
7	-4.208
i	-4.20802
O	-4.21215
J	-4.21701
N	-4.21943
c	-4.22388
Z	-4.22454
L	-4.22745
x	-4.22794
j	-4.23053
W	-4.23184
T	-4.23315
s	-4.23357
V	-4.23663
y	-4.23722
f	-4.23826
b	-4.23928
l	-4.24164
a	-4.25281
q	-4.25341
X	-4.25406
p	-4.25632
z	-4.25831
d	-4.25905
n	-4.26183
t	-4.26705
m	-4.26721
u	-4.27016
v	-4.28683
r	-4.28771
IaEZ	-5.99652
▁	-5.99655
LUv	-5.99668
Qe	-6.00031
=	-6.00856
huRtMEVEEgjG	-8.96199
MEcMUlB	-9.24281
MKgR	-9.24754
VJHH	-9.281
BAHh	-9.45224
yDVS	-9.48588
FthD	-9.5096
GKo	-9.52026
wRUQSCMaTQg	-9.60219
IEEhI	-9.64105
wDtobkbTBFRBIIx	-9.64257
SHR	-9.64336
WEh	-9.73929
BbYQ	-9.76047
wRwxSUHQG	-9.76525
AOi	-9.85574
xDVYSE	-9.86021
eDCoEf	-9.89708
Doujh	-9.90395
IOSnFGMRkdrI	-9.92637
aOmZJniuZBgQwMD	-9.92734
qjgQ	-9.97068
ENcY	-9.97108
UkcfzBHDFJQ	-10.0344
ytQ	-10.1364
xwgD	-10.1418
ABQ	-10.1477
yiQCogH	-10.1687
IhF	-10.1791
IXUMK	-10.1862
iEX	-10.1936
IOSnFS	-10.2214
ePpt	-10.2409
eAAe	-10.2419
ykwdOXtqxwCkNiFO	-10.2554
AEAPtv	-10.2737
rUMc	-10.2817
Gwe	-10.2828
cokAqIBy	-10.3046
BAIh	-10.3089
EPBBqU	-10.3294
edUBAJ	-10.3309
eUU	-10.3385
sHvK	-10.3396
eWU	-10.3578
BAGh	-10.362
eVU	-10.3744
BAIB	-10.3756
EPBBsU	-10.4296
OHZZl	-10.4382
eSU	-10.4428
PHj	-10.4746
BAJB	-10.4754
wRwxSUHQ	-10.49
eTU	-10.5086
ANVhIQ	-10.5088
BMTEx	-10.5097
eaUBAH	-10.5117
eYU	-10.5209
QMDB	-10.5213
eZU	-10.5318
ENVhIQ	-10.5446
BIBUAEF	-10.5562
eRU	-10.558
ebU	-10.5884
ecU	-10.5975
eaU	-10.6002
WZVaPAa	-10.6018
ecUBAI	-10.6047
BAHB	-10.6047
efU	-10.615
eXU	-10.6181
AECIFAg	-10.627
xiqOBDwQalO	-10.6287
gDCwEf	-10.6344
TZpQ	-10.6407
Zok	-10.6432
wqBH	-10.6512
bRngAHvkEgFQAQ	-10.6544
IzRGa	-10.6795
IlN	-10.6929
EtLS	-10.735
eQU	-10.7506
eeU	-10.7594
SRx	-10.7677
edU	-10.7804
BAD	-10.7942
dlmVWjwGvrm	-10.8006
AIP	-10.8184
xOJ	-10.8277
gDCwEv	-10.828
MHTl	-10.8481
RUVF	-10.8487
eZUBAG	-10.8507
SIk	-10.8662
UkcfzBHDFJQdD	-10.8677
BAEh	-10.8759
ubt	-10.8762
BAFh	-10.8792
BALB	-10.8844
CANB	-10.8907
wDVYSE	-10.8918
Hhvd	-10.9043
mQoI	-10.9063
bOMs	-10.9108
BAGB	-10.9134
BmF	-10.9203
UCgoQSkpKdngwqB	-10.9268
KcVI	-10.9335
AHQ	-10.9342
eaUBAG	-10.9531
CAOB	-10.9531
Bkl	-10.957
BAKh	-10.9692
CANh	-10.9801
DHCAPXKJAKiAcvx	-10.9842
AAA	-10.9843
KTB	-10.9847
DCvilPGEZqY	-10.9884
pNCDkpxU	-10.9897
QIg	-10.9919
RStJPGAw	-10.9925
PYp	-11.0068
rHAK	-11.0105
wDtkUrSTxgMNLKUZ	-11.0307
qtaE	-11.0422
CAMh	-11.0628
MdF	-11.0653
AIk	-11.0656
tLd	-11.0766
YRmpj	-11.1075
BAJh	-11.1104
CAMB	-11.131
CAO	-11.1469
BAKB	-11.1518
IlV	-11.1716
CAPB	-11.1736
QAA	-11.1739
pNCDopx	-11.1829
AGaF	-11.1886
SDn	-11.1888
AMijaXKlM	-11.201
AECE	-11.2167
BAFB	-11.2234
CAPh	-11.2236
Cpq	-11.2255
ItF	-11.2289
sKmr	-11.2291
xiqOBDwQbFOCM	-11.232
BlF	-11.2494
Bml	-11.2504
xhhZCEw	-11.2607
CALh	-11.2626
CQZU	-11.263
IiR	-11.2632
ebUBAI	-11.2651
KKD	-11.2654
ZFK	-11.2767
eXl	-11.2945
lypT	-11.2967
dnZ	-11.3
kGVO	-11.3002
AGaJFAg	-11.3003
VizD	-11.3014
QSAVABBfn	-11.3085
iuwqavyR	-11.3085
AAC	-11.309
qyQ	-11.3109
JGA	-11.3217
yTykoJUpLrCA	-11.3225
PnE	-11.3269
AyKNpcqUzcdw	-11.3271
AIM	-11.3332
dXV	-11.3365
jwE	-11.3369
UliE	-11.3416
CALB	-11.3424
QSEh	-11.3487
ToBa	-11.3525
esU	-11.3593
yig	-11.3712
AcQR	-11.3801
Cig	-11.3844
kYD	-11.3952
doii	-11.3989
8359	-11.4005
Xrgl	-11.4009
EhdQwr	-11.4063
SEJBlTvGGFkITD	-11.4104
Ojo	-11.4112
AIX	-11.4148
AAJ	-11.4151
Czi	-11.4206
NTU	-11.422
HCU	-11.4237
AMLAS	-11.4274
KcVKlrtFPdWLM	-11.4287
dHc	-11.4344
AAM	-11.4387
CwPlH	-11.4417
gTqw	-11.442
AsQS	-11.4436
vhJj	-11.4436
CSXt	-11.4437
fZZh	-11.4438
ZoX	-11.4473
ascApDYhTkV	-11.4536
wQCk	-11.4558
Pnk	-11.47
BEEF	-11.472
ISMEPjD	-11.4727
woBH	-11.4737
pGup	-11.4745
LsXQ	-11.4752
oiBM	-11.4758
YUAh	-11.4767
bVsF	-11.477
okOw	-11.4777
EwEs	-11.4781
BbXA	-11.4792
gPv	-11.48
xBTU	-11.48
ZoN	-11.483
CAKh	-11.4853
AIO	-11.4877
LTs	-11.49
AiD	-11.4935
AUi	-11.4957
QIT	-11.4964
AEiF	-11.4973
MRd	-11.4988
AFO	-11.4998
ZsdF	-11.509
ALM	-11.5094
vyDV	-11.5109
jgE	-11.5114
KskP	-11.5125
WpYl	-11.5137
lwXV	-11.5137
ISElJiscIIxQiUmP	-11.5188
ISUmKxwgjFCJSY	-11.5222
FAg	-11.5245
NojDZyo	-11.5258
UkcfzBHDFJQdAZhf	-11.5294
AFN	-11.5363
HqVc	-11.5375
ebUBAH	-11.5386
Jlug	-11.5403
BfjR	-11.5407
QAC	-11.5426
APv	-11.5434
mgs	-11.5438
hdJ	-11.5446
iVX	-11.5447
eSUBAE	-11.5467
AEP	-11.5504
EiJ	-11.5504
EGJTkjlI	-11.5523
PAHc	-11.5557
AGY	-11.5596
ABF	-11.5612
ecUBAJ	-11.5612
eeUBAK	-11.5621
xkX	-11.5625
AAE	-11.5682
zBU	-11.57
QyA	-11.5702
KSElJiscIIxQiUmP	-11.572
AGP	-11.5754
JJe	-11.5756
eHh	-11.5768
tra	-11.5789
FFB	-11.5796
AMLA	-11.5826
rBAK	-11.5876
UUD	-11.5888
iUX	-11.5905
EAA	-11.594
AwsB	-11.5945
gwqB	-11.5954
rFU	-11.5967
ALP	-11.6
pqDJ	-11.605
AEM	-11.6114
AKP	-11.6146
BSUlJ	-11.6204
ISEh	-11.6216
AKO	-11.6218
eQUCAL	-11.6226
UCBB	-11.6245
AMM	-11.6292
yEhJSYrHCCMUIlJj	-11.6296
Voq	-11.6315
EGpTgjNEZp	-11.6335
eRUBAD	-11.6335
KSnZ	-11.6341
Cih	-11.6384
hdQwr	-11.6407
efUBAK	-11.642
KEEp	-11.6431
ZRN	-11.6436
AYgZWVlZhQ	-11.6442
PKSglSkusIDUcJTj	-11.6507
PEE	-11.6546
EACjF	-11.6549
AEA	-11.6556
lmOZ	-11.6571
sEiP	-11.6577
gxxo	-11.6582
miT	-11.6613
hISUmKxwgjFCJSY	-11.6614
PFw	-11.6669
eRUBAE	-11.67
omlS	-11.6709
BCtf	-11.6717
AdB	-11.6722
huQ	-11.6766
gUU	-11.6769
AMO	-11.6794
tOzw	-11.6821
Lyea	-11.6847
KfqrWhL	-11.6849
maJ	-11.6865
WkZs	-11.6903
FFD	-11.6942
edUBAI	-11.6967
AMN	-11.6969
ykhJSYrHCCMUIlJj	-11.6973
AHP	-11.6997
SIX	-11.7
lVW	-11.7017
ZmLg	-11.7076
Njj	-11.7086
iuYp	-11.7103
HgM	-11.7124
yVVbUkcYMVQhIOn	-11.7132
SFJJmbb	-11.7158
PGkA	-11.7186
ZmYuDx	-11.7189
AJM	-11.721
EPBB	-11.7227
oPgI	-11.723
AHO	-11.7246
AEgPv	-11.7259
AMP	-11.7259
qUzR	-11.7274
EhWuEK	-11.7304
pISUmKxwgjFCJSY	-11.7305
IVI	-11.7308
ubm	-11.731
SYg	-11.7311
EEgk	-11.7317
ANN	-11.7321
MutI	-11.7333
FAo	-11.7341
vor	-11.7376
APN	-11.7391
JPRQ	-11.7395
CAKB	-11.7396
mZi	-11.7402
wRwxSU	-11.7419
eUUBA	-11.7444
PESNx	-11.7542
JVVt	-11.7565
GaJ	-11.7568
EAH	-11.7568
LRT	-11.7573
hJSYrHCCMUIlJj	-11.7579
VCEg	-11.7584
ADM	-11.7587
DCvalP	-11.7598
edUBAL	-11.7664
BAEB	-11.7696
khdQwr	-11.7725
AKM	-11.7734
CAJh	-11.7746
FFA	-11.7753
AFM	-11.7754
AJN	-11.7808
iig	-11.7816
CxBLS	-11.7845
AHM	-11.7876
miR	-11.7935
AEAPvv	-11.7935
ADn	-11.795
SFSNIe	-11.796
PSE	-11.7975
Sig	-11.7975
BAMh	-11.7981
ACO	-11.7997
CABQCf	-11.8021
SRxg	-11.8042
APt	-11.8045
SIl	-11.8064
IIl	-11.8064
urq	-11.8066
xBPT	-11.8094
efUBAL	-11.8125
BALh	-11.8208
JHGDFUISD	-11.8251
ImJiY	-11.8251
AhP	-11.8275
tISUmKxwgjFCJSY	-11.828
edUBAK	-11.8315
omLM	-11.834
hSSZm	-11.8343
qWu	-11.8411
Rfw	-11.8429
ARlZWVmFCf	-11.8484
UEhIQUlJSfoAwsB	-11.851
OEE	-11.851
NDRB	-11.8526
SsAw	-11.8563
HFRwA	-11.8574
eQUCAM	-11.8576
wcX	-11.8612
GZAD	-11.8643
vormKTxpAN	-11.8654
AYN	-11.8708
BRQ	-11.8789
gGB	-11.8814
iMAH	-11.8833
hcl	-11.8844
DCvalM	-11.8875
bBGSkJhYZ	-11.8878
IiT	-11.8898
ERE	-11.8902
AGO	-11.8917
iOIjAB	-11.8946
RtpcF	-11.8947
FRUX	-11.8949
AdA	-11.8953
SUG	-11.8958
BEREF	-11.8983
AGbH	-11.9015
YEhF	-11.9025
ooO	-11.9026
QfATw	-11.9038
DHCAPXKJAKiAcvz	-11.9054
eDEV	-11.9063
IhV	-11.9092
eRUCAM	-11.9093
AACB	-11.9101
IdHg	-11.9119
wPg	-11.9126
VTk	-11.9145
RPERg	-11.9153
APM	-11.917
EGxTgjPEZp	-11.9189
kOo	-11.9193
oPgJ	-11.9199
GOJU	-11.9228
GiH	-11.9254
RfATgA	-11.9295
RGADy	-11.9299
GRf	-11.9312
QXV	-11.9338
KLb	-11.934
Zjn	-11.9363
mIp	-11.9367
LSElJiscIIxQiUmP	-11.9367
QCp	-11.9368
MSElJiscIIxQiUmP	-11.9389
BQLE	-11.9394
CMAHFB	-11.9399
wAA	-11.9437
FJSUn	-11.9471
AIA	-11.9472
SMIx	-11.9478
NjY	-11.9513
HQNO	-11.9513
AYg	-11.9539
RQH	-11.9588
ZAD	-11.959
Afe	-11.9603
NEE	-11.9603
NTf	-11.9604
wDtobk	-11.963
BOADio	-11.9692
BQUFB	-11.9725
xISUmKxwgjFCJSY	-11.9738
oZV	-11.9761
dlmVdzYGrpi	-11.9764
RfQv	-11.9803
IlF	-11.9819
BAMB	-11.9837
enp	-11.9841
CHid	-11.9844
WZVl	-11.9845
Gfw	-11.986
GfZN	-11.988
tbW	-11.9899
Gew	-11.9901
CAAQCf	-11.9908
spRlr	-11.9916
HWC	-11.9967
WHy	-11.9969
Dff	-11.9984
vJiK	-12.0002
eeUBAL	-12.0029
FNTU	-12.0039
MRT	-12.0058
WeU	-12.006
XkxF	-12.0068
pNCDopxp	-12.0071
VJsbc	-12.0071
LosH	-12.0107
eXUBAF	-12.0115
UUH	-12.0162
WIq	-12.0162
hNQw	-12.0165
mhf	-12.0171
GSF	-12.0182
ooN	-12.0208
FBUVEFVVVYGIMB	-12.0217
Jsvx	-12.0218
YYWQhMNnY	-12.0231
QXl	-12.0238
HQM	-12.0249
FFC	-12.0255
lop	-12.0262
GRNt	-12.0264
DnJ	-12.0267
AviI	-12.0292
zEhJSYrHCCMUIlJj	-12.0322
AEi	-12.0325
AUAPtv	-12.0332
Odin	-12.0339
JBPCqBk	-12.0342
CRT	-12.0353
ART	-12.0359
BISE	-12.036
WZV	-12.0367
APqL	-12.0374
OqO	-12.0376
OAY	-12.0397
UXwE	-12.0417
koh	-12.0423
eeUBAJ	-12.0435
fHx	-12.0436
PHG	-12.0437
BZR	-12.0449
XOcv	-12.0452
eYUBAG	-12.0471
pTN	-12.0482
efUBAM	-12.0484
WEhAntsEZKQmFhn	-12.0489
toPXSaHC	-12.0502
diZAwE	-12.0503
YfL	-12.0531
byYV	-12.0537
qeiH	-12.0544
loq	-12.0595
OIH	-12.0603
OSElJiscIIxQiUmP	-12.0623
EiF	-12.0652
yIWCqQFGG	-12.0664
RXw	-12.0676
APts	-12.0687
FBgQWFhYhIgwE	-12.0689
QdHR	-12.0695
gEU	-12.0696
DqE	-12.0701
IOf	-12.0706
DqH	-12.0713
pTxhGamPwJt	-12.0787
jwF	-12.0816
wkl	-12.0821
ODr	-12.0824
AdzxEjcfBJtN	-12.0828
zkhJSYrHCCMUIlJj	-12.084
Vgq	-12.0844
gwG	-12.0854
AUYY	-12.0858
AHU	-12.086
UUB	-12.0861
hRQ	-12.0862
esEApPjLrS	-12.0869
Aff	-12.087
GxRMs	-12.087
rDgM	-12.0879
eQUCAK	-12.0896
dnk	-12.09
kiJ	-12.0914
CiU	-12.092
StZGKJ	-12.0934
RHbBDXnIhYKpAUYb	-12.0941
CvzJ	-12.0947
vwDI	-12.101
iXXo	-12.1011
mIh	-12.1021
PVlZ	-12.1057
PIH	-12.1059
oRw	-12.1072
qPAHxA	-12.1081
CJT	-12.1087
RCgZ	-12.1092
PlM	-12.1095
IDiI	-12.1096
DAJQCf	-12.1112
DBZ	-12.1114
IBB	-12.1114
DAIQCf	-12.1122
RCQ	-12.1122
MiI	-12.1124
IzxGa	-12.1125
MRX	-12.1128
kDAQ	-12.1137
CAH	-12.1149
ARZWVlaCC	-12.1164
uLi	-12.1167
ASF	-12.1195
UAL	-12.1211
yfnMhlrVAB	-12.1212
pMXFU	-12.1243
eYUBAH	-12.1248
FAAcEFxcXIiIMB	-12.1265
nsF	-12.1285
NgaumLh	-12.1285
IPT	-12.1311
UkcfzBHDFJQdAZJf	-12.1312
ECI	-12.1328
CACQCf	-12.1341
gPt	-12.1364
OHZZlX	-12.1366
NRr	-12.1367
ESJ	-12.137
URA	-12.1373
UEB	-12.1375
ARpaWlqGCv	-12.1378
lha	-12.1379
trl	-12.138
DAGQCf	-12.1381
CVKS	-12.1393
ood	-12.14
qPAJ	-12.1405
lYB	-12.1411
QDj	-12.1414
KSkp	-12.1418
BRY	-12.1428
UkcfzBHDFJQTqjuw	-12.1433
UEREQUVFRfYAwsB	-12.1469
MTi	-12.148
UAE	-12.1487
Cqg	-12.1514
CIN	-12.1543
bit	-12.1546
vRzsV	-12.1559
COKjw	-12.1565
AYk	-12.1571
fhB	-12.1579
ABCQAIA	-12.1602
pyIfP	-12.1602
lxFLU	-12.1648
eeUBAI	-12.1657
rHtA	-12.166
aKci	-12.1668
DoR	-12.1675
xRQ	-12.1696
CADQCf	-12.1702
dJWAY	-12.1718
LxfS	-12.1724
upyM	-12.1733
UGRBZWVmFiDA	-12.1737
pvOzV	-12.1738
MNM	-12.1744
UUC	-12.1753
UkcfzBHDFJQdAZRf	-12.1756
LRd	-12.176
KKC	-12.176
EPB	-12.1767
gkU	-12.1796
wRkpCYWGeQFGGN	-12.1804
efUBAJ	-12.1806
MZF	-12.1813
OUX	-12.1816
iXXk	-12.1824
dHR	-12.1824
CAHQCf	-12.1859
ISF	-12.186
MSxKcZ	-12.1867
BDW	-12.1872
DAEQCf	-12.1874
DDx	-12.1885
AOKjwCe	-12.1888
RIlF	-12.1888
yjyU	-12.1918
emBIR	-12.1921
ZtpcF	-12.1922
CAEQCf	-12.1932
HhBeX	-12.1933
gwyB	-12.1948
YCg	-12.195
wGwgW	-12.1955
AECIP	-12.1961
lIh	-12.1978
ascApDYhTkr	-12.1987
iOAJ	-12.199
ubpo	-12.2006
xOL	-12.2013
aWlpahg	-12.2013
PwDtobkbTBFRBIIx	-12.2014
QEf	-12.2015
CGaDffw	-12.203
AYP	-12.2033
zEh	-12.2036
CAD	-12.2036
GbHRf	-12.2038
izDY	-12.206
qOE	-12.2077
IiQ	-12.2083
QSA	-12.2083
PAT	-12.2095
KChB	-12.2103
nqrW	-12.2139
ODg	-12.2142
Pts	-12.2149
HqL	-12.2155
FbO	-12.2184
DALQCf	-12.2193
IOSn	-12.2199
POPH	-12.2208
iRQ	-12.2231
fwDI	-12.2232
StZF	-12.2233
xflu	-12.2237
qbzs	-12.2237
gPR	-12.225
OsE	-12.2264
MdH	-12.2272
UHh	-12.2305
oXSc	-12.2335
Bei	-12.2343
VhEw	-12.2359
PfY	-12.2379
EPT	-12.2383
zsHo	-12.2392
RRQ	-12.2393
DADQCf	-12.2393
AEiJFAg	-12.2393
qwQMY	-12.2394
ALg	-12.2405
iJP	-12.2428
Anh	-12.2432
OgY	-12.2435
lYBjz	-12.2445
UkcfzBHDFJQdAZpf	-12.2447
PHy	-12.2447
xIf	-12.2448
AWa	-12.2462
Tii	-12.2464
hAD	-12.2467
DAAQDf	-12.249
wGC	-12.2498
Chj	-12.2501
FfyDV	-12.2504
OcAu	-12.2511
CBsqWyi	-12.2516
ooH	-12.2517
FdXV	-12.252
hIi	-12.2523
JGlpaWoY	-12.2533
NlXEU	-12.2541
XVoty	-12.2541
EhFf	-12.255
FBcX	-12.2551
NDD	-12.2552
UED	-12.2559
nIB	-12.2562
osO	-12.2566
SjV	-12.2587
GaF	-12.2588
xTj	-12.2589
MKSi	-12.2591
oPgLwAcVHAE	-12.2611
Asq	-12.2614
eipDIDv	-12.2623
eidJ	-12.2633
ARhTGFhYWIQ	-12.2639
DwaIf	-12.2642
RQLE	-12.2676
wEfw	-12.2678
oMF	-12.268
gPT	-12.2683
PGF	-12.2684
kIp	-12.2686
dbt	-12.2706
xRY	-12.2715
NGF	-12.2718
Fbi	-12.2719
DoE	-12.2726
AvABxUcAT	-12.2727
lYBhz	-12.2732
KvLx	-12.2734
eRUCAL	-12.2739
ehdJ	-12.274
esM	-12.2759
eUUBAF	-12.2759
IoC	-12.2769
MEW	-12.2771
uZt	-12.2796
YOh	-12.2799
UHR	-12.2814
IUkmZtt	-12.282
BAY	-12.2821
qNE	-12.2827
+3/0	-12.2832
Sba	-12.2837
DID	-12.2838
AYjkAB	-12.2839
one	-12.2861
Gxs	-12.2876
dEF	-12.2883
QxB	-12.2886
DAFQCf	-12.2889
nHEh	-12.29
ccSH	-12.2902
PSjB	-12.2905
MdSk	-12.2907
DAOQCf	-12.2915
hEC	-12.292
fjxYiry	-12.294
LKj	-12.2941
RJRT	-12.2947
GDi	-12.2953
FFE	-12.2957
DfzJPKSglSkusI	-12.2964
PRP	-12.2966
SIP	-12.2967
eSUCAN	-12.2971
dVu	-12.2973
UUT	-12.2982
DRj	-12.299
Qgx	-12.2996
dWi	-12.3037
tVT	-12.3037
ePFVOT	-12.3041
dYLQs	-12.3045
LeJ	-12.3047
hiR	-12.3054
BdXV	-12.3074
NJI	-12.3078
FfB	-12.3079
FORT	-12.3102
AhPZ	-12.3104
HQN	-12.3116
APtv	-12.3127
YDDSylGWO	-12.3148
qcjH	-12.3149
Bvu	-12.3151
UUL	-12.3175
FxLMmUS	-12.3188
YiH	-12.319
sMF	-12.3199
WVlZWgg	-12.32
xtpcF	-12.3202
DAHQCf	-12.3205
QFf	-12.3218
kCE	-12.3232
yqSi	-12.3236
eov	-12.3258
hNTU	-12.3264
eTEU	-12.327
MdJ	-12.3272
WJy	-12.3294
HnnJ	-12.3297
yby	-12.3301
HgxFf	-12.3305
AHFRwBP	-12.331
JLISH	-12.331
Rfj	-12.3313
hcB	-12.3314
dSXK	-12.3317
hNJ	-12.332
GgY	-12.3326
FFT	-12.333
LHN	-12.3335
AIn	-12.335
IPR	-12.3386
eipAwE	-12.339
BiR	-12.3406
PAY	-12.3408
qAcOY	-12.3413
CMcq	-12.3414
iFX	-12.3424
OCC	-12.3424
Pxm	-12.3431
eWUBAF	-12.3434
EPt	-12.3434
KJT	-12.3449
yEh	-12.345
tVOT	-12.3451
JFP	-12.3458
dMh	-12.3459
OkQ	-12.3464
eDiDA	-12.3468
QSAVABBfnr	-12.3478
eRUCAN	-12.3489
Ozs	-12.3491
EQNG	-12.3491
cRS	-12.3496
ott	-12.3498
UGBBYWFiEiDA	-12.3502
Nng	-12.3511
gZWVlZhQ	-12.3517
oQq	-12.3521
BIi	-12.3557
Ffn	-12.3562
DAKQCf	-12.3573
zoQx	-12.3578
JZCU	-12.3583
KGM	-12.3584
BYtF	-12.3587
yHos	-12.3609
IiIi	-12.3612
AEgPvv	-12.3615
DCvyiYszqCJSZ	-12.3629
DAEQDf	-12.3629
Dfb	-12.3631
EOo	-12.3633
CAIh	-12.3648
UUF	-12.3648
dQb	-12.3654
kDAR	-12.3657
ENAw	-12.3678
fryYi	-12.3686
pFU	-12.3699
KqD	-12.3707
+3/4	-12.3712
gGKr	-12.3713
gGD	-12.3715
KJizOo	-12.3736
iJPRQ	-12.3738
GOJDy	-12.3744
Win	-12.3769
gYUxhYWFiE	-12.3769
Bif	-12.3773
fPx	-12.3777
AYX	-12.378
ryhz	-12.3782
jHw	-12.3793
dXYmQMB	-12.3795
wqwM	-12.3798
DTuC	-12.3799
MCC	-12.3822
UhdQwr	-12.3822
PQY	-12.3825
aJF	-12.3836
SUU	-12.3838
NBg	-12.384
rBAxjn	-12.3841
jgF	-12.3842
Jycp	-12.3842
lFF	-12.3848
ORj	-12.3856
FPn	-12.3856
KRD	-12.3857
PfQ	-12.3859
MJI	-12.3868
yfnMhlrVABY	-12.3877
REQ	-12.3883
onSc	-12.3895
DnQD	-12.3897
tbZk	-12.3899
UVFRUgA	-12.3906
NSElJiscIIxQiUmP	-12.3907
BtpcF	-12.3909
JxR	-12.3928
kOA	-12.3938
PAS	-12.3959
sCi	-12.3963
htpcF	-12.3965
DANQCf	-12.3995
AYH	-12.4001
iaV	-12.4019
DACQDf	-12.4019
lElF	-12.4023
CIP	-12.4024
MBg	-12.403
bgM	-12.4045
iqC	-12.4052
uAMLAS	-12.4054
PJI	-12.406
eVUCAO	-12.407
Wew	-12.4071
iTU	-12.4076
OFF	-12.408
Rfg	-12.4084
CAGQCf	-12.4097
EgPT	-12.4112
FFv	-12.4116
UDw	-12.4126
BgY	-12.4132
Njme	-12.4132
pTxhGamPxJt	-12.4135
FCkpEGlpaZWYMMg	-12.4135
fMqko	-12.4138
rBb	-12.4156
xfi	-12.4161
vAgO	-12.4167
CAJB	-12.4179
FxLMmUR	-12.418
CSJ	-12.4185
PGG	-12.4186
uVcC	-12.4189
sdcyJS	-12.4192
FlB	-12.4199
LKr	-12.42
SiH	-12.4214
dAx	-12.4216
yzL	-12.4221
dXg	-12.4222
NIH	-12.4227
eVUBAF	-12.4231
jxB	-12.4235
oou	-12.4239
MZl	-12.4246
qAc	-12.4253
MFT	-12.4253
eZUBAH	-12.4254
FhYY	-12.4254
VQKGMc	-12.4266
BdS	-12.4272
dlmVWjwGvrmbfTe	-12.4291
ooD	-12.4296
vwl	-12.4297
inIh	-12.4311
lhhMC	-12.4311
kFVi	-12.4312
Kcaa	-12.432
wyhw	-12.4321
OfdID	-12.4322
BSF	-12.4339
IyI	-12.4339
QMBH	-12.4346
coun	-12.4357
Ihf	-12.4362
ovgIwAcUHwE	-12.4363
xSVY	-12.4369
CdN	-12.4378
ALj	-12.4394
ecUBAH	-12.4397
hdXV	-12.4405
zmD	-12.442
QgW	-12.4441
CSF	-12.4451
GaD	-12.4461
WaJ	-12.4466
KSF	-12.4474
FFF	-12.448
WZVNpANRf	-12.4481
YDDSylGWu	-12.4486
KMHhlT	-12.4488
EhF	-12.449
scQHEx	-12.4492
qnIx	-12.4502
qux	-12.4509
Plc	-12.4518
BIt	-12.4523
FBoQWlpahogwE	-12.4529
dlmVZYwNKTFxV	-12.454
DADQDf	-12.4546
FCAQYGBgjJAwE	-12.4546
oFU	-12.4551
DPY	-12.4556
XFxB	-12.456
eYUBAF	-12.4579
CIF	-12.4581
gPr	-12.4581
yrJD	-12.4591
Zol	-12.4599
DABQDf	-12.4599
iDf	-12.4608
DAPQCf	-12.4617
zMFQ	-12.462
xiqOBDwQalOSO	-12.4621
QxN	-12.4625
dug	-12.4627
JRQ	-12.464
lFB	-12.4644
cdF	-12.4645
iJV	-12.4649
DGM	-12.4659
PrOvk	-12.4664
YPv	-12.4671
yqg	-12.4673
XZs	-12.4674
kPJj	-12.4675
OMM	-12.4682
aJP	-12.4684
PDD	-12.4686
IjiIwAfUHwE	-12.4691
NCC	-12.4699
NON	-12.47
VAoYxz	-12.4707
Bvv	-12.4712
IhH	-12.4713
QYH	-12.4716
ebUAAC	-12.4729
nEGdn	-12.4737
CAjyg	-12.4744
DwX	-12.4745
ZIO	-12.4745
Cqw	-12.4753
dii	-12.4764
GcY	-12.4768
cBoJFP	-12.4769
eTUCAO	-12.4777
xiqOBDwQbFO	-12.4786
ogSEV	-12.4797
QYP	-12.4803
nKwH	-12.4817
UCI	-12.4817
zEsSnG	-12.4825
OsFu	-12.4846
TtU	-12.486
PlR	-12.4879
BMQU	-12.4889
Yhs	-12.4904
XCRjG	-12.4906
VLRj	-12.491
uLt	-12.4911
iFXsiEXo	-12.4914
ClwrI	-12.4916
OGF	-12.493
YOb	-12.494
CMQY	-12.4942
DAMQCf	-12.4948
zcy	-12.4962
NGG	-12.4968
MLb	-12.4968
xLEpxm	-12.4969
bkN	-12.4973
xLEpE	-12.4976
wGD	-12.4991
ebUBAG	-12.4997
UsZ	-12.4999
FFh	-12.5001
OIMB	-12.5006
+//4	-12.5021
eRUCAO	-12.5023
Pdiry	-12.5039
KcdJ	-12.5052
uMT	-12.5061
dSk	-12.5066
CNY	-12.5069
Eoo	-12.5086
DCvapNElBtWgIJC	-12.5103
PkpS	-12.5103
hfZ	-12.5106
AMijaVY	-12.5109
GTW	-12.5124
Rmm	-12.5127
hEs	-12.5141
nIx	-12.5156
bHC	-12.5166
IzRGaSMHG	-12.5166
eXoqQMB	-12.5166
wGgkU	-12.5168
efUBAI	-12.52
JNt	-12.5217
qWVZ	-12.5217
pjQAYmIdkobCn	-12.5228
BxXHFxcXIg	-12.5231
xjiQ	-12.5233
eTUCAP	-12.5239
HcLxAHkIGypbKL	-12.5243
sMJ	-12.5251
CABQCfw	-12.5253
kAjp	-12.5259
RRH	-12.5266
CDf	-12.5278
Dcy	-12.5287
oYMt	-12.5289
RXIh	-12.5294
OPHi	-12.5302
Njh	-12.5304
pgSE	-12.531
xns	-12.5325
yEw	-12.533
oYx	-12.5335
kGV	-12.5342
fzJPKSglSkusI	-12.5343
tiTM	-12.5353
StZG	-12.5355
Vii	-12.5357
eGFLR	-12.5357
SElJiscIIxQiWJD	-12.536
piIf	-12.536
Rej	-12.5361
lcCAf	-12.5362
Ppio	-12.5363
LRX	-12.5386
PwDI	-12.5394
PQs	-12.541
HPmr	-12.5414
lUtGPHhhS	-12.5417
yqSO	-12.5424
OHZJlU	-12.5434
VRRC	-12.5435
rtU	-12.5448
tuQ	-12.5452
sTi	-12.5454
CAIQCf	-12.5454
HWR	-12.5458
wDV	-12.5464
ZoH	-12.5476
AUCE	-12.549
PPO	-12.5495
jEGNj	-12.5497
CAJQCf	-12.5501
MTS	-12.5504
eWUCAO	-12.5535
cSH	-12.554
SlLq	-12.5548
HOxX	-12.555
koq	-12.5553
RmkjBxp	-12.5556
AWYXU	-12.5557
cSQp	-12.5564
loh	-12.557
EAPtv	-12.5576
oti	-12.5583
JSUl	-12.559
Wcw	-12.5611
UGhBaWlqGiDA	-12.5623
OYMMg	-12.5626
uXmNA	-12.5626
TLu	-12.5628
DPb	-12.5629
kCIP	-12.5639
THS	-12.5644
ISEJBlTvGGFkITD	-12.5662
PWV	-12.5665
vLy	-12.5678
tbGW	-12.5684
ilXyS	-12.5692
VIti	-12.5693
pCFb	-12.5693
ZLN	-12.5706
tFOR	-12.5721
Icq	-12.5742
EGpTkjtI	-12.5758
jig	-12.5765
cZF	-12.5765
RQPD	-12.5772
OdAPT	-12.5773
DHCAPXKJAKiAcvxp	-12.5779
PRf	-12.5795
QMBL	-12.5796
fej	-12.5815
ItV	-12.5819
eaWo	-12.5829
IOSnJo	-12.5829
qpyMe	-12.583
LfDDx	-12.5834
IPx	-12.5839
EVh	-12.5842
xMf	-12.5846
ewj	-12.5849
BOm	-12.5855
CHEw	-12.5855
ilP	-12.5862
IFv	-12.5862
Qin	-12.5867
olN	-12.5881
rEG	-12.5885
MTfT	-12.5889
aJGlpaWoY	-12.5894
xsc	-12.5894
RERB	-12.5902
unKl	-12.5902
BOTk	-12.5911
ADHA	-12.5916
Zbn	-12.5928
sGQg	-12.5932
pqam	-12.5941
pcuF	-12.5947
xPnrFNU	-12.5955
ylPj	-12.5959
FBAwuA	-12.5965
msx	-12.5971
sFU	-12.5974
yba	-12.5977
nhc	-12.5981
jPY	-12.5989
MJJ	-12.5989
AWaF	-12.5989
ZokU	-12.6002
RQAFBBUVFSAgDCwE	-12.6003
UGJ	-12.6033
ABQATxRUVFSAD	-12.6033
OON	-12.6033
IzxG	-12.6038
NHG	-12.6045
QNDKvrhNhAs	-12.6048
TdV	-12.6053
wEcUHwH	-12.6062
JCRB	-12.6065
eUUCAM	-12.6069
itra	-12.6074
eSUCAO	-12.6079
SkDQ	-12.6082
FPwDtobk	-12.6091
Qbm	-12.6092
MjIy	-12.6098
sZF	-12.6103
AVABBfnrDKHDttKy	-12.6104
frRTk	-12.6105
OwZ	-12.611
NNM	-12.6115
UABwQXFxciIgwE	-12.6116
eUUBAE	-12.6123
KPJT	-12.6127
eSUCAM	-12.6128
wsQS	-12.613
uVm	-12.614
FgLA	-12.6156
xLEpxl	-12.6166
JRT	-12.6185
ncF	-12.621
VOR	-12.6224
PHx	-12.6228
VlZZGY	-12.6244
IOinHSXEUtS	-12.6245
dIu	-12.6245
AUAPts	-12.625
sVTkg	-12.625
qLY	-12.6253
ICPKD	-12.6254
rii	-12.6265
erq	-12.6266
ZolN	-12.6287
fFZL	-12.6288
ztt	-12.629
UHxB	-12.6311
WLy	-12.6328
tmQ	-12.6366
cTZ	-12.6368
VwL	-12.6369
FFDs	-12.6379
NBBIJPNNJ	-12.6384
Vvv	-12.6387
DAHQDf	-12.6388
RKTHxybe	-12.6388
PcHF	-12.6396
UFxc	-12.6406
FBkQWVlZhYgwE	-12.6412
tFf	-12.6438
Nzc	-12.6456
xiqOBDw	-12.6461
dro	-12.647
FvyrJD	-12.6473
mSZ	-12.6486
oNJ	-12.6495
bTBFRBIIxpNCDkpy	-12.6502
qoX	-12.6503
UxW	-12.6513
PFiKvL	-12.6521
AGaD	-12.6529
BEdsENeciFgqkBRh	-12.653
IOinGmjunrIHKc	-12.6531
ejqOA	-12.6536
hUjSHqHuZvR	-12.6545
CACQCfw	-12.6566
hSl	-12.6566
JtM	-12.6568
eXUBAG	-12.6569
MSL	-12.6586
COp	-12.6613
Vbgw	-12.6614
TtqGVe	-12.6619
sLCw	-12.662
fVT	-12.6637
IIhF	-12.6638
Bvt	-12.6641
gDCwE	-12.6642
qWM	-12.6643
LLj	-12.6666
rMR	-12.6676
jgGA	-12.6677
UABQQVFRUgIAwsB	-12.6681
IxBjY	-12.6683
Bxfl	-12.6694
CALQCf	-12.6705
wPgV	-12.6716
JdS	-12.672
QoGdICgzvK	-12.6758
TdN	-12.6769
Kira	-12.6773
PvR	-12.6803
ADHAZoX	-12.6824
DABQCf	-12.683
wgBiOQA	-12.683
IOcdI	-12.6832
OXl	-12.6855
RHAk	-12.6877
CIRe	-12.6879
SIlV	-12.6881
iIiIi	-12.6889
hns	-12.6893
ITUMFnlNOOESkx	-12.6907
SkpK	-12.6909
RdSF	-12.691
CAKQCf	-12.691
dkmVTxwDWVx	-12.6911
DPzJ	-12.6914
JvLmNzdD	-12.6915
iba	-12.6937
fApk	-12.6939
CoBw	-12.694
YUtE	-12.6941
hEiU	-12.6955
eVUCAN	-12.6957
psq	-12.6959
mff	-12.6959
uMt	-12.6971
sdF	-12.6973
gOIjgCd	-12.698
aQDTdDuolKJ	-12.698
pNCDkpx	-12.6983
VHwF	-12.6988
esMoc	-12.6989
PtkX	-12.699
ElmJD	-12.6993
jHRf	-12.7001
uEjCM	-12.7004
QQAf	-12.7029
CAAQCfw	-12.7038
zjMa	-12.7048
mRZi	-12.7054
ptpcF	-12.7062
vSwob	-12.7062
lvhg	-12.7067
UFhYQVlZWgogwE	-12.7072
UISEQYWFhjZAwE	-12.7076
gtbW	-12.7085
IOpK	-12.7088
yqehHDwyp	-12.7117
pjqS	-12.7126
VizH	-12.7131
iYon	-12.7134
iBqP	-12.7139
PnrFNU	-12.7147
vkX	-12.7154
WOm	-12.7162
nkZX	-12.7203
iflmiU	-12.7214
JxBnZ	-12.7218
UFRUQVVVVgYgwE	-12.7226
dMKv	-12.7246
JJmbb	-12.7288
aqcjHjxdTk	-12.7294
xiqOBDwQYlOSOUja	-12.7295
XAbCBb	-12.73
FeEO	-12.7303
BiYh	-12.7325
frO	-12.7329
zfx	-12.7341
HxOJ	-12.7371
RmkjUeP	-12.7373
AyKNpVjqYO	-12.7374
LkqF	-12.7377
pHl	-12.739
FAAUEFRUVICAMLAS	-12.7406
fyz	-12.7427
FcJGMY	-12.744
iYmJijpDID	-12.7445
KJizOoIlJn	-12.7453
SXpZxkWcyEEbhME	-12.7453
MNtIFj	-12.7455
rHEBxMf	-12.7456
pEPTY	-12.7459
ZIOf	-12.7462
svor	-12.7488
CQin	-12.7499
lPpj	-12.7527
OhxS	-12.7534
UIBBgYGCMkDA	-12.7534
TTjhEpM	-12.7535
KXCsj	-12.7537
AaCRT	-12.754
EAXx	-12.7581
vwDtobk	-12.7599
AxOJ	-12.76
AGaB	-12.7605
HcFr	-12.7611
DACQCf	-12.7615
mbaXBe	-12.7615
KxBra	-12.7618
eiTJ	-12.762
VUChjHP	-12.7623
lmW	-12.7629
UDAwQTExMeHgwqB	-12.7631
cJGMY	-12.7637
kgPR	-12.7649
OPkDA	-12.7682
JxRQ	-12.7692
nWcyEEVuAE	-12.7697
gtDBFtuF	-12.7697
vSwot	-12.77
UEDC	-12.7732
Ajio	-12.7744
AfEDxEcCT	-12.7778
lwXlNr	-12.7778
kZGRvc	-12.7781
utN	-12.7815
trZL	-12.7841
CADQCfw	-12.7879
aZVu	-12.7879
Npu	-12.7893
AVABBfnTIeixzfty	-12.7894
AEAPt	-12.79
lvr	-12.7914
CAFQCf	-12.7956
eWUCAP	-12.7972
DAFQDf	-12.8013
nmPH	-12.8024
DAAQCf	-12.8031
xDVWoy	-12.8038
CAEQCfw	-12.8083
eWUCAN	-12.8091
kAPtv	-12.8092
GOpyAdTU	-12.8119
axxAcTH	-12.8121
ERbD	-12.8141
eRUCAJ	-12.8167
eUUCAN	-12.8182
eTUBAE	-12.8185
UHwE	-12.8186
UKSkQaWlplZgwyB	-12.8204
qUxG	-12.8207
xiqOBDwQbFOSO	-12.8207
RIlN	-12.8207
UkcfzBHDFJQdDx	-12.823
xEra	-12.8259
JSYrHCCMUIlJj	-12.8274
Zlme	-12.8283
tGhd	-12.8284
eqao	-12.829
SDnHSA	-12.8292
lPpt	-12.8356
cirR	-12.8372
eXmlqOA	-12.8379
pTxhGamPzJt	-12.8379
TwEcVHAD	-12.8379
WOKDiQ	-12.8379
bQEBh	-12.8382
BPARxUcAPqD	-12.8383
iEXo	-12.8387
QzaR	-12.8391
VPTD	-12.8401
Wtxl	-12.845
ibyV	-12.8458
uFTJhX	-12.8464
CAHh	-12.847
NjbnA	-12.847
uPAU	-12.8485
OeYe	-12.8489
edUBAH	-12.8497
eTUCAN	-12.851
Bmhf	-12.8516
ysrK	-12.8526
fHJt	-12.8548
eUUCAK	-12.8549
lkJT	-12.8552
daGo	-12.8552
DTuCRvH	-12.8555
lpaZWY	-12.8556
wazBwcHCcD	-12.8556
dXWhqOA	-12.8556
wNXV	-12.8557
vHjxVTk	-12.8567
LMqBzIUedrwR	-12.8593
kSRJ	-12.8596
LDKZ	-12.8603
xUhdQwr	-12.8635
Kysr	-12.8636
gjpikI	-12.8644
AMijaU	-12.8645
eHikqOA	-12.8646
hZCEw	-12.8648
wJCKfrgNBIt	-12.8648
pCQgv	-12.865
BJRek	-12.865
tFPpiK	-12.865
tEDQyr	-12.8651
iUon	-12.8658
VMmFf	-12.8666
IUkmZttzQQSCTzTS	-12.8715
vNHR	-12.8725
AFAo	-12.8731
FCJiYmKOkDA	-12.8737
oaHN	-12.874
AYGPy	-12.8743
qrDoE	-12.8744
CAIB	-12.8757
YuDx	-12.8778
pNCDkpypvVyGwlFk	-12.8778
KQND	-12.8817
UrSd	-12.8818
FCQkEGRkZJCQMB	-12.8829
OTnqAMLA	-12.8829
eidJw	-12.8834
IgjgI	-12.8836
fKio	-12.8867
ezuPA	-12.8899
ARlZWVmFC	-12.8901
vpaIfPmVS	-12.8919
KGhoaJSY	-12.8921
GxsbJiY	-12.8922
AaVj	-12.8954
xBNC	-12.8954
JAWUZ	-12.8958
gWTA	-12.8984
kiRJ	-12.8989
aQDTdDuomKJ	-12.9008
TKJKeZYrmQoINrQ	-12.9015
bRngAHvkE	-12.9015
UJCQQZGRkkJAwE	-12.9015
pTxhGaJH	-12.9015
RILu	-12.9016
gWTBX	-12.9018
eXUCAP	-12.9019
iIiI	-12.902
yByn	-12.902
AAAU	-12.9028
QVIz	-12.9042
+2/0	-12.9043
GaDff	-12.9045
SIRf	-12.9058
fANo	-12.9071
JkDA	-12.908
XSVgGPM	-12.9106
FCUQZWVlkZgwyB	-12.9109
QQMLg	-12.912
fQSS	-12.9133
cVxxcXFyID	-12.9155
XKBj	-12.9162
BQQa	-12.9182
TyEp	-12.9203
xLEpk	-12.9208
QSAVABBfnTB	-12.9217
fRAAA	-12.9229
iJVe	-12.923
AUiF	-12.9241
eaUBAI	-12.9248
ascApDYhTkl	-12.9249
KUupYHunp	-12.9255
urZE	-12.9273
SWYkP	-12.9287
JRnzAM	-12.9292
JiYm	-12.9296
EgPR	-12.9303
OPkMg	-12.9304
EcPDKn	-12.9309
iazEh	-12.9312
eWUCAL	-12.9318
AABB	-12.9327
yIRf	-12.9329
Acjd	-12.9343
oAXx	-12.935
AATg	-12.9354
CAGQCfw	-12.9359
BHFB	-12.9363
pNCDgpz	-12.9384
waBjjMHrlEAFRAif	-12.9397
unqOA	-12.9401
TkFBB	-12.9402
wDouiwfSmNA	-12.9402
aLcuz	-12.9402
IOSnKm	-12.9403
keHh	-12.9408
eQUCAJ	-12.9435
Tmpt	-12.9438
hfYPl	-12.948
xDVYSEC	-12.948
xNnZ	-12.9484
oXSf	-12.9486
MuZM	-12.9489
HZZlWWMDSkxcVRPU	-12.9491
VizP	-12.9491
KskPBoGOMweuUQAV	-12.9497
InwiEX	-12.9497
ARYWF	-12.9499
aSNugUWPH	-12.9513
YYHR	-12.9513
dqKo	-12.9516
eQUCAN	-12.9518
FZPg	-12.9528
yfnMhlrVABc	-12.9537
KZOKfvTAkIp	-12.9539
eRUCAK	-12.9572
AEhj	-12.9579
lWOp	-12.9588
xTVP	-12.959
YKvLBV	-12.9593
CCJd	-12.9594
UFBBUVFSAgDCwE	-12.9595
pNCDopxRni	-12.9595
mreKyb	-12.9595
esUlbM	-12.9596
vSwoJ	-12.9596
iCOAji	-12.9598
ADHAhf	-12.9613
zEsSnGX	-12.9619
CAMQCf	-12.9626
wMOA	-12.963
roKo	-12.9631
eVUCAM	-12.9636
jnQD	-12.9649
zUhJSYrHCCMUIlJj	-12.9691
oweGVPTDbSBY	-12.9694
RkZG	-12.9694
RQZEFlZWYWIMB	-12.9695
UKioQampqlpgwyB	-12.9695
vmzDQE	-12.9695
eoUrA	-12.97
iNjY	-12.9702
KkMg	-12.9766
nhpk	-12.9778
twCdt	-12.9779
vwDVYSE	-12.9784
WiHz	-12.9787
FCYQZmZmkpgwyB	-12.9796
pqapaY	-12.9796
eiBIRX	-12.9797
HASI	-12.9803
LRBtb	-12.9806
plKm	-12.9807
ADHASIX	-12.9824
McBm	-12.9849
gKDO	-12.988
CIRf	-12.9893
CfUKCgoKusOg	-12.9893
eDCoEv	-12.9898
ehTJ	-12.9901
AyKNp	-12.9902
LhBub	-12.991
WPRjqcgHU	-12.9917
KctL	-12.9921
efUAA	-12.9927
BEiU	-12.9932
QkIL	-12.9937
RHbBDXnIhYKpAUYZ	-12.9973
rzhy	-12.998
JxgiV	-12.9999
BpaWlqGC	-13.0001
HBwcJw	-13.0001
mBil	-13.0012
eVUCAP	-13.0028
APff	-13.0058
ZMNA	-13.0058
oajgE	-13.0062
FyXQ	-13.0074
mIqC	-13.0087
fMqn	-13.0091
ANVK	-13.0099
REDRtA	-13.0102
LChv	-13.0106
BlNm	-13.0112
aMNA	-13.0139
AZok	-13.0141
LQwQ	-13.0172
AEAg	-13.0179
tobkbTBFRBIIxpNC	-13.0179
maJP	-13.0186
LXTe	-13.0194
EGxTgjPEbRhuUC	-13.0208
jnYp	-13.0211
LCiX	-13.0214
eTUCAL	-13.0215
JsBo	-13.0239
AInw	-13.0249
QkJC	-13.0254
iIRf	-13.0272
FAAUEFRUVICAMLA	-13.0273
LVfw	-13.0276
AUAPvv	-13.0296
aKfviUSU	-13.0311
XUpH	-13.0315
HwSbTeL	-13.0317
ISUmKxwgjFCJYkP	-13.0317
QSUXpOQUEG	-13.0319
wEvw	-13.032
kpKSvs	-13.032
FfyrJD	-13.0325
xwECE	-13.0328
zmAf	-13.0333
WaJT	-13.0341
gPQv	-13.0358
KgHP	-13.0424
YCQUaGhoayuPA	-13.0424
SUlJTAwPg	-13.0425
YiXXU	-13.0427
OvsOg	-13.0428
gWPSj	-13.0428
gkbx	-13.0439
cMPH	-13.0444
lXAv	-13.0449
WDvB	-13.0454
UGDZ	-13.046
kgPT	-13.048
dIXUMK	-13.0491
UkKB	-13.0514
EMdF	-13.0518
ZIbUMK	-13.0529
DAGQDf	-13.0533
ZVxLedbC	-13.0533
kBZRmi	-13.0533
RABUQI	-13.0534
cixRL	-13.0536
YlinY	-13.0536
SIkU	-13.0538
oOJD	-13.054
HAAJ	-13.055
eUUCAL	-13.056
qBLw	-13.0568
qqqq	-13.0585
iJde	-13.0599
McBI	-13.0601
ybTJycnKeD	-13.0605
zLVc	-13.0624
fkOD	-13.0627
ICAgKyw	-13.0643
ISEhLCw	-13.0643
SwEcUHwH	-13.0661
lIse	-13.0663
yJtr	-13.0663
OyoZV	-13.0663
wBqL	-13.067
AIkUC	-13.0678
dAnTe	-13.0682
DHCAPXKJAKiAcv	-13.0689
VxRQ	-13.0692
iIRd	-13.0697
CAFQCfw	-13.0715
dsQA	-13.0723
YuHokyc	-13.0744
HZZlWWMDSkxcVRvU	-13.0745
uDDoF	-13.0746
vZuTtscPmOB	-13.0747
miQTwq	-13.0754
MGswcHBwnA	-13.0754
ZWdluBWW	-13.0754
DAIQDf	-13.0754
ynDJgzIj	-13.0754
gWDRj	-13.0755
FSoq	-13.0756
vSwol	-13.0758
wACSk	-13.0759
wpKIfbgPBoh	-13.0775
QLIO	-13.0782
wACQ	-13.0796
AjABxQfA	-13.0807
dlmV	-13.0823
igLK	-13.083
wPgU	-13.0848
uGfJ	-13.0857
esUlWN	-13.0867
RbHl	-13.0867
TIlF	-13.087
eYMMg	-13.0871
QODh	-13.0876
eZUCAEQCf	-13.0877
wDDwF	-13.0879
BTlx	-13.0884
AEiD	-13.0888
nYBF	-13.0896
CsQa	-13.0899
AmFm	-13.0911
BawR	-13.0911
BiCo	-13.0912
HAQI	-13.0941
pNCDkpya	-13.0962
OazO	-13.0966
jpme	-13.0969
ERGR	-13.097
hoSYWd	-13.0977
gtCxvXgL	-13.0978
kCzl	-13.0979
enqmqOA	-13.098
qTRJQbVoCCQu	-13.0981
GOxs	-13.0984
QYGBg	-13.0985
BEdsENeciFgq	-13.0985
AfEDxEcAT	-13.0988
uPAV	-13.1
KfMg	-13.1023
pKjgE	-13.1027
DKpI	-13.1044
miHX	-13.105
jnHD	-13.1058
QyBD	-13.106
hXRY	-13.1064
kqLu	-13.1071
KIfS	-13.1072
jNad	-13.1075
TyIr	-13.1089
GkjboFFjx	-13.109
TieTnBxf	-13.1093
iiRL	-13.1093
fXwDaKVfJ	-13.1095
qZSpqamqWmNA	-13.1095
EGxTgjPEZpIwsa	-13.1095
aSwgnGCJWYGKXZxW	-13.1095
gBfETxEYAPKD	-13.1101
OdAP	-13.1101
eYUCAP	-13.111
ycQZ	-13.111
fwDVYSE	-13.1115
EIxV	-13.1124
eTUCAM	-13.1125
eXUFA	-13.1128
ZokV	-13.1143
IRAo	-13.1143
PtlX	-13.1146
oqjgE	-13.1157
UUCgoQSkpKdngwqB	-13.1185
JxRY	-13.1188
PhWz	-13.1194
RJxa	-13.1195
odWd	-13.1197
uRxb	-13.1199
JrMSH	-13.1202
nTCr	-13.1202
iRQSE	-13.1203
HFLjAg	-13.1205
WinwwFQW	-13.1208
EAAQDf	-13.1211
FCoqEGpqapaYMMg	-13.1211
tmTDQE	-13.1212
Iilp	-13.1212
vEAeQgbKlsovsbVP	-13.1216
fyoB	-13.1219
ebUCAP	-13.1219
miRQ	-13.1219
EhEG	-13.122
///8	-13.1221
LjFU	-13.1224
ZAhP	-13.1229
Ghoc	-13.1233
sKCc	-13.1247
jQEP	-13.1268
gwEP	-13.127
yUhdQwr	-13.1291
tPmP	-13.1318
eVgGHM	-13.1324
KcmjEStqbEPuF	-13.1329
RmkjBxo	-13.1329
bHRf	-13.1336
GlpaWoY	-13.1346
fwkl	-13.1347
gwpy	-13.135
CNeI	-13.1373
eWUBAG	-13.1417
eSUCAK	-13.1428
CmTin	-13.1438
xiVX	-13.1442
ckhs	-13.1442
BlZWVmFC	-13.1447
oYug	-13.1447
enqmqDA	-13.1448
ycnJzIyAA	-13.1448
CEuMVTwoWCD	-13.1449
HQOA	-13.1449
FBYWEFZWVoKIMB	-13.1449
iEXs	-13.1452
FPyrJD	-13.1456
AWaJ	-13.1463
GhrK	-13.1491
wACU	-13.1499
RQgEGBgYIyQMB	-13.1503
FxcX	-13.1509
uATpv	-13.1513
CECE	-13.1525
DjQD	-13.1529
RWHR	-13.1531
AMcFFAs	-13.1565
eTmNA	-13.1573
eXUCAM	-13.1584
kJCC	-13.1599
+//0	-13.1612
OfgPT	-13.163
2486	-13.1632
Dffg	-13.1645
hUjSHqHuZvS	-13.165
aKfDAV	-13.1667
VgJW	-13.1671
ConX	-13.1682
QSAVABBfnrDKHD	-13.1688
FRUVI	-13.1694
xsZE	-13.1695
OusD	-13.1695
RQYEFhYWISIMB	-13.1729
BRoa	-13.1732
iFXs	-13.1732
AXtG	-13.1746
StZGKJW	-13.175
AMqk	-13.1757
IzxGaSMLGtq	-13.1781
oXSd	-13.1797
AGJiHZKGwp	-13.1807
FZYV	-13.181
sFflgK	-13.1812
aVgGHM	-13.1813
TZVEHLGVcAikUA	-13.1814
pTxhGamP	-13.1814
aKvrhUyYV	-13.1817
RQlEGVlZZGYMMg	-13.182
EGxT	-13.1826
eVUCAL	-13.1836
eSUCAP	-13.1838
eQUCAI	-13.1844
jjDo	-13.1848
iXXoi	-13.1886
QLeg	-13.1887
AVABBfnrDKGDLdYL	-13.1891
AECA	-13.1899
IRAg	-13.1909
KKDs	-13.1917
wDouiw	-13.1923
ZkAPvv	-13.1926
YYWQhMNnYkChhmi	-13.1938
KcUYxmQ	-13.1938
FCwQbGxsmJgwyB	-13.1939
FxLMeU	-13.1939
MSxKRN	-13.1939
StZGLpW	-13.1939
dAZhflupCCp	-13.1939
wDmmIZ	-13.1939
EhISEsLDoE	-13.1939
kcfzBHDFJQTqfqVN	-13.1939
FexYM	-13.1943
eSUCAL	-13.1951
xwEiF	-13.1952
AUgPv	-13.196
BZYd	-13.1964
eWKV	-13.1976
JWNK	-13.1983
AsuO	-13.1986
vtNB	-13.2015
LCgn	-13.2047
IXSd	-13.2048
hWVx	-13.2049
SNps	-13.2054
XGGh	-13.2061
dYLQwRbbh	-13.2061
kpPj	-13.2062
SNpo	-13.2063
tFXmfMq	-13.2064
EGxTkjvI	-13.2066
ESJRe	-13.2067
iVXwiU	-13.2067
aCwm	-13.2072
fDyAA	-13.2072
GxkTbdEKBnSAoDSr	-13.2075
iMvor	-13.2076
BMTE	-13.2082
eSUBAF	-13.2083
IkNx	-13.2086
wyhM	-13.2087
xwGaF	-13.2089
Kyst	-13.209
CGaF	-13.2099
aKvE	-13.2102
aliu	-13.2115
WAqC	-13.2127
YCpq	-13.2137
LAqo	-13.2138
MBUF	-13.2143
iplt	-13.2152
eUUCAO	-13.2153
aSNugUWP	-13.2158
FxcZ	-13.2159
QMAA	-13.2159
SDnQ	-13.2163
SgAf	-13.2164
cSIl	-13.2167
MmFf	-13.2169
bjzo	-13.2173
PtVX	-13.2173
jLbM	-13.2174
qMnx	-13.2175
SNpq	-13.2178
xSVs	-13.2183
ULBBsbGyYmDDIF	-13.2185
AfxIi	-13.2192
UgPR	-13.2193
LiRbufk	-13.2193
DBrMHBwcJw	-13.2193
mYSZmZmaSmNA	-13.2194
DALQDf	-13.2194
SEhISwsOg	-13.2194
rsOg	-13.22
PBAR	-13.2201
GRkb	-13.221
NCDkpyaIdftDzhRD	-13.2212
eYUCAM	-13.2222
McCF	-13.2225
eXUKA	-13.2229
IMiP	-13.223
MSxK	-13.2234
wEPw	-13.2254
IOdBI	-13.2289
ARxQfAfiA	-13.2289
RXYW	-13.229
QfEF	-13.2292
WJYp	-13.2308
eidJy	-13.231
QTwqv	-13.2321
ZDgOfTOO	-13.2321
NBBIJPNNJCso	-13.2323
CANQCf	-13.2323
FBAQUFBQfIAwsB	-13.2323
bZAJPLB	-13.2324
JCQkLzA	-13.2324
bqQgp	-13.2325
MSxKZN	-13.2327
uZSw	-13.2327
JOFs	-13.2328
AwJpjF	-13.2336
CwsL	-13.2348
xIVI	-13.2355
hwLK	-13.2363
igLq	-13.2365
eQULA	-13.2379
eXUCAO	-13.2386
AoGfzUh	-13.2391
eytA	-13.2391
eYUCAO	-13.2394
eUULA	-13.241
iIRe	-13.2415
eTUCAK	-13.2422
ncYIWQhMNnYkBZh	-13.2422
VQKe	-13.2429
jgEf	-13.2433
eRlf	-13.2443
LiRbufl	-13.2455
CgoKCrrDoE	-13.2455
EAFQDf	-13.2456
ynDJg	-13.2459
eXUGA	-13.2463
KQBk	-13.2467
srKy	-13.2487
GaJP	-13.249
cZID	-13.2496
qKjU	-13.2502
APfX	-13.2506
zjvQe	-13.2507
jQiU	-13.2509
tgQF	-13.2514
CEAPtv	-13.2528
nMFQ	-13.253
VBRQ	-13.2554
lwXlz	-13.2559
XUtEPnzKp	-13.2587
IzRGaauoL	-13.2588
RQAHBBcXFyIiDA	-13.2588
MUDJWh	-13.2589
RRDARxQfAfiA	-13.259
HgSbb	-13.2593
gwFP	-13.2594
RFbiQ	-13.2603
TieT	-13.2612
kshKf	-13.262
Tgud	-13.2622
LfiAV	-13.2634
edUHA	-13.2639
Dffw	-13.2645
oqgwE	-13.2651
GaJN	-13.2704
eVUCAK	-13.2705
AEiB	-13.2712
UkmZttfclGfMAxna	-13.2718
VIbUMK	-13.2719
ISElJiscIIxQiUmO	-13.2724
EAIQDf	-13.2724
AjABxQfATy	-13.2726
AEAo	-13.2735
APtvZI	-13.2741
FFvs	-13.2753
DcQd	-13.2765
eXUCAN	-13.277
CgoK	-13.2771
BZQd	-13.2781
eoMB	-13.279
QIgU	-13.2791
KCyY	-13.2799
eSUCAJ	-13.2804
sggI	-13.2809
AECIPRQ	-13.2818
xsbG	-13.2841
sEDGOe	-13.2854
xiqOBDwQYlOSOUj	-13.2856
EOhTDQ	-13.2857
FIbUMK	-13.2857
MjLi	-13.286
DUcJTjkIeDkCL	-13.286
uXmDDIF	-13.2861
gbaXBe	-13.2861
dncnQ	-13.2872
eYUIA	-13.2877
qsOg	-13.2877
ZAiD	-13.2891
JCPoBFP	-13.2908
VAFA	-13.2909
edUCAO	-13.2912
bEDC	-13.2915
kuLi	-13.292
Ajyg	-13.2939
DCvyiYszqAPkzx	-13.2945
leXl	-13.2946
AJLU	-13.2949
WdgEXb	-13.2953
fqqw	-13.2975
eaUCAP	-13.2981
famw	-13.2986
SGSNIe	-13.2989
eBYNGP	-13.299
pNCDopxJCnfK	-13.2999
voriJTKyiG	-13.3
lJSUwM	-13.3
gJen	-13.3
BIbUMK	-13.3
dHSgMNA	-13.3
EACQDf	-13.3003
psOg	-13.3011
YRmiR	-13.3015
gOIj	-13.3061
JYfL	-13.308
ABnL	-13.3099
AACT	-13.3102
ooDy	-13.3106
eZUCAFQCf	-13.3108
WBRQ	-13.3111
HcLxAHkIGypbK	-13.3138
GOpyAdTk	-13.3138
dAZJflupCCm	-13.314
REDRtAQGH	-13.314
kBZRnQ	-13.314
QkJCQvM	-13.3141
eYUCADQCf	-13.3142
wlbZ	-13.3142
AAkJ	-13.3143
FPwDVYSE	-13.3143
QqHEj	-13.3143
rBAxj	-13.3143
OccPT	-13.3145
HgAeE	-13.3147
Amlur	-13.3157
MOgW	-13.3173
CQUU	-13.319
olKl	-13.3191
fJAs	-13.3208
FErs	-13.3211
sbGx	-13.3215
ZolF	-13.3219
OAkl	-13.3219
eKSo	-13.3227
nXnf	-13.3243
nAGI	-13.3248
yCAD	-13.3249
eVUBAE	-13.3262
nJvLmNzdD	-13.3263
dHjpv	-13.3275
mDvj	-13.3281
KlZhnguJJizw	-13.3283
pNCDkpxRjGZD	-13.3283
ebUGA	-13.3283
nEXUGB	-13.3283
YAJbYKCgoMzQ	-13.3284
EABQDf	-13.3285
OfAPT	-13.3286
NZVwO	-13.3287
cdID	-13.3295
EjpI	-13.3313
wJGS	-13.3316
RNOE	-13.3333
pKSkr	-13.3333
UNDQ	-13.3366
lpfn	-13.3368
zTvz	-13.3371
FEMBHFB	-13.3379
rqcj	-13.3391
paXR	-13.3399
FDYQ	-13.3405
yDIj	-13.3409
lukrAMOb	-13.3424
ZZIQCt	-13.3428
zWCcGEvcWJUfBTM	-13.3428
FCvjBouwE	-13.3428
FBoaEFpaWoaIMB	-13.3428
fHyoqOA	-13.3428
dnaiqDA	-13.3428
CAgICssOg	-13.3428
aqQjq	-13.3432
LxBvb	-13.3433
fKioMB	-13.3433
iWKdi	-13.3434
tVTkfcqko	-13.3436
ebUCAO	-13.3439
ITSd	-13.344
eQUGA	-13.3451
AGaJP	-13.3453
ehdJw	-13.3456
YGfy	-13.3465
lcWq	-13.3466
CKmW	-13.3485
OuwXov	-13.3511
nXcr	-13.3522
ecUFA	-13.3546
GaJF	-13.3552
kubm	-13.3552
RbeV	-13.3555
deqV	-13.356
LPpb	-13.3571
wgNRwlOOQh	-13.3575
LiRbufm	-13.3575
DAKQDf	-13.3575
LoTALZ	-13.3575
IWCqQFGGehjsbOWB	-13.3575
kbaXBe	-13.3575
upyPuUSU	-13.3576
ExMT	-13.358
lygY	-13.3597
ARpaWlqGC	-13.3607
AHQFi	-13.3608
JkMg	-13.3614
CAOQCf	-13.3624
WCrywVTU	-13.3627
PAaA	-13.3635
GIwC	-13.3637
FBAw	-13.3643
xEiU	-13.3647
EiJF	-13.3648
FDUQ	-13.365
gPTP	-13.3657
AMcFFA	-13.367
UoAH	-13.368
AQfl	-13.3688
Tyxd	-13.3697
SDnGS	-13.3701
cXyT	-13.3702
YPtn	-13.3708
CAGh	-13.3708
VcJGMY	-13.3716
wqgZPqz	-13.3724
VAFAVVVVVgQ	-13.3724
OYOf	-13.3724
RQsEGxsbJiYMMg	-13.3724
EANQCf	-13.3724
RmmrrCy	-13.3724
FCgoEGhoaJSYMMg	-13.3724
muEjCMe	-13.3725
NmLg	-13.3725
jNfQ	-13.3726
RQAMRBxcXGdMNA	-13.3727
cBsIFv	-13.3727
WCrywVQU	-13.373
FdkP	-13.3731
PvRTk	-13.3736
QPERwBM	-13.3737
OcHF	-13.3737
HRfz	-13.375
ebULA	-13.3756
ITDZ	-13.3768
CEAPts	-13.3771
bMNA	-13.3806
FFfs	-13.3814
Onkr	-13.3818
rLdv	-13.3824
DAPh	-13.3833
RjqcgHU	-13.3833
rdOP	-13.3836
rMSH	-13.3836
mJnp	-13.384
ZhJm	-13.385
EALQDf	-13.3856
SIiIi	-13.386
TRbp	-13.3861
xkhtQwr	-13.3873
zEsSmT	-13.3875
dnaiqOA	-13.3875
VUFWVlZXByAA	-13.3876
PyIRfiAff	-13.3876
UMBBwcHCcMNA	-13.3876
eHikqDA	-13.3876
DCvilPGEZok	-13.3876
gWDRD	-13.3877
nMFP	-13.3877
eaUCADQCf	-13.3879
GkjboFFj	-13.3882
KhlXtWm	-13.3885
efUBAN	-13.3888
SymVy	-13.3889
AwMEE	-13.389
KJTY	-13.3898
Uyts	-13.3905
iXSJiYmKOkMg	-13.391
aegJ	-13.3914
IyEH	-13.3919
CAIQCfw	-13.3931
tBPM	-13.3932
AdDl	-13.3967
eZUCAO	-13.3971
ahlXt	-13.3972
AcfC	-13.398
xTVDz	-13.3981
YFvy	-13.3984
hlUZ	-13.3988
KOQDWP	-13.3993
XSVg	-13.4006
SAJD	-13.4006
YZVGfTgHUh	-13.4022
onSf	-13.4026
DCvilPGERqW	-13.4028
IOpq	-13.403
spRljvP	-13.403
BEAFIH	-13.403
gWyBgYGCMkMg	-13.403
JABfJGRkZJCQyB	-13.403
IFsgYGBgjJDID	-13.403
ZmZpKY	-13.403
YGWl	-13.4033
WiryPmVS	-13.4033
ADHAZo	-13.4039
DCval	-13.4041
NwBy	-13.4057
gMFD	-13.4067
PRQTE	-13.4069
BQAF	-13.4072
GCFk	-13.4073
WAqa	-13.4085
eWUCAM	-13.4091
hMiU	-13.4096
HRfx	-13.4105
QHtAgICArLDoE	-13.4107
AGbHE	-13.4131
zKpKIfPTCko	-13.4133
zMzM	-13.4139
aLcu	-13.4143
htra	-13.4156
eQUMA	-13.4158
jgiU	-13.4171
JIbUMK	-13.4183
ecUGA	-13.4183
aZVufhKW	-13.4186
gweaheLMOyHPsrGJ	-13.4186
alhAXT	-13.4186
aLCP	-13.4187
SVdts	-13.4187
hhsZ	-13.4188
wyhgy	-13.4188
YblAt	-13.4189
yqwQMY	-13.419
eqaoMB	-13.4192
DjmzN	-13.4194
xMTH	-13.4194
ACNGF	-13.4197
pqbS	-13.4199
aSNugUWPn	-13.4202
rAMOZ	-13.4209
obhix	-13.4211
JJTo	-13.4214
oagwE	-13.4217
NTXmAMLAS	-13.4223
ErAI	-13.4236
eaUCAN	-13.4245
AHUG	-13.4254
QMBP	-13.4291
IPCJV	-13.4294
dAZJfkOoc	-13.4308
gwEf	-13.433
UoqsEDGOe	-13.4338
9022	-13.4342
CBbIGBgYIyQyA	-13.4344
XIbCUWRN	-13.4345
APffiRQ	-13.4346
EAHQDf	-13.4347
lwXVySGt	-13.4347
wpCLvNhAs	-13.435
lwXVyS	-13.4351
lGDm	-13.4352
LswI	-13.4355
gWPTD	-13.4358
TIht	-13.4358
FhMB	-13.4366
ecUCAN	-13.4371
BsMX	-13.4373
EWHy	-13.4375
xwEi	-13.4375
Nhag	-13.4375
EiJdfCJ	-13.4385
eeUGA	-13.4409
TjQD	-13.4419
zUhdQwr	-13.4447
iJTe	-13.4447
sHVj	-13.4469
rhLw	-13.4474
UOBB	-13.4476
nHrD	-13.4487
PIivx	-13.4488
UTYf	-13.4491
EAGQDf	-13.4498
SZVPHANZXHqaBUn	-13.45
JxRb	-13.4501
fhQaEFpaWoaIMB	-13.4506
gAltgoKCgzNA	-13.4507
CCEAXCFhYWGNkMg	-13.4507
vpSLvUyYV	-13.4507
HcLxAHkIGyhYr	-13.4508
WOKDiY	-13.4509
KODnm	-13.451
WwJb	-13.4512
spRlrtm	-13.4514
xJdJWAY	-13.4515
IzxGaSMLG	-13.4525
JjyRdj	-13.4526
hmiT	-13.4531
kAPvv	-13.4541
HaoE	-13.4553
BQTE	-13.4562
eYUCAN	-13.4565
BYfL	-13.4566
xfluD	-13.4579
nOzs	-13.4579
kpKSk	-13.4585
JPTn	-13.4589
OfgP	-13.4597
xPnrFJWz	-13.4598
oqLO	-13.4637
pKgwE	-13.4641
qZbc	-13.4655
wkhtQwr	-13.4656
CSZm	-13.4661
RIbUMK	-13.4664
XSVgGPP	-13.4665
VwkYxjz	-13.4668
xEhtQwr	-13.4669
VQFVVVVYE	-13.4669
EAMQEf	-13.467
BQVFRBVVVWBiDA	-13.467
vUOVg	-13.4671
JYCPKD	-13.4673
lpaWl	-13.4674
MOnTCr	-13.4675
VTbQG	-13.4676
eaWoMB	-13.4677
APtvY	-13.4679
FdqI	-13.468
KFgg	-13.4696
GVdR	-13.47
mwdB	-13.4704
wJeY	-13.4711
lwXlzQ	-13.4712
IOCn	-13.4714
RQiYmJijpAwE	-13.4727
AADh	-13.4738
qKioq	-13.4748
fwDouiwfSmNA	-13.4752
HYot	-13.4756
menp	-13.4773
eZUCADQCf	-13.4779
eUUCAJ	-13.4791
uFqDz	-13.4794
MMPH	-13.4816
RERER	-13.4817
Govb	-13.4821
rMWg	-13.4825
ckhr	-13.4827
AngI	-13.4831
qJiic	-13.4833
qTRJQbVoCiC	-13.4834
dgQF	-13.4834
vUAltgC	-13.4835
eTmDDIFP	-13.4837
aVVqamprGyAA	-13.4837
iQFlGdBOWIVFAhuG	-13.4837
pNCDspz	-13.4837
eBYNEP	-13.484
COXMjdZ	-13.4841
SmQly	-13.4842
OccPR	-13.4842
iUyF	-13.4853
SZVPHANZXFqtG	-13.4859
ecUBAG	-13.4892
eTUCAI	-13.4893
CJTfD	-13.4893
gzwh	-13.4893
jwGA	-13.4901
eQUKA	-13.4903
IhfZ	-13.4904
OoMB	-13.4913
ebUCAM	-13.4914
wKIfwaIfS	-13.4917
ecUHA	-13.4919
VwkYxjy	-13.492
EECE	-13.4945
CDHA	-13.4945
xwIX	-13.4945
MNmZ	-13.4948
gQGP	-13.4956
olDy	-13.4966
RQkJBBkZGSQkDA	-13.4973
AjgS	-13.4976
BIhf	-13.498
LtKwDDm	-13.4981
xUhtQwr	-13.4981
UhtQwr	-13.4984
aLAP	-13.4985
IAkNIiIiItLjwF	-13.4994
bDmp	-13.4995
letU	-13.5002
RQhIRBhYWGNkDA	-13.5004
CocSO	-13.5005
zkhEjSHt	-13.5006
VUBVVVVWB	-13.5006
ztkraDhl	-13.5006
EGxTgjPEZpIwua	-13.5006
iYmJjEyAA	-13.5006
WAJTWJiYmMTIAB	-13.5006
mRgJ	-13.5007
eRUDALQCf	-13.5008
xjiY	-13.5008
dHSgD	-13.5012
aQDTdDeqLdYG	-13.5018
xwQQ	-13.5019
qbDoE	-13.5019
KgHDmGc	-13.5022
DAPB	-13.5028
OdcP	-13.5055
RERk	-13.5059
DQiU	-13.5063
COgh	-13.5071
JAWUZokmarJ	-13.5075
BwcH	-13.508
GESD	-13.5083
eRUPA	-13.5086
qanV	-13.5095
IftY	-13.5102
BPDk	-13.511
AADE	-13.5113
vUCXg	-13.512
FDAQcHBwnDDQE	-13.5122
xwEg	-13.5122
tKwDDm	-13.5123
QAbz	-13.5125
mZrq	-13.5127
MKQi	-13.5134
vormJT	-13.5137
vZuC	-13.5144
wACY	-13.5156
ubtuPOg	-13.5162
oKCgq	-13.5168
AdzxE	-13.517
SYmJ	-13.517
uJDTuB	-13.5173
wJCKvNtAs	-13.5176
LfiwV	-13.5177
fHyoqDA	-13.5178
EPiJVfT	-13.5179
DODO	-13.5179
AUABeC	-13.5179
dAZpflupCCq	-13.518
IzxGaSMLGlp	-13.5181
QnHFj	-13.5183
DSuYs	-13.5184
EuhMP	-13.5184
mTin	-13.5186
XSVgGPN	-13.5186
QKLGj	-13.5189
kOQa	-13.5206
DqpUkbrBCSMLhMzG	-13.5206
LRUN	-13.5208
UKCgQaGholJgwyB	-13.5225
CJykSJ	-13.5229
dydA	-13.523
CtmK	-13.524
QkjC	-13.5241
dgtA	-13.5242
Adzx	-13.5243
gWCR	-13.5244
wAmt	-13.526
TievfC	-13.5267
DAMQDf	-13.5269
eTUCAJ	-13.527
IOinFGMZkOl	-13.5287
diQJGGa	-13.5295
rDdd	-13.5299
ubnl	-13.5307
ktaC	-13.5316
qAcOYZx	-13.5322
IPpb	-13.5338
qVJG	-13.5342
RyMV	-13.5342
eXUCAL	-13.5345
dlmVTaQDUXxdvSuk	-13.5347
dlmVTaQDUXxdvSuE	-13.5348
eaUCAEQCf	-13.5349
bRngAHvkEgFQ	-13.5351
TMxoCzD	-13.5354
FccXFxciA	-13.5354
bfpKZCXJB	-13.5354
fiQFlGaLdtkAk	-13.5354
dXWhqDA	-13.5354
esMocNWBHl	-13.5354
BAHxBgYGBrbDoE	-13.5354
GAkFGhoaGsrjwF	-13.5355
diQKmGaLoma	-13.5355
dnaiqOAR	-13.5355
RmkjCxra	-13.5356
IdPmVT	-13.5356
kshIf	-13.5357
SWYmP	-13.5359
CvkAFv	-13.5366
eYUCACQCf	-13.5368
iYmJijpDI	-13.5372
IOin	-13.5374
WPQj	-13.5395
aKvI	-13.5399
aAVq	-13.5402
CVgJW	-13.5408
gSfw	-13.5414
oKIW	-13.5415
LCgnB	-13.5418
fejg	-13.543
FiKvL	-13.5433
eVUCAJ	-13.5447
eZUBAF	-13.5455
PAYC	-13.5478
tSrl	-13.5481
wxVs	-13.5486
FDgQ	-13.5488
qdMKv	-13.5507
nHSA	-13.5518
IOinGmjunrIHKcs	-13.5531
boxQMlaH	-13.5533
JAgYZopiZr	-13.5533
plaqqqqtbYEB	-13.5533
famwMOA	-13.5533
JSUlMDA	-13.5533
OjrrA	-13.5539
oATwEcVHAD	-13.5539
ESJRd	-13.554
ejqDA	-13.554
wDDwG	-13.554
ifCI	-13.5541
ebUCAN	-13.5548
sggA	-13.5548
hJSYrHCCMUIliQ	-13.5548
RXQm	-13.5551
rAMOY	-13.5552
EiJVdiJT	-13.5564
rKIa	-13.5583
qqqqr	-13.5584
BcIW	-13.561
AOql	-13.5612
efUBAH	-13.5617
ARds	-13.5624
EUKt	-13.5626
xdra	-13.5632
jnGD	-13.5639
TYQL	-13.5656
WinwwF	-13.5669
TieTvBxfl	-13.5673
IzxGaausLN	-13.5678
JJGV	-13.5678
vxDVYSEC	-13.5694
LPHBxId	-13.5707
WVnZbgVlh	-13.571
DSGhJhZ	-13.5711
fKcMmD	-13.5712
kZGRkkJDID	-13.5714
EAOQCf	-13.5714
UJhBmZmaSmDDIF	-13.5714
dJWAYcyz	-13.5714
ifFmiU	-13.5715
gOIjgCc	-13.5715
bLomT	-13.5719
JyYRa	-13.572
eVUOA	-13.5722
DtAcD	-13.5722
TSQdB	-13.5722
uIlM	-13.5727
tIFj	-13.5728
ikLJ	-13.5733
XkiEXs	-13.574
GdgT	-13.5743
Kcqb	-13.5746
WYkP	-13.5749
IzxGaausL	-13.575
RUnE	-13.5754
UWDZ	-13.576
AvABxUcA	-13.576
eRUCAI	-13.5768
YFfy	-13.5769
JPRQVFRBVVVWBiDA	-13.5773
EnAQK	-13.5794
9422	-13.5796
kshIfso	-13.5802
TJKG	-13.5803
EJIw	-13.5804
COBJ	-13.5807
Jtcr	-13.5807
BQPD	-13.5832
Ajgy	-13.5842
FZaV	-13.5847
DlUCn	-13.5862
baWW	-13.5863
arRv	-13.5864
zsxT	-13.587
rhIwjHn	-13.589
wJCKfrgNBIu	-13.5896
AOaYhl	-13.5897
hhEgoDD	-13.5898
aAgkLvE	-13.5899
dXYmQyA	-13.5899
oBhnxGNK	-13.5899
hCThbNWfWOp	-13.5899
vacRdQYG	-13.5899
OeoAwsB	-13.59
tuLoIB	-13.59
hYbL	-13.5901
xADjo	-13.5901
ecUCAAQCf	-13.5901
YVep	-13.5901
wIOiA	-13.5903
WirxPmVT	-13.5903
EGxTgj	-13.5903
eKSoMB	-13.5903
JZGV	-13.5904
mjVzo	-13.5905
gyeuQ	-13.5906
zwRBR	-13.5906
ElmJj	-13.5908
EgPQs	-13.5914
psDDgF	-13.5915
DHASDn	-13.5917
FBYWEFZWVoKIM	-13.5919
EAAlG	-13.5926
SnzIPpb	-13.5951
joGg	-13.5956
vwDouiwfSmNA	-13.5972
DlUC	-13.5989
UDAMQDf	-13.599
ADHAQIT	-13.5997
nGSA	-13.6018
VStJ	-13.6026
GaJPRQ	-13.6028
ATHAhf	-13.6037
iRQWFhBWVlaCiDA	-13.6046
BfETxEYAPKD	-13.6049
PjNv	-13.6065
lLbM	-13.6069
BQRER	-13.6074
WAqCmq	-13.6084
oYyhoaGiUmNA	-13.6088
chsJRZ	-13.6088
AdzxEjceBJts	-13.6089
odjy	-13.609
eYUCAL	-13.6092
UVXtt	-13.6094
CBsoWK	-13.6094
MfLj	-13.6097
iwnM	-13.6103
rAMOa	-13.6105
JboF	-13.6106
nzKp	-13.6108
USko	-13.6112
eaaHz	-13.6112
yqQi	-13.6113
JPRQWFhBWVlaCiDA	-13.6117
EbbI	-13.6132
LRVB	-13.6132
XhcQ	-13.6134
LkMg	-13.6138
tVQE	-13.6139
UNRB	-13.6141
eSUCAI	-13.6155
NgQF	-13.6159
eUUCAI	-13.6163
eaUCAFQCf	-13.6165
DPCU	-13.6169
FxLMmU	-13.617
iJddSJ	-13.6186
mAfT	-13.6191
eZUOA	-13.6203
DnGD	-13.6222
trbi	-13.6234
tdSW	-13.6248
ZGmp	-13.6259
AwMD	-13.6262
FcUW	-13.6263
lEGVlZZGYMMg	-13.6271
gBPARxUcAPqD	-13.6277
wlbYntB	-13.6277
OkjZ	-13.6278
AJKT	-13.6278
xZYf	-13.6279
aLcuNEIXV	-13.628
IiXXQi	-13.628
CqJuCcmE	-13.628
eXmlqDA	-13.628
DAOQDf	-13.628
EAGAffw	-13.6281
mCOmKQgndFdCb	-13.6281
SsCz	-13.6281
SESNIe	-13.6281
HwSbTeLqrO	-13.6281
ASAB	-13.6281
ebUCAKQCf	-13.6281
AfEDx	-13.6281
eaUCAHQCf	-13.6281
ifJmiVX	-13.6281
pajgEv	-13.6282
HsLY	-13.6283
PyIRfj	-13.6286
nhhN	-13.6287
blAbc	-13.6287
UEAGQDf	-13.6288
pKjgD	-13.6288
UWyh	-13.6296
jWQdB	-13.63
byVjStrQVbUAbYE	-13.6316
uPAW	-13.6323
ACOED	-13.6328
UCXg	-13.6328
KvLR	-13.633
DnQf	-13.6364
GPyrJD	-13.6366
YEeX	-13.637
eZUCAN	-13.6373
UiKJ	-13.6386
ecULA	-13.6387
FAOP	-13.6389
sCZm	-13.6422
dAyB	-13.6423
wKBj	-13.6426
AJaX	-13.6436
AJPV	-13.644
NtjH	-13.6448
UJRBlZWWRmDDIE	-13.6453
ecUCAP	-13.6456
IOCnN	-13.6462
TdLP	-13.6466
XHFxcXIg	-13.6474
VxRb	-13.6474
EAOQDf	-13.6475
VwkYx	-13.6475
eRUHA	-13.6476
RBQRCBgYGtsDDgFv	-13.6477
umjDQE	-13.6477
ZgJhZqamptLYEB	-13.6477
VgJWlpaWwsgAF	-13.6477
sFflgKgpq	-13.6478
EANQEf	-13.6479
CKfiwV	-13.648
EAKQEf	-13.648
ONAPT	-13.6482
WHhpl	-13.6482
daGoMB	-13.6483
STVK	-13.6484
nMGP	-13.6484
IFXk	-13.6486
KKLs	-13.6486
Jjyhdj	-13.6489
VKKrBAxj	-13.6489
ENVajI	-13.649
HyiF	-13.649
eRUCAH	-13.649
CiFt	-13.6491
WBtE	-13.6491
fIAB	-13.6496
HTIy	-13.6503
IzxGaSMLGt	-13.6503
Pdiq	-13.6511
AECIN	-13.6512
fhID	-13.6516
IivxIft	-13.652
RZQd	-13.6522
eZUCAM	-13.6524
IPzw	-13.653
uggG	-13.653
JwBi	-13.6539
McBIhf	-13.6545
CcUVO	-13.6546
eTUHA	-13.6563
RQWFhBWVlaCiDA	-13.6572
EkKd	-13.6574
oqKio	-13.6596
LvtD	-13.6599
eaUCAO	-13.66
UNhB	-13.6609
zrsF	-13.6618
JEmS	-13.6623
eZUBAI	-13.663
ddwvQe	-13.6639
ACNFE	-13.6645
eTUGA	-13.6653
PISnzIPp	-13.6653
AZTZ	-13.6654
CdHm	-13.6657
edUGA	-13.6666
cXOH	-13.6667
DQSLf	-13.6674
yRbZPOXrt	-13.6675
ycUW	-13.6675
DANQDf	-13.6676
pNCDopxRjGZDpduk	-13.6677
eTmDDIE	-13.6677
JmEmZmZmkpjQE	-13.6677
IOCnOmoMnrkBcm	-13.6677
fiQFlGd	-13.6677
EAPQCf	-13.6678
EADQDf	-13.6678
LPHBxMcx	-13.6679
kIBxY	-13.6679
KKjYU	-13.668
BtmUd	-13.6683
RaHE	-13.6687
TIeixzftyc	-13.6696
WoPM	-13.6698
RtGG	-13.67
KKDYU	-13.671
MRVD	-13.6715
htQwr	-13.6716
jnWD	-13.6728
DHCAPXKJAKh	-13.6728
zbgE	-13.6729
CAAQCfwG	-13.6734
eZUGA	-13.6741
ooCC	-13.6746
KxxY	-13.6749
DjHD	-13.6749
Anjy	-13.6757
EPCJVf	-13.6787
qbAw	-13.6794
dJeA	-13.6795
MKgS	-13.6815
JjyBdj	-13.6824
aZVuW	-13.6834
fAFo	-13.6835
rCVr	-13.6838
OggG	-13.6847
UNxB	-13.6847
BANB	-13.6854
obaXBdXl	-13.6864
oOJj	-13.6871
ARxXHFxcXIg	-13.688
hSDNJdxOSwHC	-13.688
uXmDDIE	-13.6881
pVWpqamsbIAB	-13.6881
KKfiwV	-13.6881
EAJQDf	-13.6882
oYBix	-13.6884
nUJZr	-13.6886
jBfCw	-13.6887
hyoBz	-13.6887
VpmjoGnYE	-13.6888
unqDA	-13.6888
vHyAA	-13.689
JFBYWEFZWVoKIMB	-13.6891
PfXQIg	-13.6891
wABOB	-13.6892
DlYBn	-13.6893
mDvbg	-13.6896
olNhR	-13.69
wKkHB	-13.6902
LAoo	-13.6902
FAAP	-13.6904
efULA	-13.6916
uwXov	-13.6918
ZokUH	-13.6935
DAAF	-13.694
RINh	-13.6945
DnHD	-13.6949
pLCCcYIlZgYpdnFa	-13.6964
CLRe	-13.6967
dAZhfkOoc	-13.6969
CIwP	-13.6971
UEAJ	-13.699
bTBFRBIIxpNCDopz	-13.6992
JVfT	-13.7
DnwD	-13.7009
wKZOKfvTAkIp	-13.7009
GwgW	-13.7012
QLFd	-13.7033
zFPm	-13.7038
jfdu	-13.704
fcpk	-13.7047
ebUBAJ	-13.7051
YTSd	-13.7053
vLzo	-13.7058
aAog	-13.7058
maJPRQ	-13.7059
xkgPR	-13.7063
MEcMUlBOp	-13.7064
TLYy	-13.7077
fmMF	-13.7079
LnTc	-13.7079
GdFj	-13.7083
yZLbOdStJrp	-13.7084
VwkYxjx	-13.7087
NBBIJPNNJCoo	-13.7088
IzxGaausLLfR	-13.7088
UGhoQWlpahogwE	-13.7089
qIbtNZvthcSLByUA	-13.7089
diQIGGaKYm	-13.7089
BUAUBVVVVWB	-13.7089
MGEycU	-13.7089
eZUCAL	-13.7089
kAAJfZKSkpNDQ	-13.7089
hISEsL	-13.7089
JAoYZotiZr	-13.709
YYWQhMNnYkCphmi	-13.709
gYGBrb	-13.709
gtbEw	-13.7091
eQUEA	-13.7092
jFTi	-13.7095
msxIfs	-13.7096
xDgjP	-13.7096
EAsqO	-13.7099
YnEEfJn	-13.7099
hAKKH	-13.71
jygX	-13.7101
TCDX	-13.7102
fYPR	-13.7107
Ccne	-13.7112
xjMA	-13.7115
aKfDAVB	-13.7127
SDnXS	-13.7129
oYCy	-13.7129
LPoR	-13.713
SCIr	-13.713
WAYcwz	-13.7133
imLL	-13.7137
VuJD	-13.7138
cHEh	-13.7138
KpKIfPTCko	-13.7146
UADEQcXFxnTDQE	-13.7159
CSyEh	-13.7175
KoHy	-13.7183
uwMOA	-13.7185
gwHP	-13.7187
KuBx	-13.7199
TiIr	-13.7204
eeUSA	-13.7207
AkaG	-13.7215
eRUMA	-13.7225
jgGC	-13.7226
pTYW	-13.7227
JAWUZo	-13.7228
ERgf	-13.724
FYtU	-13.7246
iMbj	-13.7269
Fdhb	-13.7271
vfwT	-13.7275
aZHX	-13.7276
wxVu	-13.7291
SFSNLDFdRu	-13.7294
OHZZlWIURuaas	-13.7295
QoGdICgNKs	-13.7296
pjQAjoIdsILBn	-13.7298
uuEjCMe	-13.7301
ioqKiztA	-13.7302
FBsQMLg	-13.7302
WAlaWlpbCyAA	-13.7302
YpXcIl	-13.7302
qJiif	-13.7302
eWpYQF	-13.7302
lZWVwcg	-13.7302
SNniChMkkl	-13.7302
gtbEwxP	-13.7302
aAJjaKioqNTYEB	-13.7302
RZpTdBRg	-13.7302
iuYlO	-13.7303
dAZRflupCCn	-13.7303
sqsEDGOe	-13.7303
DACQEf	-13.7303
xiqOBDwf	-13.7303
jQiEXU	-13.7304
OfgPQs	-13.7305
UVWtt	-13.7307
dlmVTaQDUXxN	-13.7308
AEgJ	-13.7309
vvRTk	-13.7313
iQQK	-13.7313
mgVJ	-13.7314
FkEAH	-13.7319
QPERwBO	-13.732
QAkt	-13.7321
ensrQ	-13.7323
cLYw	-13.7326
PYOf	-13.7329
ocCy	-13.7331
eaUCABQCf	-13.734
jjDR	-13.7341
IOfBI	-13.7346
DARxQfAfiA	-13.7348
diQJGG	-13.7374
oKSY	-13.7375
KGMoaGholJjQE	-13.7377
eUUCAP	-13.7377
WdgEX	-13.738
chID	-13.7384
xTVD	-13.7386
FQWU	-13.7388
zmAo	-13.7389
ITBE	-13.7402
iEXoi	-13.7409
Kwoo	-13.7417
eQUHA	-13.7421
efUFA	-13.7424
iRQVFRBVVVWBiDA	-13.7435
eQURA	-13.7452
Wppi	-13.7462
CcAY	-13.7468
jHRe	-13.7474
ymTin	-13.7486
dBID	-13.7492
JNRQ	-13.7502
ZaNW	-13.7502
NJKa	-13.7504
FXnM	-13.7504
spRL	-13.7509
IfbQLDoR	-13.7513
OiZvDMxaQ	-13.7518
VzwjjDBCM	-13.7518
RmkjBxr	-13.7519
cAJrcLCwsNzgGB	-13.7519
IVwhYWFhjZDI	-13.7519
TixOXTGA	-13.7519
goTJJJY	-13.752
AEAPtvZAiD	-13.752
kbaXBdXJIa	-13.752
EAPQDf	-13.752
zegdB	-13.752
XSVgGPO	-13.7521
QYNlR	-13.7522
EAIQEf	-13.7523
bqQwL	-13.7526
QgHFj	-13.7527
yMAcYoKTF	-13.7527
DoFP	-13.7529
ZVNtAb	-13.753
qeMO	-13.7533
kJxxY	-13.7537
VTVicQR	-13.7538
vEAeQgbKFivx	-13.7538
bGxsb	-13.754
VKPAa	-13.7542
cTieT	-13.7546
VeSIR	-13.7547
YCYW	-13.755
oPgL	-13.7561
ycnJyng	-13.7569
YOLD	-13.757
BJif	-13.7575
FBoQWlpahogw	-13.7582
Iypg	-13.7585
EMBHFB	-13.7588
hbog	-13.759
FEiU	-13.7591
PwDVS	-13.7604
HwKv	-13.7605
VAoYx	-13.7617
WHuN	-13.762
dDxxPmOM	-13.7655
VhRK	-13.7673
cAnbc	-13.7693
vtPT	-13.7697
AEMHG	-13.7701
CAPQCf	-13.7704
TUhN	-13.7705
Hwru	-13.7707
YGAf	-13.7708
NtsW	-13.7709
WAYczz	-13.7722
TJhX	-13.7731
SFSNIehhXc	-13.7734
NtQcCqA	-13.7736
QoGdICgNKvt	-13.7737
jHUpEPp	-13.774
fvRTk	-13.774
giUmfdNtrQX	-13.7741
eIKEySSWP	-13.7741
eXoqQyA	-13.7741
ATHAQIT	-13.7741
dAZRfkOQWsbE	-13.7741
eWUxJJf	-13.7741
GAkFGhoaGsrjwE	-13.7741
fqqwMOA	-13.7742
mbaXBdXl	-13.7742
sAAJnbKysrNjYEB	-13.7742
JAkYZoriZr	-13.7742
EAJQEf	-13.7743
ZjATpv	-13.7743
iUysohpPg	-13.7743
rhIwjHm	-13.7747
yBynLB	-13.7747
hoGJH	-13.7747
xnlVv	-13.7748
BQAFBBUVFSAgDCwE	-13.7748
JycnJ	-13.7748
ARkQw	-13.7752
ECqQA	-13.7752
UHXM	-13.7753
AEAPtvZI	-13.7754
VpmjoGnYErYmHJ	-13.7757
fRSM	-13.776
KZOKf	-13.7761
zmCo	-13.7762
DqHRh	-13.7762
eaUCAM	-13.7766
EbfI	-13.7781
EPxIiXXwiV	-13.7787
DHCAPXKJAKiAcrzm	-13.7791
MOgV	-13.7793
amVq	-13.7814
wBaH	-13.7826
UhFU	-13.7827
bSsn	-13.7828
kOoTk	-13.7847
dAZRfkOQW	-13.7849
ebUFA	-13.7851
eWUCAJ	-13.7899
UOTk	-13.79
qCSyEh	-13.7908
LmOv	-13.7911
EVuJD	-13.792
SaaP	-13.7921
AUDAwQTExMeHgwqB	-13.7923
BnXr	-13.7927
pNCDop	-13.7932
Pysm	-13.7939
eeUJA	-13.7953
SRus	-13.7959
FoLKy	-13.7961
LfgSLfiAV	-13.7962
WHGxkTbdEKBnSAoM	-13.7964
edUJA	-13.7965
eaeFz	-13.7965
kkZX	-13.7966
QPERwJM	-13.7967
hIiXXw	-13.7968
diQKmGa	-13.7968
AVVVVVgQ	-13.7968
VcYO	-13.7968
StRSxR	-13.7968
EAfEGBgYGtsOg	-13.7969
RmmrrCz	-13.7969
kBZRnQTliFRQIbh	-13.7969
xQWFhBWVlaCiDA	-13.7969
hYWFsb	-13.7969
UECxo	-13.7971
DIwBxigpMV	-13.7972
XqKrBAxjn	-13.7972
EzMa	-13.7973
CAcWO	-13.7975
OmCIt	-13.7976
Tieff	-13.7976
BDySx	-13.7977
QRNlR	-13.7979
hckPl	-13.798
oDDQE	-13.798
IOpKKi	-13.798
KgHDmOc	-13.7986
lgGr	-13.7987
DnAdB	-13.7994
fyqB	-13.7995
OddI	-13.7996
ecUCAO	-13.7996
ZTEk	-13.7997
TegdB	-13.8
sTieT	-13.8004
eUUGA	-13.8004
RsZE	-13.8015
pweR	-13.8017
osCy	-13.8019
ITUM	-13.8023
efUGA	-13.8025
UJRBlZWWRmDDI	-13.804
DCvyiYszqAPkz	-13.8048
IOinFGMZkO	-13.8055
vwDVS	-13.8066
eZUIA	-13.8082
AEAPtvZm	-13.8096
edFjpv	-13.8097
eVUMA	-13.8117
rnlO	-13.8142
Jpbq	-13.8146
zuCn	-13.8161
eRUUA	-13.8166
WPHs	-13.817
dtIq	-13.818
mxZo	-13.8189
HYObVA	-13.819
iyUp	-13.8196
hTGFhYWIQ	-13.8198
NWGy	-13.8198
MylS	-13.8199
ViubEbu	-13.82
NBTTLwF	-13.8201
SmpgfJZDLo	-13.8201
RQoKBBoaGiUmDDIE	-13.8201
ioqKtr	-13.8202
trdngGB	-13.8202
hIiVXg	-13.8202
edUCACQCf	-13.8204
ofjBE	-13.8208
VUBOVTJh	-13.8209
eUHr	-13.821
kIKng	-13.8211
QxCDg	-13.8212
kBRhvpcoG	-13.8212
GAoGG	-13.8212
KJTYU	-13.8213
CcUWO	-13.8216
KYsuP	-13.8224
tFQXx	-13.8224
edUOA	-13.8244
AffgA	-13.8253
xEHFx	-13.8265
UAPvv	-13.8276
FDAQcHBwnDDQ	-13.8279
MSElJiscIIxQiUm	-13.8286
urrm	-13.8307
RnpO	-13.8307
CADQCfwhA	-13.8348
mppr	-13.8355
bNlr	-13.8363
AMMGG	-13.8367
efUCAO	-13.8383
eeUBAH	-13.8386
qtxH	-13.8391
VjStrQVbUAbYEMRs	-13.8398
lJXl	-13.84
eWUMA	-13.8406
IKCgq	-13.8419
WPQDq	-13.8422
mPhwjwE	-13.8432
HcDpADynB	-13.8434
TagdB	-13.8435
ZxxIfTHy	-13.8437
lkwbpUmvj	-13.8437
FUXUj	-13.8437
pNCDgpzplgnr	-13.8437
ISUmKxwgjFC	-13.8438
suiZPTZCL	-13.8439
xAcTH	-13.8439
dnZBQEIAUA	-13.8439
lYCVlZWWRmNA	-13.8439
BQYEFhYWISIM	-13.8439
APffQIg	-13.8439
gLMPiXJDrWJ	-13.8439
IOCnOmWCet	-13.844
KckYxmQ	-13.844
AEPAMPBN	-13.844
dHloHby	-13.844
SVgGHM	-13.844
WtVpvVEmmD	-13.8441
lwXVySGv	-13.8443
iFXsiP	-13.8444
pRFcJGMY	-13.8444
gOIjgCf	-13.8445
SpbKa	-13.8445
gbZlH	-13.8447
eSUBAD	-13.8448
KtFVAoYxz	-13.8449
RQVFRBVVVWBiDA	-13.8455
ecUKA	-13.8524
RmkjCx	-13.8526
cBoJF	-13.8535
FvykhJSYrHCCMUIl	-13.8546
hUjSHoY	-13.855
qKjgE	-13.8558
edUAA	-13.8586
efUQA	-13.8606
QlPmQf	-13.8621
eaULA	-13.8667
pTxhEal	-13.8682
CAEPtxU	-13.8683
ITUMFnlNOOE	-13.8683
AEAIFAg	-13.8683
ujDbbBNoiT	-13.8683
pTxhGamOwJt	-13.8683
yBynNgo	-13.8683
RmmDHG	-13.8683
AskzBR	-13.8683
urtrgGB	-13.8683
FQEWFhYWxuPA	-13.8683
CEAPvv	-13.8684
DAAQEf	-13.8684
traBgEIAUA	-13.8684
PyIRfgPtk	-13.8684
DABQEf	-13.8685
vasEDGOe	-13.8686
qKjgEvwD	-13.8689
AOaYhlsh	-13.8689
CgsmNwi	-13.8689
BusFu	-13.869
POFEO	-13.8692
OccPQ	-13.8692
qpCOr	-13.8693
ESJTd	-13.8703
eYUCAAQCf	-13.8711
eYUCABQCf	-13.8719
edUMA	-13.8725
ECIPRQ	-13.8725
WlVampqaxsgAF	-13.8743
eaUNA	-13.8756
dFjpv	-13.8763
UMjIQcnJynjDQE	-13.8766
ADMED	-13.8774
APtvZm	-13.8778
AGYpF	-13.8779
AJqb	-13.8784
ebUBAF	-13.8806
eXUPA	-13.8818
eeUMA	-13.8835
AHPHG	-13.8856
DAJQDf	-13.8858
ecUMA	-13.886
AQKpA	-13.8886
GvzUh	-13.8906
vFqDz	-13.891
DCvapNElBtWgI	-13.8928
SnXKVuEsttYVeS	-13.8929
zUkWY	-13.893
YNEPpKIfS	-13.8931
BAqgAAzrABDsDDgT	-13.8932
iKKheuC	-13.8933
esgcpx	-13.8933
UGxAwuA	-13.8933
spRljvPBEFF	-13.8933
eWUyIbe	-13.8933
hlDwbZYFjyUeTVQY	-13.8933
diQJmGaLIm	-13.8934
lUFtSoU	-13.8934
kLCBMvzgUVZEHGBX	-13.8934
WHuNHe	-13.8934
ecUCALQCf	-13.8934
gICArL	-13.8934
InKRIlF	-13.8934
ONAPR	-13.8935
dYLQwRbbhTp	-13.8937
AjABxQfATz	-13.8938
jnYqgfryYi	-13.8941
zEsSkTg	-13.8942
PhIeC	-13.8942
sKLeR	-13.8943
lQwsB	-13.8946
XUhGU	-13.8947
ibjRXhDuet	-13.8948
Ewood	-13.8951
ACMGF	-13.8956
wEJAAgAxflvbg	-13.8959
CREm	-13.8963
edUEA	-13.8973
jRXhDuetD	-13.8974
RQQEFBQUHyAMLA	-13.898
efUCAN	-13.8984
FfwDtobk	-13.8987
DHASIX	-13.9013
FBgQWFhYhIgw	-13.903
AFBBUVFSAgDCwE	-13.9035
CCQAXyRkZGSQkMg	-13.904
eeULA	-13.9041
KwDDm	-13.9058
FYCVpaWlsLIAB	-13.9068
eaUOA	-13.9071
eXUCAK	-13.9109
DAAFvy	-13.9159
ubtuPOgLt	-13.9182
OnbEAOOj	-13.9184
rhIwjHl	-13.9185
qTRJQbVoCC	-13.9187
ecUBAL	-13.9188
InxZolN	-13.9189
dAZRflupDIu	-13.9189
ugqibgnJhFqT	-13.919
QSAVABBfl	-13.919
RQaGhBaWlqGiDA	-13.919
esgcpyw	-13.919
AdzxEjcfB	-13.919
RQyMhBycnKeMNA	-13.919
lwXlNt	-13.919
fKcMmDMiOs	-13.919
SkVKioqKtrjwF	-13.919
FAKQDf	-13.919
tBVtQBtgQ	-13.9191
EAMNEE	-13.9191
tcXFzw	-13.9192
MSxKRO	-13.9192
bNWfWOpQvacRdQYG	-13.9193
WVnZbgVlhUj	-13.9193
vEAeQgbKlso	-13.9194
SWQlPmQf	-13.9194
CAGQCfxB	-13.9194
CgWVH	-13.9196
VpmjoGnYErYlHJ	-13.9197
PjHRfx	-13.9201
QATBA	-13.9206
eQUCAH	-13.9209
IPxIiXXwi	-13.9214
YNGPYNEPpKIfSUU	-13.922
PRQaEFpaWoaIMB	-13.9223
hCOjo	-13.9228
kpkJckHC	-13.9229
NGPpSIfTEV	-13.924
EwAAkdMjIyMuLjwF	-13.926
RQqKhBqamqWmDDI	-13.9293
CwAZyxsbGyYmNA	-13.9297
PnrFJWz	-13.9305
UEAKQDf	-13.9338
CJTdyI	-13.9347
FABPF	-13.9353
qHKgH	-13.9391
eYUMA	-13.9392
ebUCAJQCf	-13.9404
UEAMQDf	-13.941
gbaXBdXl	-13.9412
vZuhFYdHmuP	-13.9443
FUChjHP	-13.9448
LWxMOT	-13.945
PhKcJhif	-13.945
aAogmdJ	-13.945
WAQBfETxEYAPKD	-13.9451
IOCnOmWnsZY	-13.9453
pwyYOy	-13.9453
xPnrFJWzNuRC	-13.9453
LSElJiscIIxQ	-13.9453
uuboIB	-13.9453
venwKB	-13.9454
BIiVXg	-13.9454
diQKGG	-13.9454
obaXBdXJ	-13.9454
qsDDgF	-13.9455
eeUCABQCf	-13.9455
dlmVTaQDUXxdvSOE	-13.9458
SXsYl	-13.946
QrHFj	-13.946
gQBfETxEYAPKD	-13.9461
QiLlE	-13.9462
pNCDgpzpl	-13.9463
kIKrg	-13.9463
UFCxo	-13.9467
HAIPGF	-13.9468
HAnTe	-13.9469
ZxxIf	-13.9472
zWQdB	-13.9473
eXUCAAQCf	-13.9475
MqnTCr	-13.9485
GaJRf	-13.9494
wEJAAgAxflvbs	-13.9501
eSUNA	-13.9526
EPCJV	-13.9532
UDAJQDf	-13.9532
eZUCAJ	-13.9544
KUupYHun	-13.958
bTBFRBIIxpNCDkpz	-13.959
ADHASI	-13.9594
eeUNA	-13.9595
mKTxpAN	-13.9634
eaUCAL	-13.9685
edUCAP	-13.9691
kbaXBdXl	-13.9715
BDEbPCo	-13.9719
TYQLPrR	-13.9721
LWxKMT	-13.9722
iJddT	-13.9722
MQKRDJh	-13.9723
esEApXYi	-13.9723
QSAVABBXnNm	-13.9723
NBBIJPNNJCgo	-13.9723
EYosd	-13.9723
dMFRbZ	-13.9723
RmkTNR	-13.9723
kBRhjfHllMiG	-13.9723
BQhIRBhYWGNkDA	-13.9723
IPiJVfT	-13.9723
CDHAZoX	-13.9723
YAlNYmJiYxMgAF	-13.9723
pqgwFPwD	-13.9723
sbaXBe	-13.9723
dDhxPlmN	-13.9724
agyeuQLy	-13.9724
tAsOhH	-13.9724
GJVfSJyI	-13.9724
NeYAwsB	-13.9724
AEAPvs	-13.9724
wEhtQwr	-13.9724
DQSLfrQ	-13.9727
lwXVySGw	-13.9728
hAyuBKhgIZ	-13.9729
APtvYPl	-13.9729
TTjhE	-13.973
IvxUhdQwr	-13.973
VWcXe	-13.9731
dqKoMB	-13.9731
lTVPf	-13.9731
RxCHh	-13.9732
aVdhg	-13.9732
riqgf	-13.9736
UEAEQDf	-13.9738
qJSif	-13.974
PxkhdQwr	-13.9747
DfeQA	-13.9748
AFNQP	-13.9763
yEhJSYrHCCMUIliQ	-13.9767
IlJjyxdj	-13.9767
GBBYWFiEiDA	-13.9815
edUQA	-13.9858
ecUCAM	-13.994
XCRjGPI	-13.9953
RQmEGZmZpKYMMg	-13.9954
MTieffC	-13.9981
EcVHAD	-13.9992
aUrBUDPl	-13.9992
hkjSHqHuZvR	-13.9994
wJCKgrgNBI	-13.9995
LosHuojYI	-13.9999
iWKdjM	-14
iQTwqgZPq	-14
wRUQSCMaTQu	-14.0001
gtDBFtuFOiZ	-14.0001
FBgYEFhYWISIMB	-14.0001
FZYVIyTR	-14.0001
kAAlmZmZnFyAA	-14.0001
xPnrFJVj	-14.0001
zsSSCAha	-14.0001
VQfmUSU	-14.0001
FEREEISEhLCwMOA	-14.0001
EANQDf	-14.0002
EewyAdS	-14.0002
FAEQEf	-14.0002
wcHBBL	-14.0002
lwXVyTM	-14.0002
wxVszLRUBq	-14.0002
IgPtkXu	-14.0002
fHxHQEgAVg	-14.0002
TvxRc	-14.0002
OiIVeSI	-14.0003
wIOiK	-14.0004
JANMHH	-14.0004
VeSIRew	-14.0004
IvdaJ	-14.0004
ovgIwAcUH	-14.0004
vWhJa	-14.0008
ADHASIUU	-14.0008
GlXYs	-14.0009
iuSpdSJm	-14.0009
vUCVg	-14.0009
JMbVJ	-14.001
CAAQCfwEPt	-14.001
CQcWO	-14.0014
NgwAB	-14.0015
QoFlR	-14.0016
AkFlB	-14.0019
TRCNj	-14.0023
JGIfH	-14.0024
jIyMj	-14.0028
ooNhR	-14.004
ReiIRf	-14.004
GUObVA	-14.0063
eVUCAI	-14.0101
AIOON	-14.0107
eaUCAGQCf	-14.0107
icvor	-14.0125
iazER	-14.015
pNCDkpz	-14.0156
BIAFYH	-14.018
eRUDAO	-14.0207
ezuDDo	-14.0226
xBAhPZ	-14.0243
zQQSCTzTSQpKN	-14.0246
SYrHCCMUIlJjypdj	-14.0247
RQaEFpaWoaIMB	-14.0249
sdRufJdoWvv	-14.0279
dIbUMK	-14.0281
lSiqwQMY	-14.0282
mCOmKQg	-14.0284
fNuATpv	-14.0286
kAZClpaWmVmNA	-14.0286
pNCDgpzplgnrUMlZ	-14.0287
pCLmGcYBM	-14.0287
RCQhCCgoKusDDgF	-14.0287
ZaexlirVD	-14.0287
UQBCAgICssDDgF	-14.0287
mecIAs	-14.0287
RRAEICAgKywMOA	-14.0287
onKRIn	-14.0287
SElJiscIIxQiUJD	-14.0288
eXUCACQCfw	-14.0288
VeTHRf	-14.0288
iYmJtb	-14.0289
CscWO	-14.0293
htosv	-14.0294
hEiUXc	-14.0294
wGgkV	-14.0296
YpCCd	-14.0296
OcYPR	-14.0296
iJTfD	-14.0296
blAHq	-14.0297
orthR	-14.0297
ePUEQ	-14.0297
TynVy	-14.0298
MPFxD	-14.0298
iuwqavyRiHx	-14.0299
oVBiR	-14.0301
iUGJH	-14.0303
ySyEh	-14.0304
EcJgH	-14.0309
mMBOm	-14.0311
oJBRQ	-14.0317
dAZpfkOQV	-14.0359
ecUBAK	-14.0365
CABQCfwFA	-14.0372
eTUfA	-14.0385
EAKQDf	-14.0414
eeUBAM	-14.042
eaUKA	-14.0426
eipAw	-14.0433
kOoTs	-14.0442
eRUNA	-14.0468
DiwdB	-14.0559
xflvD	-14.0559
IKvqxVOSDq	-14.0574
cBsIFg	-14.0575
oPejnY	-14.0576
YuHokyf	-14.0578
PtVYtAC	-14.0578
WHxcLSY	-14.0579
QEltiS	-14.058
qJSic	-14.058
CBbIGBgYIyQyB	-14.058
BEAFII	-14.058
LiRbufn	-14.058
icpEiUX	-14.058
FSXLExtLDKZlI	-14.058
mkIuYZxgEwEcoQNN	-14.0581
esjvwpcKyON	-14.0581
QXxBgYGBrbDoE	-14.0581
CKfiQV	-14.0581
OjrrAMPA	-14.0581
jaaNnOix	-14.0581
BQZEFlZWYWIMB	-14.0581
gbaXBdXJIa	-14.0581
xQAHBBcXFyIiDA	-14.0581
OfcPQv	-14.0581
pRPuYjL	-14.0581
TfFoUW	-14.0581
xQYEFhYWISIM	-14.0581
MGyycU	-14.0581
FACPGF	-14.0581
diQFmGaJIma	-14.0581
MAkdMjIyMuLjwF	-14.0581
RKTHhy	-14.0581
sNWrw	-14.0581
VfSJTfD	-14.0581
dXVAQEIAUA	-14.0582
UEAKQCf	-14.0582
JAqYZouiZr	-14.0582
kKhxI	-14.0585
EABQFf	-14.0585
PJLHytC	-14.0586
pofPW	-14.0586
hgGJH	-14.0586
QQLGj	-14.0587
ZkLry	-14.0589
EyvJX	-14.0589
JyYSa	-14.059
CEiYI	-14.0592
DADMD	-14.0594
oqNhR	-14.0594
ARnAJ	-14.0596
ATHAg	-14.0597
bpNtk	-14.0598
YMGiH	-14.0604
QSAVD	-14.061
EAFQEf	-14.0623
eYUOA	-14.0638
EUmSpNAB	-14.0651
dAZpfkOQW	-14.0656
AoGvzUh	-14.0718
YCVpaWlsLIAB	-14.0722
APMII	-14.0735
VxxcXFyID	-14.0735
efUNA	-14.0735
eXUCAJ	-14.0737
XsiEX	-14.0777
paIhPmV	-14.086
WGGxkTbdEKBnSAoM	-14.0875
yEAood	-14.088
GfzEhJSYrHCCMUIl	-14.088
IAKNHH	-14.088
mbbbJutV	-14.0882
LPqBVPRjqcgHU	-14.0882
EAPQEf	-14.0883
DnJVsqR	-14.0883
orHEYOVcA	-14.0883
efUCAKQCfy	-14.0884
hoaGsr	-14.0884
CAAQDf	-14.0884
UbpTIVbGDWbIJ	-14.0884
ECqgADPM	-14.0884
lpaWwsg	-14.0884
xiqOBDwQYlO	-14.0884
cokAqH	-14.0884
YDDSylGWuzax	-14.0884
CABIAFYI	-14.0884
JckOtYn	-14.0884
EAGQEf	-14.0884
cAAJXXJycnMjIAB	-14.0884
BQyMhBycnKeMNA	-14.0884
osOVOo	-14.0884
OkAPKcHkRuG	-14.0885
tBVtQBtgQxGzwk	-14.0885
EAJQCf	-14.0887
iazEx	-14.0888
EACQEf	-14.0889
MGVgJVMBDI	-14.0889
OAdSH	-14.089
FACQEf	-14.0891
eZUCABQCf	-14.0891
QYlOSOUjaaNXOi	-14.0892
gjpikIND	-14.0892
OfcPT	-14.0893
DkHvQ	-14.0894
UCixo	-14.0894
eiBIRV	-14.0896
RdUaA	-14.0903
wphTASWpg	-14.0905
diZDI	-14.0906
CoaQX	-14.0907
ABNKJ	-14.0907
OHZRl	-14.0908
AoGPzUh	-14.0922
JAAJE	-14.0935
eWULA	-14.0936
APMGG	-14.0966
ascApDYhTk	-14.1039
edUBAG	-14.1043
wRkpCYWGeQFGG	-14.1048
eRUOA	-14.1069
eTUOA	-14.1091
lfiQfSzx	-14.1108
INCJTf	-14.1117
dAZJfkOQW	-14.1127
PtsZAhP	-14.113
efUCAP	-14.1134
AMNHH	-14.1159
eWUCAK	-14.1168
jyojfj	-14.1173
twCdN	-14.1178
YuHoUyc	-14.1184
qHwngHB	-14.1189
xIiXXw	-14.1191
WAYcyz	-14.1191
HcMjAHGKCkxVW	-14.1193
PJbpKwDDm	-14.1194
DCvalMRtIYRIGjC	-14.1194
RCiOjTWHoSRvnP	-14.1195
AMqNRl	-14.1195
TtUruExW	-14.1195
kKyjVM	-14.1195
bkXMxXH	-14.1195
BAYfTJ	-14.1196
yxXMhwcoVB	-14.1196
XAgBZzgB	-14.1196
AGYJFAg	-14.1196
YsyyWhjGZdDfo	-14.1196
iBQQMLgM	-14.1196
DCvalMRtIYRIKAw	-14.1196
bfpKZCXIh	-14.1196
MWwxcXFxnQ	-14.1196
IOinNSRZjRTxVLpn	-14.1196
kpkJci	-14.1196
jaatMr	-14.1196
ZAAJZmZmZxcgA	-14.1197
xSVszblQ	-14.1197
ueXoIB	-14.1197
NTUAAEAATg	-14.1197
gcCncF	-14.1197
JCmeDDTYIFlDA	-14.1197
eeUCACQCf	-14.1198
AGYxFA	-14.1199
ZxxIfTHx	-14.1201
eeUCADQCf	-14.1201
sqTXP	-14.1203
LRVBMR	-14.1203
IOpKKh	-14.1204
fgkDx	-14.1206
huGLH	-14.1206
gbaxD	-14.1207
xwITS	-14.1207
pxKwC	-14.1207
IHOPD	-14.1208
RPbVI	-14.1208
BMAFo	-14.1211
gABOB	-14.1214
hnmfw	-14.1215
vEAeQgbKlsovsf	-14.1216
fekcb	-14.1222
ESJTe	-14.1223
QCfyAPt	-14.1227
YTiih	-14.1232
AJcYa	-14.1238
OfJID	-14.1239
SIXJD	-14.1241
SDnWS	-14.1256
RXCRjGP	-14.127
eYUCAJ	-14.1271
xliMvor	-14.1278
dwzQe	-14.1292
QHtAgICArLDo	-14.1359
CBsqWy	-14.1372
eaUVA	-14.1376
eaURA	-14.1377
APtvaJ	-14.1406
UmSJI	-14.141
zQQSCTzTSQrKN	-14.1424
edULA	-14.1445
GPykhJSYrHCCMUIl	-14.1455
CAFQCfxC	-14.1464
eVUCAAQCf	-14.1478
hHUtGPpSIfTEV	-14.1485
bXUFcQV	-14.15
hUjSwxXUb	-14.1508
iJapp	-14.1512
eRUDAP	-14.1513
QbFOCPdYeGmVb	-14.1515
pTEbSGESBowt	-14.1517
PtVVtAyyNvj	-14.1517
pTEbSGES	-14.1518
dLiqNFrc	-14.1518
ofhCi	-14.1518
RmkjsqD	-14.1519
JMbVI	-14.1519
UEADQFf	-14.1519
DEAbDFxcXGdD	-14.1519
VVBVlZWVwcgAF	-14.1519
ABVeRI	-14.1519
IOCnOmWCdNB	-14.1519
PALNML	-14.1519
kBRhjfHllMSSX	-14.1519
IOinFSrqI	-14.1519
qpVbFl	-14.1519
BfEGBgYGtsOg	-14.1519
KcEeJG	-14.1519
HwSbTeLqmMhrl	-14.1519
eXUCAAQCfwhA	-14.1519
uqYyGuW	-14.152
YTTPblrO	-14.152
goKCrr	-14.152
DQhMGT	-14.152
ecUCACQCf	-14.1521
AjABxQfATwZ	-14.1521
DagdB	-14.1523
lukrAMOZ	-14.1523
GAFOFE	-14.1525
pqjgEv	-14.1525
GAJNJJ	-14.1525
QXLGj	-14.1525
WPQjWPRjqcgHU	-14.1526
WxCbm	-14.1529
bQNCE	-14.1529
WAqCmr	-14.153
RQQMLgM	-14.1531
pverF	-14.1533
YKvLBVBTU	-14.1539
IDiIwA	-14.154
caaHz	-14.1543
ECIde	-14.1546
hgLLj	-14.1547
IQCih	-14.1569
AHNDD	-14.1582
ABNNM	-14.1591
gDCwEfwD	-14.1633
ebUCAGQCf	-14.1646
PlcIJ	-14.1654
maDff	-14.1673
dAZhfluUB	-14.1682
eeUCAN	-14.1689
eeUQA	-14.1704
eeUCAP	-14.171
qKhBqamqWmDDI	-14.1715
ZTZpLCCcYIlZgYpd	-14.1717
ECIPR	-14.1745
eeUBAG	-14.1757
ABMJI	-14.1797
Lnbfe	-14.1824
EAEQDf	-14.1835
IYCgY	-14.1836
wgsGfQ	-14.1839
JRnzAMTWN	-14.1845
YuHoUyf	-14.1845
NGVgJVMFAI	-14.1846
QfAfiA	-14.1847
gtbEoxP	-14.1848
ykqvva	-14.185
wAAldcnJycyMgA	-14.185
EACQFf	-14.1851
rIMbVEPgzDUq	-14.1851
DADPED	-14.1852
JRfjHRfx	-14.1852
LPqxVOSDqSio	-14.1852
GVlZWYU	-14.1852
FALQDf	-14.1852
CAGAffw	-14.1852
UJhBmZmaSmDDIE	-14.1852
UIiIQYmJijpAwE	-14.1852
CkmVwL	-14.1852
xTVDzgcQ	-14.1852
DAPMDD	-14.1852
GveBZMFfR	-14.1852
hQgEGBgYIyQM	-14.1853
JAmYZosiZr	-14.1853
eTUDAFQCf	-14.1853
xVPChYIPynBHiRmu	-14.1853
sbaXBdXJ	-14.1853
eRUDACQCf	-14.1854
esjvwpcKyM	-14.1854
vOjoIB	-14.1854
ATHASIX	-14.1854
SwgHQrjH	-14.1854
Tvumj	-14.1855
AMijaXK	-14.1855
ifJmi	-14.1859
QJeBZ	-14.186
AoHPzUh	-14.186
kHrXXQg	-14.186
vSwoJwe	-14.186
CAWVH	-14.1863
RQpKRBpaWmVmDDIE	-14.1864
CFcIW	-14.1864
ahlXpVNWJxBHyZ	-14.1864
nlIqH	-14.1864
ZdxgK	-14.1865
VwECE	-14.1865
CIReSAfe	-14.1866
kIKbg	-14.1866
CccWO	-14.1871
hCLKj	-14.1874
TiwdB	-14.1875
iSyEh	-14.1877
DoEfw	-14.188
DEIOD	-14.1883
BIfTH	-14.1886
eZUCAP	-14.1898
AHNLK	-14.1913
ebUCAL	-14.1921
YDAIX	-14.1926
lPmQfS	-14.1929
yEhJSYrHCCMUIlCQ	-14.1933
dAZhflupD	-14.2002
shIfso	-14.204
AFPFE	-14.206
ZttzQQSCTzTSQrKN	-14.2086
sOhHsOgHUtGPp	-14.2112
DDVYtU	-14.2115
zHAZoX	-14.212
eeUCAAQCf	-14.2147
EnBXCRjGP	-14.2179
fSzxwcSH	-14.218
ANSlLjc	-14.2181
BXEFdQV	-14.2183
IYkmZttfclGfMAxz	-14.2189
obaXBeXN	-14.2189
QOVQKe	-14.2193
TewdB	-14.2193
rhIwjHk	-14.2194
wJCKoNwGgkU	-14.2194
lYBhzLMI	-14.2194
eoqsEDGOe	-14.2194
TpXKjuD	-14.2195
SZVPHANZXHqaFUn	-14.2195
DTuCRvHkCf	-14.2195
JAgYZopi	-14.2195
NCccO	-14.2196
NgEAQgBQ	-14.2196
EAMQCf	-14.2196
JABfJGRkZJCQyA	-14.2197
suiZPTZDL	-14.2197
spRljvPtAkX	-14.2197
ZVFmZmZnFyAA	-14.2197
MLbDtxYkTJyimiz	-14.2197
eaUDACQDf	-14.2197
fiQFlGaJJmqxdBWb	-14.2197
OBRVkQc	-14.2197
BIBUPkE	-14.2197
jaatIrN	-14.2197
lwXlTQ	-14.2197
NQAAQABOB	-14.2198
EicBEiU	-14.2198
xTVDzgdQ	-14.2198
ltGfaA	-14.2198
eQUDAFQCf	-14.2199
esjvwpcKyN	-14.2199
YZpCw	-14.22
XkhFU	-14.22
aKfDAVBbV	-14.2201
pNCDgpzplgnrQM	-14.2201
DwypyLsNBI	-14.2202
pajgEf	-14.2203
HchMET	-14.2203
MSxLJ	-14.2204
jxdTk	-14.2204
LfiQV	-14.2204
GNYmMJ	-14.2204
glVvm	-14.2206
tWcEtx	-14.2207
cNmDx	-14.2208
CRIgc	-14.2211
icAYi	-14.2211
eXUCABQCf	-14.2211
jegdB	-14.2212
PAMCaYxUyShiPhwO	-14.2213
TecIV	-14.2213
Dmwch	-14.2213
AbWAO	-14.2216
xYiry	-14.2217
KZaFTS	-14.2218
HAAOGF	-14.2226
lYBhzPO	-14.2227
eTUBAF	-14.2232
AEOIH	-14.2239
pNCDkpyRj	-14.2241
dAZpflupC	-14.2268
DWQdB	-14.2271
EiDffgAd	-14.2358
OvsDDgF	-14.2386
Tievf	-14.2386
qxVOSDq	-14.241
efUCAM	-14.244
eeUCAO	-14.2445
GaDffwA	-14.2451
EhFUG	-14.2463
RERERERE	-14.2532
BEsBH	-14.254
yYtlz	-14.2542
wQBfETxEYAPKD	-14.2543
SgsKfj	-14.2544
oPgLwAcXH	-14.2545
JWAlZWVlkZjQD	-14.2548
sOgHUtGPpK	-14.2551
tSrlRb	-14.2551
kMqXDSq	-14.2552
egEeSgbCnso	-14.2552
YRGpbh	-14.2552
YKvLBVBTk	-14.2553
XloivtcS	-14.2553
xXGaBQa	-14.2553
UEAAQFf	-14.2553
ovejnY	-14.2553
PSIRfgPtk	-14.2553
diQIGGaKYmayfC	-14.2553
cfDvVGA	-14.2554
DUcJTjkIeDkCJb	-14.2554
bFRFOsXKuMEicA	-14.2554
tsAXOzc	-14.2554
fKcMmDMiP	-14.2554
dAZJfkOodOEE	-14.2554
agJlaqqqqtbYEB	-14.2554
UEALQCf	-14.2554
esgcpz	-14.2554
kHyQLO	-14.2554
pAGQpaWlplZjQEP	-14.2554
BEAFIG	-14.2554
hdvAub	-14.2555
VeSIRezo	-14.2555
vZeRBL	-14.2555
iWJDyyaPkaB	-14.2555
DQSLfrR	-14.2555
eeUCALQCf	-14.2555
kBZRmc	-14.2555
miSJmtHPvT	-14.2555
qlXSLlFbcKl	-14.2555
hTXxIiea	-14.2556
FALMEE	-14.2556
APOPP	-14.2556
CgskNC	-14.2556
AjABxQfATx	-14.2556
eXUDAKQCf	-14.2556
ebUCAHQCf	-14.2557
efUCACQCf	-14.2557
ItUsuhWq	-14.2558
FADQEf	-14.2559
ACLfiwV	-14.2561
mgFagohbfdgMAhe	-14.2561
OnbEA	-14.2562
yVbbE	-14.2562
aWcTl	-14.2564
fhJZiY	-14.2565
mjZzo	-14.2565
PyIRfg	-14.2567
VRdSP	-14.2568
XgxFf	-14.2568
CgWXH	-14.2573
MfBwD	-14.2574
FAfWj	-14.2575
ziwdB	-14.2575
GAHPFE	-14.2577
KtVTu	-14.258
Doqjh	-14.2584
MQood	-14.2591
rAMOb	-14.2595
eUUCAH	-14.2606
kJBBkZGSQkDA	-14.2621
EAEQEf	-14.2637
eZUCAAQCf	-14.2655
wEJAAgAxflvD	-14.2657
LHFBUVEFVVVYGIM	-14.266
zQQSCTzTSQqKN	-14.2715
kQQwEcUH	-14.2737
CJTdy	-14.2753
PCJVUg	-14.2754
oPgLwAcVHA	-14.2758
ACNJI	-14.2761
UISEQYWFhjZAw	-14.2765
CQAXyRkZGSQkMg	-14.2766
zjstdN	-14.2766
CAAQCfxC	-14.2768
ABMIH	-14.2768
LMqBzIUedrw	-14.277
REUmSJ	-14.2772
JAWUZokmar	-14.2775
DKMAQM	-14.281
KCcUV	-14.2818
IyIiI	-14.2859
LGcsbGxsmJjQE	-14.2887
aQTGh	-14.2887
dAZhfkOQe	-14.2896
yzqFoD	-14.2909
iuwqavyRiPOw	-14.2913
MPHhHgM	-14.2916
dlGVSjwGvLi	-14.2916
dlmVZYwNKTFxaHnw	-14.2921
QFwaHn	-14.2922
EAXCFhYWGNkMg	-14.2922
NBBIJPNNJCko	-14.2922
PffQA	-14.2923
VloXKnqti	-14.2923
MuMKmHHtuC	-14.2923
ADHAhUg	-14.2924
tbWAgEIAUA	-14.2924
MXCaB	-14.2924
IQpYPTGUN	-14.2924
ECqAADOsAEOwMOBN	-14.2924
IsEMVaxmXwLLC	-14.2924
RyqFarQQ	-14.2924
YDDSylGWuzbBmTnk	-14.2924
xIiXXQiVXY	-14.2924
AVXkiEXo	-14.2924
FFBQEJCQkLzAMPA	-14.2924
VcDoXrA	-14.2924
LwwPCjcwdCfqC	-14.2924
eZUCACQCfx	-14.2924
DCvyiYszqAPkzpx	-14.2925
LFxhKDlVsI	-14.2925
GABOGF	-14.2925
DQiVXY	-14.2925
mJiYxMg	-14.2925
diQFmG	-14.2925
teHoIB	-14.2925
uGgEgAVg	-14.2925
iJddCJ	-14.2925
tODgGB	-14.2926
WtVltsh	-14.2926
toNBqs	-14.2926
hQkJBBkZGSQkDA	-14.2926
eVUDAGQCf	-14.2926
TaHXT	-14.2927
vurwKB	-14.2927
AAKXn	-14.2927
yqehHDwypyLsNBI	-14.2928
AKvqRVPRjqcgHU	-14.2929
vasEP	-14.2929
dYLQwRbbhTr	-14.2931
CYUSO	-14.2931
xateW	-14.2932
gtCxvXgLOC	-14.2932
ZxSMD	-14.2933
vVUup	-14.2934
tVoul	-14.2934
KosHuI	-14.2934
AaCRU	-14.2935
XsOdAPT	-14.2935
aDPwD	-14.2936
OfoPT	-14.2938
IsCho	-14.2938
wgFQW	-14.294
IfbQLAo	-14.2941
FgdWL	-14.2943
DQSLi	-14.2945
CEWXH	-14.2945
RYXAd	-14.2945
znAdB	-14.2951
eXUBAE	-14.2953
GABMFE	-14.2953
gwGTu	-14.2955
tEDQyo	-14.2955
AJNPO	-14.296
ECIFBM	-14.2963
lYBhzPM	-14.2965
ADMHG	-14.2969
vzkhJSYrHCCMU	-14.2982
AEhAFwhYWFhjZDI	-14.3059
kUFhYQVlZWgogw	-14.3114
DHAQIT	-14.3124
BQgEGBgYIyQMB	-14.3168
McBmhf	-14.3172
dAZhfkOoT	-14.3211
GPpSIfTEXt	-14.3264
OMEEOKEIO	-14.3296
AOISHdKCwp	-14.3296
fSzxwcTH	-14.33
TpXKbWrs	-14.3303
iuYlMhaIafINpEhZ	-14.3303
JWAlZWVlkZjQE	-14.3305
lLvhHvn	-14.3306
ZGAlUAUDgSx	-14.3307
ZwtjCfmQypc	-14.3307
FANMGG	-14.3307
pPejnY	-14.3308
BuTyQxOTR	-14.3308
RmkjCxpaUXt	-14.3309
EGpTgjNEZpEzUe	-14.3309
XIbCUWRt	-14.3309
DUcJTjkIeDkCK	-14.3309
dKyXNFcSLCVcAG	-14.3309
daEFoF	-14.3309
tFMtBr	-14.3309
pNCDopxRjGZD	-14.3309
dAZRfkOoTsyp	-14.3309
pDhDHifL	-14.3309
FAJPEE	-14.3309
gEZwIPg	-14.3309
IOSnJGMZkO	-14.3309
CgoKCrrDoF	-14.3309
xSVszbkQ	-14.3309
dAZpfluUIeqt	-14.3309
iXXkiVXg	-14.3309
pwyYMyI	-14.3309
emqFtYWFhQlo	-14.3309
xAGwxcXFxnQ	-14.3309
IKvqxVOSDqSio	-14.3309
YWQhMNnYkCBhmimJ	-14.3309
esMocNWBHk	-14.3309
ZlnwscSjickC	-14.3309
iJVeDYiEXc	-14.3309
hQAHBBcXFyIiDA	-14.3309
YYWQhMNnYkCZhuil	-14.3309
KmUqampqlpjQEP	-14.3309
WVnZbgVlpVRul	-14.331
LRTFTU	-14.331
ATgBcC	-14.331
xQmEGZmZpKYMMg	-14.331
JAWUZokmaTLsJM	-14.331
maJVfRm	-14.331
yRwfap	-14.331
diQIGG	-14.331
aAgkLPk	-14.331
InyZolV	-14.331
EDHAZo	-14.331
DAPQCfyBA	-14.331
SWykUCcbfQkGoR	-14.3311
AskzBx	-14.3311
SNjQiVXM	-14.3311
BQiYmJijpAwE	-14.3311
zDdMuOdJrl	-14.3312
FwAAldcnJycyMgAF	-14.3312
OHZRlvZxt	-14.3312
CABQDf	-14.3312
edUCAFQCf	-14.3312
FFHjLbB	-14.3313
+5510	-14.3313
IPGJVf	-14.3313
zTgudt	-14.3314
spRlrtmYh	-14.3315
bqQgpuC	-14.3315
fyrRVQKGMc	-14.3315
fhJZiQ	-14.3316
CmTio	-14.3316
lwXVySGz	-14.3316
jmwch	-14.3316
dHIxU	-14.3317
JKkPULdze	-14.3318
jJcDQi	-14.3319
Zdyjh	-14.3319
YfRWm	-14.332
ebUCAIQCf	-14.332
LOoWg	-14.3321
giUmf	-14.3322
KXCuj	-14.3322
ADHAhRQ	-14.3322
yvaaD	-14.3322
EQUXy	-14.3323
oQwZWAlUwEMgi	-14.3324
oYiyo	-14.3325
DewdB	-14.3325
VpiJoDSNA	-14.3326
UFyxo	-14.3327
ottjx	-14.3327
hiLKj	-14.3336
tQOft	-14.3341
qKQsmP	-14.3342
AUAPtvZm	-14.3352
Gewjy	-14.3355
llUrQ	-14.3356
BBJcJ	-14.3356
OfcPl	-14.3358
wZokUE	-14.3363
AHMEE	-14.3384
iGRlJk	-14.3384
eXUCAI	-14.3386
ebUCAFQCf	-14.3395
GAMPEE	-14.3397
TqjuwJtaQ	-14.3409
IkjQG	-14.3511
ABNML	-14.3522
AjABxQf	-14.3527
wAZyxsbGyYmNA	-14.3542
RmkjC	-14.3572
ACNKJ	-14.3573
uKgHDm	-14.3624
ffAAd	-14.3632
ATHAS	-14.3634
oDDQFP	-14.3635
UtTAGA	-14.364
KKmjUD	-14.3688
FZbVE	-14.3689
SFfACLfiwV	-14.3693
KGMoaGholJjQD	-14.3696
aQDTdDulnx	-14.3699
wpKIfbgPBI	-14.3703
xrhXXh	-14.3703
wKZOKfvTAkIq	-14.3704
TpXKfu	-14.3704
esjvwpcK	-14.3705
dpWAYcxz	-14.3705
sFUFNQ	-14.3705
vapNElBtWgKIJnSf	-14.3706
UEAEQFf	-14.3706
bQNCEwZP	-14.3707
jQiVXM	-14.3708
ECpwADOc	-14.3708
SnCYYn	-14.3708
AVccXFxciA	-14.3709
AGYBFAg	-14.3709
JjxMTEwtSUR	-14.3709
vLjxVTk	-14.3709
ZjBrMHBwcJw	-14.3709
dAZJfkOoZEml	-14.3709
bGDSZuI	-14.3709
pZClpaWmVmNA	-14.3709
BSVcYNFaA	-14.3709
kXyRkZGSQkMg	-14.3709
WVnZbgVlpU	-14.3709
kZGRkkJDIEf	-14.3709
HTsqGVe	-14.3709
SmQlyQcL	-14.3709
kZGRkkJDIEP	-14.3709
PgPtkXo	-14.3709
ZWdluBWWFSPUe	-14.3709
BAYfSJ	-14.3709
wRkpCYWGe	-14.3709
HwSbTeLqmM	-14.3709
YDDSylGWuzaR	-14.3709
YpCDoj	-14.3709
ZWdluBWWFSM	-14.3709
RYFlx	-14.3709
UMDAQcHBwnDDQ	-14.371
xTVPchK	-14.371
eVUDACQDf	-14.371
JKiUjIwte	-14.371
IOSnFGMRkdJsbv	-14.371
eVUDAGQDf	-14.371
BQmEGZmZpKYMMg	-14.371
QkPWDpaQR	-14.371
SVdtsPWiTbbJNBl	-14.371
WsEfQoLJjcI	-14.3711
eWUCAAQCfw	-14.3711
MKbWA	-14.3711
FAOQDf	-14.3711
jSQdB	-14.3711
aLNtts	-14.3712
VNcDNwCXCnuA	-14.3712
xqrgXpAci	-14.3713
ooPSi	-14.3714
KODnmHt	-14.3714
vormJTIWiGny	-14.3715
ADHAZoVm	-14.3715
YioLa	-14.3716
OHZRlvZxtCQdE	-14.3716
pqjgEf	-14.3717
GOpyAdTUVC	-14.3717
JrMTH	-14.3719
EADQEf	-14.372
vJKKf	-14.372
sGTdb	-14.3721
aLcuzAj	-14.3721
HOsZp	-14.3721
dkbbz	-14.3721
kMjHj	-14.3722
OdEPR	-14.3723
BUxkS	-14.3723
BIAEh	-14.3724
SymVyXbTZNttmg	-14.3726
hgGLH	-14.3728
SVRtt	-14.3728
PyEhJSYrHCCMUIl	-14.3728
RYTAd	-14.3729
IOpKKg	-14.3729
pusHU	-14.373
AABOB	-14.3737
PjrBb	-14.3738
ANPPO	-14.3741
FAJODD	-14.3741
QfQAB	-14.3742
TWQdB	-14.3743
hQKKH	-14.3747
JJkqQ	-14.3751
UEABQEf	-14.3762
GFFuQ	-14.3764
GABPGF	-14.3766
CAJQCfxBI	-14.3786
dAZRfluUB	-14.3815
AENML	-14.3829
FABQFf	-14.3835
PmOMOg	-14.3867
eaUBAJ	-14.3937
AGaJFA	-14.3972
IAkNIiIiItLjwE	-14.3977
eWUBAE	-14.4009
EIIYg	-14.4031
AntsEZKQmFhnkBRh	-14.4039
seLqc	-14.4053
FUOZxA	-14.4063
eWUCABQCf	-14.4085
MzFfl	-14.4086
cAnTc	-14.4097
pSikd	-14.4099
akIGVQBUMBLI	-14.4101
RfJGRkZJCQyB	-14.4103
dlmVTaQDUXxdvSOk	-14.4113
hkjSHqHuZvS	-14.4116
WZViFEbmmrPUSZP	-14.4117
VPoOvfMOC	-14.4117
eWVHA	-14.4117
XpOQUEGugqibgnJh	-14.4118
AKvqxVOSDq	-14.4118
xVicvor	-14.4119
EyJRd	-14.4121
yveZDPT	-14.4121
VJpUZRA	-14.4123
CABQCfxCJ	-14.4123
AxUcAT	-14.4124
NBBRUEp	-14.4124
idaJyk	-14.4124
vZuhFYdHmuPwS	-14.4124
DCvyiYszqAPkzpp	-14.4125
AFOHGi	-14.4125
SClthK	-14.4125
UDAHMDD	-14.4125
wDmkIuYZxgEyng	-14.4125
IOSnOmoMnr	-14.4125
piGWyE	-14.4125
nUssXminm	-14.4125
sCbUkOkf	-14.4125
giUmfeNtrQX	-14.4126
lZVwObisC	-14.4126
wDtSlSl	-14.4126
xbDFxcXGdD	-14.4126
KmUqampqlpjQD	-14.4126
IzVFISEHm	-14.4126
ciGXnKw	-14.4126
VVYvXsg	-14.4126
FfBQpfDX	-14.4126
NtUivCarWWceCW	-14.4126
ATHAZoX	-14.4126
QyxEPlnQ	-14.4126
efUCAJQCfy	-14.4126
fiQFlGaJJmk	-14.4126
DqHPiB	-14.4126
sKCcHwc	-14.4126
aAgkLvk	-14.4126
hMVLpmsxnU	-14.4126
mgbbaNtTffa	-14.4126
EAHPED	-14.4127
NCCCvQj	-14.4127
ISUmKxwgjFChQWcf	-14.4127
APvsdm	-14.4127
xMBPwFAAXg	-14.4127
DAFQEf	-14.4128
AIfcgqZmfpf	-14.4128
eeUCAJQCf	-14.4128
edUCABQCf	-14.4129
mCOmKQgHc	-14.4129
ebUCAAQCf	-14.413
ccvPx	-14.413
fKcMmDsk	-14.4131
ABPdb	-14.4131
miRQhIRBhYWGNkDA	-14.4131
AEAPtvZIiR	-14.4133
ZxxIfTHz	-14.4133
EAHQEf	-14.4134
KhlXtWmaOgadg	-14.4135
ynlYv	-14.4135
OPFHS	-14.4136
WAqCmo	-14.4136
wEJAAgAxflvbgVA	-14.4137
DnyfP	-14.4137
IfbQLDox	-14.4137
ysYFX	-14.4137
GMUWO	-14.4138
frRTE	-14.4139
XUpEP	-14.414
fhGaQ	-14.414
sKJdD	-14.414
vRxjI	-14.414
gxwGY	-14.4141
ZsHoD	-14.4141
KODlm	-14.4141
JAqQb	-14.4142
LVCQI	-14.4142
sKCeX	-14.4143
pyIhP	-14.4143
blCHq	-14.4143
IfbQLDoh	-14.4144
wEdSw	-14.4144
ADHAZoUU	-14.4144
IZAGK	-14.4148
eAwEB	-14.4148
CsUWO	-14.4149
QABOB	-14.415
DHAQIQ	-14.4151
oqNhQ	-14.4155
oFHwd	-14.4166
rAMje	-14.4169
GOpKGYqC	-14.4169
AOODD	-14.4169
cQuAY	-14.4172
eTUCAH	-14.4177
pagwE	-14.4179
UIACNGF	-14.4181
DAPQDf	-14.4215
zEsSzGZlPLZhc	-14.4241
WAYcx	-14.4248
kOQWP	-14.4248
eipDID	-14.4262
CAMQCfxBA	-14.4327
KNkzW	-14.4375
FhACL	-14.4388
AITSdQ	-14.4403
pNCDgpzplgnTQesm	-14.4493
AGMHH	-14.4499
RFJkiQd	-14.4502
CAEQCfxBI	-14.4507
DfHTc	-14.4518
KWQpaWlplZjQ	-14.4537
eTUDAN	-14.4544
UjSHo	-14.4545
epvOyrNGiDwzfjaz	-14.4547
MJBVQv	-14.4548
OKzGhecq	-14.4551
XklFPnpfSE	-14.4552
lUChjHP	-14.4554
mDvzombwzMWk	-14.4554
blvrHUbny	-14.4554
wDGdpKC	-14.4555
BwKoDoq	-14.4555
fnDWqc	-14.4555
Lpqbxk	-14.4555
jLbMPaKi	-14.4556
VPcDVwq	-14.4557
YiqPdrq	-14.4557
MENRDoU	-14.4557
HcMjAHGKCkxXVL	-14.4557
NIaEmFndP	-14.4558
IOinGmoMnrkOcl	-14.4558
lcepoFSf	-14.4558
IwEqgCgYCW	-14.4559
wEhUjSHt	-14.4559
TtoKHn	-14.4559
fSzxwcSHeww	-14.4559
tsPVJpVLmAy	-14.4559
fZopCI	-14.456
DppaWlBLU	-14.456
AUAPtjn	-14.456
uVfxrWcTyi	-14.456
zGDZYyM	-14.456
FAGOFE	-14.456
GFMYWFhYhA	-14.456
uOToIB	-14.456
dAZRfkOoTcy	-14.456
DIiVXE	-14.456
TSWyCHRQ	-14.456
CEiJdfCJVew	-14.456
NsGZOf	-14.456
mzdqgj	-14.4561
PnrFJWzNuVC	-14.4561
wEZwIPg	-14.4561
dxByBdl	-14.4561
rJDwaBjjMHrlEAFQ	-14.4561
yrsUQCQxYC	-14.4561
VlZXBy	-14.4561
FFWRBxgV	-14.4561
VgZaWlpdHYEB	-14.4561
PnrFJVjQVix	-14.4561
KcVKlrtFP	-14.4561
YSDLasj	-14.4561
EiJTcBE	-14.4561
mZmZxcg	-14.4561
nJycyMg	-14.4561
EAMPFFU	-14.4561
GveBZM	-14.4561
APfXZok	-14.4561
PndHpBon	-14.4561
XAJXXJycnMjIAB	-14.4561
wAQzDQTR	-14.4561
NzfkAATg	-14.4561
FEBAEICAgKywMOA	-14.4561
vqHmqpw	-14.4562
NjbnAMPA	-14.4562
qbaXBeVNz	-14.4562
VRYfMy	-14.4562
VhrVdVrr	-14.4562
KAFOJI	-14.4562
sAGcsbGxsmJjQEf	-14.4562
VwkYxjw	-14.4563
edUCALQCf	-14.4563
eUUDAAQCf	-14.4563
QoFlx	-14.4564
DTuCRvHkSf	-14.4564
UEatk	-14.4564
eaUDAMQCf	-14.4564
HAurP	-14.4565
AEAPtvZmiT	-14.4565
JlUup	-14.4566
vjpGe	-14.4566
QNCEcO	-14.4566
LTITpTtOP	-14.4566
EqGAhk	-14.4567
YblAtqQ	-14.4567
FAPNEE	-14.4568
RdQZD	-14.4569
MLCPN	-14.4569
DQSLfrh	-14.457
fMqkI	-14.457
EDZcR	-14.457
HtgSE	-14.457
EhCfUKCgoKusOg	-14.457
exCfUKCgoKusOg	-14.4571
aKfDAVBbU	-14.4571
FAOMEE	-14.4571
TuEzh	-14.4572
AKNLL	-14.4572
jwbYW	-14.4572
lwXlNrXV	-14.4572
tqSMy	-14.4572
vSyok	-14.4574
jfWHD	-14.4574
QCTyw	-14.4574
azqBY	-14.4574
UdkYw	-14.4575
VeSIRey	-14.4575
SmTio	-14.4576
KBZUc	-14.4576
rHlPP	-14.4576
TpXKb	-14.4576
PDQSX	-14.4577
WPzSB	-14.4577
JKNkt	-14.4578
PIMPg	-14.4578
McAPH	-14.4578
Iweog	-14.4579
pCBlUAVDASy	-14.4579
FBEIG	-14.4581
sKYUwElqY	-14.4581
hgDnAdB	-14.4582
EiJdfCJVexIg	-14.4582
TvQXh	-14.4583
hgLJj	-14.4586
FQokd	-14.4586
AngCB	-14.4587
KRRKe	-14.4593
CACQCfwFA	-14.4595
QDqehHUtGPpSIfTE	-14.4599
BmMRQ	-14.46
oUrAs	-14.4608
Iifhm	-14.4614
QfQAAx	-14.4627
ecUCAIQCf	-14.4665
jrJdl	-14.469
CAAQCfwFV	-14.4717
RlfiQfSzxw	-14.4748
edUCAN	-14.4764
QOZxAz	-14.4809
WCrywVT	-14.4861
BXwCpg	-14.487
SJTcjM	-14.4882
AOOHH	-14.4889
eZUDAP	-14.4896
cmzVW	-14.4914
UHAOPFF	-14.4926
mSZFgD	-14.4943
YWQhMNnYkCZhmiyJ	-14.4944
ecUCAL	-14.4962
VSnLX	-14.4967
FUObVA	-14.4984
ABOPO	-14.4988
VgqAoCp	-14.4997
sFUFNS	-14.5003
jzpxowi	-14.5003
YOLDPQY	-14.5003
ehdJwrofhCi	-14.5006
JADONM	-14.5006
YDHgO	-14.5007
kPBff	-14.5007
TdNrvFToq	-14.5007
SqaPHa	-14.5008
DCvyiYszqBh	-14.5008
ahxIfs	-14.5009
nAKgJGid	-14.5009
WirxPmVQ	-14.501
eaUJAO	-14.501
CBrDKAicMOpkf	-14.501
ehdJynof	-14.5011
JPyrqf	-14.5011
dDNdtSWvjnyY	-14.5011
oegHUtGPp	-14.5011
pFbKnpVck	-14.5012
ebcAnbfe	-14.5012
bQNCEwRP	-14.5012
MBKoAoGAl	-14.5013
hNIPRf	-14.5013
vwkhUjSHo	-14.5013
kCZBjQboeKR	-14.5013
DAGQDfwEJAAgA	-14.5013
SHgumT	-14.5014
LQWtAK	-14.5014
JeoIGGmgQrFLl	-14.5014
pLRQLYIulcb	-14.5014
IVUWHzM	-14.5014
cCBEwxz	-14.5015
vKuBwKWwX	-14.5015
Gddyvrc	-14.5015
waBjjMHuklMmACG	-14.5015
ugqibgnJhJon	-14.5015
IFsgYGBgjJDIE	-14.5015
JAJOIH	-14.5015
meJzIcGG	-14.5015
VlcWeP	-14.5015
eXlEQEYAVA	-14.5015
VQACUFWVlZXByAA	-14.5015
yBynLDR	-14.5015
OyIRejY	-14.5015
McSLTvPC	-14.5015
GOCCFYtU	-14.5015
vpujFAyVod	-14.5015
GGHUmVZRnYsMZuzn	-14.5015
DqHRiBI	-14.5015
spRlrtmIuvI	-14.5015
kBZRmiSZqsXQVm	-14.5015
DAHPDDFSmp	-14.5015
yiQCoeH	-14.5015
JARABSB	-14.5015
DtAWDD	-14.5015
wAAkdMjIyMuLjwE	-14.5015
YWQhMNnYkCRhmiuJ	-14.5015
qbaXBdXl	-14.5015
kBRhjfHlil	-14.5016
IOCnOmWCetAxnR	-14.5016
cBlwvbgP	-14.5016
QwMBBwcHCcMNA	-14.5016
DqHRiJ	-14.5016
eXUDAKQDf	-14.5016
etUzsU	-14.5016
JAAPIH	-14.5016
IAEgAVg	-14.5016
efUCAIQCf	-14.5016
lwXlNlG	-14.5016
AWLRezrBb	-14.5016
CINUCE	-14.5017
FAEPFEs	-14.5017
aZpvdogPnptE	-14.5017
CJTdxMiUXQiEX	-14.5017
BIiVXYiU	-14.5017
lUpHvgSEV	-14.5017
eUUDAHQDf	-14.5017
hISUmKxwgjFCJ	-14.5018
efUCAEQCf	-14.5018
TQuct	-14.5018
xQkJBBkZGSQkDA	-14.5018
IjoiEX	-14.5018
efUCADQCf	-14.5019
eTUDAHQCf	-14.5019
wEjjFlEX	-14.5019
QCTyweQ	-14.5019
eQUIAI	-14.5019
JANPGG	-14.502
QQOlF	-14.5021
OFFHdbt	-14.5021
miRQiYmJijpAwE	-14.5021
OImsxIfsY	-14.5021
CmFMBJamA	-14.5022
OfAPTMY	-14.5023
uBtcD	-14.5023
SgsKfD	-14.5023
sFflgKgq	-14.5025
qHpKfCr	-14.5025
AHNba	-14.5025
UNAGNLK	-14.5025
wpCIo	-14.5027
AEAPtsf	-14.5027
ZiLry	-14.5027
aNjiX	-14.5028
SvTxO	-14.5028
PwAATg	-14.5028
kUGyxo	-14.5029
MAJPKJ	-14.5029
WPaxxAcTH	-14.5029
PISnz	-14.503
ieYYG	-14.503
xlgih	-14.5031
pTIuB	-14.5031
hwNgv	-14.5031
sKJcL	-14.5031
jBRIlN	-14.5031
NyIRe	-14.5031
wcYYP	-14.5031
vbVnBLc	-14.5031
jBVrz	-14.5032
HAFPGF	-14.5032
PESDY	-14.5032
OALOUT	-14.5033
lnrVX	-14.5034
PjHRfz	-14.5034
HAqsH	-14.5036
zSQdB	-14.5036
KZOKoHpgSEXebSBY	-14.5037
iwLJj	-14.5037
iwOpF	-14.5037
qiiPp	-14.5037
oYDSi	-14.5039
euEjCMe	-14.504
OAnFF	-14.504
TrAch	-14.505
WinwwFQX	-14.5051
VNRQP	-14.5057
FNuKt	-14.5058
wAJub	-14.5067
wkkPT	-14.5069
fPsEQ	-14.5077
legqAcOY	-14.5098
ggGPzEhJSYrHCCMU	-14.5122
UcojRS	-14.5196
UiJFD	-14.524
edUCAMQCf	-14.5266
FBkQWVlZhYgw	-14.533
UMjIQcnJynjDQ	-14.533
UADEQcXFxnTDQ	-14.533
CPoBFP	-14.5351
lxAPwpBSTN	-14.5419
HANOFF	-14.5427
SNCJTd	-14.546
feiJdeSJVe	-14.5475
PMbGW	-14.5477
GzKwEqiCgUAW	-14.5477
vZuJPYcfuedd	-14.5479
NUSjpR	-14.5481
kJQQAEIlgo	-14.5481
IAEPGFu	-14.5482
hkjSwxXUb	-14.5482
ADHAQIQUE	-14.5483
KfqBVOQjqY	-14.5484
ABOJIb	-14.5484
LvzEsSvG	-14.5484
NAGPLK	-14.5485
pnjiwdB	-14.5485
RFsPjbUHAqj	-14.5486
kIripCI	-14.5486
OpzfqIPT	-14.5487
kDxEcAT	-14.5487
vZuJPYcfuedx	-14.5487
eNlVAoYxz	-14.5487
DQhMET	-14.5487
zEsSkTe	-14.5488
NAGMKJ	-14.5488
KMHhlQ	-14.5488
eeUGAFO	-14.5488
jjHScb	-14.5488
LWxKOT	-14.5488
tfmOWo	-14.5488
hLvXjvD	-14.5488
bdyKCM	-14.5489
UxHUjxdT	-14.5489
BIiVXY	-14.5489
VLXPPuFzu	-14.549
IPCJTe	-14.549
iuYpOCCBpOA	-14.549
KANPPP	-14.549
HAPPFF	-14.549
SUBUQFYAZA	-14.549
NjrtKwDDm	-14.549
EbbIlYYI	-14.549
UMACNSR	-14.549
abdNlHFU	-14.5491
RmmrrCwb	-14.5491
BZWVlaCC	-14.5491
dKyXNFcSLCVcAH	-14.5491
EAKPEEF	-14.5491
MDDFrtU	-14.5491
dAZJfkOodOEk	-14.5491
LFHRbd	-14.5491
bqQgpmCm	-14.5491
tBeRttO	-14.5491
GveBZMFfcsi	-14.5491
GLxVKukXQpS	-14.5491
EGxThDaI	-14.5491
CIVeyI	-14.5491
aMtVJA	-14.5491
JcvYKiO	-14.5491
OMcPTs	-14.5491
wRUQSCMaTQv	-14.5491
agyeuQHya	-14.5491
OccPQvhmi	-14.5491
QoKBBoaGiUmDDIFP	-14.5491
hQZEFlZWYWIM	-14.5491
YDDSylGWuzYR	-14.5492
kbaXBeXND	-14.5492
AVDpBPnrGqNjNNYL	-14.5492
FCUlEGVlZZGYMMg	-14.5492
ifCIRfj	-14.5492
DAHOCCFetU	-14.5492
goAVQBWAGQJ	-14.5492
iJPRQZEFlZWYWIMB	-14.5492
AONHHb	-14.5492
mreKyt	-14.5492
BPnrDa	-14.5492
OBBRYEq	-14.5492
kCRhmiuJmtXudnb	-14.5492
ybmwuO	-14.5492
DADQEf	-14.5492
ZolFQEWFhYWxuPA	-14.5492
diQKGGaLYma	-14.5492
eaUCAAQCfxCF	-14.5492
CgBVAFYAZA	-14.5492
vUOVgOc	-14.5492
BrubYc	-14.5492
eQUDALQCf	-14.5493
NCCSUElV	-14.5493
AQXwqgZPq	-14.5493
lUtGPHhhSkXcbCB	-14.5493
EAPMEE	-14.5493
eaUCAJQCf	-14.5493
SxgcEiNC	-14.5494
CPdYeGmVbkx	-14.5494
QQMNAO	-14.5495
AOiaLBpCI	-14.5495
QPERwJN	-14.5495
PABMWV	-14.5496
lFAseM	-14.5497
WVnZbgVlhVD	-14.5497
edUCAEQCf	-14.5498
GAOQFf	-14.5499
zZVtq	-14.5499
ZGEIaG	-14.5499
cDhwCCUMIAkVbr	-14.5499
xSVsxi	-14.55
pXflO	-14.5501
iJdeSJ	-14.5502
ofejnY	-14.5502
xqicfD	-14.5502
MNtIFgU	-14.5504
ypOTv	-14.5504
KRRYdt	-14.5504
pQVxRY	-14.5506
TYQLPoR	-14.5507
YAfqHQN	-14.5509
pTFHQN	-14.5511
QfATwxIoC	-14.5513
xioGpK	-14.5521
okUJRBlZWWRmDDIE	-14.5529
TGlAwN	-14.5529
btvne	-14.5531
WibIoscfNz	-14.5534
PvsmJ	-14.554
EAMQDf	-14.5571
FUGTWA	-14.5596
DAFQDfzHA	-14.5598
iJTKyiG	-14.5602
eUUCABQCfwF	-14.568
ahlXtWmaOgadgSti	-14.5721
eYUBAE	-14.5771
zERwnf	-14.5777
VcWdlq	-14.5793
EhGJJB	-14.58
FAAcEFxcXIiIM	-14.5822
AOKjwC	-14.5832
pHIExR	-14.5858
hFNOLH	-14.5896
sbaXBdXl	-14.5898
lhOHEM	-14.5906
IiQQSi	-14.5913
eqwqki	-14.5921
OfrcmZ	-14.5922
eSUDAO	-14.5935
RoDYQhB	-14.5935
gvtwvvU	-14.5935
YHAQmZ	-14.5945
AsRIjg	-14.5949
BRzURnF	-14.5958
ULBBsbGyYmDDIE	-14.5976
KKQsmP	-14.5977
AdMBKFJv	-14.5978
QUrOHhB	-14.5979
ggnFgBEKwR	-14.598
UJAPOHH	-14.5981
eEIBZU	-14.5982
zkmIrlralsu	-14.5982
PbFoovC	-14.5982
mPawJv	-14.5982
CAAQCfxBI	-14.5982
XPYCMTi	-14.5983
YfGRACqLTF	-14.5983
waIfSEU	-14.5984
kfYyhNiFg	-14.5984
cbdNlnFU	-14.5985
PvWyxbA	-14.5985
COdBDNhDYM	-14.5985
JumRJe	-14.5985
QVoRUT	-14.5985
onSfxpYsze	-14.5985
HcMjAHGKCkx	-14.5986
VxQkAOo	-14.5986
CUWUHZ	-14.5987
KANNIH	-14.5987
nXnezrgnuA	-14.5988
KKCwKKJ	-14.5988
cBsIFsU	-14.5988
wJIidB	-14.5988
tOGivb	-14.5988
bjzQAf	-14.5988
FBXFlh	-14.5988
KtVSulrTGD	-14.5988
VVZttTQ	-14.5989
CTDErrEJ	-14.5989
ZWAlUwUAgC	-14.5989
rccCdN	-14.5989
pTEbSGESCgMPq	-14.599
kKCjZM	-14.599
BwIvxkhUjSHqHuZv	-14.599
EPTNCIF	-14.599
blHpOU	-14.599
ecUEABQFf	-14.599
nSYuZlGSR	-14.599
CIRezGRf	-14.5991
MdJAhPYPR	-14.5991
UDAKOCCU	-14.5991
zQwyzZBogR	-14.5991
xIiXXoiU	-14.5991
lIiifMq	-14.5991
LqeiHqwwW	-14.5991
OMYPQvBAiDUU	-14.5991
xVPChYHfSnJHhW	-14.5991
IrZiWSYukZ	-14.5991
pgggkPgLkP	-14.5991
iJdeRIi	-14.5991
JQKEGD	-14.5991
RexImE	-14.5991
ZWyNUW	-14.5991
nUssXminq	-14.5991
CqJuCcmEWpP	-14.5991
vEAeQgbKlsp	-14.5991
EHwGVg	-14.5991
kBZRmiSZpMuwkz	-14.5991
AFoFbhQ	-14.5991
AMYSAAAU	-14.5991
ZRtlYIodbCw	-14.5991
fiQFlGaJJmqydaPL	-14.5991
oAzoSfnHvi	-14.5991
HJnCSI	-14.5991
gMDAwOzwKB	-14.5991
aLcuNEIXt	-14.5991
BQAHBBcXFyIiDA	-14.5991
NfRkjmnjywUg	-14.5991
OSIReDk	-14.5991
VcanAUu	-14.5991
dAZRfkOoTkypyhO	-14.5991
fdGfUYR	-14.5991
iEXoifCIRe	-14.5991
zqbkVD	-14.5991
BbQtUvTaF	-14.5991
XAalpI	-14.5991
QoffPBBMIGj	-14.5991
WVnZbgVlm	-14.5991
MRvidlTW	-14.5991
TXLlQcWm	-14.5991
bgWziyN	-14.5991
DqEPrr	-14.5991
RQiIhBiYmKOkDA	-14.5991
TTjhEpMeHLtfuxd	-14.5992
DAHMDDVOmMg	-14.5992
IuJgVXdRSYBzi	-14.5992
NhGhDY	-14.5992
lrQaDyy	-14.5992
mbaXBdXlmnSh	-14.5992
vdeyCM	-14.5992
wGjbamLA	-14.5992
KmUqampqlpjQEf	-14.5992
bzqpAB	-14.5992
cLQxApEMmH	-14.5992
dDpxPlGN	-14.5992
dTMzCyIhX	-14.5992
FAIQEf	-14.5992
gUEDDQDfAD	-14.5992
eUUCADQCfwF	-14.5992
gWOeDf	-14.5992
EAAlxhoaGhzdA	-14.5992
MTiwvf	-14.5992
BAqcAAznABDMNBNH	-14.5992
FFRUEJSUlMDAMPA	-14.5992
JvyEhdQwr	-14.5992
oooYSg	-14.5992
eZUCADQCfwgP	-14.5992
NCCSUoa	-14.5992
fSnSVgGHM	-14.5992
mzdpgG	-14.5992
wgnQFD	-14.5992
DciXXY	-14.5992
KzISVjXAaSr	-14.5992
xTVPdBK	-14.5992
DBlYCVTAQy	-14.5992
MfASABWB	-14.5993
OmCIltslzv	-14.5993
wjjITW	-14.5993
eQUDABQCf	-14.5993
eTUDAAQCf	-14.5993
KRInARIlNsIhVyG	-14.5993
UEAJOGG	-14.5993
CAJMCC	-14.5993
QNDKvrhNhAsgmp	-14.5993
UEACODC	-14.5993
ebUDAKQCf	-14.5994
dDxxPmOMGiOzXkY	-14.5994
eQUDAEQCf	-14.5995
bgfsGa	-14.5995
PHGlJMb	-14.5995
eZUSAPM	-14.5995
ApbGFpqC	-14.5995
lElFvgeGV	-14.5995
hPRQmEGZmZpKYMMg	-14.5995
eRUDAKQCf	-14.5995
ecUFAFOH	-14.5996
CqhebLytx	-14.5996
zuGPSPcMoB	-14.5996
WIGxkTbdEKBnSAo	-14.5996
dDxxPmOMOj	-14.5996
AKvqxVOSDqSio	-14.5996
dAyJPY	-14.5998
HAEOGF	-14.5998
eTUHANP	-14.5998
SWQlPq	-14.5999
FONAPRxQ	-14.5999
Enkycn	-14.6
GACOFE	-14.6
urRivC	-14.6001
QQqSYQy	-14.6001
eeUFABM	-14.6002
KKCcUU	-14.6003
kUoAosw	-14.6003
ZxxIfTHwcA	-14.6004
UTAJNON	-14.6005
ovPFVNDYCDkE	-14.6011
KWQpaWlplZjQEP	-14.6018
YioLct	-14.6018
WKLbYc	-14.6025
wDsLbk	-14.6033
UEiJTehEi	-14.6039
hQLKjr	-14.6055
RQpKRBpaWmVmDDIF	-14.6057
CAEQCfxCJ	-14.6084
dAZRflupC	-14.6105
SeRlfiQfS	-14.6114
eaUBAF	-14.6262
WFhBWVlaCiDA	-14.6283
DAAGPy	-14.6316
hAFwhYWFhjZDID	-14.6332
RQYEFhYWISIM	-14.6348
dAZRfkOoc	-14.6384
QEfwEJAAgAxflv	-14.6398
LfgSLfiwV	-14.6482
EcPDKk	-14.6504
VbbpnrheXiO	-14.6508
ANPJJ	-14.651
PofMETXj	-14.6511
tSrlEXBLt	-14.6511
VmuUTcoLfnB	-14.6511
IkTxEYAPKD	-14.6513
NIaEmKxwgjFCJ	-14.6514
OAdSHXS	-14.6514
emBIRVBu	-14.6515
qkXSqqjDgl	-14.6515
SxojBjttj	-14.6516
kQyYcNGr	-14.6516
KEbyOwZc	-14.6516
KtVTultaEHj	-14.6516
ucnByYBtwO	-14.6516
VqyletJrq	-14.6516
kMqXJDqf	-14.6517
lwXlTU	-14.6517
YrPhQRbmR	-14.6517
vSyoyyDEn	-14.6517
ODEqPgrWoBRnRGOk	-14.6517
dAZJflupDQtY	-14.6517
CAEiXSJiYmKOkMg	-14.6517
hQsEGxsbJiYMMg	-14.6517
epVtZnnCAL	-14.6517
spRljvPlHlZ	-14.6517
YblAlqR	-14.6517
uVfxrWcTyh	-14.6518
RQACQEWFhYWxuPA	-14.6518
iIVeyI	-14.6518
QSAVDxBPn	-14.6518
maJVfj	-14.6518
dAZpfkOQWshE	-14.6518
CqJuCcmEWpM	-14.6518
bqQgqW	-14.6518
LRJexi	-14.6518
CQirzbQL	-14.6518
emqDNMmDDBJ	-14.6518
esMocNWBHn	-14.6518
DNSLOH	-14.6518
YpCAdz	-14.6518
AOMYPT	-14.6519
eRUDABQCf	-14.6519
qzmnMh	-14.6519
NyCXLgc	-14.6519
YiXXUiVXQ	-14.6519
nQHQIg	-14.6519
AUCIPRQ	-14.652
iVVQVZWVlcHIAB	-14.652
eSUDAFQCf	-14.652
kIyqdMK	-14.6521
idaJykSJ	-14.6521
eRUDAEQCf	-14.6522
JRzFQU	-14.6522
fACLfiAV	-14.6523
ahlXtWmqIkaNoCgC	-14.6523
rOuWXulZWee	-14.6524
OTsqGVe	-14.6524
GALOEE	-14.6525
RxveFb	-14.6525
QFGEIXoxtADwT	-14.6526
JykSJwUSJT	-14.6526
BQWFhBWVlaCiDA	-14.6526
HADMGF	-14.6527
ZokUFhYQVlZWgogw	-14.6527
FAFQEf	-14.6529
mPjqwA	-14.6529
UEAKMDD	-14.6531
ENVajJ	-14.6534
sOhHsO	-14.6536
AGJiHZK	-14.6543
udwvQe	-14.6545
sFUFOR	-14.6553
dAZJfkOoTkx	-14.6563
vpSIonzKp	-14.6564
uDDoGPwD	-14.6645
FUGRyA	-14.6706
ADTYTkxPJUYFEW	-14.6728
EjCMeb	-14.6835
eaUCAK	-14.6877
pKRBpaWmVmDDIFP	-14.6912
zKpKIfPTCkI	-14.7023
QiryrjJY	-14.7064
UXbpfLpWbFKLnJ	-14.7064
pNfCte	-14.7065
CsgmJJ	-14.7066
pUcDwxn	-14.7066
LPomoN	-14.7066
loqgfMqk	-14.7068
yVXSlX	-14.7069
rLwkXhs	-14.7069
QYullf	-14.7069
AZpQQTl	-14.707
btnaLy	-14.707
JIjMAwMZdIWq	-14.707
UHXPNuFqu	-14.7071
DQyrybgPBoh	-14.7071
cLYwNpEMmH	-14.7071
qrVEcQ	-14.7071
YNGPYNGPpSIfTEVB	-14.7072
bqFaJKkJr	-14.7072
cnJzIy	-14.7072
xauZVbue	-14.7072
IFvlAK	-14.7072
ATxRUVFSAD	-14.7072
xPnrFJVjQVYx	-14.7073
UlisyFxJsxU	-14.7073
hIBGAFQH	-14.7073
BQaEFpaWoaIM	-14.7073
OPHpfP	-14.7073
uuYzLoVNh	-14.7073
FACMED	-14.7073
RZmZmZxcgAF	-14.7073
kKSjZM	-14.7073
KAJIoDA	-14.7073
hIiVXYiU	-14.7073
DkFvGZ	-14.7073
IOinFGeEnH	-14.7073
xVPChYIPynBHiRq	-14.7073
JAkYZori	-14.7073
aZpvdog	-14.7073
pTxhGamOxJt	-14.7073
sZyxsbGyYmNA	-14.7073
BdCCCGEIA	-14.7073
dAZRfkOoTkyp	-14.7073
iJVfCJT	-14.7073
yIWCqPF	-14.7073
LARABSB	-14.7073
PndHpBw	-14.7073
pJTJgAhhQoguqtpx	-14.7074
dAZRfkOodGFE	-14.7074
YDDSylGWuzbRmTn	-14.7074
eRUDAMQCf	-14.7074
dAZhflupDIwY	-14.7074
jaZNVPmx	-14.7074
zQQSCTzTSQqKNkzW	-14.7074
AdzxEjcdBJtWf	-14.7074
AAMTievfC	-14.7074
SJphgYW	-14.7074
gzUizh	-14.7074
lwXlNn	-14.7074
FFZWEJaWlsLIMPg	-14.7074
dMHRbZ	-14.7074
FGhoEKioqNTYMAA	-14.7074
CbirBAxj	-14.7074
QUBCAFA	-14.7074
SWQlPv	-14.7074
pjMzVb	-14.7074
XpCLwb	-14.7074
ILTKVtkqgy	-14.7074
AgBCAFAH	-14.7074
GaDffgAd	-14.7075
xIOUXw	-14.7075
EAMQFf	-14.7075
ttGztVttu	-14.7075
EABMDC	-14.7075
esUlbN	-14.7075
UEAANFE	-14.7075
ecUCAKQCf	-14.7075
efUCAFQCf	-14.7075
GJVdTY	-14.7075
ecUCAFQCf	-14.7076
WLGxkTbdEKBnSAoM	-14.7076
TYQLPrh	-14.7077
sFflgKgpy	-14.7077
GAFNGF	-14.7077
eRUDAJQCf	-14.7077
GACPFE	-14.7079
WJuNGb	-14.708
aQDTdDeqLdYI	-14.708
GAPMEE	-14.708
McBAhP	-14.7082
FAGMEE	-14.7083
FiMCiH	-14.7084
NiJddRI	-14.7092
GALOFF	-14.71
WAAfUX	-14.7113
eQUDAP	-14.7114
EAPtvZAhP	-14.7118
CABQCfwgPt	-14.7133
KgHDmOe	-14.7143
wEJAAgAQ	-14.7246
hkjUHqHuZv	-14.7259
SJEkaA	-14.7281
baXBdXlDO	-14.7337
SNiJdd	-14.7356
FvzEhJSYrHCCMUIl	-14.7376
sAGcsbGxsmJjQ	-14.7468
jiIwAfUHwE	-14.7497
wAAkdMjIyMuLjwF	-14.75
EfwKIfS	-14.7502
kBRhjfHlildwiXH	-14.752
iJdfDs	-14.753
DHCAPXKJAK	-14.7589
eeUCAM	-14.7589
nNsUQO	-14.7647
KBsKey	-14.7651
RFsPjbUHA	-14.7652
iuYpOCCBpOArIJSS	-14.7652
cbQkHRP	-14.7652
GrRmWg	-14.7653
LPHBxEc	-14.7655
JAKOHH	-14.7655
uFTJhU	-14.7656
QXKWrdJUu	-14.7657
bsQCdt	-14.7657
yAcVHAE	-14.7658
SnXKTuCvaF	-14.7658
oHpcfkWvOea	-14.7658
YpprQSF	-14.7658
ESzygVQU	-14.7658
LWxMMT	-14.7658
rnpAfDv	-14.7659
DQBYAGY	-14.7659
tCqdeq	-14.7659
HAFNGF	-14.7659
QkPvTa	-14.7659
sFUFNR	-14.7659
RJbJRbm	-14.766
miSJmtHP	-14.766
EABOED	-14.766
oCWhXtCbaF	-14.766
bjgXov	-14.766
vTQuet	-14.766
FAJNGGU	-14.766
EABNFE	-14.766
BIiXXw	-14.7661
iJVfCJykSJ	-14.7661
YRmpjsybbru	-14.7661
VbbppXC	-14.7661
lwXlNv	-14.7661
EAGAffz	-14.7661
EhISEsLDoFP	-14.7661
THAZoP	-14.7661
pNCDkpxJCnfK	-14.7661
hMVKqamlpw	-14.7661
KcVKuoiUSOznm	-14.7661
eENARABSB	-14.7661
BvADXU	-14.7661
YDDSylGWuzahyX	-14.7661
EAPtvYxwDn	-14.7661
FCkAKRBpaWmVmDDI	-14.7661
zXGdasW	-14.7661
AkVKioqKtrjwF	-14.7661
ormKTgggaTgKyCYk	-14.7661
LHEoyuZA	-14.7661
RjYxCjo	-14.7661
hXCFhYWGNkMg	-14.7661
EiJVfDo	-14.7661
jovqdevIwbrJNQ	-14.7661
pNCDkpyJCnfK	-14.7661
VRmXQCeo	-14.7661
wFIGcAl	-14.7661
OcYPTPB	-14.7662
zvWKLlxAkB	-14.7662
xSVszTkQ	-14.7662
dAZRfkOodGFk	-14.7662
DAGQEf	-14.7662
xQyMhBycnKeMNA	-14.7662
BQqKhBqamqWmDDIE	-14.7662
fXAwEIAUA	-14.7662
SEBKAFgI	-14.7662
XAbCBY	-14.7662
CAENCC	-14.7662
DALMDDl	-14.7662
HANMFF	-14.7662
CyTMFG	-14.7662
AdzxEjccBJteX	-14.7662
xVPChY	-14.7662
YVxhoaGhzdA	-14.7663
OAMARABSB	-14.7663
iVXoiU	-14.7663
eQUDACQCf	-14.7663
IAFPHG	-14.7663
UHALNFF	-14.7663
PvOwKj	-14.7664
qKjgEfwD	-14.7664
CPdYeGmVbkY	-14.7665
tAsOiH	-14.7665
MqQjKbSBY	-14.7666
rHlOvhZvn	-14.7667
sOhHsOjHUpEPp	-14.767
EANOEE	-14.7671
GAHNFE	-14.7673
bTBFRBIIxpNCDgpz	-14.7674
FAAMED	-14.7674
LBXFTEVB	-14.7676
zTQuet	-14.7681
UHAANGF	-14.7683
vEAeQgbKlsovgTVP	-14.7683
PRPBmi	-14.7702
JRdhEiU	-14.7712
CINZUFFB	-14.7723
ZokUISEQYWFhjZAw	-14.7793
baXBeXNHB	-14.7795
KtVUuld	-14.7896
dAZJfkOoT	-14.7899
CQObVA	-14.7911
iCRJkg	-14.7912
wUhUjSH	-14.7938
DeLUDn	-14.7967
EIMUox	-14.8002
WlVampqaxsgA	-14.8131
wpKIfbgPBo	-14.8133
NTXmAMLA	-14.8135
iIiAQi	-14.8136
DHCAPXKJAKiAcrz	-14.8144
kbaXBeXNH	-14.8163
yRlpOd	-14.8262
mzstdN	-14.8267
pMXFoefBXr	-14.827
KUuNxY	-14.8272
MRBxcXGdMNA	-14.8272
BANqVX	-14.8275
dlmVTaQDUXxd	-14.8277
SzocUuMCDoit	-14.8278
upKIhPmVT	-14.8278
HcHoBHkoGw	-14.8279
xLErxm	-14.8279
gOIjgCe	-14.8279
DABODC	-14.8279
MOnTCryPTCko	-14.8279
kDzZZRlGg	-14.828
xADjoDYq	-14.8281
cJXBoh	-14.8281
ttGztVt	-14.8281
NIaEmF	-14.8282
RTkVCfryYi	-14.8283
NTsqGVe	-14.8283
UPeHgv	-14.8283
fupABMwrBPT	-14.8283
OmCIltsl	-14.8284
TwaOobdoDnx	-14.8284
obaXBe	-14.8284
ggdbsK	-14.8284
TYQLPoB	-14.8284
iaYYGF	-14.8285
FAKMFF	-14.8285
EiJTdhMiUXQ	-14.8285
ANaLDlTq	-14.8285
BBxwIHjly	-14.8285
LiUyYV	-14.8285
eAtneHgFKAVABiC	-14.8285
UFAJQDf	-14.8285
zXOxJII	-14.8285
EbbIFUUEGFCZgT	-14.8286
qbYVFHqh	-14.8286
EABNGF	-14.8286
TTjhAoLOK	-14.8286
ShsKfjCXytgF	-14.8286
Gddyvre	-14.8286
KfqrWhH	-14.8286
DqEPsbVE	-14.8286
eZUCAHQCfw	-14.8286
qxZDgOeTOG	-14.8286
xkgPTPBI	-14.8286
hQhIRBhYWGNkDA	-14.8286
PcPBeSbWUF	-14.8286
PhIeCyRP	-14.8286
PnrFJWzNOVC	-14.8286
gIBCAFAG	-14.8286
oKBBoaGiUmDDIFf	-14.8286
JRfjHRfz	-14.8286
QsMZjWh	-14.8286
xQAMRBxcXGdMNA	-14.8286
AAAYQFsN	-14.8286
ZAJfZKSkpNDQF	-14.8286
wVFtlgv	-14.8286
aSwgnGCJWYGKXZl	-14.8286
dAZhfluUBtxs	-14.8286
BQAMRBxcXGdMNA	-14.8286
CAANCB	-14.8286
sTiavf	-14.8286
qbaXBeXN	-14.8287
sCbVHOJD	-14.8287
AUAPtvYPt	-14.8287
ZomDfeQAd	-14.8287
pTxhGamO	-14.8287
AMYFiD	-14.8287
OmCIlvyoH	-14.8287
TLQGmnhNqiF	-14.8287
vpujFAyVof	-14.8287
xQgEGBgYIyQM	-14.8287
QzWCcG	-14.8287
lAGAlZWVlkZjQ	-14.8287
blAacL	-14.8287
ZonDDx	-14.8287
cVrNuPC	-14.8287
xPnrFNUPOBxC	-14.8287
JCQYBFP	-14.8287
qYMbtG	-14.8287
jciXXYiVXU	-14.8287
ZmZnFy	-14.8287
Gzlgdk	-14.8287
JfxkhdQwr	-14.8287
xSVszTlQ	-14.8287
CJTbzMiEXI	-14.8287
CJdehIiVXg	-14.8287
GaDfeQAd	-14.8287
kOSOVi	-14.8287
GALNEEd	-14.8287
TJieWpwKIs	-14.8287
iJVfSJTfBEiUXs	-14.8287
hIMtLB	-14.8287
PwoASgBYB	-14.8287
fiflkG	-14.8287
wLJMwY	-14.8287
DHSSIX	-14.8287
amprGy	-14.8288
WPQDqejHUpEPpqKg	-14.8288
DAPMCC	-14.8288
PyIRfiAffgAd	-14.8288
bAJnbKysrNjYEB	-14.8288
CCVrtU	-14.8288
qpyMfrtV	-14.8288
CRYBFP	-14.8289
GmqQoeeOBBEAuWI	-14.8289
sVQUMx	-14.8289
UEAJODD	-14.8289
eGVATlNhAs	-14.829
hIcCiH	-14.829
UioFFP	-14.829
nuMlwN	-14.829
rsDDgF	-14.8291
JACMIH	-14.8292
WCqKmYqC	-14.8292
dAZRfkOoXF	-14.8293
YqgvrxYiry	-14.8294
TuqGVe	-14.8295
waxWATV	-14.8295
VpqiJGjaAoAmDJ	-14.8296
bdiUEPcU	-14.8296
ACWAjy	-14.8298
CAGQCfwgPv	-14.8298
hSkXcbCB	-14.8298
RHAEyw	-14.8301
HAFOGF	-14.8302
tFPpiKgtq	-14.8304
GAEPFE	-14.8304
PpLISnzIP	-14.8309
cOuxAJ	-14.8316
aqcjHjxdTE	-14.8324
MTiQvf	-14.8345
KpKIfPTCkIi	-14.8361
kCZhmiyJmtn	-14.8386
hmRJEnSG	-14.8389
tGPpSIfTEVt	-14.8396
QCfyBIg	-14.8435
dAZRfkOQd	-14.8458
sDDgFfwD	-14.8526
kRGRER	-14.8591
QFfwEJAAgA	-14.8692
iYmJijpAwE	-14.8704
WmaOgadgStiUcnZ	-14.8708
EbbIPmzJlDBgKXz	-14.8744
dAZpfkOoc	-14.8752
ERkRER	-14.8761
UHAOMFF	-14.8855
sKgHDm	-14.8862
DRlYCVTBQCCL	-14.8872
EIMYwx	-14.8899
DQObVA	-14.8907
NNsuMW	-14.8932
ShsKfTyQ	-14.8932
GABNFEm	-14.8935
DiiMBUEOMIYG	-14.8937
BwKoDgq	-14.8941
IcKjVA	-14.8942
CgsmNg	-14.8942
RFsPjbUHAqgOyr	-14.8943
PMnGzAs	-14.8943
ReRoPr	-14.8944
dvpABEwrDzve	-14.8944
IdPmVQU	-14.8944
lhOKKH	-14.8946
RFsPjbUHAqiu	-14.8947
TZRxVOq	-14.8947
EVBdaP	-14.8947
beeszeVJJeb	-14.8948
vpCKfrjKYN	-14.8949
SaJKDesAEUTuk	-14.8949
xADjoDUq	-14.8949
PEEHdbt	-14.8949
UHAFMGF	-14.8949
MDaRDJhw	-14.8949
DCvyiYszqCPJA	-14.8949
FAJMHHU	-14.895
JPbbAFUkEFFYIT	-14.895
IKvKxVBTU	-14.895
XqUPrNfAkB	-14.8951
lrVNRzj	-14.8951
gYQnOoH	-14.8951
IOSnFGMRkdJs	-14.8951
SrniBjttf	-14.8951
jQicpEiUXc	-14.8951
ioBVgFYAZA	-14.8951
hTJPXaF	-14.8951
CQBKAFg	-14.8951
hoSYrHCCMUIl	-14.8952
NFFUlM	-14.8952
IwXwsN	-14.8952
CLQFtA	-14.8952
JakIGGWQQJICAo	-14.8952
OXcQcgXZ	-14.8952
DQicpEiUXc	-14.8952
ZwtDECkQyYd	-14.8952
InQRIlN	-14.8952
urtrgMBA	-14.8952
BOQFAAXg	-14.8952
DANMCCk	-14.8952
FZaVAUO	-14.8952
fBrKyj	-14.8953
gYDDDAIzvNR	-14.8953
nUssXming	-14.8953
nUssXminn	-14.8953
spRlrtmYuvI	-14.8953
AQEYUxhYWFiE	-14.8953
ARxUcAPqD	-14.8953
MbbAlYoEFFoIU	-14.8953
NzsiFXkiEXg	-14.8953
sGPHTnCDDY	-14.8953
xDgjPUUhqaws	-14.8953
uVfxrWcTyg	-14.8953
yHekshyxuZBgoCQC	-14.8953
dDxxPmOMNHpR	-14.8953
oLSMyyGlR	-14.8953
yMexQIR	-14.8953
MwVhis	-14.8953
TicItaN	-14.8953
emaHTMmDFBKFCO	-14.8953
QEBCAFAG	-14.8953
UAYCVlZWWRmNA	-14.8953
DOMhVjieXQw	-14.8953
dAZJfkOQWcZE	-14.8953
jxRhvpujNAoVo	-14.8953
spRljvPZBMuwiOk	-14.8953
xQhIRBhYWGNkDA	-14.8953
ZxOXRiC	-14.8953
xVPChYIPynBHiRtN	-14.8953
eTmDDIFf	-14.8953
skuGVcAVwnrg	-14.8953
kCIPZUFFB	-14.8953
OHdYfu	-14.8953
eURARgBU	-14.8953
IKvqxVBQzF	-14.8953
tIJORz	-14.8953
CqJuCcmEWuOv	-14.8953
hnGATKeAoy	-14.8953
IzxGaSMLm	-14.8953
jtOpzPIxX	-14.8953
EbbIVWWGGF	-14.8953
KAkVKioqKtrjwE	-14.8953
aAzejfojY	-14.8953
ATHAQA	-14.8953
KdJWAYcxz	-14.8953
NSElJiscIIxQiUmO	-14.8953
xPnrFNUPNJxO	-14.8953
dAZJfkOoRGut	-14.8954
QhgysBKpgIJC	-14.8954
ISUmKxwgjFChQWcR	-14.8954
LuwIEw	-14.8954
RUBFhYWFsbjwF	-14.8954
hAlxhoaGhzdA	-14.8954
LSElJiscIIxQiUmO	-14.8954
NCDspzaJemtDzhBD	-14.8954
QmJhBmZmaSmDDIE	-14.8954
IPiJVfSIR	-14.8954
ZkWFwH	-14.8954
TYhxVHa	-14.8954
UEALQEf	-14.8954
mreKyu	-14.8954
OzvoAATg	-14.8954
aEnvtm	-14.8954
yMBKAFgH	-14.8954
zpgiJbbJ	-14.8954
cZbDoR	-14.8954
diQJmG	-14.8954
rnlNvyI	-14.8954
iJddDI	-14.8954
GaJZokPt	-14.8955
DAENDDF	-14.8955
OHZZlWWMDSkxcW	-14.8955
yJddjQ	-14.8955
jabNKm	-14.8955
KckeFYi	-14.8955
VoqCuJTJhX	-14.8955
cjASgBY	-14.8955
bbgAnb	-14.8955
NATkBQ	-14.8955
UGAFNFE	-14.8955
BEAEwQB	-14.8956
EADPED	-14.8956
rDKGDLdYLdUz	-14.8957
HXrnHR	-14.8957
SBwTYq	-14.8957
NSbDhlxO	-14.8958
bxoFeG	-14.8958
DAAGvy	-14.896
hQqKhBqamqWmDDIF	-14.8961
qKjgFf	-14.8962
YOLjGD	-14.8962
aKgviUSU	-14.8963
oBzdCrw	-14.8963
EAGQCf	-14.8964
HANOGG	-14.8972
inGmjunrIHKcWHgP	-14.8975
HUGTWA	-14.8979
dlGVSjwGvLiYNTet	-14.8982
vyEhJSYrHCCMUIl	-14.8986
mPjwHQN	-14.8987
FftRXvV	-14.8989
BmfGqVx	-14.8996
gwGfzkhJSYrHCCMU	-14.9017
tGcMuxAJ	-14.9023
cApDYhTklxAPwpBS	-14.9046
zQQSCTzTSfoJN	-14.9061
CXgWQQ	-14.9068
EAMNDDV	-14.9104
IEiJdfD	-14.9105
dAZRfkOhd	-14.9123
zJPKSglSkusI	-14.9179
lMVjtsbGzBr	-14.9257
YUxhYWFiE	-14.9277
RkSSJEkH	-14.9364
JRBlZWWRmDDIE	-14.9472
JSYrHCCMUIliQ	-14.9482
ycnJyn	-14.9502
XSJiYmKOkMg	-14.9502
uRtMEVEEgjG	-14.9514
jRXhDuet	-14.9515
EPxIiXXwi	-14.952
FPykhJSYrHCCMUIl	-14.9575
TiQvfA	-14.9603
pXAONAP	-14.9609
BjQFdAV	-14.9611
lFDVrgy	-14.9612
rIMbVEPgz	-14.9626
EEiJdfCJVex	-14.9631
UNCJVd	-14.9632
PQjqejHUpEPpq	-14.9635
kjvAch	-14.9639
jAVBDjCGBkEOOIMH	-14.964
MHPvRGM	-14.9645
gdyEgZ	-14.9655
TdNtPFT	-14.9656
TdNsvFTo	-14.9656
VUNMSnTCr	-14.9657
TeIRpPbIaB	-14.9657
ENVajL	-14.9658
LNjisxoXnK	-14.9658
rHpOfCzev	-14.9658
XrPhkr	-14.9658
eGFJRELeBYNGP	-14.9658
KuXZiDQ	-14.9658
IfzEsSnGV	-14.9659
JRJRXEPDK	-14.9659
PTsqGVe	-14.9659
bRsLVvLF	-14.966
ShsKfTiQ	-14.966
NMrVYb	-14.966
UIALNGG	-14.966
gFcVJR	-14.966
UJAMPGG	-14.966
YuHoEy	-14.966
mNSHBG	-14.966
BVQXKOd	-14.966
xvppzYe	-14.966
SZVPHANZXHqaNUm	-14.9661
INYFNzz	-14.9661
MSxLMZm	-14.9661
eUUIAMP	-14.9662
AhACSAI	-14.9662
AppQwRTKPq	-14.9662
POnGjCL	-14.9662
krJkGvF	-14.9663
TWcIHaN	-14.9663
MmFfkeGFLR	-14.9663
dmmXSV	-14.9663
pUcDwxo	-14.9664
yHptNpU	-14.9664
VgqipmKglo	-14.9664
QPERwJO	-14.9664
PADNML	-14.9664
SdVgad	-14.9664
bQXtAC	-14.9664
mGGBhb	-14.9664
QPFAFUAYABuC	-14.9665
DALPCCU	-14.9665
TpXKduDDaO	-14.9665
ShsKfTC	-14.9665
GbQVtBks	-14.9665
dDxxPmOMGiOzX	-14.9665
hXRYfFwtJ	-14.9665
HfxEhSTZ	-14.9665
YMROkQuXo	-14.9665
wgsGfgSX	-14.9666
SVgGHMswh	-14.9666
kSVgEQ	-14.9666
TbQVrUnSPTaE	-14.9666
UqqXSOgWv	-14.9666
giUmfkNtrQX	-14.9666
aKYiqNdrq	-14.9666
aAgbotQ	-14.9666
vSwoJwehxT	-14.9666
wCIfwaI	-14.9666
EAPPFFk	-14.9667
OzoiFXkiEXg	-14.9667
eYUCACQCfwgPv	-14.9667
ISElJiscIIxQi	-14.9667
SEBKAFgH	-14.9667
FfBQpdj	-14.9667
QhACEQYWFhjZAwE	-14.9667
ZASABWB	-14.9667
QifCIRdjU	-14.9667
UFgAWEFZWVoKIMB	-14.9667
esEApXYr	-14.9667
BJOcBM	-14.9667
JAkYZoribTDoum	-14.9667
PSIRfiDffw	-14.9667
eaUCAMQCfw	-14.9667
FFbQGdxjOZBmFDR	-14.9667
PZopCI	-14.9667
ADHAhfYPRPh	-14.9667
ANdRMryV	-14.9667
ARQHTwtfHwJpowI	-14.9667
DUcJTjkIcThBTZ	-14.9667
IOCnOmWCetQyVm	-14.9667
KXCsjjcCv	-14.9667
kIIlIcL	-14.9667
siyxPhDp	-14.9667
jdeLTRvUxmXQyeo	-14.9667
IzxGaausLLftN	-14.9667
yBbIGBgYIyQy	-14.9667
APRxQQMLg	-14.9667
eeUCAHQCfyB	-14.9667
gddunQJChFy	-14.9667
xMeGzYsAmCgR	-14.9667
ZoLqTXLSaqPovorA	-14.9667
NCBxHh	-14.9667
rFUFDMV	-14.9667
lTVPcg	-14.9667
RGRhCGhoayuDDoF	-14.9667
kpkJciFhM	-14.9667
CEuMVTwoWB	-14.9667
RFsPjbUHAqgOCrnV	-14.9667
dAZJfkOodGEks	-14.9667
gEZwGYl	-14.9667
KmxREX	-14.9667
OMYPQv	-14.9667
pNCDkpyRjUZHayN	-14.9667
sNCEFWyo	-14.9667
UGRkQWVlZhYgw	-14.9667
JBfADt	-14.9667
qYzLAUhe	-14.9667
BbNcxbHEcmVC	-14.9667
UkYCnuGu	-14.9667
YRmpjsibbru	-14.9667
iJVdiJTehEi	-14.9667
kajDVum	-14.9667
FCEAIRBhYWGNkDA	-14.9667
RUBFhYWFsbjwE	-14.9667
JAWYZokiZrRz	-14.9668
YMROkQuW	-14.9668
kskcOKh	-14.9668
BQsEGxsbJiYMMg	-14.9668
EEiJdfCJVew	-14.9668
hMTExPDwKB	-14.9668
IOynOmoMnr	-14.9668
agyetA	-14.9668
xhItgx	-14.9668
CJTfSIRfCAff	-14.9668
SwkwkB	-14.9668
WQACWZmZmcXIAB	-14.9668
hISUmKxwgjFCJQkP	-14.9668
jpRhvqVM	-14.9668
nQSEXg	-14.9668
PnrFNUPOB	-14.9668
OPAPQsaI	-14.9668
aeEdyG	-14.9668
nZhhgE	-14.9668
JAgYZopibTbhLN	-14.9668
agyeuQFyZ	-14.9668
KxxGyJ	-14.9668
diOoGG	-14.9668
Gcrghw	-14.9668
lNiDrRAW	-14.9668
wAdQWLRf	-14.9668
EiJdfCJVfg	-14.9668
lkaampqdXYEB	-14.9668
kKCjak	-14.9668
FGpqEKqqqtbYMAA	-14.9668
XjyYCz	-14.9668
hfYPlMBI	-14.9668
sHAQgBQB	-14.9668
nTroMz	-14.9668
rKWiLbbEtBo	-14.9668
UhJSYrHCCMUKFBZx	-14.9668
otHehvGPbPkIes	-14.9668
EANNFFk	-14.9668
xRERBCEhISwsDDgF	-14.9669
wAAtfcHAFIAYA	-14.9669
UYWEQoaGhzdAwAB	-14.9669
MYCwcYGATIBOAFwI	-14.9669
MBKoAoGAlmEfAS	-14.9669
ifCIRfD	-14.9669
sKCcHsc	-14.9669
JdeTHRf	-14.9669
IACMML	-14.9669
JRfTHRf	-14.9669
eZUCAEQCfxBA	-14.9669
JAEoAWA	-14.9669
PnrFNUPLB	-14.967
IAMPGGO	-14.967
pXlKPhJvHT	-14.967
qQhIzwup	-14.967
rzwhuwwXov	-14.967
vmzDQFP	-14.967
JVLRDxcsW	-14.967
ZjkXcV	-14.967
jJcDRzEBkMHsI	-14.967
vsjagdB	-14.967
XAbCBZ	-14.9671
EEVItU	-14.9671
ftKKvrRUyIV	-14.9671
IYMrASqYCCQRcg	-14.9671
aKYqaio	-14.9672
LdJWAYcxz	-14.9672
TQvXtp	-14.9672
rcZBby	-14.9673
vormJTIWiGnyDaRI	-14.9673
fMopataD	-14.9673
seLqQj	-14.9674
ugqibgnJhFp	-14.9674
ndwfWw	-14.9674
jwDAmmM	-14.9675
kIBZcd	-14.9675
sPqIdDD	-14.9676
EPGJVf	-14.9676
tFPpiKgtw	-14.9676
vRzsVAfnxYi	-14.9677
HAGMGF	-14.9677
wEjjFlEY	-14.9677
MNtIFgE	-14.9678
IgocGFRg	-14.9679
qEHgkfw	-14.968
lopipqKg	-14.9681
aOgadgStiYcnU	-14.9682
ICgkBFv	-14.9683
HAIJQwgCRVuu	-14.9684
yMAcYoKTFdVfomqf	-14.9684
xqqfesEcU	-14.9684
vEAeQgbKlsovsbVA	-14.9684
nFJaAwO	-14.9685
riZnTfNPQS	-14.9685
wqguqBIR	-14.9685
qfQdeucdELzvdJGf	-14.97
VpqiJGjaAoAkDJ	-14.9703
LxAHkIGypbKXwJqn	-14.9707
ACLfgSLfiQV	-14.9709
THuUWVWsD	-14.9711
tAsOjH	-14.9716
pKkPULdze	-14.972
CAAQCfwhmhf	-14.9741
VMRFei	-14.9789
PxFicvor	-14.9821
inwwFbU	-14.9836
CABQCfxAPt	-14.9847
TqjuwJtYU	-14.9855
EQObVA	-14.991
QbmofCeAcE	-14.9912
QkSQqSD	-14.9969
AoFPzUh	-15.0023
BAqkAAzvABDwDDwT	-15.0039
IpIkSTq	-15.012
TYTkxPJUYFEW	-15.0133
tEPpKIfSUU	-15.0231
CAIQCfxBAhP	-15.0264
iEZEkBU	-15.0277
BlDQGTWA	-15.0346
eWfRdUa	-15.0406
pKRBpaWmVmDDIE	-15.0409
KykgpHQ	-15.0409
UQAEPXW	-15.041
VTTlGzBg	-15.0414
jhTrQXh	-15.0416
zEsSkTf	-15.0419
zijzKTf	-15.0422
SGSNLDFdRu	-15.0426
fclGfMAxnaSgiEPa	-15.0426
qQATMKw	-15.0427
zKpKIgPTCkI	-15.0427
FjQVdBV	-15.0428
DSGSNQeoe	-15.0428
wDKjUZf	-15.0428
UCulucaWCbl	-15.0428
VQdizGoF	-15.0428
CcUUOyo	-15.0429
FQdqzms	-15.0429
ezOGLdcJiLOfh	-15.0429
fUVVtAyyOY	-15.0429
mplgyrNEiDwzPjaz	-15.0429
pKwbOgR	-15.0429
KEbyPaM	-15.0429
wDAmmMFGPKguFu	-15.0429
BBoBRoAjAD	-15.043
RAvcGFfD	-15.043
KHcPhTc	-15.043
lopipKM	-15.043
vJCKfLhfwaI	-15.0431
VgqipmK	-15.0431
HALMFFW	-15.0431
MfLhUxy	-15.0431
QgZVAFQwEsgC	-15.0431
hHsMgHU	-15.0432
CGDKwEqmAgkAV	-15.0432
qquVtcBdwt	-15.0433
QoGdICgznK	-15.0433
usjWkVA	-15.0433
UIAKNHG	-15.0433
pZeKoHxeSU	-15.0433
SnXKRuCraOi	-15.0434
UXbpUXBRuCRdF	-15.0434
DAFODDFOm	-15.0434
ycBUwFYAZA	-15.0434
uJbpKwDDm	-15.0434
aKfviUSUVBemBIR	-15.0434
VprbLVaY	-15.0434
hJSYrHCCMUIlCQ	-15.0434
UHAJOFF	-15.0434
GEIXoxtADwT	-15.0434
RQAEFCM	-15.0434
TIlNwIhV	-15.0434
WQQBfETxEYAPKD	-15.0434
AJOCCVSmp	-15.0435
rtKwDBm	-15.0435
DAGMDDE	-15.0435
ILgLuBiuQu	-15.0435
EiJTdBE	-15.0435
WQzouVm	-15.0435
aOgadgStiYcnV	-15.0435
EEGWtVhvVDv	-15.0435
UIANMGG	-15.0435
EAUQBcAGo	-15.0435
tsPVJpdIgs	-15.0435
iJdeSJVeCJ	-15.0435
UIAKNGG	-15.0435
dSUexTJh	-15.0435
eENARABMEA	-15.0435
EAJPFFE	-15.0436
tFQXzKpKIfPTCko	-15.0436
CJdeTYiFXgi	-15.0436
XSXgWYQ	-15.0436
oKEOZKXzVSo	-15.0436
NHGzFTi	-15.0436
eaUCAKPCC	-15.0436
pNCDkpxRjGZDqLGg	-15.0436
DUcJTjkIcThBTp	-15.0436
dAZJflupExax	-15.0436
hhEgaMLA	-15.0436
tYCAQgBQB	-15.0436
gPRxQgEGBgYIyQMB	-15.0436
lqCuCKy	-15.0436
dMHRbaTZN	-15.0436
pTxhEaluEUAwr	-15.0436
WuxUlisyFxJsxU	-15.0436
HEYOVxA	-15.0436
YMrASqYCCQ	-15.0436
WcTmIdw	-15.0436
icpEicFEiU	-15.0436
IOCnNGNRkd	-15.0436
WLRdzrB	-15.0436
dDxxPmOMNHnR	-15.0436
sLiRYOYk	-15.0436
AhPYPlcA	-15.0436
UKqvlGumjJvNrU	-15.0436
PdoPPcXqd	-15.0436
VwjHAZo	-15.0436
ckhrVjfg	-15.0436
IOinGmQJLqUFlZ	-15.0436
EVwkYxjzfM	-15.0436
GveBZMFfSZV	-15.0436
usrAVcBWAGQJ	-15.0436
RfhAiBQ	-15.0436
eUUCAAQCfwF	-15.0436
JmEmZmZmkpjQD	-15.0436
IhdIPlM	-15.0436
JAmYZomOna	-15.0436
UGBgQWFhYhIgwE	-15.0436
mreKytxGc	-15.0436
EEiJdfCJVez	-15.0436
FAPNHHk	-15.0436
fCDffgAd	-15.0436
ADHAhNIPlc	-15.0436
aVdjYXtAF	-15.0436
pthXWIKm	-15.0436
syLgFxNg	-15.0436
XcPrVHQT	-15.0437
OxuIwbrNBb	-15.0437
UJAAkEGRkZJCQMB	-15.0437
bqQyLWM	-15.0437
mDBqyMezSlVQ	-15.0437
JGocDDjgIWrFy	-15.0437
xPnrFJVjQVax	-15.0437
xPnrFNUPOhxC	-15.0437
OUbUGAy	-15.0437
HrgYnGvuF	-15.0437
RfBAiBQ	-15.0437
giUmffNtrQX	-15.0437
esjvwpcKyPmz	-15.0437
fiQFlGaJJmqydaPJ	-15.0437
WgJampqaxsgAF	-15.0437
WUZSfbKN	-15.0437
YblAmwV	-15.0437
jUYbdky	-15.0437
pNCDgpzRjWZD	-15.0437
BmhdIPlM	-15.0437
ncYIWQhMNnY	-15.0437
EOhTJBKfUJeyEXCa	-15.0437
EiJVeiJTfCIRf	-15.0437
wrhLXiKu	-15.0437
wVFtnlfR	-15.0437
JFmNFPFUum	-15.0437
CJTdDIi	-15.0437
spRljvPBIKK	-15.0437
NzcCAEIAUA	-15.0437
UkAAkRJiYmJtbjwF	-15.0437
spRljvPhAkX	-15.0437
IOSnNGeknH	-15.0437
dUBAQgBQB	-15.0437
xsBRwFIAYA	-15.0437
ONAPQsJI	-15.0437
LcTieffC	-15.0437
MSElJiscIIxQoUFn	-15.0437
MiUXQRIlN	-15.0437
dAZRfluJFfkVMWh	-15.0437
YNGPYNGPp	-15.0437
dDVFQFBAUgBgC	-15.0437
uLiDgEQAUg	-15.0437
OwFnAWgBoC	-15.0437
UEADOFE	-15.0437
sRahErMf	-15.0437
PyIRfSAff	-15.0437
EANNDDl	-15.0437
IOinOmoMnr	-15.0437
SJphgYWzrVW	-15.0437
kAPvsYP	-15.0437
NjYmFWVa	-15.0437
AQBCAFAG	-15.0437
kCBhmimJmtXqdm	-15.0437
eYUCAEQCfwi	-15.0437
FMECkPJltaCh	-15.0438
QLQllhBjtv	-15.0438
fklASgBYB	-15.0438
AGYhPRQ	-15.0438
PjDwEQAUg	-15.0438
iuADWPQjW	-15.0438
wcBCAFAH	-15.0438
EAIODDF	-15.0438
CABQCfxBIhf	-15.0438
CmFMlGHEA	-15.0438
rtNFerko	-15.0438
ykSJwIjI	-15.0438
mgFagohbfdgMA	-15.0439
EAHPFFE	-15.0439
OgUARgBUB	-15.0439
IPtqmEI	-15.044
UGADOJI	-15.044
UHACOFE	-15.044
KTsqGVe	-15.0441
IgoGEeEYOjBbw	-15.0441
UMADOSR	-15.0441
MzFpAbfs	-15.0441
VoqGuJTJhX	-15.0441
rWQDKlRynPK	-15.0441
WksuhrbbVtho	-15.0442
TwDAmmM	-15.0444
CAKPBBd	-15.0444
UHADPKJ	-15.0445
DwDAmmM	-15.0445
mZNtecUGfIChNKva	-15.0446
EsbeQebF	-15.0446
UGAKOII	-15.0447
ZlDvEHREU	-15.0448
nXnflXDBuAy	-15.0449
HUoLKgD	-15.045
AECEONAP	-15.0451
qKhfPZRM	-15.0452
FXkXLFj	-15.0453
NASTiYzcL	-15.0455
vpCKvKsMFv	-15.0458
dHSgEPwD	-15.0461
LfDDxATwG	-15.0461
hkEIkkY	-15.0465
FUQUtBSkAzAJUBq	-15.0467
RPhAiBQ	-15.0468
UGAAMJI	-15.0469
YOKjAzuQ	-15.047
CCRfJGRkZJCQy	-15.0479
DQhHDtU	-15.0483
RvzEsSkT	-15.0492
zEhJSYrHCCMUKFBZ	-15.0503
ONAPQhQ	-15.0514
iDffgAdQ	-15.0526
MpIkKTQG	-15.0579
iIkmSpA	-15.06
gHUtGPpK	-15.061
dAZpfkOhd	-15.0621
TqjuwJtaU	-15.063
iIRGRJEnSG	-15.0637
TqjuwItkp	-15.064
iEiSJOm	-15.0642
IRBAJJl	-15.065
kUEDDQD	-15.0683
GZEkSdIa	-15.0702
QSEfwKIf	-15.0709
rDKGDLdYLOS	-15.0732
dQcxwIX	-15.0746
VOSDqSjI	-15.0761
IhIAkNIiIiItLjw	-15.0783
hJJkhTS	-15.0799
wkYxjyL	-15.0827
wEJAAgAxflvb	-15.0829
GLCOOEc	-15.083
EREREQk	-15.0862
DUcJTjkIe	-15.0869
iSUGSNA	-15.0924
CJVdiIRd	-15.0931
FFWKtVU	-15.0942
CABQCfxAxw	-15.1011
HVVQKGM	-15.1021
pYBTwCTgKPm	-15.1043
dfCJVfj	-15.1048
SUEyjAED	-15.1083
UABwQXFxciIgw	-15.111
mTHSPjOe	-15.1114
ZRTSmuDO	-15.116
IhIkiQZD	-15.1167
EABQEfwEJAAgA	-15.1173
RFJkiSNAaEI	-15.1174
NCJVdiI	-15.1189
xZviVfG	-15.1194
VEFVVVYGIMB	-15.1204
IiXXwiVX	-15.1212
aEZEkSdI	-15.1217
UBMICog	-15.1226
BUQEtAJ	-15.1227
ExgOwAx	-15.1229
UHMIKqgJ	-15.1231
AxoBVQCrDGz	-15.1236
BNJcFzWA	-15.1236
USAMMON	-15.1238
QDqejHUpEPpqIg	-15.1243
PjzDezzXxT	-15.1245
axrpuOmz	-15.1246
EgjMNtYAvgKjgKX	-15.1251
DhhCDhBCDg	-15.1251
OAdSHXCASrZK	-15.1252
bEuKeIg	-15.1252
ftNesLfIO	-15.1252
IbgMpDVcxlY	-15.1253
GCUSICY	-15.1253
MnARyLN	-15.1254
JPzUhUjSHqHuZvR	-15.1254
HtgSEVQbgPBoh	-15.1255
QHWVgGHM	-15.1255
NZRblQWuV	-15.1255
TasqVXRbBti	-15.1255
TeIRpPb	-15.1256
UFAoodlSM	-15.1256
WknvUUltqSw	-15.1257
koqGLBX	-15.1257
nScIrPvQPKBNrLHl	-15.1257
VToMXsT	-15.1257
IupDxSi	-15.1258
JGIMIPL	-15.1258
fzEsSvG	-15.1258
UHAAOIH	-15.1258
aEMGVgJVMBDIIkQE	-15.1259
LfASLgt	-15.1259
BLOvtoDp	-15.1259
CWAKQAk	-15.1259
KXzVvBO	-15.1259
eFVORdZb	-15.1259
juOVYgM	-15.1259
RnAbLkDn	-15.1259
zunbQwfWF	-15.1259
IPzEhUjSHqHuZvR	-15.126
QjNalCXvemy	-15.126
deKoLyeSUV	-15.126
zqkXSqgjWKfqBVP	-15.126
CwpqFCEaevAaA	-15.126
IAOOGGC	-15.126
xIcbPAY	-15.126
IWAYqPA	-15.126
MAEMKJr	-15.126
FFSGUNjW	-15.126
KAPNPPV	-15.1261
DwGGQAG	-15.1261
ZYXUuPF	-15.1261
YOLDpToG	-15.1261
TdNtvFTU	-15.1262
GFdyehUHas	-15.1262
UJxmYKtV	-15.1262
ehdJxHofh	-15.1262
URAJOZY	-15.1263
onScyrIPuf	-15.1263
OcUFyxY	-15.1263
NtQcCqP	-15.1263
WAkfdwy	-15.1263
HhhSEZTbQLDoh	-15.1263
gtbEwxPziWYYGG	-15.1263
DBuEaoNhzMZgP	-15.1264
EhPiVTkXbBg	-15.1264
ELhgXAj	-15.1264
zIMjaoWnFgDL	-15.1264
PPzEsSsT	-15.1264
fHxHQEgA	-15.1264
onSfypcsze	-15.1265
UIAEOLK	-15.1265
XCXhOQY	-15.1265
jNvzEsSkT	-15.1265
tUrlNXKErdIVBI	-15.1265
KtUugbRfNFqqFsEN	-15.1265
pqjZKOyOY	-15.1265
onSfwpUszeJ	-15.1265
mVmtBrp	-15.1266
nasVarGDbVP	-15.1266
CzuKYIPYNGPYJEPp	-15.1266
GALPFFHjLb	-15.1266
ARYNGPpSIfTEVB	-15.1266
zYQLPrh	-15.1266
jQazQzeWk	-15.1266
wpKIhbgPBoh	-15.1266
EAFMDDM	-15.1266
JmHjvnf	-15.1267
efUFAAOFE	-15.1267
IKhqyVOSDqa	-15.1267
mGGBhtE	-15.1267
vfmhRkE	-15.1267
GABOKJl	-15.1267
KKfCwVBb	-15.1267
OKoLqeSEV	-15.1267
pZatspQRbJ	-15.1267
yWqoXSM	-15.1267
PgFqAXABqC	-15.1267
AdgBEAI	-15.1267
TbWjkUf	-15.1267
kKyjakSUicj	-15.1267
gNlyAzts	-15.1267
CbXEBxMf	-15.1267
EAPOFFklM	-15.1267
TEBXQFgAZg	-15.1267
OkvmFdBpD	-15.1268
usrAVcBWAGQK	-15.1268
ULNHiQYgkS	-15.1268
rbSVttKW	-15.1268
PdkPwzZ	-15.1268
kURYHZIjQscQ	-15.1268
kCBhmimJmtHZvT	-15.1268
ODffQAd	-15.1268
IAAPHGe	-15.1268
UKAFMJI	-15.1268
YYWQhMNnYkChhmg	-15.1268
bZeTkwuC	-15.1268
iNtERaI	-15.1268
VQVZWVlcHIAB	-15.1268
NjMiEXQ	-15.1268
RNnxEwo	-15.1268
lJvhcvHDe	-15.1268
UYfgqjJzYfQ	-15.1268
eZUCAGQCfwi	-15.1268
OVkPQTXdz	-15.1269
UMALNJIz	-15.1269
UCAJQCfwhmOf	-15.1269
EAGMDDH	-15.1269
LKiTyfRs	-15.1269
xQuCfCokHaK	-15.1269
KWgLbbFttjWaJnaG	-15.1269
gPQvdIiRQ	-15.1269
vqhzGfS	-15.1269
yelUHYsx	-15.1269
faENoGcjqtQ	-15.1269
dAZJfkOQVsZ	-15.1269
dmhdIPR	-15.1269
UJAIOGG	-15.1269
BzHAhckPl	-15.1269
JAmYZosibTbkLN	-15.1269
OFXdiFg	-15.1269
UGABOIH	-15.1269
eQUDAKQCfyA	-15.1269
qURXCRjGPIv	-15.1269
UFAONGG	-15.1269
gtbEwxPziWYYGO	-15.1269
vmqxMFdS	-15.1269
AONAPQsIU	-15.1269
BozJMlD	-15.1269
UIALMLL	-15.1269
dAZhflupCww	-15.1269
esUlbNuyIU	-15.1269
spRlrtmYtaR	-15.1269
spRlrtmQuvI	-15.1269
HAJOFFG	-15.1269
kpfNVKg	-15.1269
wcBCAFAG	-15.1269
aVCzDNFcSDBnkw	-15.1269
UliloBRb	-15.1269
dAZJfkOQVMZklWM	-15.1269
unuyjPLYC	-15.1269
EAINDDFYtU	-15.127
FAKOGGU	-15.127
YHZLeFD	-15.127
ZWdluBWWlePa	-15.127
esUlWNBVrEQ	-15.127
xPnrFNUPLBxC	-15.127
lhlJHwKX	-15.127
GZeDYYC	-15.127
YiEXsxkX	-15.127
DDVamGwSlUhkkEo	-15.127
hMOWSPLQ	-15.127
ImOJwbQkB	-15.127
WRDJkybrYUKA	-15.127
OCIReTGRf	-15.127
QpACkQaWlplZgwyB	-15.127
WRaZPtno	-15.127
YDDSylGWuzbRyRD	-15.127
xRAQBCAgICssDDgF	-15.127
GveBZMLfRPjS	-15.127
OyIRfCDff	-15.127
OfcPnMBm	-15.127
edUCAHQCfy	-15.127
fdhIiXXQiVXM	-15.127
agyeuQFya	-15.127
dAZJfkOoSFca	-15.127
jWCKHlV	-15.127
YTTPblrOoFjn	-15.127
CDHAhfZI	-15.127
KckYxGR	-15.127
wgNRwlOOQhwMhR	-15.127
zpgiLbCsvimP	-15.127
EPiJVfSIRf	-15.127
ZiLryEsEH	-15.127
aVdiwrdjs	-15.127
sbaXBeXNDolQ	-15.127
spRljvPpAkX	-15.127
teHoMBg	-15.127
wEZwGYl	-15.127
IOSnFGMZkO	-15.127
wsMdiKh	-15.127
WsEfQoLJDQvw	-15.127
xcBGAFQH	-15.127
APvvYxwDn	-15.127
DAOQCfyBAhP	-15.127
DtAdDDH	-15.127
LuMSiCAU	-15.127
UDAGOCCEzX	-15.127
dABwAHQ	-15.127
jjDoBEwi	-15.127
kBZRmiSZqsnWjyY	-15.127
IlJjihdg	-15.127
CJVWaDffwAd	-15.127
OfoPQteI	-15.127
PmOMNFpRY	-15.127
fugpEMoD	-15.127
pNCDgpzJCnfKVuhF	-15.127
ujDYIbA	-15.127
YRmpjsSbbruLucoB	-15.127
dCQEQAUg	-15.127
lRgURakOEMe	-15.127
InQweACA	-15.127
PSJTfCIR	-15.127
YDDSylGWuzbByRB	-15.127
focxbwc	-15.127
JwEoAWA	-15.127
iJdeSJVeCJTdyLRe	-15.127
kBZRnQTliFRYLYM	-15.127
rDKGDLdYLObqL	-15.127
sKJerzAv	-15.127
BRFRRCFhYWxuDDo	-15.127
IOSnJGeknH	-15.127
ZIhdIPR	-15.127
iIReTGRf	-15.127
miSJmtHPvSY	-15.127
obaXBeXNjYiQ	-15.127
KJxEXALcBH	-15.127
cDAQgBQB	-15.127
PmOMGjOzXl	-15.127
UZLvCEUTSs	-15.127
YkPFuJTYg	-15.127
DRrNTXgUT	-15.127
EkAAkRJiYmJtbjwF	-15.127
AOpyEdSUR	-15.127
EAGPEEEGm	-15.127
UYfgqjJ	-15.127
VprbLVao	-15.127
XoKgHDmGf	-15.127
hwUyyEqnyYruj	-15.127
NCJTdiIRd	-15.127
NiJVdSIRdy	-15.127
ZjLTJPpDBwufE	-15.127
zeNSDbY	-15.127
CJVfiJTeyIRfyDff	-15.127
uNmGGwt	-15.127
XAONAPQsJm	-15.127
uYSARgBUB	-15.127
AMTiavf	-15.127
EPCJVWaDffzw	-15.127
UGANPEES	-15.1271
hHsChGK	-15.1271
BrcLCwsNzgGB	-15.1271
EANNEEk	-15.1271
FXoSEXU	-15.1271
kBRhjfHlildwiXjt	-15.1271
JVfSDff	-15.1271
aJykSJRdjwiEXo	-15.1271
huQRHbBDXnIhYKo	-15.1271
jciXXYid	-15.1271
TiMwPqST	-15.1271
eaUCAGQCfxBmh	-15.1271
MfASABWC	-15.1271
eHhDQEQAUg	-15.1271
kbaXBeVNDoiQ	-15.1271
eYUCADQCfwhmh	-15.1271
SHXoiEXk	-15.1271
QvxNvftA	-15.1271
SAHgiflmiU	-15.1271
nqTvHTRMU	-15.1271
JTfBEiUXs	-15.1271
eZUCAFQCfwhIh	-15.1271
enpFQEYAVA	-15.1271
edUCAKQCfx	-15.1271
EiJdfCJVfiDffz	-15.1271
ESJTdSIRd	-15.1271
CAAPCBtam	-15.1271
JTexEiUXo	-15.1271
RejrBbg	-15.1271
tsHXhwIET	-15.1271
ycBKAFgH	-15.1271
CAFOCCFEm	-15.1271
eUUCADQCfwExw	-15.1271
kIgPdrq	-15.1271
uOToMBg	-15.1271
IwXwuFv	-15.1271
UGANNEEd	-15.1271
GGGDztiK	-15.1271
MAALHzAwBOAFwJ	-15.1271
UDAONCCkxX	-15.1271
xSVsyrlQ	-15.1271
ZlGvEPREU	-15.1271
eYUGAPP	-15.1271
xkgPQvBm	-15.1271
PCClSmp	-15.1271
kCBhmimJmtnpd	-15.1271
UDACPED	-15.1271
gXSDYDo	-15.1271
RMKJXbU	-15.1271
NBGfgJb	-15.1271
QOtXHQuDw	-15.1272
diQLmGuGPI	-15.1272
jEzIhFy	-15.1272
UFAEPHG	-15.1272
OEEFTtU	-15.1272
UFAGQFf	-15.1272
agyeuQHyZn	-15.1272
ShsKfTS	-15.1272
HAMNGGG	-15.1272
NHHVQtU	-15.1272
UEALNFFU	-15.1273
wJCKoNwGgkV	-15.1273
ASTiYzcLp	-15.1273
FISEEMTExPDwMCA	-15.1273
UFAHPED	-15.1273
dUuiusV	-15.1273
DYIzedX	-15.1273
naluxFqvFarGC	-15.1273
FAKMFFGPtV	-15.1273
MANPJIz	-15.1273
iiLqRyWRlf	-15.1273
eRUGAPP	-15.1274
vpfoKgHDm	-15.1274
UKAGOPO	-15.1274
eYUEAHNDD	-15.1274
cBlwvbgN	-15.1274
hwLKjnFB	-15.1274
HTGRywWj	-15.1274
GAPNIIl	-15.1275
ULAJMII	-15.1275
UGANMEE	-15.1275
ZMcbcbh	-15.1275
GAJNIIV	-15.1275
CrhZXAV	-15.1275
JVLRDxcsWPSj	-15.1275
BDEbPCn	-15.1276
GuuSrHisNQ	-15.1276
PwDKjUZC	-15.1276
ZlFvENRE	-15.1276
nrTZLGy	-15.1276
sOgHUtGPpSIfTEVB	-15.1276
wEjjFlk	-15.1277
GxkJLrNAQAJKYVZ	-15.1277
eQUJAKN	-15.1277
yqSjugSEV	-15.1277
CJVfiJTez	-15.1277
bTUBtEdEILZVjHf	-15.1278
TIeixzftyOTK	-15.1278
LTsqGVe	-15.1278
kijvAch	-15.1278
CKfiwVCWEq	-15.1278
khTFDroo	-15.1278
eTULAAO	-15.1278
SNLDEsUu	-15.1278
QDqehHUpGPp	-15.1278
RKPlJZC	-15.1279
hvhquBKXRX	-15.1279
eUVTultRHUU	-15.1279
cAroBNw	-15.1279
ODClYtU	-15.1279
dAZRfkOobE	-15.128
dAZJfkOodG	-15.128
UIAEPHG	-15.128
bETiODu	-15.1281
uEjCMeRZB	-15.1281
vHjxVQU	-15.1281
CkUUOyo	-15.1281
QyWRlfh	-15.1282
LPHBxAe	-15.1283
wHtAfMZ	-15.1283
DlPiQfSzx	-15.1284
SLucVryDr	-15.1286
QCfyBIhfZ	-15.1286
UFANOGG	-15.1287
FAGOHHFJMbV	-15.1288
wEjnFlkX	-15.1288
rfpfgXdKCEfwKIfS	-15.1288
ZEkSQqNA	-15.1288
MJuHeVgGHM	-15.1289
ogSEVDXEbCBY	-15.1289
JeKfDAVBb	-15.1289
KQQGLfi	-15.1292
xUhUjSHqHuZv	-15.1292
CBsqWyjuxN	-15.1293
BPQECgHzAFYBigBH	-15.1293
GgCEicDgr	-15.1294
UGAAPGF	-15.1294
aOgadgStiUcnV	-15.1295
UIAHNHG	-15.1296
KigjrQH	-15.1299
gEuAHYAagB	-15.13
GiIjpFExRV	-15.1302
gmIuBqy	-15.1303
YuHokyd	-15.1305
xyCspIKR	-15.1306
IkIjGOEYMPBbw	-15.1308
cbrMKiJ	-15.1314
CACQCfxAPv	-15.1323
AwNCEcO	-15.1323
dwvQees	-15.1324
IhERkSRJ	-15.1326
dwvQeUs	-15.1336
CXiEsES	-15.1337
SYrHCCMUIlJjiZdg	-15.1338
oAAMTief	-15.1342
BRhjfHlqWEBdPjVH	-15.1343
QDfwEJAAgAxflvbj	-15.1395
IiMhJIICK	-15.1397
IRAoqiQA	-15.1439
FMEHsOhHsO	-15.1458
xfluwMTieT	-15.1499
DwypKIjbQL	-15.1567
PgybTJycnKe	-15.1574
IyISiEgk	-15.1622
ApFAJChI	-15.1635
eSUHANO	-15.1644
vqPJBQQ	-15.1646
dAZhfkOhd	-15.1686
ZGilNIBA	-15.1713
CEQIIgj	-15.1728
CFCQOZxAzD	-15.1731
TIeixzftyOW	-15.1739
iIRdzGRe	-15.1752
AQwBCwF	-15.1778
mRJEkyHH	-15.1792
lFPKMAYD	-15.18
IiEiSpJAO	-15.1822
ERGRQEQkK	-15.1855
oRERSZIkrQH	-15.1856
UCABQCfwFmhf	-15.1869
DfSSRlfiQf	-15.187
IngvptS	-15.1871
yEQKIgT	-15.1872
QiIilIQU	-15.1875
SEASBKJ	-15.188
BmKGMoaGholJjQ	-15.1884
SaERERSZIkH	-15.1884
SlKSdIB	-15.1886
IyUkoHA	-15.1889
chECCKJA	-15.1893
EQKKojg	-15.1901
DJuATMA	-15.1913
SUFKkjQGg	-15.1922
REJRAKR	-15.1926
QCRIUpA	-15.1928
KKCllGAMa	-15.1943
ABpWPBRJYF	-15.1945
RkSQpSBoD	-15.1945
lLKMAYD	-15.1947
yBBkRER	-15.1948
lJKcMYF	-15.1957
UpCCgqQ	-15.1974
pKCkpSYYx	-15.1981
ZEkSYYx	-15.1983
YUjMjIkmS	-15.1985
IiIgkSZIO	-15.1987
jIwkSZJhD	-15.199
SpDFyEQ	-15.2004
gEzAKOAV	-15.2004
uYxcqeubZVwOncsD	-15.2004
QQEFBQUHyAMLA	-15.2006
qYkjhSy	-15.2006
iIiJSCA	-15.2007
kgPTPeJF	-15.2009
pbQGAziu	-15.2013
GsqtygJXK	-15.2014
CkmQYAw	-15.2015
iJVdiJT	-15.2019
UQhiFHMO	-15.202
bKjGeNV	-15.2025
IiIiQQqS	-15.2026
kRkZEkS	-15.2034
ERFJkqTQA	-15.2037
fISnzIP	-15.2038
UlBQklQxj	-15.2038
CVJSkIKSU	-15.204
ABpFPBBKg	-15.2044
IUkmZttfclGfMAx	-15.2047
JXoVsIjJARISV	-15.2051
KCllGAMD	-15.2051
EwyhSiG	-15.2052
NtrPtTzQ	-15.2052
GhERkSRJ	-15.2052
kYhICpIk	-15.2055
eMFDNSPvUP	-15.2058
ChRokSJ	-15.206
RFJkhQKwwF	-15.2062
BJIcJzWA	-15.207
UAKMONz	-15.2071
BwUENGJEN	-15.2073
qjRLKoU	-15.2075
kklMkjR	-15.2081
EkSZsBkn	-15.2086
GyoFYwK	-15.2088
LkEAWGa	-15.2088
JTehEify	-15.2094
lSkKQDkY	-15.2095
FfykhJSYrHCCMUIl	-15.2097
EZFAQpG	-15.2099
IpIkSRoD	-15.2099
gwIknwJ	-15.2099
gcFCXke	-15.21
qxHDeVIl	-15.21
QIIojiS	-15.2102
SJIkaQx	-15.2105
BSkoZBgD	-15.2105
pamEMAy	-15.2105
RkRQkSTq	-15.2106
slLUUjpD	-15.2109
UJSQkhC	-15.211
BBHYOjVA	-15.2112
BFGYKbWAd	-15.2113
SFfgCLf	-15.2113
FPQcCgFugEo	-15.2114
ALNAPGAW	-15.2115
pHxBBIc	-15.2115
WkBJQCq	-15.2117
hMjMiIiI	-15.2117
bisrXxCcMC	-15.2121
YTXeDyLh	-15.2124
ANpiMBd	-15.2125
dLUDnrYx	-15.2126
CcohbGA	-15.2129
UXAMMRQ	-15.2131
hNMcUMzM	-15.2133
efUcALJm	-15.2138
iCRJQdIB	-15.2141
NiJTeCIR	-15.2143
gkbXtuSjcV	-15.2145
jhzrAch	-15.2146
LxtumNl	-15.2146
NPOsAroB	-15.2146
iEiSJBnW	-15.2147
MUEEkjg	-15.2149
OTQOfUP	-15.215
JAAgAQYn	-15.2151
ZkbazGfd	-15.2151
AZxiIAg	-15.2152
yKaeoWQODh	-15.2152
oEPEulL	-15.2152
YjAMAedc	-15.2153
DiiDBQK	-15.2154
EicDEwXl	-15.2155
TCrQtmG	-15.2156
UNAAPUT	-15.2156
ghAEQkqEm	-15.2157
BWKLXaUF	-15.2157
vUnGboTA	-15.2158
DWkNPQz	-15.2158
IpnTmwch	-15.2158
kqmbvrOcl	-15.2158
nBKxLOHyA	-15.2158
VtzstdN	-15.2158
BiRzmhuGJH	-15.2158
CcUWHaUH	-15.2159
eeURAIONM	-15.2159
GRFJkqTQAYG	-15.2159
JcFzWAR	-15.2159
hAKKPcNPIivx	-15.2159
vODFwmgftaby	-15.2159
tKwDDmOQUZ	-15.2159
OsDgoDVk	-15.216
gfWBRRH	-15.216
uArCqih	-15.216
zwAitTU	-15.216
EQvegIG	-15.216
TdNtPHJVz	-15.216
yMPxRSfz	-15.216
SnpGekpw	-15.216
mZNtecUGfIChzva	-15.2161
FMLBPPx	-15.2161
AemQcDR	-15.2161
OYOhlPi	-15.2161
WsEfQoLJjYIvA	-15.2161
UsOjHUpEPpqI	-15.2161
AngShJXt	-15.2162
UWADOec	-15.2162
vpKIhPSVS	-15.2162
oXeoEvAsQ	-15.2162
KAPPIIK	-15.2162
byMBteZ	-15.2162
zohsOanQ	-15.2162
ERZdnToe	-15.2162
MTjeUzD	-15.2162
MxgqiazER	-15.2162
UiAGMTS	-15.2162
SkHNIGTQ	-15.2162
zpxseanh	-15.2162
SFfACLfiwVxUxFQ	-15.2163
bzEBxMf	-15.2163
QiERGRJEkyH	-15.2163
SJwUSJTdj	-15.2163
KKCcwXY	-15.2163
UOABMKJ	-15.2163
WimKmoiA	-15.2163
lUhFUDwypCMptIF	-15.2163
BDCwDxi	-15.2163
IRAAcqo	-15.2163
VgGPOspyp	-15.2163
aPtNlekyX	-15.2163
FiwILPoRL	-15.2163
YMvzEsSnGa	-15.2163
onScJrDvRPIC	-15.2163
QLHepLx	-15.2164
NthHNjt	-15.2164
KvqxVOTDq	-15.2164
UTAFPbab	-15.2164
pAeGVOTdBoJFQ	-15.2164
TjvGKDz	-15.2164
VXCRjGPPd	-15.2164
QBtAaMi	-15.2164
looAYCp	-15.2164
JSmnoKSk	-15.2164
nSFUnjPY	-15.2164
KVuEvukrvUUlvotd	-15.2165
aUEwoqdl	-15.2165
KSnzIPp	-15.2165
MQIPeTOMM	-15.2165
QLPqBVPRjq	-15.2165
QOfwIJAA	-15.2165
ehdJxPof	-15.2165
mRIkNQY	-15.2165
RYvRhOG	-15.2165
QqHEjnJCAW	-15.2165
RQNlRTyi	-15.2165
XKDiGDu	-15.2165
kGVXCRjGPO	-15.2165
Ogofcwyg	-15.2165
SURypIz	-15.2165
nScGrHvQPIAiDlam	-15.2165
iJTZhMiUWQTIlNi	-15.2165
ZFOBFVA	-15.2165
KJizOoGGDuBHb	-15.2165
kvHjeuhcP	-15.2165
egEeSgbCnrovc	-15.2166
GKLHTuhgG	-15.2166
vPnGjBsRFzre	-15.2166
OANOUTy	-15.2166
VwYgUQQ	-15.2166
XLGjriig	-15.2166
jAZDZlmovtMwbXsR	-15.2166
AGWgDJSBHIBBI	-15.2166
OSPfqPB	-15.2166
nlzmwMje	-15.2166
ywYNEPHV	-15.2166
EuJdvKAAO	-15.2166
YOLDnToG	-15.2166
vURXCRjGPIv	-15.2166
pUcDwxX	-15.2166
IzIyNJU	-15.2167
RSNiIwkS	-15.2167
sfxuXJVsWvvf	-15.2167
OEYBZcd	-15.2167
YuHokycXHLvUG	-15.2167
HLoKkgJEEqgFgAq	-15.2167
HKLDsqC	-15.2167
LKjpFBcs	-15.2167
ShsKfTSQLtBX	-15.2167
UVOwoGN	-15.2168
WcVTqqL	-15.2168
qokRfxSZ	-15.2168
QXLFjGb	-15.2168
OKGIsqO	-15.2168
DQSLjLQ	-15.2168
aoEPEPBwE	-15.2168
iifpQTCi	-15.2168
kFFDsqiaz	-15.2168
ooNjxLc	-15.2168
DAOPCCk	-15.2168
UUOwoJBR	-15.2168
dqeFzls	-15.2168
KoRERlJ	-15.2168
PoJiyLq	-15.2168
UIAHNNN	-15.2168
gooNBgq	-15.2168
HAIPKKFp	-15.2169
ePcEzYJGPY	-15.2169
eaUJANPH	-15.2169
eHLSnzIP	-15.2169
wEjnHFwm	-15.2169
DqCLdaGDKwEqmAgk	-15.2169
JfzEhUjSHqHuZv	-15.2169
SkxljZU	-15.2169
NHbbDBBh	-15.2169
LADPJIj	-15.2169
QinwkFQWx	-15.2169
bVmMQfZS	-15.2169
kfBffcY	-15.2169
AvihaJUCSmCEkR	-15.2169
KUIRWIS	-15.2169
PJLHztD	-15.2169
xeyaRrS	-15.2169
GBHSjpG	-15.2169
eQUJADOHG	-15.2169
sOjHUpEPpqKg	-15.217
BVQVKOdTbY	-15.217
THIvzkhUjSHqHuZv	-15.217
ajnDmOc	-15.217
YCHRIdR	-15.217
cYKfxkhkjSwxXUb	-15.217
OKzGhccVAwo	-15.217
yTdkJDL	-15.217
PTEAqki	-15.217
nFBQsaP	-15.217
LAFMJIj	-15.217
XwLaSQFt	-15.217
JfxEhkjSHqHuZvR	-15.217
PQjWPRjqShmK	-15.217
QoGdICgzvKyKlA	-15.217
mJPLVXbFLQT	-15.217
TFSeRlfjI	-15.2171
DffQSXSVgGP	-15.2171
bDBPqYoo	-15.2171
pAeGVOTdBoJFU	-15.2171
IQOAhIgyH	-15.2171
pBMaHdbJ	-15.2171
ARwmAfZ	-15.2171
SWQlPrJ	-15.2171
TDDfWDgNOoQ	-15.2171
UVAJJecz	-15.2171
dSURCfMq	-15.2171
eSEVQblfwaI	-15.2171
olNRYFE	-15.2171
lUtEPFyxY	-15.2171
PAFNXWW	-15.2171
TEtYONhYA	-15.2171
pVAosaN	-15.2171
racdncLdd	-15.2171
UJALNGG	-15.2171
sQwUIqi	-15.2171
BLRTWgJW	-15.2171
TFkbwDrD	-15.2171
bnEMraB	-15.2171
onScgrPvWPI	-15.2171
qsXZyCQQ	-15.2171
soTcEGOs	-15.2172
ynrAHsARgCUAJ	-15.2172
hAFwhYWFhjZDIE	-15.2172
wKNPBKcUP	-15.2172
HAHNKKFZ	-15.2172
alEVwkYxjzH	-15.2172
nRvxQbnfx	-15.2172
onSdKXNdvPJK	-15.2172
SyhjEbSX	-15.2172
IAINGGG	-15.2172
YJGPYFGQ	-15.2172
IHuHKgHP	-15.2172
TJwIcyz	-15.2172
sVtyyyq	-15.2172
SHuEHdI	-15.2172
UCipsSi	-15.2172
XqHKgGL	-15.2172
YqAvLjxVQ	-15.2172
ybwTbOyEfwKIf	-15.2172
BVQWKOd	-15.2172
GAHNHHF	-15.2172
UKADPON	-15.2172
WPQjWPQDqchHUlGQ	-15.2172
XBBBvUc	-15.2172
jwcoYxz	-15.2172
EmFndvAgawygInDD	-15.2172
SzocUuMCDoj	-15.2172
nhKpaIgLFi	-15.2172
BAAkphVk	-15.2172
TeUBRXn	-15.2172
oTdNovFT	-15.2172
qTdNpPFTUm	-15.2172
BCEFMKQ	-15.2173
EbujBljXwU	-15.2173
MfcOVQKe	-15.2173
hDBlYCVTAQyAIs	-15.2173
rKWgLbbFt	-15.2173
ZlEvEJR	-15.2173
zuFDzUCs	-15.2173
DfwCXAH	-15.2173
DhiDAwJV	-15.2173
IAENLLGJ	-15.2173
lGwoVRym	-15.2173
vNCKvLhfgWL	-15.2173
UJANOMM	-15.2173
TofnAIa	-15.2173
AIfcgqZOdbjJx	-15.2173
IPzEsSvG	-15.2173
edUHAOOKK	-15.2173
gKAJgydYKLbtetKj	-15.2173
olHwpFF	-15.2173
bbAlYoEFFoIUFP	-15.2173
GOpSAhTUZ	-15.2173
HQFfZHGcHpWh	-15.2173
ddfMDhnNy	-15.2173
ecUHAENGF	-15.2173
gPpQWBRY	-15.2173
cmPtxjN	-15.2174
OnbEAOPBhTFD	-15.2174
OuftqWxP	-15.2174
UEAJOEEFYtU	-15.2174
jpAMeDOlj	-15.2174
soTcEGas	-15.2174
zEsSuTe	-15.2174
lFfmeEq	-15.2174
AHapfHI	-15.2174
UFAFQDfw	-15.2174
UIAENHG	-15.2174
sqCcUWH	-15.2174
XtrFyjM	-15.2174
nOGQylx	-15.2174
tPNMhDNYeERZ	-15.2174
uLHVpEmh	-15.2174
OkAPKcHk	-15.2174
QDfwJIs	-15.2174
UJAPNNN	-15.2174
pTEbSGESBoGjqE	-15.2174
pcrfqnx	-15.2174
DPhgysBKpgIJA	-15.2174
qHpafri	-15.2174
zrpsOan	-15.2174
iNggTsoRvI	-15.2174
QxAFYJG	-15.2174
FACPEDn	-15.2174
MOnTCoi	-15.2174
VQKGMet	-15.2174
tSrlFXBMt	-15.2174
aAoqnzUDf	-15.2175
iENyXXio	-15.2175
eWUFAJMEE	-15.2175
JAPMHHe	-15.2175
XqyRLPAo	-15.2175
gXPoYDK	-15.2175
vQSFggCLfgSLfiwV	-15.2175
xULNDDQ	-15.2175
ReiLVeiLRe	-15.2175
RhMBDpMMo	-15.2175
diQgZVAFQwEs	-15.2175
RQDSvYP	-15.2175
DhBBDgi	-15.2175
SuOkvbtDZY	-15.2175
eYUJAJNHG	-15.2175
ebUFACMFE	-15.2175
QiKPcrW	-15.2175
UIAHMLL	-15.2175
UJURcSp	-15.2176
vpCKfrjKYF	-15.2176
FyclfWvxz	-15.2176
InGGBhbutyI	-15.2176
OlBRpYC	-15.2176
dRMatBPM	-15.2176
hwLJjJhRQ	-15.2176
rQVtVZReW	-15.2176
RfeAffc	-15.2176
DwBaAGgL	-15.2176
SioCoPeFVPTDVQaL	-15.2176
bZxWTPulF	-15.2176
jGPkTjK	-15.2176
CJTdBMZo	-15.2176
ImByxoZ	-15.2176
JJQdSgFoLQgrIEK	-15.2176
KZOKoHpgSEVE	-15.2176
MpZUzith	-15.2176
UFADPFEm	-15.2176
eSUEACMDC	-15.2176
qRVDRkqQi	-15.2176
qURXCRjGr	-15.2176
dEKvrhggWL	-15.2176
LNnTxCEoh	-15.2176
riqgcUG	-15.2176
FAFMEEH	-15.2176
GICcjNl	-15.2176
IwXwuPewA	-15.2176
PuKiBsfIQ	-15.2176
eYUHAPNGGd	-15.2176
kDpYoIyiAE	-15.2176
eSUFAAOED	-15.2176
AcgBAAI	-15.2176
BRAjsGW	-15.2176
ZGGxSEK	-15.2176
eaUFAGOED	-15.2176
uUaGCGGwj	-15.2176
vpKIfrjJY	-15.2176
fqyuBCXagLDQrFw	-15.2176
AJAAgAQVdBVkFV	-15.2176
AOEDletU	-15.2176
CfhsFfg	-15.2176
CvZxHUL	-15.2176
GYZlejDYSRQ	-15.2176
IANMLLsyp	-15.2176
UOANOUU	-15.2176
VvzxGPAY	-15.2176
bsjLTPz	-15.2176
eRUEALMEEp	-15.2176
miPenEr	-15.2176
qEOrqEvA	-15.2176
HynIacj	-15.2176
eXUDAKPCCU	-15.2176
KSvwxnXwMLv	-15.2176
TtUCViE	-15.2176
FAKOEEGKtV	-15.2177
IgKLfgSL	-15.2177
eQUDABQDfyB	-15.2177
EAINDDFetU	-15.2177
REDRtAiFzUewPK	-15.2177
aGFoOxjrtR	-15.2177
iIVeyIReiAfez	-15.2177
lUtEQFyxY	-15.2177
jIwESJRdTI	-15.2177
AAtjdHQFJAVABiC	-15.2177
eTUDAFQDfyBI	-15.2177
HXoDtILWgZBEAvS	-15.2177
IRcJrQIKB	-15.2177
UJADMON	-15.2177
eSUMAFPSR	-15.2177
kIqIJBX	-15.2177
pjQAjoIdsILANPE	-15.2177
DAMNDDlam	-15.2177
sybbruLucoROqvX	-15.2177
UDAPPDDp	-15.2177
UHABOHGd	-15.2177
UxxiNnB	-15.2177
tALRxqtdK	-15.2177
GaJddzY	-15.2177
EiDffgDf	-15.2177
ABMFEmPtV	-15.2177
JNpQFaSSB	-15.2177
LCiXCyvzQ	-15.2177
DAKPDDVOm	-15.2177
UHXMtcBVwb	-15.2177
UXbrfDcAd	-15.2177
tBfbJGTMvb	-15.2177
MzOKBgf	-15.2177
VWuTfauzZPe	-15.2177
koiqkoq	-15.2177
JAJPIHq	-15.2177
MAJPSRu	-15.2177
OwDzxBq	-15.2177
QKuSweL	-15.2177
eXUCADQCfwhm	-15.2177
oCLPIRLA	-15.2177
kBZRnQTliFRQI	-15.2177
WPQDqchHUl	-15.2177
UlUqpqa	-15.2177
ryEIsqOSk	-15.2177
WHxcLUoAwkMpT	-15.2177
eSUDABQDfyA	-15.2177
NiJddQB	-15.2177
kgPvvZIOf	-15.2177
ECIdeiIVeSIReDc	-15.2177
FAHNEEG	-15.2177
NCJTdDo	-15.2177
iQfJAFkAZAByD	-15.2177
ohfivQy	-15.2177
UXABcEJycnMjIMPg	-15.2178
WoVSfbA	-15.2178
nEjzxxRJ	-15.2178
wuKyzTtQ	-15.2178
kbaXBdXJ	-15.2178
IIIQQGshiY	-15.2178
NIIWNMW	-15.2178
QvxPNyEdo	-15.2178
sifHoZuDs	-15.2178
TPblrOnljnUQhoPh	-15.2178
KckeJFQ	-15.2178
NAAOKJD	-15.2178
PCIRejGRf	-15.2178
SVkWwjpA	-15.2178
USAGMba	-15.2178
snqbZIayJIp	-15.2178
agyesAXpjc	-15.2178
dDxxPmOMNHlRI	-15.2178
eGzYsAmC	-15.2178
gOvSwSI	-15.2178
sifHoZuAA	-15.2178
toDojXedb	-15.2178
upPJWAR	-15.2178
CgMOokfEzBaD	-15.2178
UDAHPCCF	-15.2178
OdeVWcXcEh	-15.2178
faEbPnn	-15.2178
AKvqRVORjqSio	-15.2178
GANOEEXjLbM	-15.2178
UGAHOJJFZ	-15.2178
UIAIMMMGJ	-15.2178
ZKvLBVBTU	-15.2178
aJVdRmiUXQ	-15.2178
qYbouiUj	-15.2178
xBAyuBKhgIZBE	-15.2178
AENEEEhMV	-15.2178
TIeixzftyOTJjFK	-15.2178
cTiSffJ	-15.2178
CIPyAbi	-15.2178
IaoMPhmU	-15.2178
LPOlPhwu	-15.2178
MMGJSUm	-15.2178
YRmpjsCbbruLsJn	-15.2178
dAZRfkOoTEypw	-15.2178
eUUFAAQDf	-15.2178
kCBhmimJmsnwvwM	-15.2178
zDKerUgQs	-15.2178
HwIjPwK	-15.2178
IQcnJynjDQ	-15.2178
WWYRfYJd	-15.2178
YYWQhMNnYkCRhnEW	-15.2178
pTxhGamMwJtzPcxR	-15.2178
CADQCfxBIu	-15.2178
DqHPhxI	-15.2178
esUlbPChl	-15.2178
pNCDkpzRuKVjkSV	-15.2178
APtsdmOfAPTM	-15.2178
APvvYPRN	-15.2178
KEhGMSDJPSC	-15.2178
KvqxVCSEqSjI	-15.2178
QnWVgGHMc	-15.2178
RJpScxBw	-15.2178
UDAKNDDU	-15.2178
eVUDAIPDDFSmZ	-15.2178
fGmsxaLUE	-15.2178
CEKTnArC	-15.2178
JNpHHwJbN	-15.2178
QCfxBFicB	-15.2178
UGAJNEEN	-15.2178
VuMHQACw	-15.2178
eXUCACQCfwhmhf	-15.2178
edUEAOMDDs	-15.2178
pNCDkpxRjGZDqLGY	-15.2178
NsGZOeS	-15.2178
ryhyYQPi	-15.2178
ANdqJTl	-15.2178
DAGODDFOm	-15.2178
HqboiJV	-15.2178
QlmPPoUKuMezQcY	-15.2178
UeSyxXkg	-15.2178
VuchlNkDmC	-15.2178
YHZdtIv	-15.2178
jDsFKGt	-15.2178
pRljvPBEFFfMgCsA	-15.2178
yJVcCJTb	-15.2178
DSBbIGBgYIyQy	-15.2178
DqHxIFuL	-15.2178
IEiJdfCJVeyJTe	-15.2178
TIeixzftyOSaZ	-15.2178
rDKGDLdYLebiN	-15.2178
AUjHwKf	-15.2178
CAEQCfyBAhP	-15.2178
EPAUCAA	-15.2178
ICLPIRLAp	-15.2178
IslPoEo	-15.2178
QqinLBgk	-15.2178
WRaXPgTo	-15.2178
YKhLCVBTU	-15.2178
efUFAEMIIE	-15.2178
rTuBicWW	-15.2178
yWqnXSwrhTde	-15.2178
zaXdBJnb	-15.2178
JPZUUGRBZWVmFiDA	-15.2178
UCAEQCfwhmhdJ	-15.2178
dAZJfnrFjTEFE	-15.2178
xTVDywcQlII	-15.2178
EAOOEEVNtU	-15.2178
IEiJVeiJTWa	-15.2178
RuqFOnThCDI	-15.2178
jNxImUZubmQbLckA	-15.2179
IAOOGGO	-15.2179
nNGeklH	-15.2179
RHDfDSjo	-15.2179
ZhnQshcDsw	-15.2179
ZhuiyJSPl	-15.2179
dtoJzdaX	-15.2179
eQUDAMQCfyBA	-15.2179
jVfAAFXKgn	-15.2179
kAPtkiJPRQ	-15.2179
YOCJTdyIReiAfe	-15.2179
yIRfiAffgAdAmDff	-15.2179
GolCCBl	-15.2179
iUonePhj	-15.2179
kXNkHPlGxr	-15.2179
TAKNNMj	-15.2179
DnRfPYU	-15.2179
EieiLRe	-15.2179
InyoJLISH	-15.2179
KDBUxRQ	-15.2179
NaTaICQ	-15.2179
ORZTaMJXIYYh	-15.2179
UFAONDD	-15.2179
UHAJPGG	-15.2179
UPkcBLQS	-15.2179
VWRayPoro	-15.2179
WvOZEOXv	-15.2179
bqRkYsaZ	-15.2179
dAZhfkOodGHk	-15.2179
diQJmGcRYh	-15.2179
eRUDAHOCC	-15.2179
eUzuIuv	-15.2179
pNCDkpyRuKVjiouy	-15.2179
pthXWIKkF	-15.2179
rMMqxzIQRu	-15.2179
spRljvPuCQPPo	-15.2179
wEPtskxw	-15.2179
wEQPQsB	-15.2179
EEiJdeiJTe	-15.2179
KuNkiiA	-15.2179
OWYaCPX	-15.2179
OcYPTPAxwI	-15.2179
SdAZmhf	-15.2179
WZZkLIZAoL	-15.2179
bqQgqiB	-15.2179
fSBOPIm	-15.2179
hoQklgs	-15.2179
kiJPZTAF	-15.2179
ssywutvv	-15.2179
yEWOJfo	-15.2179
AfDoATA	-15.2179
AhPYPttJ	-15.2179
McBAOPcP	-15.2179
NtIYtKxdRmXQCGh	-15.2179
UAPvvZmhf	-15.2179
UCAEQCfwEPv	-15.2179
WYbomThH	-15.2179
cPgaHxA	-15.2179
eVUCAEQCfwFm	-15.2179
gBRfyDffw	-15.2179
gYVOhYLtKi	-15.2179
ifCIRfTw	-15.2179
iwTOZbod	-15.2179
jiRycAwX	-15.2179
kMjDjWX	-15.2179
pxIwjHkW	-15.2179
suExxKPD	-15.2179
IKEySSVDrgtLKCNO	-15.2179
PmOMGjOzXk	-15.2179
PncAUIBBgYGCMkDA	-15.2179
AGOCCFetU	-15.2179
BRhjfHlqWEBdPhVO	-15.2179
FACPFEmWtV	-15.2179
GlXYsBVlXl	-15.2179
cQvVIgWl	-15.2179
eaUCAKQCfwgx	-15.2179
lwXlNjfb	-15.2179
vSwoJxdGar	-15.2179
EAAuzxMQFdAWABmC	-15.2179
EWFwHUX	-15.2179
GlXYsLVWh	-15.2179
YPlMBIOd	-15.2179
eVQKGMYt	-15.2179
fhJBFhM	-15.2179
shzxWGIwUNsB	-15.2179
SXMAfYkF	-15.2179
AMcFABQL	-15.2179
BgxrfvfM	-15.2179
DAHMDDVam	-15.2179
NjjuKgHDmO	-15.2179
OcYPTPCE	-15.2179
UEAEOFE	-15.2179
kMDDjzM	-15.2179
yUGOJfh	-15.2179
AUgZwEiD	-15.2179
APvscPRP	-15.2179
CAKQCfxAPv	-15.2179
TSdBxIhf	-15.2179
dAZJflupCCmYBZeH	-15.2179
dPIQzYqLQs	-15.2179
fiEQYWFhjZAwE	-15.2179
DqHRhZIIA	-15.2179
HwuJNuKw	-15.2179
IOinFGMRkdJsefj	-15.2179
LCOVPhBH	-15.2179
LCOZPtlGcA	-15.2179
LJsyQAei	-15.2179
NtGZOXz	-15.2179
WZarVHdDXHEb	-15.2179
ZWbGErMN	-15.2179
ZnyKiYx	-15.2179
dAZJfkOQVMZEs	-15.2179
iMNnKgYYN	-15.2179
kgPRfdIiRQ	-15.2179
yVekDUcdC	-15.2179
ClXGPLuMN	-15.2179
EssdSaEAR	-15.2179
ZBmmATjYL	-15.2179
lGbmxxG	-15.2179
nQPMcBmh	-15.2179
tNMuEjyUeHZoT	-15.2179
ysnJgzIj	-15.2179
PDDVItU	-15.2179
EEiJdfCJVey	-15.2179
SCnGSIkU	-15.2179
UFANPDDW	-15.2179
VhithWuA	-15.2179
dAZpfkOoXFqTh	-15.2179
eVUDAEQDfzHAZoX	-15.2179
iJVfSIRfyDffgAdA	-15.2179
mOcEPQshmi	-15.2179
ooPVvgh	-15.2179
pNCDgpzRjGZDjR	-15.2179
qlXSLlFbcKnLE	-15.2179
spRljsziXAp	-15.2179
PSIRfiDffz	-15.2179
SNniChMkkljxJNo	-15.2179
dZLvpwo	-15.2179
lhimTgh	-15.2179
BIBUPkEecXM	-15.2179
QYlOUNqjDZyoa	-15.2179
UFAGQEf	-15.2179
bqQyMGP	-15.2179
edUEAMODD	-15.2179
iJPJFYgxh	-15.2179
jjDoOTfnkT	-15.2179
AVvzDqL	-15.2179
PzRTEdTrtV	-15.2179
UIABNLK	-15.2179
ULbXfKg	-15.2179
esUlWNBVrEg	-15.2179
fkPBfdx	-15.2179
idbIQIh	-15.2179
jQidBIR	-15.2179
qbaXBdXJIbLY	-15.2179
vWAmAjg	-15.2179
zpgiLbfC	-15.2179
BYAlNYmJiYxMgAG	-15.2179
PRPBAiBQ	-15.2179
UOSIReCAfeQ	-15.2179
eIKEySSVD	-15.2179
gicpEieTc	-15.2179
mhckPvs	-15.2179
yRtpeKcKCb	-15.2179
CAJOCCVEm	-15.2179
JAiBQaEFpaWoaIMB	-15.2179
XcJGNEp	-15.2179
aLcubHyR	-15.2179
jQRAweA	-15.2179
xTVDzYdQpx	-15.2179
IlNyIhFz	-15.2179
PsJEJAY	-15.2179
PyIRfQPv	-15.2179
QYlOSOUjaaNyIWe	-15.2179
ZZlmfbJ	-15.2179
boxQMlaHngFG	-15.2179
spRlrtmotaR	-15.2179
ARnAZiU	-15.2179
CAFQCfxAxwGaF	-15.2179
TIeixzftyOTLT	-15.2179
WbUwfyz	-15.2179
YrpAxHQQ	-15.2179
eZUCAGQCfwhI	-15.2179
esUlWNBVjGoEaC	-15.2179
gPRdFIiR	-15.2179
kBRhjfHlildwiWL	-15.2179
kBRhjfHlildwiXB	-15.2179
lYuqjCLB	-15.2179
CAAQCfxAPtt	-15.2179
CABTAFQAYg	-15.2179
EALNEEU	-15.2179
JAWYZokibp	-15.2179
LRfwqZSpqamqWmNA	-15.2179
MmGRbpZrOZZIYGVC	-15.2179
ODgDAEQAUg	-15.2179
PmOMNErVt	-15.2179
kBRhjfHlqWEBdPg	-15.2179
maJVfiAffx	-15.2179
xTVPdhogh	-15.2179
BAHxBgYGBrbDoF	-15.2179
OfIPQtaJ	-15.2179
dAZpfkOoXVqT	-15.2179
eaUCAHMCCUxj	-15.2179
gtCxvXgLOOal	-15.2179
IgEoAWA	-15.2179
MKLDuKhB	-15.2179
OAOOMLz	-15.2179
QdkRQhaIfSEU	-15.2179
ebUCAIQCfxAxwGa	-15.2179
esUlWNBVrGQG	-15.2179
evDYYRQ	-15.2179
tSrkAuCXa	-15.2179
yNRtvkm	-15.2179
DJWbfdr	-15.2179
SkVKioqKtrjwE	-15.2179
kBRhjfHlqWEBdO	-15.2179
KpbQBVGY	-15.2179
IcFMshKp	-15.2179
OSElJiscIIxQiUmO	-15.2179
STaPhbPVV	-15.2179
rSUhziEWPpHSf	-15.2179
ynJHiRYME	-15.2179
cOxmeCX	-15.2179
EiJTdjwiO	-15.2179
HoQxHJU	-15.2179
QFFecIN	-15.2179
UUABhSAEEB	-15.2179
YYWQhMNnYkCZhug	-15.2179
agyeuQJya	-15.2179
blAZcbG	-15.2179
cVrNOPCH	-15.2179
dzhIQFNAVABiC	-15.2179
eQUEAEPDC	-15.2179
jKWXSVgGPMs	-15.2179
uIOARABSB	-15.2179
wlbZvWgzaWUqvn	-15.2179
kbaXBeVNDCgy	-15.2179
JAWUZxltEHtHk	-15.218
WoVcfDg	-15.218
dZAGxpm	-15.218
kzQSIkVFC	-15.218
soTcEGJM	-15.218
CAGQCfwhIhd	-15.218
DqEdXmsR	-15.218
LzKiPos	-15.218
OMgPTMHDZ	-15.218
deiIReSL	-15.218
iJVfCJTexEi	-15.218
ugqibgnJhNrJZw	-15.218
DtAbDTG	-15.218
McdCzRL	-15.218
NKKMxYqi	-15.218
YEhXuiEJOx	-15.218
YlinYtEhbRs	-15.218
aDffwAdAoPv	-15.218
fiQFlGUbXjHYVm	-15.218
kxSQKBptUotgcEML	-15.218
oaGiUmDDIFP	-15.218
ogSEVRbkNBI	-15.218
hIMtqyP	-15.218
iEXoDTwPehk	-15.218
KskPBoGOMwe	-15.218
PCIReiLReT	-15.218
WNjQyIhFz	-15.218
IOinOmoMnrkCcm	-15.218
PSGuXMjPrU	-15.218
JTbyIRc	-15.218
pNCDgpzRnpJ	-15.218
LMMGfTgwBA	-15.218
LircmTo	-15.218
MAPNJJb	-15.218
TfAAFXKQnuAhQqVr	-15.218
TkjOEZp	-15.218
WtXbaBdlX	-15.218
YVexCuUjBVio	-15.218
aDdfdYB	-15.218
baXBdVJ	-15.218
eRUHAIPFF	-15.218
egByMHo	-15.218
yECIfdx	-15.218
DtCaTTfCd	-15.218
OfIPTNZmiR	-15.218
WQJZmZmZxcgAE	-15.218
jgTmSxZsgRn	-15.218
pDkjtYuGxBrh	-15.218
pNCDkpyRjUZHbBf	-15.218
DkGuEDchU	-15.218
WQZokuWjFQFZj	-15.218
eWUFAFPED	-15.218
kgPTPdAiBQ	-15.218
sKJfbyAs	-15.218
gLMPomt	-15.218
EAGMGGEtMVz	-15.218
GAGQEfwLBRIlN	-15.218
JAWUZNJHg	-15.218
LCgnlwHa	-15.218
NjYBAEIAUA	-15.218
eSUHADNGF	-15.218
eUUDAMOCCU	-15.218
efUCAFQCfyBAh	-15.218
SUBKAFgH	-15.218
KBokQpCYICRBT	-15.218
wortRPK	-15.218
GAKNFFG	-15.218
SEukOtzg	-15.218
UXbpUXBRuCReF	-15.218
YOCJTdyIRe	-15.218
hhEgoDDqBHxMw	-15.218
BIhfYPlcIU	-15.218
TIlNwInw	-15.218
yIWCqQFGGdfSF	-15.218
cVrbMaF	-15.218
fiQFlGUbXjHaiy	-15.218
APvvZmOfAPQ	-15.218
JTdyIReyAfezg	-15.218
PGJVdSJy	-15.218
PHHFpMc	-15.218
UFACOGF	-15.218
ffxAiHX	-15.218
CAEQCfxAxwE	-15.218
IOCnNGNZkO	-15.218
OSuOBzg	-15.218
PDDEnUF	-15.218
ZAafQJekIvBv	-15.218
BSAGAKvyEh	-15.218
GANPIIF	-15.218
HwSbTeLqmNrU	-15.218
NwJQjTcyW	-15.218
vKgHDmH	-15.218
BQBGAFQG	-15.218
ExXPCOMMEI	-15.218
JAgYbRNa	-15.218
BgMGjBIjrh	-15.218
TcJGAkFGhoaGsrjw	-15.218
eXUDAMMDDl	-15.218
BmOcgPQs	-15.218
UAAtDVFQFBAUgBgC	-15.218
aVdiwtVbGNVCu	-15.218
eRUFAEQFf	-15.218
vSwoJxdCi	-15.218
BLQCuwClwDGoFaQ	-15.218
kbyLwTO	-15.2181
BVeOWuWr	-15.2181
JALOMMW	-15.2181
JPbbAlYoEFFoIUC	-15.2181
YUKwTUQhYPhKVnYF	-15.2181
wqEtIDQyrybgPB	-15.2181
sbaXBeVNDamT	-15.2181
UCADQCfxBAiD	-15.2181
UGAJMEE	-15.2181
IIIQQGslwGlm	-15.2181
wUgPQshI	-15.2181
SAKMLLD	-15.2181
FAONHHk	-15.2181
WZYJfRTRBw	-15.2181
XUlHsUyYVBemBIR	-15.2181
onScirHvXPEC	-15.2181
SOCJTdx	-15.2181
eeUIAJNH	-15.2181
hPYPlMBm	-15.2181
dmaRJWA	-15.2181
jQSIlNwESJR	-15.2181
JVeToiOj	-15.2181
QHfwkACA	-15.2181
obaXBdXJIbFYn	-15.2181
laqdtlSCbYo	-15.2181
bHRewIA	-15.2181
rhIwjBm	-15.2181
yJddjuSL	-15.2181
GhjaKioqNTYEB	-15.2181
GLHdiiU	-15.2181
MAOOSSe	-15.2181
NgFiAWgBoC	-15.2181
UMAONKJz	-15.2181
eTUFAEMED	-15.2181
JTQklCIILuBGkQd	-15.2181
MjOSPvs	-15.2181
SIsVOdBI	-15.2181
YGBuhNh	-15.2181
sGeEDuxA	-15.2181
QkEGRkZJCQMB	-15.2181
QoKNqQZSF	-15.2182
UDAMQCfyBmhf	-15.2182
GAAOEDt	-15.2182
ZVDukHRFU	-15.2182
ifCIRfiAffgAd	-15.2182
IJnwfSnx	-15.2182
SVRttxwRbK	-15.2182
UTAENON	-15.2182
qgeGVOTdBoJFP	-15.2182
traWtAIL	-15.2182
wUNTsDRR	-15.2182
KwBgyxC	-15.2182
ecUEAFMF	-15.2182
LkiTzQXDc	-15.2182
MNtIFhUp	-15.2182
nqSvHPRMU	-15.2182
FAJOGGE	-15.2182
VLXPPuF	-15.2182
SJwESJTdi	-15.2182
eYUGAHOF	-15.2182
gKDOcrYq	-15.2182
UHAKOGGO	-15.2182
UJAOPNN	-15.2182
eWUIAGNHG	-15.2182
UMAEOTS	-15.2182
WsEfQoLJjcIrubV	-15.2182
jiDvAch	-15.2182
FAHMEEGPtVW	-15.2182
QitXVtXVvXkmVAV	-15.2182
UJACMPO	-15.2182
oKZGKfrhgwaIfr	-15.2182
eRUWAHNed	-15.2183
AHFRwBPRIiC	-15.2183
AKvqRVPRjq	-15.2183
UJACPNM	-15.2183
UMAAPSRe	-15.2183
ebULAFORQ	-15.2183
FLfDDxcQw	-15.2183
KKrWxLVLV	-15.2183
GRlJQZI	-15.2183
DQSLAHA	-15.2183
IANMLLd	-15.2183
IVcyIRcj	-15.2183
UMgHsOjHUpEPpqKg	-15.2183
juPVYgM	-15.2183
mRAfsGe	-15.2183
OFFUtMV	-15.2183
dyXXioCwOeVVO	-15.2183
ULbXfKjnh	-15.2183
MHHFQtU	-15.2183
gEyvteA	-15.2183
wOiyOHbdioccIdyn	-15.2183
HUTGrQTzLSiN	-15.2184
UJpmYJW	-15.2184
jIKjrMMh	-15.2184
oHHhNIPR	-15.2184
QjsQzqE	-15.2184
YYLtkqIf	-15.2184
ZGAlUAUDgSzA	-15.2184
kpAeGVBTEbSBY	-15.2184
CcYdotNMW	-15.2184
WAEOfeL	-15.2184
rDKGDLdYLdQy	-15.2184
fCQISVFC	-15.2184
FBffhfO	-15.2184
IRfsQHEXIiU	-15.2184
bQTzFPr	-15.2184
nFFpvPTyIr	-15.2184
eZUHANNGG	-15.2185
BZcdXFF	-15.2185
OpZfvVUgXbJ	-15.2185
HAJlmilM	-15.2185
OqkIqueFV	-15.2185
TOKHEiN	-15.2185
FCoCLPqxVOSDqSio	-15.2185
lnUbUGdOyy	-15.2185
nCDbtANBl	-15.2185
VPwFicvormKT	-15.2185
eQUOALOUU	-15.2185
MKQiKLeBYJGQ	-15.2186
pZiumtRIU	-15.2186
UQAEPMLb	-15.2186
eZUQAMONM	-15.2186
GYNGPpSIfTE	-15.2186
hTtEltCi	-15.2186
giEpGRJ	-15.2186
OADNLKb	-15.2187
UKAANKJ	-15.2187
dqcOmsi	-15.2187
LcUwRgU	-15.2187
aUFIotd	-15.2187
iqifRFbi	-15.2187
OgDRlYCVTBQC	-15.2187
OmABtzc	-15.2187
UPAKMVU	-15.2187
yBLwGxl	-15.2187
eVMlLlpj	-15.2187
EnluSHbc	-15.2187
MoqNhRUii	-15.2187
fclGfMAxnaSgjE	-15.2188
UKADPJI	-15.2188
TAOLbaj	-15.2188
wDomiwaQi	-15.2188
IffyOBA	-15.2188
wEJmRJv	-15.2188
UGJHWVF	-15.2188
BPAEiwJ	-15.2189
VIIuCiEfwKIfS	-15.2189
HyoOQAfUHz	-15.2189
UTAANPN	-15.2189
YOLjGIC	-15.2189
xONxTMggxfn	-15.2189
DAAFvyrJDwaBjjMH	-15.2189
QCfwHgiflmiU	-15.2189
rlEAFRAif	-15.2189
EaIfvte	-15.219
LPomoNpOyy	-15.219
BetJznko	-15.219
UIACPKJ	-15.219
XVFAfSg	-15.219
UJAGPON	-15.219
TwGHPwkh	-15.219
lFNUrQGDI	-15.219
koqgeGVPTDbSBY	-15.219
suanQxDP	-15.219
MTiQfcU	-15.2191
AxCbvdgMxXAt	-15.2191
NAOOUTy	-15.2191
LgODqMQ	-15.2191
