<unk>	0
<s>	0
</s>	0
0	-3.01522
AAAAAAAAAAAAAAAA	-3.18393
4	-3.48544
5	-3.91466
7	-4.00328
1	-4.06623
8	-4.11167
+	-4.15632
A	-4.19461
/	-4.20462
D	-4.27154
9	-4.35519
w	-4.49011
3	-4.5469
AAAAAAAAAAAAAAA	-4.61306
6	-4.62474
2	-4.63433
N	-4.8241
g	-4.84426
f	-4.85466
v	-4.96711
+2	-5.07849
J	-5.08924
////	-5.11788
//	-5.13776
I	-5.17507
C	-5.20211
B	-5.25663
P	-5.31166
Y	-5.3837
i	-5.38389
k	-5.3904
M	-5.46292
E	-5.46979
QAAAAAAAAAAAAAA	-5.5026
Q	-5.50405
W	-5.55001
F	-5.55151
c	-5.62856
+3	-5.64592
X	-5.65388
AC	-5.67029
AAAAA	-5.69244
AAAAAAAAAAAEAAAA	-5.71125
50	-5.78821
U	-5.83389
x	-5.87725
BAAAAAAAAAAAAAAA	-5.92062
AAAAAAAAAAEA	-5.9576
▁	-5.97015
IBAQAA	-5.97019
VMRg	-5.97019
PgABAAAA	-5.97026
s	-6.0565
=	-6.06267
G	-6.13558
H	-6.13743
AAAA	-6.13749
///	-6.14123
o	-6.1503
y	-6.18581
V	-6.21125
///9	-6.21926
MX	-6.24869
O	-6.25926
VidW	-6.32622
BAAAAAwAAAAAAAAA	-6.34508
xMS	-6.37477
AAAAAAAAAAAAAAAC	-6.37761
bnR	-6.3827
Ii	-6.3828
///8	-6.403
gMT	-6.4037
EuNC	-6.40428
SI	-6.42005
z	-6.42556
YnVudHU	-6.42601
Z	-6.47367
///0	-6.47523
++	-6.50013
S	-6.53665
j	-6.53929
L	-6.54448
d	-6.54794
K	-6.55655
b	-6.58437
AA	-6.58537
AAAAAAAAAA	-6.59304
AAAAAAAAACwAAAA	-6.61727
l	-6.62636
a	-6.62692
T	-6.62837
EjB	-6.657
p	-6.65887
h	-6.66063
wg	-6.66064
R	-6.66325
+/	-6.68237
n	-6.69531
AAAAAEAAAAAA	-6.71609
m	-6.71662
e	-6.72154
+//9	-6.76045
7//	-6.7678
t	-6.78838
jb	-6.78903
EAAAADAAAAAAAAAA	-6.78959
ic	-6.82079
AAAAAAAAAAL	-6.82451
///+	-6.84262
Qk	-6.88011
ZGF	-6.89297
ub	-6.89886
AAAABAAAA	-6.90017
AAAAABcAAAA	-6.90905
YnN	-6.91373
AAAAAQAAAAYA	-6.91807
hYgA	-6.9184
AAAAAAAAAAEQAAAA	-6.91893
AuZ	-6.91992
Fjaw	-6.92016
nJh	-6.92026
tZW	-6.92034
RlL	-6.92037
WhfZ	-6.92052
zdG	-6.92054
dOVS	-6.92057
bWU	-6.92065
cnR	-6.92097
zaH	-6.92098
dAAu	-6.92101
YQAu	-6.92104
udGV	-6.92108
+//8	-6.92312
r	-6.92522
zAC	-6.92589
IAAAAAwAAA	-6.93514
u	-6.94016
wk	-6.94168
AAAAAAAAAJQAAAA	-6.9436
cAAAAAQAAAD	-6.94993
AAAAADUAAAAB	-6.95024
AAAAAAAAAAAAAAAB	-6.95954
q	-6.98662
elIAA	-6.99868
XgQARsMBwiQAQAA	-6.99869
AAAAAQAAAAAAAAAB	-7.00847
7//0	-7.00908
dSA	-7.01239
EgB	-7.01687
dTF	-7.01841
gKF	-7.01912
MjI	-7.01928
DQzo	-7.01942
uMDQpIDExLjQuMAA	-7.01955
LjAt	-7.01978
AAAAAAAAAAs	-7.02201
Pt	-7.04961
gB	-7.06496
21	-7.06873
AAAAAAXp	-7.0751
SAAF	-7.07516
YW	-7.07528
DOiA	-7.07609
oVWJ	-7.07611
IDExLjQuM	-7.07614
wNCk	-7.07617
xdW	-7.07624
yMi	-7.07675
BAAAAAAAAAAE	-7.09804
KSA	-7.10086
tc	-7.10488
ZS	-7.11308
xfj	-7.1181
LTF	-7.11825
IyLjA	-7.11917
ChV	-7.12033
SA	-7.12863
ud	-7.13316
ZXh	-7.13858
DAEd	-7.13893
EAAAAAAAAAAQ	-7.14124
AAAAAFwAAAA	-7.14226
RydGF	-7.14274
LnNo	-7.14275
kYXRh	-7.1428
lbn	-7.14281
vbW	-7.14372
UuR	-7.14393
vdG	-7.14405
FtZ	-7.14407
mcm	-7.14409
QALm	-7.14412
VLX	-7.14415
NrAC	-7.14416
UgAB	-7.14423
AAAAAAAAAARAAAAA	-7.14428
AAAABAAAABgA	-7.14433
laF	-7.14456
gAAAADAAAA	-7.14463
AAAAABwAAAABAAAA	-7.14487
UAAAAAAAAAAF	-7.14492
AAAAEAAAACAAAAA	-7.14573
Eg	-7.14744
QQ	-7.14918
AAAAAQAAAA	-7.15368
AAAAAIAAAAA	-7.15912
iAC	-7.16232
sAL	-7.16258
LnRleHQ	-7.16411
RhY	-7.16717
HTlU	-7.16732
mVoX	-7.16737
AAubm	-7.16737
tbWV	-7.16739
LmRhdGEALmJzcwAu	-7.16805
hzdH	-7.16806
YWIA	-7.1685
ZyY	-7.16958
AAAAAAAAAABEAAAA	-7.16973
AAAAAHAAAAAEAAAA	-7.1698
EAAAAG	-7.16993
XAAAAC	-7.17034
AAAAANQ	-7.1754
AAAAAQAAAAIAAAA	-7.17842
wBHQ	-7.17849
AAAAAAAAAlAAAAA	-7.18049
MALm	-7.18606
wAAAA	-7.19702
AAAAEAAAAAAAAAA	-7.19728
lAAAAAAAAAAAAAAA	-7.22028
AAAAAAAAACUAAAA	-7.22996
AAAAAgAAAAAAAAAA	-7.23145
EAEbDAcIkAEAAB	-7.23251
AAAAAEAAAAAAAEAA	-7.23454
EiJ	-7.24047
///4	-7.25444
eBABGwwHCJABAAA	-7.26728
29	-7.28266
AAAAQAAAAAAAAAA	-7.31139
IY	-7.33251
AD	-7.3534
EAAAAAAAAA	-7.36428
QAAAAMAAAA	-7.37023
AEAACAAHAFVIieWJ	-7.38949
AAAAPwAAAAAAAAA	-7.39322
AAAAAAAAAAAgAAAA	-7.41455
AAAAAAAAALAAAAA	-7.44939
ID	-7.4651
+//+	-7.48182
ZF	-7.4862
QAAAAMAAAAAAAAA	-7.50247
PH	-7.50263
AAA	-7.51847
Ei	-7.53309
AAAAAgAAAA	-7.54411
AAAABAAAAAAAAAA	-7.54415
Ig	-7.56407
EAAAAAAAAAAAAAAA	-7.60731
EAAAAAAAEAACAAHA	-7.61068
AFAAAAAAAAAAB	-7.65087
RA	-7.66451
SDnCSA	-7.67277
AAAAAMAAAAAAAAAA	-7.6782
MAAAA	-7.68638
AQAAAAAAAAAAAAAA	-7.70295
iJ	-7.70837
cMAR	-7.71621
AAAAAMAAAA	-7.726
AAAAFAAAAAAAAAAB	-7.73478
dF	-7.74052
SItF	-7.74225
hj	-7.74767
7//4	-7.76291
EAAAA	-7.77239
OcJID	-7.77258
uc	-7.78084
CD	-7.79793
HAAAABwAAAAAAAAA	-7.80991
AABQAAAA	-7.81208
QA	-7.81499
wB	-7.82138
BD	-7.82485
EgBwEgB	-7.82491
gAAAAAAAAAAAAAAA	-7.8269
AAAAAQAAAAAAAAA	-7.82903
99	-7.83618
AAAAOAAAAAAAAAA	-7.84713
AAAuc	-7.85321
/8	-7.85871
FAAAABwAAAAAAAAA	-7.8674
TI	-7.86748
32	-7.87053
BIi	-7.87341
QAAAAMAAAAAAAAAA	-7.88068
wAAA	-7.88938
XA	-7.91253
AAAAAEAAAAD	-7.91837
wW	-7.92323
IA	-7.92587
AAABAAAAAAAAAAA	-7.93366
ED	-7.95108
YuDx	-7.95362
bA	-7.95531
QAAAAAAAAA	-7.96794
SIt	-7.96889
ItF	-7.97352
76	-7.99132
Xw	-8.00579
Vw	-8.02607
aF	-8.03666
wAAAAAAAAAAAAAAA	-8.04026
AB	-8.04206
EA	-8.04524
LjAAAAA	-8.06391
Il	-8.08105
Mi	-8.08771
Bdw	-8.09815
SItV	-8.10462
Pv	-8.1282
79	-8.13457
Zm	-8.13691
SIu	-8.13855
Zg	-8.15312
AAAACAAAAAAAAAA	-8.15544
IhF	-8.17071
Uw	-8.18091
XQ	-8.18188
SGP	-8.1855
33	-8.18798
AAAAD	-8.1917
UQ	-8.19752
Xg	-8.2002
Ug	-8.20409
IB	-8.20574
UA	-8.20602
mg	-8.21048
MAAAAAAAAAAAAAAA	-8.21078
Ehj	-8.22134
Ia	-8.22147
DnCD	-8.24246
SIlF	-8.24525
LjA	-8.24966
Bg	-8.25328
AAAAAAAALAAAAA	-8.25387
hIi	-8.25887
jB	-8.26562
Dx	-8.27758
+///	-8.2958
RQ	-8.30016
QAA	-8.30233
GA	-8.30255
AAAAAAAAAAwAAAAA	-8.32026
khj	-8.32689
gH	-8.33844
LjAAAAAAAAA	-8.35345
RY	-8.35935
SP	-8.36136
Re	-8.36207
XAD	-8.3721
Rc	-8.38058
RI	-8.3843
AAEAAAAAAAAAA	-8.38728
CAAHAFVIieVIiX	-8.39214
AAAAAABQAAAA	-8.40219
Ag	-8.40525
SIN	-8.41292
kF	-8.41617
BA	-8.41724
mZi	-8.41836
Rd	-8.42462
VY	-8.42483
YAD	-8.43531
wAAAAAAA	-8.4459
Rf	-8.44781
Xo	-8.45023
TA	-8.45195
oAAAAAAAAAD	-8.45245
9//9	-8.45303
JD	-8.46127
VwA	-8.46548
AAAAAAABAAAAAAAA	-8.46936
ZoN	-8.47078
APt	-8.47121
AQAA	-8.47201
aV	-8.47348
Rb	-8.47478
JIY	-8.47876
UAAAAHAAAAAAAAAA	-8.47947
DAAAAAAAAAAD	-8.48186
AAAAAAAAAAB	-8.48287
AAAAAOgAAAAAAAAA	-8.48389
AAAAAAAA	-8.48495
///2	-8.48602
AAAAHgAAAAAAAAAM	-8.48619
ItV	-8.4923
Cg	-8.50105
AgAAAAAAAAAAAAAA	-8.50389
/////	-8.5042
MA	-8.507
AAAAAEEOEIYCQw	-8.5072
GY	-8.51247
AAAAAA	-8.51563
XY	-8.51688
//9	-8.52701
ZV	-8.53526
dV	-8.55784
SIP	-8.56612
SQ	-8.56662
QAAAAAAAAAAAAAAA	-8.56797
wAA	-8.57284
AQ	-8.57352
AR	-8.57702
EQ	-8.58346
Ra	-8.58958
yA	-8.59357
IP	-8.59889
SIl	-8.60101
RZ	-8.60498
kiJ	-8.60879
GD	-8.61154
AQAAA	-8.61363
In	-8.62055
gL	-8.62375
AAAABAAAAAAAAAAE	-8.62599
wQ	-8.62659
QhgJDDQZ	-8.63829
VA	-8.6483
EiD	-8.67201
Vc	-8.67643
XI	-8.69379
JP	-8.69437
3//0	-8.69461
znCD	-8.69603
CA	-8.69778
QAAAAAAA	-8.70364
kjB	-8.70693
QB	-8.70722
WY	-8.71295
Zi	-8.71298
iD	-8.7139
Ww	-8.71562
FD	-8.71691
BX	-8.72507
ZjnCD	-8.73263
9//8	-8.73738
Vo	-8.73763
IAAAAAAAAAD	-8.74044
VQ	-8.74321
CQ	-8.74759
SAH	-8.75242
MD	-8.75429
AAAAAPgAAAAAAAAA	-8.75532
IPt	-8.75569
Vg	-8.7586
uAAAAAAAAAA	-8.76082
IlF	-8.7637
ZoO	-8.76778
Wo	-8.76953
Wg	-8.77031
kgB	-8.7729
Cw	-8.78593
EgPv	-8.78852
AAAAAD	-8.79584
VI	-8.80028
QD	-8.80051
EiLRfBI	-8.80462
SY	-8.8074
gAA	-8.81399
cAAAAHAAAAAAAAAA	-8.81571
QhgJDDQYD	-8.82336
KD	-8.82517
TIt	-8.82815
SInQSMHgAkgB	-8.83281
AAAAAPwAAAAAAAAA	-8.83296
Ej	-8.83367
Ew	-8.83498
xOJ	-8.83516
WQ	-8.83572
Ix	-8.83616
CQX	-8.8477
QY	-8.84983
EE	-8.85195
SAHQD	-8.85213
gPv	-8.85631
mD	-8.86269
BAAAA	-8.8691
7//2	-8.87402
AAAAAAACwAAAA	-8.87502
EiLVfhIi	-8.87509
3//	-8.87821
UY	-8.88352
QAAA	-8.89603
SC	-8.89716
Dwg	-8.90146
cAAAAHAAAAAAAAAB	-8.90409
UxQAAAABIi	-8.90416
Pj	-8.90508
VAAAAAEgB	-8.90581
fhAAAAAAA	-8.91387
BAAA	-8.91561
aD	-8.92093
SJ	-8.93147
RCT	-8.93184
gAAA	-8.9356
CJ	-8.94113
QAAAAcAAAAAAAAAB	-8.9441
Ve	-8.94481
AAAAAAAAAMgAAAAA	-8.94538
////6	-8.95261
/7//	-8.95649
IXAD	-8.95784
JIi	-8.96515
Ehp	-8.96546
iUQk	-8.96738
SIO	-8.96788
wAAAAcAAAAAAAAAB	-8.96907
AAAACAAAAA	-8.96938
SL	-8.96988
SD	-8.96993
wAAAAABQAAAA	-8.97423
UhQAAAABIi	-8.97511
BIY	-8.97552
WI	-8.97674
iY	-8.98069
SJh	-8.98117
lIY	-8.98205
PCD	-8.98266
SInQSMHgA	-8.98609
eF	-8.98616
AAAAAAgBAAAAAAAA	-8.98621
IlV	-8.98659
bCD	-8.98749
QAAAAAAAAAs	-8.98961
AQAAD	-8.9926
UwA	-8.99324
Uo	-8.99471
Gwg	-8.99675
AEAA	-8.99687
Xs	-9.012
TAD	-9.01308
iL	-9.01437
QAAAA	-9.01855
ZoP	-9.02253
HQ	-9.02492
AwAAAAAAAAAAAAAA	-9.02812
//6	-9.0293
AAAAAMMAR	-9.03227
WA	-9.03246
Xc	-9.03905
wkgPQ	-9.0394
Vf	-9.04094
oB	-9.0418
ImA	-9.0429
wIXAD	-9.04454
xw	-9.04538
fhAAAAAAADx	-9.04638
AAAAAAAAAIgAAAAA	-9.04797
nk	-9.04883
It	-9.04979
yJ	-9.04998
nQ	-9.05032
ZokFAAAAA	-9.05284
pIY	-9.05355
EAACAAHAFVIieVIg	-9.05536
AAAAAAAAs	-9.0555
mx	-9.05601
AEAAAAAAAA	-9.05627
MAAAAAAAAAA	-9.06111
SMHgA	-9.06211
aJ	-9.06388
SGnA	-9.06444
IO	-9.06635
JO	-9.07788
TQ	-9.08075
iEX	-9.08125
gBAAAA	-9.08176
ZolF	-9.08609
oP	-9.08772
IC	-9.09138
Bw	-9.09488
QYn	-9.1046
kg	-9.10492
HD	-9.10968
7//+	-9.11172
IlN	-9.11195
PtoV	-9.11269
TY	-9.11715
Va	-9.12588
XU	-9.12667
hIY	-9.1279
AAAAB	-9.12818
gAAAA	-9.13286
QQg	-9.13642
AgAA	-9.13736
MMAR	-9.13916
CFwA	-9.13954
dA	-9.14142
Qg	-9.14165
gp	-9.14275
YQg	-9.14765
MBwgA	-9.14922
BQ	-9.15038
iAUAAAAA	-9.15345
UE	-9.1588
RIi	-9.16119
GJ	-9.16224
Vd	-9.16237
QYP	-9.16496
AAAAAPAAAAAAAAAA	-9.1655
SDn	-9.16763
gPt	-9.17274
SMdF	-9.17279
oD	-9.17423
xg	-9.17739
AAAAABABAAAAAAAA	-9.1777
EyJ	-9.17801
ESJ	-9.17815
ZsdF	-9.18408
XM	-9.1851
Vb	-9.18802
YB	-9.18817
pIi	-9.18897
Xk	-9.18908
Ok	-9.19393
9//+	-9.19481
MEA	-9.20402
OD	-9.20455
gQg	-9.2065
GZmL	-9.20829
LD	-9.21378
AAAAAAAAAAH	-9.22059
QPt	-9.22562
EB	-9.22591
EiL	-9.22746
CL	-9.22775
AAAAQAAAAAAAAAC	-9.22796
Os	-9.22925
dB	-9.2298
BXEFdQV	-9.23235
oA	-9.2341
EgByA	-9.23716
Zok	-9.23795
AAAAABgBAAAAAAAA	-9.23934
AHQ	-9.23958
Ph	-9.2423
AEd	-9.24503
So	-9.2469
AJIAdBI	-9.24733
PtoU	-9.25031
PtpV	-9.25265
gHwk	-9.25521
ZIY	-9.25543
DYAAAAAAAAAD	-9.25655
cA	-9.25891
ZIi	-9.25906
AAAAAAAAAAS	-9.26197
AAAAAEAAAAAAA	-9.26553
AAAAACABAAAAAAAA	-9.27174
BID	-9.27873
wAAAAAAAAAAA	-9.27987
oQg	-9.28183
SIm	-9.28185
wQQ	-9.2822
wABQAAAA	-9.28245
iQUAAAAA	-9.28529
AAAAAAAAAJAAAAA	-9.29137
FIi	-9.29268
EiY	-9.29786
YA	-9.29993
eBABGwwHCJABAAB	-9.30035
gEAA	-9.30211
Hw	-9.30483
Ae	-9.30785
AwAA	-9.30789
AwHCAAA	-9.31272
SIkFAAAAA	-9.31963
TIu	-9.32105
YP	-9.32282
CAAA	-9.32893
XE	-9.33219
GaD	-9.33542
QIg	-9.33958
8//9	-9.34161
xwUAAAAA	-9.34268
eV	-9.34321
bC	-9.34324
FAAAAA	-9.34496
AAAAAAAAAOAAAAAA	-9.34554
SIk	-9.34571
hf	-9.34616
mLg	-9.34798
ZmL	-9.35047
QAAAAAA	-9.35298
IidBIAcBIAdBI	-9.35343
dIi	-9.35385
SYn	-9.35615
SGv	-9.35735
EAEbDAcIkAEAAE	-9.3585
EiLReBI	-9.36087
Ui	-9.36418
SJhIY	-9.36526
Ehr	-9.36624
xIi	-9.36802
sA	-9.369
WE	-9.36947
On	-9.37061
VU	-9.37077
MdF	-9.37254
ImE	-9.3741
Pr	-9.37451
AAABBDhCGAkMNBgJ	-9.37545
GaJ	-9.37651
iEW	-9.37743
TQH	-9.37746
BIidBIAcBIAdBI	-9.38292
AAAAAAAAADg	-9.38572
AIAA	-9.38818
IN	-9.38842
BI	-9.38922
id	-9.38944
EG	-9.39004
QTn	-9.39332
AAAAQAAAAAAAAAD	-9.39332
Ek	-9.39828
Uk	-9.39858
NIi	-9.40175
VZ	-9.40268
TDn	-9.4067
AABAAAAAAAAAAAg	-9.40674
EwB	-9.40931
Wc	-9.41087
SIuF	-9.41192
AAAAC	-9.41219
Ws	-9.41231
Vs	-9.41236
tF	-9.41252
InCD	-9.41344
Ad	-9.41469
FIY	-9.41629
RDn	-9.41831
UU	-9.42066
BB	-9.42318
RYn	-9.42451
RD	-9.42605
AAAABIAAAAAAAAAC	-9.4265
gwHCAAA	-9.42836
Om	-9.42978
UB	-9.43005
CQg	-9.43137
PtoX	-9.4339
AE	-9.43443
wEAA	-9.43676
mDx	-9.44431
mJ	-9.44487
wwHCAAA	-9.44609
APv	-9.44739
UiJ	-9.44952
SGn	-9.45093
Vk	-9.45124
AO	-9.45317
KB	-9.45397
DQg	-9.45485
Pto	-9.4555
AABIi	-9.45554
yg	-9.45655
fRAAA	-9.45755
/////8	-9.45863
ME	-9.46146
SAO	-9.4617
SQH	-9.4636
iYD	-9.46456
IOII	-9.46463
JIa	-9.46495
RIn	-9.46549
xgUAAAAA	-9.46612
AAAAAAAAAAG	-9.46662
Uhj	-9.46733
ANIAdBI	-9.46859
iQUAAAAAD	-9.47083
Ehpw	-9.47089
IkFAAAAA	-9.47188
///85	-9.47282
Ot	-9.47316
PtkX	-9.4744
JB	-9.47651
YAhMB	-9.47898
ojAVBDjCGBk	-9.4805
yL	-9.4807
VM	-9.48102
GYt	-9.48219
VE	-9.48249
Hy	-9.48258
AAAAi	-9.48357
AEAAA	-9.48504
Jg	-9.48517
TD	-9.48562
UI	-9.48601
zjCD	-9.48747
Ol	-9.48762
EPt	-9.48808
ZokFAAAAAA	-9.48825
SAHQ	-9.48907
cAAAAHAAAAAAAAAC	-9.48976
AAAAAAAAAAK	-9.4908
AAAAAAAAAAO	-9.49286
khr	-9.49532
BIg	-9.49628
3//4	-9.49825
ZseF	-9.50076
xkX	-9.50137
uA	-9.50366
gt	-9.50374
EU	-9.5038
IAdBI	-9.50921
AEAAAAAAAAAAAAAA	-9.51053
JI	-9.51092
DH	-9.51105
AADp	-9.51293
QIh	-9.51491
AAAAACgBAAAAAAAA	-9.51541
Ux	-9.51848
VwIhF	-9.5189
wHQg	-9.51998
lIi	-9.52024
EyL	-9.52073
QEAA	-9.52104
wC	-9.52298
Lj	-9.5236
ARIicJIi	-9.52578
iEQk	-9.52665
aN	-9.52672
iF	-9.52765
Pz	-9.52955
Qb	-9.52964
Wk	-9.53092
Lg	-9.53171
Vx	-9.53241
AAAAAQQ	-9.53478
QEAAAAAAAAAAAAAA	-9.53867
MB	-9.53932
Jwg	-9.54144
SAN	-9.54152
EQPt	-9.54237
hXj	-9.54342
SYP	-9.54347
/7//0	-9.54432
ASI	-9.54551
XoSItF	-9.54684
STn	-9.55398
MY	-9.55596
EiLVehIi	-9.56176
JM	-9.56229
VwIiF	-9.56238
TIn	-9.56739
Mf	-9.56849
TAH	-9.56858
BQAA	-9.56988
AAB	-9.57266
YFAAAAAA	-9.57294
Hg	-9.57326
kiL	-9.57385
wEAAAAAAAAAAAAAA	-9.57457
gEAAAAAAAAAAAAAA	-9.57479
bS	-9.57511
McB	-9.5771
At	-9.58192
DAcIAAAA	-9.58216
hp	-9.58394
eD	-9.58759
PtpU	-9.58769
eP	-9.58785
Ax	-9.58925
XC	-9.59135
iAUAAAAAD	-9.59387
tIi	-9.59739
AAAAAAAAAAAAAAAm	-9.59786
iIV	-9.60071
TYn	-9.60361
BXkFfw	-9.60474
jjCD	-9.60746
Zol	-9.60769
AAAAADABAAAAAAAA	-9.61067
Sg	-9.61109
WU	-9.61109
Rg	-9.61148
bw	-9.61161
uF	-9.61312
Im	-9.61406
hF	-9.61598
SAHASI	-9.61888
PtkW	-9.61992
hXz	-9.62222
wI	-9.62222
hVj	-9.62721
JL	-9.62755
JIg	-9.62814
IgFAAAAA	-9.62816
oHq	-9.62843
mA	-9.62964
wAAAAAAAAAA	-9.63315
ZN	-9.63338
nCD	-9.63532
uD	-9.63565
AdCD	-9.63592
IOGI	-9.63732
YPt	-9.63798
EAAAAAAAAs	-9.63902
cE	-9.63914
EGJ	-9.63977
QjwJCDhiOA	-9.64227
kQ	-9.64314
ZkSJ	-9.6445
UgB	-9.64474
MBwgAAC	-9.64633
PC	-9.6482
KJ	-9.64913
FB	-9.65116
HF	-9.65131
WM	-9.65425
uP	-9.65571
iXwk	-9.65685
Is	-9.65714
icIPt	-9.66043
kE	-9.66086
ZomF	-9.66197
To	-9.66289
tV	-9.66296
APh	-9.6645
QkF	-9.66508
ki	-9.66661
SIsE	-9.66875
hWz	-9.67383
PtlX	-9.67428
AMAA	-9.67442
bg	-9.67468
xgUAAAAAA	-9.67538
EO	-9.6755
Fi	-9.67625
BMi	-9.67817
AAAAAAAAAKAAAAAA	-9.68059
SAHCD	-9.68136
SIuV	-9.68149
AQAAi	-9.68416
AAAB	-9.68444
aP	-9.68689
7///8	-9.68884
DwAAAAAAAAAD	-9.68896
cP	-9.68897
AAD	-9.68912
wDp	-9.69059
hWj	-9.691
GYF	-9.69129
SAHQSI	-9.69348
jVD	-9.69673
VAAAAA	-9.69696
QR	-9.69759
khp	-9.69881
EgF	-9.70467
oAA	-9.70571
dD	-9.70643
RCQ	-9.70805
AAAAADgBAAAAAAAA	-9.70863
SAHID	-9.71111
qAAAAAAAAAA	-9.71182
Ow	-9.71399
BE	-9.7145
qD	-9.71473
OA	-9.71836
gF	-9.71908
dQ	-9.71961
nr	-9.72004
SAHwD	-9.72054
iVwk	-9.72111
IiQUAAAAA	-9.7233
AAAAAAAAAPgAAAAA	-9.72362
DHS	-9.72674
SIn	-9.72827
IAQAAAAAAAD	-9.72852
EiJRfhIi	-9.72895
QwHCAAA	-9.73011
RAAAABwAAAAAAAAA	-9.73049
JK	-9.73056
KA	-9.73111
UD	-9.73278
EC	-9.73589
AHU	-9.73599
kJBd	-9.73891
hQ	-9.73987
Tw	-9.74345
AdB	-9.74662
SLj	-9.74664
wAAAAcAAAAAAAAAE	-9.74672
jQ	-9.74673
yD	-9.74934
SIs	-9.75042
kB	-9.75187
QIT	-9.7545
QAAAAAAGaQ	-9.75625
GL	-9.75667
YAA	-9.75723
hXD	-9.75818
Iu	-9.76059
XCT	-9.76173
IsA	-9.76369
OQ	-9.76413
SJhIa	-9.76508
fr	-9.76668
PtoW	-9.76934
EAAAAAAAPH	-9.77037
Oc	-9.77224
jY	-9.77308
hVz	-9.77332
SLg	-9.77385
Egt	-9.77399
hUj	-9.77526
CgAA	-9.776
qA	-9.77886
Us	-9.78112
IiUQk	-9.78347
ZoM	-9.7842
wkQ	-9.78686
wU	-9.78744
AAE	-9.78749
bD	-9.78794
AAAABBDhCGAkMNBl	-9.78799
Gf	-9.78876
QP	-9.78963
XAiEX	-9.79
TC	-9.79005
hr	-9.79093
SMHgB	-9.79109
oC	-9.79126
BBD	-9.79218
YFAAAAA	-9.79276
MiU	-9.79315
kiN	-9.79318
jH	-9.79347
mk	-9.79397
XG	-9.7953
wIlF	-9.79538
GZ	-9.79764
SJhI	-9.80082
bQ	-9.80092
oPt	-9.80364
7//8	-9.80544
Rw	-9.80555
DHA	-9.81067
hcB	-9.81139
RCS	-9.81159
kiD	-9.8142
zn	-9.81603
ESL	-9.818
hWD	-9.8186
iXQk	-9.81948
OP	-9.82091
Fz	-9.82252
gwcD	-9.82451
SJgPtgQC	-9.82521
bH	-9.82556
UP	-9.82601
wki	-9.82716
miYV	-9.82783
us	-9.82807
Dn	-9.82856
Bmg	-9.82886
Gg	-9.82957
xkW	-9.83208
AAAABBDhCGAkMNBn	-9.8321
cB	-9.83288
wn	-9.83566
fz	-9.83628
EmJ	-9.83694
UM	-9.83908
PtlW	-9.84021
oAAAA	-9.84038
Mc	-9.84267
GT	-9.84339
xkQk	-9.84363
YPH	-9.84373
Ft	-9.84689
BQAAAAB	-9.8494
hd	-9.85072
AAAAAAAAAs	-9.85252
IiXwk	-9.85292
dE	-9.85347
hc	-9.85482
YS	-9.85494
VwIgFAAAAA	-9.8556
IkFAAAAAA	-9.85732
aQ	-9.85794
Hz	-9.85942
TH	-9.8597
AgAAD	-9.85976
dAAAAA	-9.86033
wAAAAcAAAAAAAAAD	-9.86051
hXT	-9.86075
bs	-9.86089
nn	-9.86565
AAAAAEABAAAAAAAA	-9.86583
jZ	-9.8664
SLh	-9.8671
MdJ	-9.86727
BgAA	-9.86753
IjQUAAAAA	-9.86767
RIg	-9.86942
kgPv	-9.86992
jU	-9.87071
VCT	-9.87094
EiNFMUAAAAA	-9.87197
xk	-9.87589
nR	-9.87632
YFAAAAAIhF	-9.87657
IgFAAAAAA	-9.87822
Qkm	-9.87883
AABAAAAAAAAAAB	-9.87945
hTz	-9.88007
SLi	-9.88023
AEAACAAHAEAPtv	-9.88112
iNFABIi	-9.88171
AdA	-9.88219
wAAAAAAAAADg	-9.88323
EAAAAAACQ	-9.88341
gAAAAAAAAAAAAAA	-9.88382
gAAAAAAAAAD	-9.88513
OcIPQ	-9.8863
kAAAAAAAAAA	-9.88688
MAg	-9.88786
YEAg	-9.88902
cAD	-9.88962
lA	-9.89104
dN	-9.89144
hTj	-9.89313
TB	-9.89328
Md	-9.89367
AAAAADp	-9.8937
Fm	-9.8941
Qku	-9.89473
Uc	-9.89502
EAAAAAAB	-9.8953
sB	-9.896
Qkq	-9.89699
Fy	-9.89864
AQAAAAAAAC	-9.89874
KL	-9.89951
QX	-9.90047
iB	-9.90121
EMBwgAAC	-9.90171
AACJ	-9.90232
VIi	-9.90384
mI	-9.90409
AQAAAA	-9.90546
Qi	-9.90614
hI	-9.90742
LA	-9.90766
AABAAAAAAAAAAC	-9.91026
SItN	-9.91041
hMi	-9.91198
wcX	-9.91442
ZkQ	-9.91504
RAH	-9.91533
hSj	-9.91582
iBUAAAAA	-9.91602
BmiQUAAAAA	-9.9161
FI	-9.9161
AAAASI	-9.91621
7///9	-9.91768
Ex	-9.91838
hUz	-9.92048
fCT	-9.92059
qJ	-9.92197
AAAAAAAAALgAAAAA	-9.92315
Qko	-9.92394
JE	-9.92439
FwA	-9.92458
TCT	-9.92478
MP	-9.92503
dCT	-9.92553
SGPS	-9.92766
LQ	-9.92794
Lr	-9.92865
BQAAAAC	-9.92893
yQ	-9.92922
IAAAA	-9.92983
maJ	-9.93082
fQAB	-9.93107
Tb	-9.93151
AAAAAAAAAAAAA	-9.93193
mY	-9.93247
PtkQk	-9.93282
Qks	-9.93339
gIAA	-9.93425
Fg	-9.93458
he	-9.93612
Qky	-9.93776
Fx	-9.93853
QH	-9.93874
uN	-9.9394
ge	-9.94033
EWF	-9.94034
Mg	-9.94145
WP	-9.94493
UG	-9.94603
Bi	-9.94673
9///	-9.94826
RCR	-9.94894
IPv	-9.9492
Sb	-9.9492
hU	-9.9493
AEAAE	-9.94941
UiL	-9.94965
cAAAAHAAAAAAAAAD	-9.95006
Owg	-9.95053
PtpX	-9.95077
jp	-9.95123
NUP	-9.95128
Ld	-9.95143
gR	-9.95208
tA	-9.95227
RB	-9.95244
Fk	-9.95293
AAAAAg	-9.95329
nE	-9.95335
8//8	-9.95376
TIl	-9.95556
QT	-9.95577
iXX	-9.95636
QIAA	-9.95762
AEgAAAA	-9.95827
Fw	-9.9583
bP	-9.95931
bAD	-9.95979
SDlF	-9.96242
jX	-9.96571
HR	-9.96662
EgBy	-9.96684
lF	-9.9671
QC	-9.96747
BH	-9.96982
dw	-9.97024
dC	-9.97275
AQAAAEEOEIYCQw	-9.97368
Mx	-9.97386
Og	-9.97404
hVD	-9.97413
zw	-9.97498
MHgAkgB	-9.97545
uv	-9.9758
iT	-9.97638
hSz	-9.97794
iIU	-9.97814
un	-9.97835
hWT	-9.97838
AgAAA	-9.97866
AHR	-9.97919
EiLVdhIi	-9.98043
AADr	-9.98251
OcJ	-9.98304
yU	-9.98316
jF	-9.98495
um	-9.98503
IiVwk	-9.98573
AAAAEgB	-9.98637
zH	-9.98644
eA	-9.98669
XB	-9.98891
EH	-9.98909
AAAAAAAAAAdw	-9.99065
SWP	-9.99202
AQwHCAAA	-9.9928
///41	-9.99389
hID	-9.994
JF	-9.99404
AJIicJIi	-9.99442
Ik	-9.9946
nB	-9.99466
KP	-9.99475
Em	-9.99476
hB	-9.99477
xoV	-9.99505
QkO	-9.99578
BED	-9.99584
BF	-9.99615
AQAAAAAAAD	-9.99618
Tg	-9.9966
bAAdCFw	-9.99672
iVQk	-9.99685
SLr	-9.99737
hRj	-9.99759
Eh	-9.99826
eN	-9.99831
oV	-10.0008
mxwUAAAAA	-10.0023
FkAAAA	-10.0025
uk	-10.0033
Hx	-10.0034
GB	-10.0041
gx	-10.0045
AGEwA	-10.0056
lQ	-10.0058
Ma	-10.0062
Ja	-10.0068
BgAAAAAAAAAAAAAA	-10.0074
TG	-10.0076
IAA	-10.0089
SMHiA	-10.009
HB	-10.0115
RIt	-10.0126
sAA	-10.0132
wR	-10.0134
BIa	-10.0136
FE	-10.0144
Ci	-10.0153
ImEjB	-10.0209
zQ	-10.0213
Of	-10.0222
AAAABL	-10.0227
IAAAAAAAAs	-10.0238
mQ	-10.0259
iNk	-10.0259
FtdQVxBXUFeQV	-10.0262
Fs	-10.0264
ZkGD	-10.0266
Lh	-10.0292
EiB	-10.0308
IPAA	-10.0325
Cn	-10.0336
Kd	-10.0337
IuF	-10.0337
Lp	-10.0338
wH	-10.0354
AAAAAEgBAAAAAAAA	-10.0355
on	-10.0357
AAAAAE	-10.0369
hMB	-10.0383
XAiAUAAAAAD	-10.0384
DnQD	-10.0385
gEAAA	-10.0388
XAiAUAAAAA	-10.0391
oX	-10.0392
wky	-10.0392
oU	-10.0394
cFAAAAA	-10.0415
wkm	-10.0421
hIg	-10.0424
wku	-10.0426
wDnCD	-10.0437
AABAAAAAAAAAAAs	-10.0439
miQUAAAAA	-10.0444
AJIAdBIAcBIAdBI	-10.0451
Qo	-10.0459
xQ	-10.0462
XYSItF	-10.0473
Kc	-10.0482
Li	-10.0488
CAAAA	-10.0502
wo	-10.0504
VwIgFAAAAAA	-10.0509
SWn	-10.051
EmN	-10.0515
uJ	-10.0521
LB	-10.0521
EP	-10.0526
qL	-10.0536
EsAAAA	-10.0547
GYPH	-10.0548
AAAASA	-10.0557
AAAAAw	-10.0559
zA	-10.0563
Fu	-10.0568
Ah	-10.0572
hTD	-10.0577
7+//8	-10.06
wIAA	-10.0603
598	-10.0629
PAA	-10.063
yH	-10.0635
lU	-10.0637
EUx	-10.0642
pw	-10.0656
Fo	-10.0662
mZmL	-10.0664
EgBwg	-10.0664
ESI	-10.0673
LAAAAA	-10.068
jc	-10.068
ohV	-10.0689
TP	-10.0691
jV	-10.0701
iUwk	-10.0701
MAA	-10.0703
hQj	-10.0714
LR	-10.072
GP	-10.0727
Fr	-10.0731
jn	-10.0736
EAAB	-10.0741
Yt	-10.0741
bB	-10.0752
ZD	-10.0759
Od	-10.0765
uL	-10.0767
uAEAAAB	-10.0773
BwAA	-10.0774
hT	-10.0788
AAAAAFABAAAAAAAA	-10.0788
TGn	-10.0795
hUD	-10.0825
dP	-10.0825
Jac	-10.0826
UjB	-10.0826
SLo	-10.0828
kyJ	-10.0834
ug	-10.0834
DwA	-10.0834
wkq	-10.0839
IiVQk	-10.0854
OMIPQ	-10.0864
hTT	-10.0873
AAAAAAAAAASw	-10.0874
AAAAAAAAABABAAAA	-10.088
IjT	-10.0887
kwB	-10.0889
Qkk	-10.0889
EGD	-10.089
AIAAAAAAAAAAAAAA	-10.0895
QIAAAAAAAAAAAAAA	-10.0907
vz	-10.0908
ZoX	-10.0909
AV	-10.0915
AAAPv	-10.0915
SIkFAAAAAA	-10.0931
Ey	-10.0933
wEAAA	-10.0938
fgUAAAAA	-10.0942
QEAAA	-10.0946
miT	-10.0947
mOcIPRsIPt	-10.0954
AHASAHQSMHgAkgB	-10.0976
nw	-10.0991
ANIicJIi	-10.0995
MZF	-10.0999
LP	-10.1006
GI	-10.1007
nH	-10.1017
xfl	-10.1019
ZFz	-10.102
eE	-10.1025
EmD	-10.1035
hRz	-10.104
gIAAAAAAAAAAAAAA	-10.1045
wIAAAAAAAAAAAAAA	-10.1047
BQAAAAD	-10.107
EEPt	-10.109
gFAAAAA	-10.1106
hVT	-10.1107
aA	-10.1108
XS	-10.1116
hV	-10.1116
Bx	-10.112
UAA	-10.1122
es	-10.1127
AAAAAAAAAAT	-10.1129
HE	-10.113
AAAAYAAAAAAAAAA	-10.1148
AH	-10.1156
Lf	-10.117
IiXQk	-10.1172
AAAABM	-10.1172
bXUFcQV	-10.1181
hSD	-10.1183
BmiUX	-10.1187
OJ	-10.1188
mff	-10.1191
DjCD	-10.1204
xflu	-10.1219
Bn	-10.1237
FoAAAA	-10.1279
QV	-10.1282
hX	-10.1297
hUT	-10.1314
PfY	-10.1316
Qx	-10.1318
CH	-10.1321
Fq	-10.1325
Tc	-10.1331
MO	-10.1333
SLp	-10.1336
QkQ	-10.1339
mL	-10.1355
hW	-10.1365
sE	-10.1366
UPt	-10.1367
AZ	-10.1383
cm	-10.1405
nA	-10.1412
uE	-10.1417
Fh	-10.1424
pIicJIweIDSAHCSI	-10.1425
EOOIMHA	-10.1441
Iac	-10.1447
IAd	-10.1448
kAAAA	-10.1448
AAAABAAAAAAAAAAA	-10.1451
QYD	-10.1452
wkk	-10.1452
LE	-10.147
IxwUAAAAA	-10.1473
AgP	-10.1487
jE	-10.149
EgByEgB	-10.1497
BV	-10.151
GaJRe	-10.1511
iQ	-10.1522
IAQAA	-10.1532
HK	-10.1535
Fj	-10.1548
ZokFAAAAAJ	-10.1554
uV	-10.1557
SINF	-10.1559
EQg	-10.1562
ul	-10.1571
Kf	-10.1585
ZP	-10.1585
BIidBIweACSAHQS	-10.1588
hBD	-10.1597
hQz	-10.1606
UgPv	-10.1607
Nwg	-10.1608
SLq	-10.1628
hR	-10.1635
cPt	-10.1635
py	-10.1645
MPt	-10.1663
hfj	-10.1664
EiNBQAAAAB	-10.1669
AAAAQQ	-10.1676
ut	-10.1681
wkO	-10.1687
AAAPt	-10.1698
wko	-10.1698
wks	-10.1698
iUW	-10.1699
Ki	-10.17
IiUwk	-10.1705
sAAAA	-10.1708
miYU	-10.173
Bif	-10.1731
AAAAAAAAAAdg	-10.1736
hRD	-10.1761
CJwg	-10.1765
iUX	-10.1766
Ga	-10.1773
ZokVAAAAA	-10.1775
XP	-10.1781
EAA	-10.179
MAR	-10.1794
RTn	-10.1796
CAAHAFVIieWJfeyJ	-10.18
Td	-10.1816
sX	-10.182
Kg	-10.182
mN	-10.1826
AQAASI	-10.1826
+//85	-10.183
yb	-10.1834
otV	-10.1841
UAAAAHAAAAAAAAAB	-10.1846
YPv	-10.1858
otF	-10.1874
Pn	-10.1881
IkFAAAAAJ	-10.1882
EOMEEOKEIOIEIOG	-10.1891
LF	-10.1899
IAc	-10.1903
SJhIi	-10.1903
Ov	-10.191
wAAAADp	-10.1913
Vm	-10.1917
SGPQSInQSAHASAHQ	-10.1926
Gw	-10.1926
IjQ	-10.1928
kAAAAAQQ	-10.1933
kAA	-10.194
oO	-10.1941
cAA	-10.1943
zg	-10.1947
AAAAAAAAAADg	-10.1958
kG	-10.1962
Mcl	-10.1968
VP	-10.1969
EkB	-10.1972
bJ	-10.1983
GQ	-10.1992
TZ	-10.1994
6//9	-10.1996
Zjn	-10.2006
GAAA	-10.2011
EiJBQAAAACQ	-10.2015
eJ	-10.2042
XAiEW	-10.2043
miUX	-10.2048
SIM	-10.2064
CAAHAFVIieWJffyJ	-10.2066
SWv	-10.2073
miUW	-10.2075
AAAAASI	-10.2083
Bid	-10.2086
AAAAAAAAAKgAAAA	-10.2094
RT	-10.2095
AdAe	-10.2098
yk	-10.2101
hST	-10.2113
Zj	-10.2113
hA	-10.2124
SIuFcP	-10.2127
yE	-10.2135
kSJ	-10.2138
vr	-10.2142
Qki	-10.2142
Fp	-10.215
yn	-10.2156
SDnQSA	-10.2158
AITAD	-10.2171
hD	-10.2171
Me	-10.2172
UC	-10.2176
Bm	-10.2181
AdC	-10.2183
AVIicJIi	-10.2193
SInQSAHASAHQS	-10.2195
tAAAAA	-10.2206
AAAAE	-10.2213
Pvo	-10.2213
PT	-10.2238
wkw	-10.226
BDjBBDihCDiBCDhh	-10.2261
TTn	-10.2266
HA	-10.227
wPt	-10.2285
AAAAAGAEAAAAAAAA	-10.2289
RP	-10.2291
HU	-10.2304
Wa	-10.2313
hS	-10.2316
MC	-10.2331
OU	-10.2335
kgD	-10.2342
hZ	-10.2348
AfCT	-10.2366
IAcJIi	-10.2379
VB	-10.2383
bG	-10.2387
/3//	-10.2393
QPv	-10.2402
kj	-10.2404
DQAAAAB	-10.241
yI	-10.2423
QYA	-10.2424
TGv	-10.2427
GBQAAAAAB	-10.2445
EiJyEjB	-10.2446
xo	-10.2456
SGPQSInQSMHgAkgB	-10.2487
sP	-10.2491
fCQ	-10.2492
AAAABK	-10.2497
gAQAAAAAAAD	-10.25
eQ	-10.2502
iIX	-10.2505
LC	-10.2512
nP	-10.2513
UYSAHQ	-10.252
UiN	-10.2521
Ta	-10.2524
maD	-10.2541
iYSI	-10.2546
TGP	-10.2548
gByEjB	-10.255
xMF	-10.2552
AAAD	-10.2555
IjR	-10.2572
OL	-10.2573
IacC	-10.258
bAhcAPlcCIBQAAAA	-10.2583
Bk	-10.2588
/////0	-10.2591
Jx	-10.2594
AABAAAAAAAAAAAw	-10.2595
Cd	-10.261
wAAAAcAAAAAAAAAC	-10.2618
MQ	-10.2618
EWJ	-10.262
fp	-10.262
hAAAA	-10.2623
WL	-10.2623
XH	-10.2625
IQ	-10.2642
EM	-10.2656
qAAAA	-10.2664
iFwA	-10.2665
PR	-10.2665
hb	-10.2666
IgFAAAAAJ	-10.2678
Te	-10.2681
wAAAAcAAAAAAAAAG	-10.2683
QAAAAcAAAAAAAAAD	-10.2697
nz	-10.2707
ZFv	-10.273
wEhj	-10.2743
we	-10.275
Bu	-10.2753
YC	-10.2758
AAABIi	-10.2761
rD	-10.2774
BmiQUAAAAAD	-10.2774
JH	-10.2775
jr	-10.2776
gNIjQ	-10.2778
ZFy	-10.278
Qkw	-10.2788
iI	-10.2792
ES	-10.2793
AABAAAAAAAAAAAo	-10.2798
RIs	-10.2809
pA	-10.281
7//9	-10.2823
BIiQUAAAAA	-10.2829
JG	-10.2834
AQAASA	-10.2845
EAABIi	-10.2849
iNDQAAAABIiQQK	-10.286
ohF	-10.2861
EoAAAA	-10.287
Lw	-10.2871
kyL	-10.2875
7//41	-10.2881
An	-10.2883
698	-10.2896
Ed	-10.2915
BQAAAAAx	-10.2919
AAAAAAAAABR	-10.2926
yEgBwEgByEjB	-10.2933
hRT	-10.294
hmg	-10.2941
3//2	-10.2942
PvkW	-10.2957
AAAAAi	-10.2959
eg	-10.2961
Fn	-10.2966
EgPvkX	-10.2969
CE	-10.2971
QkU	-10.2978
QF	-10.2996
bCT	-10.3003
US	-10.3007
AAAAAFgBAAAAAAAA	-10.3008
dI	-10.3008
ev	-10.3009
KI	-10.3013
MU	-10.3016
hej	-10.3032
SIuFeP	-10.3034
gNIAcJIi	-10.304
EwAAAA	-10.3047
xOL	-10.3051
XAhMB	-10.3066
yP	-10.3068
Ehpx	-10.3069
EwD	-10.3073
tU	-10.3074
hjyUhj	-10.3078
UgSAHQ	-10.3079
AAAAACwAAAA	-10.3079
CQAA	-10.3082
zk	-10.3098
hCS	-10.3103
aE	-10.3111
GaJBQAAAACQ	-10.3113
wkiFwA	-10.3115
SIuFYP	-10.3116
AEAACAAHAIn	-10.3123
EPv	-10.3124
VCQ	-10.3134
AAAAAAAAACU	-10.3134
EgPR	-10.3137
SGnS	-10.3143
gAQAA	-10.3145
OE	-10.315
YFAAAAAIiF	-10.3152
CwAA	-10.3155
EiF	-10.3157
nQSMHgBEgp	-10.3157
ECE	-10.3161
bAg	-10.3161
oAAAAAQQ	-10.3163
uI	-10.3165
TCQ	-10.317
Yn	-10.3174
Zv	-10.3179
mP	-10.3179
hfz	-10.3189
khjyUhj	-10.319
PfQ	-10.3192
jQRCDiiMBUEOMIYG	-10.3199
EiLRdBIOcJ	-10.3202
YtF	-10.3208
RTH	-10.3209
aL	-10.321
wAAAAcAAAAAAAAAH	-10.3213
GaJRf	-10.3217
EAAAAAABmk	-10.3221
GaF	-10.3223
jUj	-10.3227
Zk	-10.3231
ERQ	-10.3233
ZEJP	-10.3233
lT	-10.3234
ha	-10.3235
Hp	-10.3239
EAAA	-10.3239
sH	-10.3242
AABIA	-10.3256
UQSAHQ	-10.327
wkU	-10.3271
wMAA	-10.3276
OdAPj	-10.3279
EUPt	-10.3283
PtpW	-10.3285
ZFr	-10.3292
QYs	-10.3294
iRUAAAAA	-10.3297
Tn	-10.3298
IiUXoSItV	-10.3299
lM	-10.3308
dU	-10.3323
lc	-10.3333
bp	-10.3354
YnwiVX	-10.3356
Na	-10.3356
MH	-10.3366
QkS	-10.3368
EiYSI	-10.3373
IjTUAAAAA	-10.3388
hE	-10.339
SJlI	-10.3396
Ge	-10.3399
hY	-10.34
Fl	-10.3417
dd	-10.3422
hQD	-10.3422
NAAAAAE	-10.3424
AAABCDhCPAk	-10.3424
RYX	-10.3432
ABhMB	-10.3441
IidBIweADSAHQ	-10.3445
PwAYTA	-10.3452
fhAAAAAAAk	-10.3453
Ih	-10.3453
qP	-10.3459
JBD	-10.3464
LgBAAAA	-10.3468
hMA	-10.3472
AAAAAAAAAASg	-10.3478
FsAAAA	-10.348
Xu	-10.3481
ZE	-10.3492
WaJ	-10.3504
VASI	-10.3512
ZFx	-10.3513
UoSAHQ	-10.3516
wkS	-10.3521
UwSI	-10.3529
Bo	-10.3535
Jy	-10.3538
xoU	-10.3538
ZFt	-10.3539
ZA	-10.3554
APts	-10.3555
og	-10.3556
IiT	-10.3558
wkE	-10.3567
iE	-10.3568
nU	-10.3573
AHQHuAEAAADrBbg	-10.358
RIY	-10.3585
Qke	-10.3594
IAf	-10.3605
xON	-10.3617
AADE	-10.3626
ZFu	-10.3629
ZFi	-10.3634
Gi	-10.3634
BIAdBIi	-10.3637
mE	-10.3638
fj	-10.3645
EK	-10.3653
gBwkiJ	-10.3664
kFAAAAA	-10.3666
CQy	-10.367
Vu	-10.3672
UO	-10.3682
IsAhcB	-10.3701
zC	-10.3706
AwAAA	-10.3709
IjRUAAAAA	-10.3709
kGJ	-10.371
dR	-10.372
Id	-10.3728
gZ	-10.3729
RR	-10.373
QG	-10.3733
AAAAATI	-10.3733
miQ	-10.374
dc	-10.3744
SAHI	-10.3746
APtkW	-10.3747
7+//9	-10.3749
YhN	-10.3756
QAQAA	-10.3756
SMHgAkgB	-10.376
Exj	-10.3765
ZFq	-10.3775
Yi	-10.3786
eL	-10.3786
BY	-10.3787
IweACSI	-10.3803
SMHiB	-10.3806
tD	-10.3835
SCn	-10.3836
GaJRd	-10.3841
iwUAAAAA	-10.3845
UK	-10.3854
AQAAAE	-10.3861
QID	-10.3862
AAAAAAAACwAAAA	-10.3862
ZkWF	-10.3863
Xe	-10.3867
SGPySGPQSInQS	-10.3871
SIX	-10.3876
SAHISI	-10.3881
ZB	-10.3881
EGN	-10.3887
hQT	-10.3888
IE	-10.3889
PvoV	-10.3889
Xi	-10.3893
EiJykjB	-10.3896
gAAAE	-10.3903
lW	-10.3904
OdB	-10.3913
8//+	-10.3926
VISI	-10.3934
AABIiUQk	-10.3942
oH	-10.3944
lX	-10.3947
AAAAAGABAAAAAAAA	-10.3949
RQH	-10.3951
Vy	-10.3955
UoSI	-10.3956
RDj	-10.396
EWE	-10.3963
AAAAAAAAAAhQ	-10.3975
lV	-10.3979
ot	-10.398
Xy	-10.3982
Vi	-10.3983
AAAAASIkUC	-10.3984
ZQ	-10.3985
BEi	-10.3992
pg	-10.4005
TT	-10.4007
Jmg	-10.401
jRTFAAAAAEgB	-10.4013
tM	-10.4019
cAAAA	-10.402
SIuFaP	-10.4025
UFAAAAA	-10.4032
Vq	-10.4039
EnB	-10.4043
Xsi	-10.4048
RC	-10.4054
ZU	-10.4057
QkW	-10.4065
AAAAAAAAABT	-10.4069
IweADSI	-10.4069
hez	-10.4085
ZkE	-10.4086
LT	-10.4089
UiD	-10.4091
AQAAAOsFuAAAAA	-10.4101
hIAdBIi	-10.4103
gMAA	-10.4109
SAHQSIsA	-10.4111
aB	-10.4112
Bic	-10.4112
ol	-10.4113
kPt	-10.4125
yAAAA	-10.4129
jw	-10.4149
QMAA	-10.4154
Uj	-10.4155
hED	-10.4156
xy	-10.4165
wkG	-10.4165
nI	-10.417
AMAAE	-10.4172
EgPvkW	-10.4176
hfD	-10.4181
EiNFIUAAAAA	-10.4182
BwAAAAAAAAA	-10.4202
Zom	-10.4209
VS	-10.421
Xm	-10.421
wOs	-10.4214
xn	-10.4217
Xa	-10.4218
mOcIPTsKY	-10.4226
dv	-10.4228
kH	-10.423
AABAAAAAAAAAAF	-10.4242
VwOs	-10.4242
VCS	-10.4246
BIiUQk	-10.4247
EEPv	-10.4259
HL	-10.4278
FAAAAAE	-10.4282
qI	-10.4283
iQUAAAAAi	-10.4287
Hq	-10.4291
iNFQAAAABIAdBAiD	-10.4296
FM	-10.4297
AiD	-10.43
rP	-10.431
Sw	-10.4317
EJP	-10.432
Cx	-10.4321
ZFn	-10.4326
AHQg	-10.4327
XAiIV	-10.433
QS	-10.433
TCS	-10.4333
pP	-10.4334
IiUX	-10.4341
OI	-10.4342
Qe	-10.4342
LZ	-10.4346
NmZi	-10.4346
miUQk	-10.435
bk	-10.4356
hm	-10.4357
Jn	-10.437
oi	-10.4374
FP	-10.4384
wEiNFQAAAABmiQwQ	-10.439
APtkX	-10.4391
QE	-10.4397
Bd	-10.4402
FIg	-10.4403
br	-10.4406
VAAAAAIgME	-10.4417
VW	-10.4418
SGPKSGPQSInQS	-10.4421
fS	-10.4424
lImEhj	-10.4425
sPt	-10.444
ew	-10.4444
iJwk	-10.4453
EiNFABIi	-10.4458
rQ	-10.4462
GBQAAAAAA	-10.4463
nD	-10.4466
hIA	-10.4468
rA	-10.4469
bQD	-10.4476
vn	-10.4483
NUA	-10.4485
HAAA	-10.4486
Ap	-10.4487
zD	-10.4487
AADnQD	-10.449
IidBIweACSAHQS	-10.4491
FF	-10.4501
ZkGJ	-10.4501
cC	-10.451
iwSQ	-10.4527
mQYP	-10.4532
gh	-10.4545
EiJBQAAAABIi	-10.4554
UgD	-10.456
ZFj	-10.4561
hfT	-10.4567
hM	-10.4578
SGPQSInQSMHgA	-10.4582
EiNFQAAAAB	-10.4583
hg	-10.4591
YhF	-10.4595
AOt	-10.4598
AIAAA	-10.4599
hdj	-10.4612
Dp	-10.4612
UwSAHQ	-10.4612
UgSI	-10.4615
/7//4	-10.4619
whgZBDjiDB	-10.4621
SGPJ	-10.4625
XCQ	-10.463
ZFp	-10.4634
AAAAAGgBAAAAAAAA	-10.4646
mOcIPQ	-10.4646
AQAAAAAAAA	-10.465
nC	-10.4653
AAAAAOt	-10.4656
AAABBDhCGAkMNBgM	-10.4656
AEAACAAHAEFX	-10.4658
UH	-10.4662
oPv	-10.4663
mR	-10.4666
mF	-10.467
SIkVAAAAA	-10.47
rg	-10.4705
BQAAAACD	-10.4706
XK	-10.4711
oAQAAAAAAAD	-10.4714
AAAAAAAAACgBAAAA	-10.4715
UDAcIAAAA	-10.4715
SJhIiwTC	-10.4715
KDjBBDihCDiBCDhh	-10.4715
hNJ	-10.4719
QDj	-10.4721
AdD	-10.4728
iNDQAAAABIiRQI	-10.4741
fR	-10.4742
Hi	-10.4751
SAHQSIlF	-10.4751
AZIicJIi	-10.4758
jHA	-10.4759
ZscFAAAAAAAA	-10.476
JJh	-10.4762
pD	-10.4766
mOcIPTcKY	-10.4772
AAAAAAAAAAhg	-10.4774
fhAAAAAAAZpB	-10.4775
AEAACAAHAGaF	-10.4785
ds	-10.4785
iYQk	-10.4787
QAAAAB	-10.4788
lB	-10.4802
ZFm	-10.4812
AAAAAAAAAAWQ	-10.4818
EiYD	-10.4819
BAABID	-10.4819
oAQAA	-10.482
XO	-10.4821
Iad	-10.4825
bAZokFAAAAA	-10.4833
AEAACAAHAECE	-10.4833
QkY	-10.4837
dg	-10.484
Ou	-10.4851
Xq	-10.4853
SIXAD	-10.4855
ZI	-10.4858
EkPv	-10.4858
rp	-10.4868
AAAAAQAAABI	-10.4873
XISItFwEg	-10.4874
wIgFAAAAA	-10.488
el	-10.4881
AABAAAAAAAAAAI	-10.4881
IAgAA	-10.4882
IAAAAAAAA	-10.4887
SIuFUP	-10.4888
dCQ	-10.489
ek	-10.4905
AAAAAMAEAAAAAAAA	-10.4909
YE	-10.4915
kiY	-10.4916
ANIjQ	-10.4918
fgAAAAAB	-10.4921
BAABIi	-10.4923
XW	-10.4925
BQAAAAA	-10.4929
AOn	-10.4943
cX	-10.4946
AAAABZ	-10.4953
heD	-10.4954
Qka	-10.4964
cQ	-10.4966
wkW	-10.4969
VT	-10.4969
IjZ	-10.4975
ER	-10.4978
kQPt	-10.4982
UyL	-10.4997
hdJ	-10.5
AABAAAAAAAAAABk	-10.501
WaD	-10.5015
cO	-10.5022
GZBg	-10.5023
RS	-10.503
kYXRhLmNzdD	-10.5031
Zw	-10.5036
jR	-10.5036
RYT	-10.504
rr	-10.504
MBwgAAAAA	-10.5044
tE	-10.5046
SIsFAAAAA	-10.5054
miYX	-10.5054
AMAAAAAAAA	-10.5055
CP	-10.506
KFwA	-10.5065
td	-10.5066
iQUAAAAAk	-10.5067
IjVD	-10.5078
IjQT	-10.5085
OUX	-10.5088
OcF	-10.5092
IAdBIg	-10.5092
DHJ	-10.5095
VAAAAAIkME	-10.5101
hcj	-10.511
cBIjRUAAAAAZokME	-10.5111
AADH	-10.5112
CDhBCDggAAAAAAAA	-10.5112
HP	-10.5113
EAAAAAAAPHwB	-10.5121
QAAAE	-10.5128
Et	-10.513
AAAAAOn	-10.5132
EgPT	-10.5135
JAc	-10.5137
FBD	-10.5138
SGPJSJhIY	-10.5147
TR	-10.5149
ALnJv	-10.515
BmiUW	-10.5153
uQ	-10.516
sAAAAAQQ	-10.5161
tP	-10.5162
Px	-10.5169
EGL	-10.517
jgNCDiCNBEIOKIwF	-10.5177
LAAAA	-10.5191
pAAAA	-10.5191
LH	-10.5202
EiLA	-10.5204
AABAAAAAAAAAAE	-10.5209
lR	-10.5209
EiNFQAAAABIAdCIC	-10.5223
hpw	-10.523
AwAAD	-10.5231
Tf	-10.5233
SIuFWP	-10.5237
By	-10.524
SInQSAHASAHQ	-10.5241
EI	-10.5243
UwB	-10.5248
AABIg	-10.525
gDAAAA	-10.5257
pm	-10.5258
RhdGEu	-10.5259
JNB	-10.5268
JJB	-10.527
pI	-10.5272
NQAAAAB	-10.5279
HH	-10.5282
IhV	-10.5283
uM	-10.5288
Jid	-10.5289
ZFl	-10.529
sg	-10.5301
AK	-10.5308
zP	-10.531
VQSI	-10.5319
QkMn	-10.5324
Bmx	-10.5325
JLh	-10.5329
uB	-10.5336
hdz	-10.5336
VO	-10.5337
AJIjQ	-10.5338
zB	-10.5348
SInISMHgA	-10.5348
wka	-10.5359
wkgAAAA	-10.5359
LY	-10.536
dT	-10.5362
IsFAAAAAIlF	-10.537
ZFh	-10.5372
GE	-10.5373
TAAAABwAAAAAAAAA	-10.5373
tB	-10.5376
ZBD	-10.538
kJDJ	-10.538
EQB	-10.5382
Jz	-10.5384
IAAAB	-10.5386
db	-10.5387
pmg	-10.5392
OB	-10.5412
NAAAAAIkUC	-10.5414
BIidBIweADSAHQ	-10.5418
wAAAAcAAAAAAAAAF	-10.5418
wPv	-10.5419
hP	-10.5422
Gb	-10.5424
TF	-10.5426
GR	-10.5427
ZImEhj	-10.5429
pQ	-10.5433
Ox	-10.5434
JKh	-10.5438
rE	-10.544
FQ	-10.5443
QkK	-10.5445
EiNPQAAAAB	-10.5458
QSI	-10.5465
VwIgFAAAAAJ	-10.5475
MjQ	-10.5475
AEAACAAHAEiF	-10.5479
QAAAAcAAAAAAAAAC	-10.5481
LU	-10.5484
Ti	-10.5485
UyJ	-10.5489
SYs	-10.549
kU	-10.5491
AAAAAAAAAMwAAAA	-10.5492
nW	-10.5498
Egp	-10.5507
JNh	-10.5509
AAAAAAAAABU	-10.5509
UwIhF	-10.5511
ST	-10.5515
FU	-10.5523
AAAAAOs	-10.5523
da	-10.5525
hy	-10.5538
DZm	-10.5538
ZFs	-10.5541
Oj	-10.5541
Zp	-10.5543
Um	-10.5543
AgAAi	-10.5553
EF	-10.5554
JJg	-10.556
WZmL	-10.5566
CSIkFAAAAA	-10.5578
BQAAAAAB	-10.5578
dM	-10.5581
zR	-10.5587
gCAAAA	-10.5591
RTHA	-10.5607
IiwUAAAAASIlF	-10.561
AEAAEgB	-10.5626
SB	-10.5628
EiNHQAAAAB	-10.5633
TE	-10.5634
AJIjRUAAAAAxwQQ	-10.564
YH	-10.5642
pB	-10.5648
OY	-10.5652
FQAAAAB	-10.5655
TWn	-10.5658
Xz	-10.566
sC	-10.5661
icK	-10.5666
gBy	-10.5666
EJA	-10.5668
QAAAAcAAAAAAAAAE	-10.5669
wEg	-10.5674
JID	-10.5674
QkG	-10.5682
IMBwgAAC	-10.5683
Hr	-10.5684
ZFo	-10.5685
QAAAEiJ	-10.5689
QkM	-10.5698
bt	-10.5702
Mh	-10.5702
ugEAAAB	-10.5706
DgAAAAAAAAAD	-10.5706
JIiQUAAAAA	-10.5711
DJw	-10.5722
ZM	-10.5727
GaJRb	-10.5729
PvpV	-10.5732
kEPt	-10.5738
Le	-10.5742
AEAACAAHAEGJ	-10.5745
kMn	-10.5761
lI	-10.5771
dY	-10.5775
SIlFyEiLVchIi	-10.5775
RCn	-10.5776
Hd	-10.5782
AAQAA	-10.5785
icIPtkX	-10.5786
AOm	-10.5787
Tp	-10.579
wke	-10.5793
LVfyLRfg	-10.5797
nK	-10.5798
zHA	-10.5812
Gh	-10.5824
QYH	-10.5825
QAQ	-10.5826
DlF	-10.5845
AAAAAHABAAAAAAAA	-10.5847
iJwg	-10.5855
weACSAHQSAH	-10.5864
QSA	-10.5867
cx	-10.5874
VG	-10.5882
SIkFAAAAAJ	-10.5886
lD	-10.5888
hCT	-10.5898
BIA	-10.5898
dZ	-10.5904
MTieT	-10.5907
PlQUAAAAA	-10.5912
EuNB	-10.5914
GaJRfwPt	-10.5915
jRSFAAAAAEgB	-10.5918
zG	-10.5925
khjyEiJ	-10.5927
iU	-10.5929
hw	-10.5932
SGPJSGPS	-10.5945
ft	-10.5947
AQQ	-10.5948
EAAAAAABIi	-10.595
QkkAAAA	-10.595
wkY	-10.5954
tg	-10.5957
oiF	-10.5962
de	-10.5965
MfZ	-10.5971
AAAAARA	-10.5971
Vz	-10.5974
fCS	-10.598
nL	-10.5984
Pl	-10.5986
lS	-10.5986
Ehrw	-10.5991
wAAD	-10.5993
IjX	-10.5993
VK	-10.5998
AAAAAEM	-10.5998
MiY	-10.6007
AABAAAAAAAAAAM	-10.601
cH	-10.6014
tQ	-10.6015
IuE	-10.6016
cG	-10.6019
AAAAAOk	-10.6019
SIuFQP	-10.6031
bI	-10.6035
dr	-10.6036
3///8	-10.604
AhP	-10.6043
IiYQk	-10.6047
QVRVU	-10.6054
pn	-10.6055
FQAAAAC	-10.6066
ZID	-10.6071
SAFF	-10.6074
AAAAAOm	-10.6076
GaDf	-10.6083
CgAAAAAAAAAAAAAA	-10.6085
dFz	-10.6086
fT	-10.6092
ElQAAAABIicJIi	-10.6092
Iaf	-10.6101
px	-10.6104
QkmAAAA	-10.6105
PP	-10.611
SItFEEgB	-10.6115
AAAAAiRQI	-10.6116
kyN	-10.612
EiNFQAAAABIAdDGA	-10.612
QkC	-10.6123
Yx	-10.6124
wp	-10.6125
dCS	-10.6126
EWN	-10.613
Tr	-10.6143
EGA	-10.6144
SItFGEgB	-10.6145
VYSI	-10.615
SGnD	-10.6151
iIW	-10.6152
Gc	-10.6158
cFAAAAAGaJ	-10.6164
SAHCSItF	-10.6166
AgAAAEEOEIYCQw	-10.6166
3//+	-10.6168
gNIAcJI	-10.617
hIiUQk	-10.6176
bASIlF	-10.6176
gByEgB	-10.6185
fb	-10.6188
AAAAAKgAAAAEAAAA	-10.6191
GaJRa	-10.6192
XCR	-10.6196
AOk	-10.62
YVAAAAA	-10.6202
gBwkiNBJUAAAAASI	-10.6205
AIAAAAAAAA	-10.6207
CSIXAD	-10.6213
CAABIi	-10.623
JLB	-10.6233
FID	-10.6233
CAAAAQQ	-10.6235
QhgJDDQYCQ	-10.6244
heT	-10.627
nY	-10.6274
Gd	-10.6275
rB	-10.6276
wEiNFQAAAABmxwQQ	-10.6281
AAPlcAPtsA	-10.6288
QkiAAAA	-10.629
ok	-10.629
kSN	-10.6291
QkE	-10.6291
QkoAAAA	-10.6296
Gx	-10.6302
Qkc	-10.6302
JAf	-10.6302
PvoU	-10.631
QkgAAAA	-10.6313
PvlW	-10.6313
UYSI	-10.6314
TIk	-10.6316
5//9	-10.6318
IjY	-10.6321
AAAAQw	-10.6324
USJ	-10.6328
AAAAQg	-10.6329
Oi	-10.633
AQAASIu	-10.6333
HC	-10.6338
Jif	-10.635
yEhj	-10.635
wGaJ	-10.6351
AHQL	-10.6352
mQYM	-10.6353
jXD	-10.6356
Qp	-10.6365
qN	-10.6367
pz	-10.6367
hEi	-10.6375
MS	-10.6377
bT	-10.6379
gJIjQ	-10.6381
ag	-10.6391
Qh	-10.6401
SAHCi	-10.6407
GaJBQAAAABIi	-10.6414
NBD	-10.6415
CAAHAEFXQVZBVU	-10.6416
wIgFAAAAAA	-10.6417
ny	-10.6417
MAd	-10.6418
wIkFAAAAA	-10.6419
CAAHAEFXQVZBVUGJ	-10.6425
GaJBQAAAAB	-10.6428
AYAA	-10.6428
jgNCDiCNBEUOKIwF	-10.6431
OYV	-10.6437
JOh	-10.6439
Ihf	-10.6439
xIY	-10.644
Ep	-10.6441
Cm	-10.6443
nT	-10.6448
IOdBID	-10.645
bR	-10.6453
VDAcIAAAA	-10.6455
AAAAAAAAAAIEAAAA	-10.646
SIkNAAAAA	-10.6467
IAAA	-10.6473
bgUAAAAA	-10.6477
BO	-10.6477
MiUwk	-10.6485
QBAAA	-10.6487
GaJBQAAAAC	-10.6499
TS	-10.6499
AAEAAAAAAAAAAEg	-10.6503
CJw	-10.6505
cU	-10.6514
LoBAAAA	-10.6523
ISI	-10.6533
AHQJ	-10.6533
OsED	-10.6535
JMB	-10.6539
WJ	-10.6542
hjykhj	-10.6544
JKB	-10.6544
ZpB	-10.6544
MjR	-10.6551
ABAAB	-10.6554
XCD	-10.6554
MTi	-10.6557
xoX	-10.6563
EgPvoV	-10.6573
YAQAA	-10.6579
zp	-10.6579
AHASAHQSAH	-10.658
AAAAAAAAAOgAAAAA	-10.658
Tj	-10.6583
LG	-10.6584
AAgAA	-10.6586
VASAHQ	-10.6588
IAdBIi	-10.6589
AAABBDhCGAkMNBgN	-10.6591
uH	-10.6591
nCS	-10.6592
lE	-10.6593
PtgUAAAAA	-10.6595
RIl	-10.6597
bo	-10.66
dBIweADSAHQSMHgA	-10.6605
hx	-10.6615
hcz	-10.6617
Lc	-10.662
miQUAAAAAD	-10.6621
JMh	-10.6625
lY	-10.663
IiUXYSItV	-10.663
Lb	-10.6633
SAHw	-10.6638
CAAHAECIPQAAAAD	-10.6644
hrwA	-10.6645
My	-10.6647
SAF	-10.6648
BFD	-10.6653
UF	-10.6665
Wq	-10.6668
YQ	-10.667
AAAAAAAAAAWg	-10.668
GaJBQAAAAAPt	-10.6682
kGD	-10.6689
EiNNQAAAAB	-10.6689
Wu	-10.669
fH	-10.6694
AABAAAAAAAAAAN	-10.6696
AAABBDhCGAkMNBgO	-10.6698
EAc	-10.6698
QAAAABIi	-10.6699
YAgAA	-10.6699
CDhBCDghBCwAA	-10.67
LS	-10.6701
cEQ	-10.6704
AdAt	-10.6713
IAcKL	-10.6717
np	-10.6732
lf	-10.6736
en	-10.6745
ABBDhCGAkMNBgK	-10.6748
lb	-10.6748
Elp	-10.6749
Elpx	-10.6753
UGJ	-10.6754
SYM	-10.6754
wkiAAAA	-10.6755
PvoX	-10.6756
sK	-10.6757
jQRFDiiMBUEOMIYG	-10.6758
Exp	-10.676
iNFQAAAABIxwQQ	-10.6763
WS	-10.6764
bb	-10.6767
ja	-10.6769
EAd	-10.6771
ac	-10.6776
AAAABa	-10.6776
ImEhj	-10.6779
JIh	-10.678
fq	-10.6783
Djh	-10.6784
Wi	-10.6793
Gk	-10.6796
AAAAAAAAABS	-10.6799
EAAAB	-10.68
RE	-10.6806
aI	-10.6809
QAgAA	-10.681
SAHQSDlF	-10.6812
KQ	-10.6815
AABAAAAAAAAAABo	-10.6819
wAAAAcAAAAAAAAAJ	-10.6821
NSP	-10.6824
AiDUAAAAA	-10.6824
hbj	-10.6829
le	-10.6833
mAAAA	-10.6839
hcD	-10.684
RIm	-10.684
lP	-10.6844
uu	-10.685
EJO	-10.6856
sFu	-10.6858
IiQUAAAAAD	-10.686
IjRTFAAAAAEiL	-10.6862
XCS	-10.6866
qAAAAAQAAAD	-10.6868
eI	-10.6871
iFwk	-10.6874
bE	-10.6875
ZoH	-10.6875
QTj	-10.6877
EiJBQAAAAC	-10.6879
AEAACAAHAIX	-10.6879
EiJBQAAAAB	-10.689
idFIm	-10.6894
Uy	-10.6897
AAAAAAAAADA	-10.6902
ma	-10.6903
VAAAAAA	-10.6905
pU	-10.6907
CF	-10.6907
MT	-10.6908
uU	-10.6912
Wm	-10.6922
GU	-10.6922
hdD	-10.6924
QAAAAAAJB	-10.6926
EAAAAAAAEAACQAIA	-10.6932
AAPlc	-10.6932
ECIM	-10.6933
QAAAAAAE	-10.6936
AAAAAiQQK	-10.6939
wkkAAAA	-10.6941
UAAAAAQQ	-10.6952
AAAAAZokUC	-10.6986
dIY	-10.6994
QhgJDDQYCR	-10.6999
Jic	-10.7003
AAAAAAAAAAIIAAAA	-10.7015
pIg	-10.7027
iYV	-10.703
La	-10.7037
BQAAAABmiUX	-10.7039
wAAAAcAAAAAAAAAK	-10.704
ZCT	-10.7044
YAAAAAQQ	-10.7045
Hh	-10.7047
GaB	-10.7049
NAAAAAIgUC	-10.706
SMHhB	-10.7071
AAAAAAAAAAhw	-10.7072
RTHJ	-10.7073
RU	-10.7073
Rmg	-10.7086
Pp	-10.7089
dID	-10.709
gLwk	-10.7092
En	-10.7096
dp	-10.7096
ld	-10.7097
cT	-10.7098
RIk	-10.71
AAABBDhCGAkMNBgP	-10.7101
SGPI	-10.7106
Al	-10.7108
EIOEEIOCEELAAAA	-10.7108
dj	-10.7133
mn	-10.7138
Hu	-10.7139
SItVIEgB	-10.7148
kSI	-10.7156
AUAA	-10.7159
PtgUAAAAAD	-10.7162
weADSI	-10.7163
mhcB	-10.7169
AOl	-10.7173
RBD	-10.7173
EQPv	-10.7174
Bxfl	-10.7176
iYX	-10.7177
SInQSAHASAHQSMHg	-10.7187
wAAAAAQQ	-10.7189
jD	-10.7207
SItFsEg	-10.7212
SItFIEgB	-10.7221
znQD	-10.7227
fn	-10.7233
AAAAAAABoAAAAA	-10.7234
IH	-10.7235
OM	-10.7237
fCR	-10.7246
Uhp	-10.7247
QkqAAAA	-10.7252
hCQ	-10.7258
ZokNAAAAA	-10.7259
IweAE	-10.7265
oE	-10.7266
JIAAAAB	-10.7267
AAAAAIABAAAAAAAA	-10.7275
SIuFMP	-10.7281
jRUAAAAASAHQQIgw	-10.7284
VgSI	-10.7285
wkmAAAA	-10.7292
nX	-10.7295
////99	-10.7298
IiwUAAAAA	-10.7301
HG	-10.7302
AAAAAAAAAzAAAAA	-10.7306
ZBg	-10.7309
ANIAchI	-10.7309
ABAAAAAAAAO	-10.731
ib	-10.7311
xwUAAAAAAAAAA	-10.7312
hdT	-10.7312
Kk	-10.7317
AOs	-10.7317
kiYD	-10.7317
AABAAAAAAAAAAL	-10.7325
PvlX	-10.7326
dBIweACSAHQSMHgA	-10.7331
Mk	-10.7332
YtV	-10.7339
/3//0	-10.7343
qg	-10.7348
cp	-10.7349
dCFwA	-10.7351
SGPwi	-10.7352
ou	-10.7356
AJIjRUAAAAAiQwQ	-10.7356
ch	-10.7357
oQ	-10.7358
YO	-10.736
YT	-10.7367
AAAAAHgBAAAAAAAA	-10.7367
QU	-10.7378
miVwk	-10.7389
AAIlF	-10.7391
tCS	-10.7393
tN	-10.7394
gAAAAAQQ	-10.7399
Tx	-10.7406
cK	-10.7406
ChcB	-10.7407
IiRUAAAAA	-10.7408
DAABIi	-10.7413
Oe	-10.7414
SItVKEgB	-10.7417
haj	-10.7419
SItFKEgB	-10.7425
nQSMHgBEiJwkiJ	-10.7427
Vj	-10.7429
InC	-10.7432
nQSAHASAHQSMHgAk	-10.7437
rF	-10.7437
jCS	-10.7437
Lo	-10.7438
PthUAAAAA	-10.7439
Vh	-10.7442
CSIlF	-10.7443
GbHBQAAAAAAA	-10.7444
et	-10.7452
KAAA	-10.7452
JMi	-10.7455
bF	-10.7455
SIuN	-10.7456
SGnJ	-10.7458
APtv	-10.7463
SInC	-10.7469
icFIi	-10.7469
TIus	-10.747
EwHQ	-10.7474
QxNgAu	-10.7481
vCS	-10.7481
AJIAdBIAcBI	-10.7484
BR	-10.749
QksAAAA	-10.7492
AJIAchI	-10.7495
AAEAAAAAAAAAAEw	-10.7496
lZ	-10.7498
AAAAAFI	-10.7499
wPj	-10.7527
AAEgB	-10.7533
SANMJ	-10.7537
Eic	-10.7538
BIu	-10.754
InB	-10.7546
OR	-10.755
em	-10.755
hfZ	-10.755
AHASAHISMHgAkgB	-10.7557
CSI	-10.7562
GaJRc	-10.7572
oPAA	-10.7579
Lt	-10.7586
uO	-10.7601
iDwA	-10.7601
UyN	-10.7602
eU	-10.7607
DDx	-10.7609
EiFwA	-10.7614
QO	-10.7615
kmJ	-10.7616
Bc	-10.7621
IjRS	-10.7625
TWP	-10.7628
Ptnwk	-10.7628
QBAAB	-10.7629
miRUAAAAA	-10.763
Xci	-10.7631
iAUAAAAAk	-10.7636
dH	-10.7638
AABAAAAAAAAAAP	-10.7639
XAiAUAAAAAk	-10.7646
BZ	-10.7646
Wy	-10.7647
oBAAA	-10.7648
Sf	-10.765
wkc	-10.7652
ImUj	-10.7653
lIidBIweACSAHQS	-10.7655
xp	-10.7656
dt	-10.7657
iTUAAAAA	-10.7662
Ptlwk	-10.7662
BU	-10.7664
lCS	-10.7669
GBQAAAAD	-10.7669
TIs	-10.767
bv	-10.7674
PQAAAAB	-10.7676
AAEiJ	-10.7678
QZ	-10.768
Fmg	-10.7684
AAAAAAAAAAcw	-10.7687
ABAAA	-10.7691
dCR	-10.7694
RIu	-10.7698
AAAAAAAAEAAAAAAA	-10.7699
dh	-10.77
AED	-10.77
BQAAAABm	-10.7702
VBQAAAAD	-10.7706
jQSVAAAAAEiJwkiJ	-10.7707
ASA	-10.7708
nv	-10.771
SAHQSIPA	-10.7716
rH	-10.7717
Be	-10.7719
ANIjRUAAAAASMcEE	-10.7737
ZEJO	-10.7747
AUX	-10.7749
ZolV	-10.7751
zF	-10.7751
QYB	-10.7758
CIBQAAAACQ	-10.7758
QkwAAAA	-10.776
BIidBIweACSAHQ	-10.7766
QAQAAAAAAAD	-10.7773
SIuVeP	-10.7773
SItVMEgB	-10.7777
CIBQAAAABIi	-10.7777
EjV	-10.7778
AAAAAAAAAAIMAAAA	-10.778
uAAAA	-10.7782
yEgBwEgByEgBwEgB	-10.7786
SItVGEgB	-10.7787
SIsVAAAAA	-10.779
qQ	-10.7791
oAwAA	-10.7791
AcAA	-10.7796
MjRUAAAAA	-10.7802
oSIl	-10.7802
zE	-10.7803
EJM	-10.7804
EEPts	-10.7807
JPB	-10.781
ci	-10.7812
EiU	-10.7813
wAQAA	-10.7816
QK	-10.7818
mB	-10.7823
NIg	-10.7824
bAiUX	-10.7831
PHwB	-10.7831
JPh	-10.7837
QkuAAAA	-10.7838
YEA	-10.7843
ZoXAD	-10.7845
ZIg	-10.7847
EjU	-10.7848
bj	-10.785
Ue	-10.7851
VC	-10.7858
EiLRdBI	-10.7862
JOB	-10.7871
SIuFSP	-10.7874
Ba	-10.7889
iNFQAAAABIiQwQ	-10.789
AAAAx	-10.7899
RID	-10.79
dIg	-10.7908
PvkX	-10.7912
bx	-10.7916
XT	-10.792
EiNDQAAAAB	-10.7923
SAHwSI	-10.7927
EJL	-10.7929
AAAATI	-10.7933
Xki	-10.7935
TIm	-10.7936
USN	-10.7938
MTYALm	-10.7938
miYW	-10.7939
IgVAAAAA	-10.7941
AAPlcAPtsAB	-10.7944
sL	-10.7944
EAEbDAcIkAEAAC	-10.7945
GaQ	-10.795
lg	-10.795
SItVuEiLRbBI	-10.7951
AAAAAAAAAAIU	-10.7956
kO	-10.7956
AABmg	-10.7969
MjQUAAAAA	-10.7976
UEPt	-10.7983
AAAAEEOEIYCQw	-10.7988
PtnQk	-10.7989
lj	-10.7993
wkoAAAA	-10.7997
JAd	-10.7998
PvpU	-10.8002
do	-10.8011
Uu	-10.8012
fwA	-10.8013
AAAATQAAAAAAAAA	-10.8013
UW	-10.802
dq	-10.802
icIPtkW	-10.8025
AdQ	-10.8027
la	-10.803
iZ	-10.803
xj	-10.8035
RYs	-10.804
dm	-10.804
rw	-10.8043
hmiUX	-10.8044
bSg	-10.8047
Eo	-10.8051
tI	-10.8051
AMAAAAAAAAAAAAAA	-10.8053
weACSI	-10.8057
hmiQUAAAAA	-10.8063
We	-10.8071
nx	-10.8075
cBIjRUAAAAAZscEE	-10.8082
xU	-10.8084
AJIAcJIi	-10.8095
SItVEEgB	-10.8095
MAe	-10.8096
AAAAASIkEC	-10.8103
haz	-10.8109
RTHS	-10.811
bK	-10.8118
AUAAAAAAAA	-10.8119
pBD	-10.8119
OUW	-10.8121
mRIk	-10.8126
OT	-10.8132
wkM	-10.8133
SAHC	-10.8138
hcT	-10.814
UwIiF	-10.8148
OZ	-10.8151
Bb	-10.8152
HZ	-10.8153
SGnH	-10.8161
SIPAA	-10.8162
BL	-10.8164
jUr	-10.8167
iR	-10.8169
AAAAAAAAAEABAAAA	-10.8171
EiJRfBIi	-10.8171
hbz	-10.8171
ZjnQD	-10.8171
QL	-10.8172
JImEjB	-10.8174
AABAAAAAAAAAAJ	-10.8187
AAAAAAAAAAFU	-10.8188
OF	-10.8188
IPts	-10.819
TWv	-10.8191
IPAB	-10.8194
jg	-10.8201
IAdAPtgAPts	-10.8203
sO	-10.8204
Uq	-10.8214
EiNFIUAAAAASAHQS	-10.8215
dBIAcBIAdBIweAC	-10.8224
wkK	-10.8227
dS	-10.8233
dk	-10.8242
IjQR	-10.8242
RM	-10.8248
weA	-10.825
MK	-10.8252
dx	-10.8258
nG	-10.8261
QAAD	-10.8264
SItFG	-10.827
WO	-10.8272
zHS	-10.8279
AgAAAAAAAC	-10.8284
Elj	-10.8293
kmN	-10.8293
dEJP	-10.83
AiHwk	-10.8301
xx	-10.8306
TIuM	-10.831
Zmg	-10.8322
AAAAAOl	-10.8325
SJhIweACSI	-10.8326
ZFk	-10.8328
UAAAA	-10.833
BjU	-10.8331
Reh	-10.8333
SItFE	-10.8337
AACL	-10.8337
jnQD	-10.834
gAAD	-10.8348
LV	-10.8353
mc	-10.8359
BjY	-10.836
jP	-10.836
qQAAA	-10.8365
gV	-10.8367
3+//8	-10.8368
oOOE	-10.8372
Ptk	-10.8372
TCn	-10.8372
CDwA	-10.8372
NwokFAAAAA	-10.8376
IjU	-10.838
pID	-10.8385
SMHmB	-10.8403
oT	-10.8404
AABAAAAAAAAAAK	-10.8406
cM	-10.8406
3//8	-10.8407
LRCT	-10.841
cS	-10.8412
AABMi	-10.8412
gHQg	-10.8418
xgQ	-10.8418
AiHQk	-10.842
pV	-10.842
QkI	-10.842
OdAPT	-10.8423
dFy	-10.8426
SH	-10.8432
AAAAAAAAAAIc	-10.8434
Uh	-10.8436
EiJRehIi	-10.8438
EjZ	-10.8441
QPj	-10.8443
AMAAA	-10.8444
AAAAAAAAAAIYAAAA	-10.8444
EJN	-10.8446
Rbh	-10.8446
BS	-10.8448
Lk	-10.8452
SIsA	-10.8457
AABAAAAAAAAAAO	-10.8458
chIAcBIAchI	-10.8462
Tz	-10.8464
JmiQUAAAAA	-10.8466
Ll	-10.8467
MjT	-10.8471
Rdh	-10.8485
XAiIU	-10.8493
OsFu	-10.8494
JIgAAAB	-10.8495
VoSI	-10.8496
LW	-10.8496
oAgAA	-10.8496
dFr	-10.8498
SAHQSAH	-10.85
UiYSGPKSInCSMHiA	-10.8502
BVFVT	-10.8506
hZj	-10.8506
RIh	-10.8507
AgwHCAAA	-10.8508
YPtkX	-10.8513
GRf	-10.852
ERA	-10.852
EIOEEIOCAAAAAAA	-10.8527
oAAAB	-10.8528
RCSQ	-10.8528
PQs	-10.8535
QkAAEAA	-10.8537
AAAARA	-10.8537
Rj	-10.8538
EY	-10.8544
oBAAAA	-10.8549
Oz	-10.8551
EL	-10.8551
YVAAAAAA	-10.8555
GAAAA	-10.8557
ARIKdBI	-10.8558
YASA	-10.856
AAAAEiJ	-10.8563
SIuFIP	-10.8564
Es	-10.8564
Eid	-10.8565
AAABIx	-10.8566
aU	-10.8569
EwBy	-10.857
BIiUX	-10.8572
EjY	-10.8573
SAHKD	-10.8574
YAQAAAAAAAD	-10.8576
AGaFwA	-10.8583
wkI	-10.8587
YAAA	-10.8587
hcl	-10.8588
cVAAAAA	-10.8591
UhQAAAABIAdBI	-10.8591
Exr	-10.8599
RCTo	-10.8599
JBg	-10.86
AAEAAAAAAAAAAFA	-10.8614
hIa	-10.8616
BQAAAAAPt	-10.8644
hXr	-10.8645
IAch	-10.8647
QkyAAAA	-10.8649
mr	-10.8652
wkqAAAA	-10.8659
nl	-10.8664
CAAB	-10.8665
BAAAPt	-10.8672
SItVOEgB	-10.8673
ZFw	-10.8673
EWL	-10.8673
AAEAAAAAAAAAAEQ	-10.8673
hXb	-10.8678
ZT	-10.8678
PttKD	-10.8681
IiTUAAAAA	-10.8681
dFv	-10.8689
VISAHQ	-10.869
UQSI	-10.8692
IxwUAAAAAAAAAA	-10.8696
jVABD	-10.8696
IkVAAAAA	-10.8697
CiAUAAAAA	-10.8703
gPh	-10.8704
SS	-10.8714
APtkQk	-10.872
iz	-10.8722
VBQAAAAB	-10.8729
OwokFAAAAA	-10.873
ex	-10.8731
OMIPRsIPts	-10.8732
HY	-10.8735
dQVxBXUFeQV	-10.8736
AAAAAAAAAAFQ	-10.8739
AAOs	-10.8743
EiDwA	-10.875
GYB	-10.875
GbHRf	-10.8751
IacD	-10.8758
EW	-10.8759
MAf	-10.8772
XR	-10.8776
Ee	-10.8778
VR	-10.878
SItFMEgB	-10.8782
FMi	-10.8787
SGnG	-10.8789
AAAAAAAAABa	-10.8789
SGPQi	-10.8794
bX	-10.8796
iFQk	-10.8802
dBIweAESInCSInIS	-10.8805
bCS	-10.881
Jad	-10.8811
GRe	-10.8812
IgNAAAAA	-10.8816
BIAdCL	-10.8817
SAHB	-10.882
wkgPRsJIiQUAAAAA	-10.8823
mYPH	-10.8823
EJK	-10.8824
AAEAAAAAAAAAADw	-10.8824
wAPlcAPtsA	-10.8827
dG	-10.883
SInCSMHiA	-10.8836
AAAAAAAAADMAAAA	-10.8836
MiUQk	-10.8837
AIAAE	-10.8838
MPv	-10.8839
SGPSSMHiA	-10.884
ct	-10.884
CU	-10.8844
EiLRR	-10.8844
DwokFAAAAA	-10.8848
ANIjRUAAAAASIkME	-10.8853
dz	-10.8861
Rch	-10.8866
Uhr	-10.8867
ZAA	-10.8869
wSA	-10.8873
Mz	-10.8873
JPQAAAAD	-10.8878
gBwg	-10.8882
ynQ	-10.8889
pj	-10.8889
EiLRehI	-10.889
nF	-10.8898
wEA	-10.8898
TCR	-10.89
YSI	-10.8901
RMi	-10.8902
AAPlMAPts	-10.8902
AQAASIt	-10.8905
MAc	-10.8906
tv	-10.8912
Th	-10.8913
VQSAHQ	-10.8916
wAAAAcAAAAAAAAAN	-10.8918
LX	-10.8921
334	-10.8922
Ho	-10.8923
wAAAAcAAAAAAAAAM	-10.8924
GF	-10.8925
hIu	-10.893
UYSAHC	-10.8933
FH	-10.8934
IjRTFAAAAAEiLRS	-10.8944
MR	-10.895
AEAAEiL	-10.896
Vr	-10.8962
AAAABb	-10.897
FL	-10.8972
jW	-10.8972
IHq	-10.8972
JOc	-10.8975
iJRfhIi	-10.8976
IsEg	-10.8977
InIiEX	-10.8978
iAUAAAAAi	-10.8979
CiQUAAAAA	-10.898
EZ	-10.898
IjRTFAAAAAEiLRR	-10.8986
NAAAAAIkEC	-10.8986
xwUAAAAAAQAAA	-10.8991
ixUAAAAA	-10.8993
dFq	-10.9
IixUAAAAA	-10.9001
Eq	-10.9001
AAAAAEj	-10.9004
GwokFAAAAA	-10.9006
ZoNF	-10.9007
IjRT	-10.9013
FO	-10.9014
hbD	-10.9015
miXwk	-10.902
AAAAAAAAABV	-10.9022
UQPt	-10.9023
MdK	-10.9025
lr	-10.9027
dFu	-10.9035
wkgPTsJIiQUAAAAA	-10.9041
miTUAAAAA	-10.9041
wS	-10.9042
nS	-10.905
wkuAAAA	-10.906
wksAAAA	-10.9061
NAc	-10.9063
hXL	-10.9063
bCQ	-10.9063
wAAAAcAAAAAAAAAI	-10.9065
BK	-10.9067
NID	-10.9067
AAAAAAQQ	-10.9068
hMl	-10.9073
GaJRCT	-10.9077
JJgAAAB	-10.9077
ur	-10.908
sQ	-10.9088
iYSAHASI	-10.9089
dAAAAAE	-10.909
gBAAB	-10.909
WDAcIAAAA	-10.9092
pE	-10.9095
NAe	-10.9095
uC	-10.9097
yo	-10.9111
pv	-10.9111
AAAABIi	-10.9115
hZz	-10.9122
wkC	-10.9123
UwSAHC	-10.9126
oSI	-10.9128
gAwAA	-10.9131
AAAASIt	-10.9134
cAAAAAQQ	-10.9138
Ob	-10.9141
SMH	-10.9141
FIa	-10.9144
SImU	-10.9144
Ju	-10.9145
SGPQ	-10.9159
hImA	-10.9161
SIlFuEiLVbhIi	-10.9163
SIuFOP	-10.9166
JKAAAAB	-10.9166
jT	-10.9167
Ehpy	-10.9171
Eu	-10.9181
VCR	-10.9183
SIuFKP	-10.919
sF	-10.919
tAAAA	-10.9191
Ro	-10.9191
DAcI	-10.9193
BBg	-10.9198
AAAAOdAPj	-10.9202
AAAASIu	-10.9203
wRIi	-10.9204
APtoV	-10.9205
wkgPTcJIiQUAAAAA	-10.9205
BbXUFcQV	-10.9209
wEiY	-10.9213
UgSAHC	-10.9215
IK	-10.9215
qQAAAEiJ	-10.9218
CRQ	-10.922
SAHY	-10.9221
AQAAx	-10.9228
AAAAAJABAAAAAAAA	-10.9229
FAAA	-10.9233
dBIweACSAHQSAHA	-10.9234
hk	-10.9235
mRDn	-10.9237
eFfP	-10.9239
THA	-10.924
YBAAA	-10.9241
IKc	-10.9247
Fd	-10.9247
wEiNDQAAAABmiRQI	-10.9249
eT	-10.9251
mC	-10.9254
Zy	-10.9256
AAAAAAAAAACR	-10.9258
UoSAHC	-10.9262
eh	-10.9262
AAAAAAAAABZ	-10.9264
FAAAAAA	-10.9267
AAAAAAAAAAWw	-10.9275
APlM	-10.9275
OcgPj	-10.9275
BIidBIweAESCnQ	-10.9277
AIiF	-10.9279
CEwA	-10.9288
eUiJ	-10.929
ej	-10.9291
FMf	-10.9294
du	-10.9296
Ec	-10.9297
BT	-10.93
uf	-10.9304
SGNEJ	-10.9306
ogVAAAAA	-10.9306
bASIkFAAAAA	-10.9307
fAE	-10.9307
BAACL	-10.9308
fAD	-10.9315
El	-10.9324
wAgAA	-10.9325
iwUAAAAAiUX	-10.9325
AAAAAIgBAAAAAAAA	-10.9329
GBQAAAAA	-10.9329
AcAAAAAAAA	-10.933
jnCD	-10.9333
PttKB	-10.9338
bAiQUAAAAA	-10.9347
IOc	-10.9347
AABAAAAAAAAAABs	-10.9352
lp	-10.9353
CIBQAAAAC	-10.9361
ABHQ	-10.9369
bCiQUAAAAA	-10.9373
IAdB	-10.9377
iJRdhIi	-10.9381
WF	-10.9382
AGaFwHQ	-10.9388
GaJRZ	-10.9392
BAABIx	-10.9392
co	-10.9399
AAAAQAAAAAAAAAAV	-10.9401
HBQAAAAAAAAAA	-10.9402
Ige	-10.9403
eB	-10.9409
SIsU	-10.9412
BJg	-10.9413
TwA	-10.9416
PtwUAAAAAZolF	-10.9419
OcIPj	-10.9423
NAAAAAEgByIgQ	-10.9425
APj	-10.9429
pX	-10.943
InQZolF	-10.943
ABBDhCGAkMNBgL	-10.9432
Kj	-10.9433
GaDv	-10.9437
BIm	-10.9437
AJIjVD	-10.9445
KkAAAB	-10.9448
iLhWD	-10.9453
gBykgB	-10.9454
ZED	-10.9455
DQAAAAA	-10.9458
Pvk	-10.946
EiLAEiFwHQ	-10.9463
CIBQAAAAAPt	-10.9466
SAHy	-10.9467
Qt	-10.947
wT	-10.9471
Qz	-10.9471
cq	-10.9472
BAAB	-10.9475
gEAAE	-10.9476
XYSI	-10.9477
RInA	-10.9477
RYg	-10.9485
QkCAEAA	-10.9494
FK	-10.9494
IAAAAAAAAAC	-10.9496
RCSY	-10.9497
QhgJDDQYCW	-10.9498
aFfP	-10.9503
TANEJ	-10.9503
ykhj	-10.9508
FfP	-10.9509
Tv	-10.9522
AAAAAFE	-10.9522
PlcB	-10.9523
cAZoXAD	-10.9524
HBQAAAAD	-10.9525
ui	-10.9528
gAAAB	-10.9529
RCTw	-10.953
RCSo	-10.9534
Xp	-10.9536
VX	-10.9538
iLhXD	-10.9541
MG	-10.9543
wAHQhcAPlcCI	-10.9544
AiAUAAAAA	-10.9548
IjRSFAAAAAEiLRS	-10.9549
IjRSFAAAAAEiLRR	-10.9549
rG	-10.955
uK	-10.9553
GbHBQAAAAD	-10.9554
EgByEjB	-10.9554
xgUAAAAAAU	-10.9554
sG	-10.9573
MAAAB	-10.9573
OcEPj	-10.9575
fG	-10.9575
Sz	-10.9577
MBAAA	-10.9578
PvoW	-10.9578
Qff	-10.9579
MZ	-10.9594
BIAcIPv	-10.9598
kPv	-10.9599
AEAAAAAAAB	-10.9602
tk	-10.9608
CiQUAAAAAD	-10.9609
Rs	-10.9611
gd	-10.9614
SIuVaP	-10.9617
ADAAB	-10.962
ZFg	-10.9623
wHQZi	-10.9627
ts	-10.963
AJI	-10.9633
YiF	-10.9635
ASIlF	-10.9636
tCT	-10.9638
Rz	-10.9641
EiNDQAAAABIAciIE	-10.9641
dFt	-10.9642
QAAAEEOEIYCQw	-10.9642
AOP	-10.9646
xID	-10.9656
Oh	-10.966
AHASInCSItF	-10.9667
SAHISAH	-10.9672
Ys	-10.9674
SMdEJ	-10.9674
kWF	-10.9675
Yl	-10.9675
dFx	-10.9676
df	-10.9676
ogFAAAAA	-10.9678
cEQg	-10.9678
iJw	-10.9679
DQAA	-10.9681
AAAAQAAAAAAAAAAa	-10.9683
tdQVxBXUFeQV	-10.9687
EwA	-10.9688
ZscFAAAAAAEA	-10.9688
miXQk	-10.9689
hN	-10.9694
EjHBQAAAAAAAAAA	-10.9695
QkIAEAA	-10.9695
cR	-10.9696
EwBw	-10.9698
Ri	-10.9699
yB	-10.9701
uG	-10.9704
FyQ	-10.9707
RTHb	-10.9709
QYt	-10.9711
APtt	-10.9714
zz	-10.9714
BIidBIweADSCnQ	-10.9718
AcBIjRUAAAAAZok	-10.9724
ZMi	-10.9725
BQAAAAAJ	-10.9726
Ua	-10.9726
vCT	-10.9729
WK	-10.973
/////////	-10.9734
UR	-10.9734
pT	-10.9736
RCTg	-10.9738
IjRSFAAAAAEiL	-10.9741
iEwk	-10.9742
Hs	-10.9744
Mac	-10.9747
NAf	-10.975
CZokFAAAAA	-10.9751
AABBD	-10.9755
wMAAAAAAAAAAAAAA	-10.9755
TAHA	-10.9757
AAABIg	-10.9759
CAAHAFVIieWJfdyJ	-10.9759
QMAAAAAAAAAAAAAA	-10.9761
GbHh	-10.9763
kK	-10.9764
EiLBQAAAABI	-10.9768
AAAAASAEAAAAAAAA	-10.9768
Qj	-10.9775
IXSD	-10.9778
AAAAAEg	-10.9778
AAAAAAAAAAFY	-10.9779
by	-10.9781
UmJ	-10.9788
ng	-10.9788
QkGAEAA	-10.9791
AAABMi	-10.9791
EGB	-10.9792
rv	-10.9796
wpIu	-10.9799
iLhVD	-10.9803
zU	-10.9816
SGPIi	-10.9816
IweAF	-10.9819
kUx	-10.9821
UT	-10.9823
EiYSIlF	-10.9824
EiJBQAAAAAPt	-10.9825
BQAAAAAPts	-10.9828
mZ	-10.9835
AAAAAAAAAAGU	-10.9837
ewA	-10.9839
AYAAAAAAAA	-10.984
UiYSI	-10.9841
wAPlcAPtsAB	-10.9841
Igzz	-10.9845
ISA	-10.9849
MAAA	-10.985
iLhUD	-10.9853
dFn	-10.9854
LhWj	-10.9856
IgUQk	-10.9861
Rx	-10.9862
PtwUAAAAA	-10.9867
DQAAAAC	-10.9869
AAAAQAAAAAAAAAAZ	-10.987
zr	-10.9874
AdR	-10.9876
VAAAAAE	-10.9877
PtlQk	-10.9877
vDQAA	-10.9878
GaDfCT	-10.9879
fu	-10.9882
BMA	-10.9882
gQAA	-10.9884
FeP	-10.9886
lAAAAA	-10.9889
hYj	-10.989
SPf	-10.989
ANIKdBI	-10.9891
hbT	-10.9894
EAPtv	-10.9903
AAAAQAAAAAAAAACo	-10.9905
mgzx	-10.9907
gAgAA	-10.9909
JJAAAAB	-10.9911
lID	-10.9914
IiwTQ	-10.9923
KU	-10.9925
UQSAHC	-10.9931
bz	-10.9932
haT	-10.9935
XUi	-10.9937
aQAA	-10.9943
FbP	-10.9944
AHQHu	-10.9944
gPvkX	-10.9945
gDAAB	-10.9954
AABID	-10.9954
EPts	-10.9957
NSv	-10.9959
AAAC	-10.996
xm	-10.9961
PCiQUAAAAA	-10.9962
AAAAAAAAABr	-10.9969
Oo	-10.9972
BAAAAAAAAAA	-10.9974
AAAAAAAAAFgBAAAA	-10.9983
bi	-10.9985
QAAAAcAAAAAAAAAA	-10.9985
MAAAAAQQ	-10.9987
mhf	-10.9989
os	-10.9996
ABAABIi	-11
CnQ	-11.0001
EiLBQAAAABIiUXw	-11.0002
kL	-11.0005
AEAAEiJ	-11.0005
zT	-11.0005
OUQk	-11.0006
kwD	-11.0007
sU	-11.0008
mQQ	-11.0011
ATI	-11.0014
dBD	-11.0015
VAAAAAIk	-11.0019
IOf	-11.002
QIAAE	-11.0031
dMi	-11.0033
Qy	-11.0035
IacDEAAAA	-11.0037
ifh	-11.0037
AEAAADp	-11.0047
AAAAAAAAAAig	-11.0049
nO	-11.0052
ABgAA	-11.0058
hWr	-11.0058
hWb	-11.0059
dFp	-11.0062
UGD	-11.0065
Och	-11.0067
CAAC	-11.007
BQAAAAAh	-11.008
Xr	-11.0085
KY	-11.0086
OEAAAB	-11.0089
sBAAA	-11.0092
ItN	-11.0094
lBD	-11.0094
SItFOEgB	-11.0096
SAHwSAHI	-11.0096
JMA	-11.0101
BAABmx	-11.0102
ez	-11.0102
pi	-11.0105
YAg	-11.0106
cF	-11.0107
IiUQku	-11.0108
iYiwSC	-11.011
Vn	-11.0112
MiXQk	-11.0115
QkEAEAA	-11.012
EmL	-11.0122
AUW	-11.0123
fhAAAAAAAD	-11.0123
SGPSSJhIa	-11.0126
XASI	-11.0127
LhXj	-11.0129
fK	-11.0136
TAHI	-11.0144
RCSg	-11.0148
icJIi	-11.0149
AAAAAAAAAACT	-11.015
SAHK	-11.0151
Wj	-11.0153
AhPZ	-11.0154
BYtF	-11.0155
BIAcIPt	-11.0163
nf	-11.0164
cAAA	-11.0165
Ehjy	-11.0169
fAZokFAAAAA	-11.0172
AAAAAWgAAAAAAAAA	-11.0174
kkB	-11.0178
SMHgBU	-11.0181
EJB	-11.0187
tT	-11.0187
FAABIi	-11.0188
Mj	-11.0188
3+//9	-11.0189
6//8	-11.0189
EwPv	-11.019
IAdAPtgCEwHQ	-11.019
EAAAAHAAAAAAAAAA	-11.0193
UAAA	-11.0196
gMAAAAAAAAAAAAAA	-11.0204
RH	-11.0207
EBAAA	-11.0207
MiXwk	-11.0213
iUXsi	-11.0214
SAHwSMHgA	-11.0216
NcP	-11.0218
hCR	-11.0219
ZscFAAAAAP	-11.0225
gPtkX	-11.0225
gDw	-11.0226
jHS	-11.0235
QAUiJ	-11.0235
wh	-11.0238
olF	-11.0239
VwSI	-11.024
MjS	-11.0255
BQAAAABIi	-11.0255
QAAAB	-11.0255
xIg	-11.0255
AAAAAAAAAACO	-11.027
EJC	-11.0276
iNU	-11.028
rj	-11.0282
wkyAAAA	-11.0288
kiF	-11.0292
IjTS	-11.0292
XoSI	-11.0296
icIPtoV	-11.0298
IiUW	-11.0304
EiBx	-11.0308
TYX	-11.0314
mU	-11.0316
SGnB	-11.0317
4//9	-11.0317
Qd	-11.0318
MHgBEgp	-11.0319
YlF	-11.0319
xfh	-11.0324
PoA	-11.0327
ec	-11.033
Vwg	-11.033
fl	-11.0332
zo	-11.0334
GRd	-11.0339
bh	-11.0339
BIAcJIi	-11.034
AAAAASA	-11.0346
AQAAAEIOEI	-11.0348
hIm	-11.0355
JOd	-11.0358
RCH	-11.0359
YnQ	-11.0361
wAAAAcAAAAAAAAAA	-11.0361
AAACJ	-11.0363
IiUQkq	-11.0365
HBQAAAAABAAAA	-11.0365
iNUP	-11.0366
oAAA	-11.0367
EiJRCS	-11.0367
HQGD	-11.0374
ZIa	-11.0376
BIO	-11.0378
hWL	-11.0378
Qa	-11.0379
gUAA	-11.0379
Elr	-11.0381
AAAAAAAAABq	-11.0382
EJJ	-11.0385
AAAAAAAAAAFM	-11.0391
hn	-11.0392
AJIi	-11.0399
QhgJDDQYCX	-11.0407
PvtKD	-11.0411
QAwAA	-11.0413
miR	-11.0416
pM	-11.0417
TAiEX	-11.0423
FQAAAAAPt	-11.0424
bCSIkFAAAAA	-11.0426
dFj	-11.0426
IPtsCFw	-11.0427
iIQk	-11.0427
MjU	-11.0428
JED	-11.0433
NMi	-11.0433
SMHnB	-11.0433
BAAAAQg	-11.0434
haD	-11.044
EgAA	-11.0441
AAAAAAAAAACS	-11.0441
hYz	-11.0441
sx	-11.0442
EgBwE	-11.0444
Sx	-11.0444
IlEJP	-11.0444
Eja	-11.0445
ECA	-11.0449
Nie	-11.0454
WwA	-11.0463
Rm	-11.0468
dFm	-11.0469
BAAAAD	-11.0477
hIAdCL	-11.0478
SJhIjRUAAAAAiAwQ	-11.048
CRA	-11.0481
AAAAAJgBAAAAAAAA	-11.0481
mO	-11.0488
BIiQUAAAAAD	-11.0492
ZAD	-11.0496
HI	-11.0496
Vt	-11.0499
tID	-11.0499
AAAAAAAAABn	-11.0501
AAAAAAAAAAGs	-11.0504
VwITAD	-11.0516
Hk	-11.0518
cFAAAAAA	-11.0527
jZD	-11.0528
AAAAAAAAABp	-11.0534
AABIgUQk	-11.054
EjW	-11.0541
kiNDQAAAABmiQQK	-11.0543
rR	-11.0545
dL	-11.0549
AAAAAAAAAAiw	-11.055
AAEg	-11.0553
uj	-11.0553
tR	-11.0554
xMi	-11.0555
IjQS	-11.0558
di	-11.056
cAm	-11.056
AQAASItF	-11.0563
TANMJ	-11.0566
xgUAAAAAAQ	-11.0571
hz	-11.0576
ESJy	-11.0576
IBQAAAABIi	-11.0576
YgFAAAAA	-11.0583
AAAAAAAAAAFc	-11.0584
kSL	-11.0592
MjTUAAAAA	-11.0595
EiLAEiFw	-11.0596
dK	-11.06
RdR	-11.0601
UAQ	-11.0602
UAAAB	-11.0603
AgAASI	-11.061
xI	-11.0613
DgAA	-11.0616
SJhIweADSI	-11.0617
iFX	-11.0624
FAAAAAEgB	-11.0625
AAAAAVgAAAAAAAAA	-11.0631
eFeP	-11.0634
JLAAAAB	-11.0648
aFbP	-11.0649
AdIicJIi	-11.065
xSInQSMHgA	-11.0652
MPH	-11.0653
QkKAEAA	-11.0654
RYh	-11.0656
wkwAAAA	-11.0665
SAOM	-11.0667
uh	-11.0673
QHQg	-11.0677
jVA	-11.068
PRM	-11.0685
wEiJRfhIi	-11.0686
hVL	-11.0689
YL	-11.0692
ls	-11.0693
hIAcIPv	-11.0693
Wz	-11.0695
jXj	-11.0696
Lq	-11.0699
ugAAAABI	-11.0699
tf	-11.0703
Xb	-11.0703
JKgAAAB	-11.0704
ZEA	-11.0705
cBAAA	-11.0707
lIa	-11.0708
Zs	-11.071
SGPSSI	-11.071
AAABID	-11.0713
SJgPtgQChMB	-11.0714
RaR	-11.0715
yIXAD	-11.0715
mM	-11.0715
OS	-11.0717
SGvS	-11.0729
SItVQEgB	-11.0734
KAAAA	-11.0735
SAHISMHgA	-11.0743
Sn	-11.0746
QkMAEAA	-11.0746
tm	-11.0747
nCT	-11.0749
iYSGnA	-11.075
AAAAAAAAAAJk	-11.0751
dMJ	-11.0754
jS	-11.0757
EiLBM	-11.0761
xyU	-11.0764
AAAAAAAAAAFwAAAA	-11.0767
Mt	-11.0769
SJhIiQUAAAAA	-11.0769
hVr	-11.0773
77/	-11.0775
eFbP	-11.0777
iNFMUAAAAA	-11.0778
BImA	-11.078
AfCQ	-11.0789
pF	-11.079
nCSInISAHASAHIS	-11.0793
xP	-11.0795
APvs	-11.0803
TnQD	-11.0805
Ehrx	-11.0809
WoSItFoEg	-11.081
bAZolF	-11.0811
RED	-11.0812
AABm	-11.0813
SInG	-11.0818
EAe	-11.0819
Vp	-11.082
aT	-11.082
Uz	-11.0821
AAAAABIi	-11.0823
RCTY	-11.0824
ARIg	-11.0825
Lv	-11.0826
EiYSIkFAAAAA	-11.0826
Fhf	-11.0829
PtgUAAAAAiEX	-11.0835
fh	-11.0835
uQEAAAB	-11.0844
EEPR	-11.0848
SMHgC	-11.0851
SItVqEiLRaBI	-11.0854
xfluw	-11.0855
SG	-11.0857
ZEJN	-11.0858
AAAAAAAAAAJU	-11.0859
VID	-11.0859
AAAAAAAAABb	-11.086
iYU	-11.0861
wAAAAcAAAAAAAAAP	-11.0862
AHI	-11.0864
AAAAAAAAABW	-11.0865
SIuFEP	-11.0865
xr	-11.0867
IuM	-11.087
JLgAAAB	-11.0872
IweAG	-11.0874
SSn	-11.0887
aFeP	-11.0887
APtg	-11.0888
SAHQSInKSMHiA	-11.089
gPvs	-11.089
ho	-11.0891
gPr	-11.0896
FdP	-11.0902
Sj	-11.0902
ZkGB	-11.091
AABJg	-11.0911
BCg	-11.0911
AFF	-11.0918
wUAAAAA	-11.0925
OYU	-11.0927
XAhMAPh	-11.093
ZkWJ	-11.093
EAf	-11.093
Bge	-11.0931
kgBy	-11.0933
EAAAAHAAAAAAAAAB	-11.0936
IjTy	-11.0941
IxwUAAAAAAQAAA	-11.0942
pr	-11.0945
//99	-11.0946
pH	-11.0947
TIuE	-11.0951
zt	-11.0957
SF	-11.0958
JIweIDSI	-11.0962
AEgPv	-11.0963
EmBw	-11.0964
AAAAAAAAABm	-11.0968
Inw	-11.0969
EAAAAAQQ	-11.097
wotF	-11.097
qv	-11.0971
BAAD	-11.0973
SIuVWP	-11.0977
EiNBI	-11.098
PtxUAAAAA	-11.0981
IiUXwSMdF	-11.0983
YNAAAAA	-11.0984
hIAcIPt	-11.0987
OwphmiQUAAAAA	-11.0994
SIus	-11.1
IiUQky	-11.1001
wHp	-11.1005
AAAAAAAAAAIAAAAA	-11.1008
hZD	-11.1008
tgAAA	-11.1014
aAAAA	-11.1014
SGN	-11.1015
MUiJ	-11.102
CSIkFAAAAAA	-11.102
iwy	-11.1026
xmg	-11.1028
kSInQSMHgAkgB	-11.1033
RYx	-11.1033
bAiAUAAAAA	-11.1035
SR	-11.1035
IAfB	-11.1039
AAAAALABAAAAAAAA	-11.1039
IjS	-11.1042
XISI	-11.1043
EiLRS	-11.1046
SIuFCP	-11.1047
nZ	-11.1051
QYg	-11.1052
AAAAAAAAAACo	-11.1053
kWJ	-11.1058
DAAAAQQ	-11.1064
kx	-11.1069
QkOAEAA	-11.1069
ZolcJ	-11.1069
mRIl	-11.1082
YPtkW	-11.1083
FMe	-11.1083
geq	-11.1084
BIx	-11.1088
JNg	-11.109
lMi	-11.1094
iJyEjB	-11.1094
dl	-11.1096
VBD	-11.1096
zj	-11.1099
miUwk	-11.1099
oAgAAAAAAAD	-11.11
dFi	-11.1101
PCSIkFAAAAA	-11.1109
sM	-11.111
ri	-11.1116
AiAUAAAAAD	-11.1117
GaJRY	-11.1117
Kh	-11.1122
RCSw	-11.1123
wAAAAcAAAAAAAAAL	-11.1123
zx	-11.1127
FhP	-11.1127
EgPvs	-11.1128
JNgAAAB	-11.113
IiUQks	-11.1133
AAAAAKABAAAAAAAA	-11.1134
QYk	-11.1136
IiU	-11.1137
ECI	-11.1138
IjRTFAAAAAEiLRT	-11.1143
InxiVX	-11.1147
AAAAAAAAAARw	-11.1152
Si	-11.1155
AAAAAAAAAAFgAAA	-11.1156
gPtkW	-11.1156
IuN	-11.1161
IweIE	-11.1163
EjHBQAAAAABAAAA	-11.1163
dEJO	-11.1165
pC	-11.1167
gl	-11.1167
JMAAAAB	-11.117
IhcB	-11.117
gCAAB	-11.1171
UkB	-11.1171
GbHRe	-11.1174
cPv	-11.1177
FMcl	-11.1178
AAAABd	-11.1178
SIsFAAAAAEg	-11.1178
wUAA	-11.1178
SIuFAP	-11.1182
BAAAAQQ	-11.1184
Zc	-11.1184
bCR	-11.1185
AMAAEgB	-11.1185
SAHQSMHgA	-11.1186
JOAAAAB	-11.119
SImM	-11.119
4305	-11.1192
AAAAQAAAAAAAAAAW	-11.1192
AAAAAAAAAHABAAAA	-11.1202
RAAAAAEEOEIYCQw	-11.1205
po	-11.1206
InKSMHiAkgBykgB	-11.1215
uAoAA	-11.1218
tb	-11.1222
EwXlu	-11.1227
gIAAA	-11.1231
dFs	-11.1231
pMi	-11.1233
EAAAAHAAAAAAAAAD	-11.1235
Ez	-11.1235
JFh	-11.1235
miVQk	-11.1237
hUL	-11.124
SIuFGP	-11.1241
RL	-11.1243
SImF	-11.1243
ZIA	-11.1245
uq	-11.1254
AAAAAAAAAAXQ	-11.1254
EiJRCSw	-11.1256
DHb	-11.1256
QkQAEAA	-11.1257
PvpX	-11.1261
CAAAPt	-11.1263
CDAcI	-11.1264
cr	-11.1274
IAwAA	-11.1279
BEIPt	-11.128
AAAAAAAAAAiQ	-11.1287
MOd	-11.1287
si	-11.1289
Rfh	-11.1289
XMi	-11.129
SAHR	-11.1292
RIidBIweACSAHQS	-11.1294
UQB	-11.1301
RF	-11.1306
IPh	-11.1308
gEAAAA	-11.1313
IjV	-11.1314
SItFI	-11.1316
NwphmiQUAAAAA	-11.1317
QDp	-11.1322
khjyUjB	-11.1323
FED	-11.1324
IDQAAAAB	-11.1332
yEiYD	-11.1335
IAdBIAfBI	-11.1335
lCT	-11.1336
mv	-11.1337
IRCT	-11.1337
MiVwk	-11.1339
InY	-11.1343
AAAAEiL	-11.1345
IsFAAAAA	-11.1346
up	-11.1347
AEAACAAHADHA	-11.1347
LAAAABwAAAAAAAAA	-11.1348
RCSI	-11.1352
IacB	-11.1353
IsVAAAAA	-11.1355
EIPt	-11.1358
VASAHC	-11.1361
JFB	-11.1361
hZT	-11.1362
FXP	-11.1372
zBQAA	-11.1375
Zz	-11.1375
BQAAAACIRf	-11.1376
PL	-11.1376
rBbg	-11.1382
EgBwotF	-11.1382
LhXD	-11.1393
JEh	-11.1394
GZAD	-11.1395
QoA	-11.1399
YAAAB	-11.1406
cL	-11.141
AQAATIu	-11.1411
AdAF	-11.1414
jCT	-11.1415
BAAAD	-11.1418
IjRSFAAAAAEiLRT	-11.1422
DDAcIAAA	-11.1422
JNA	-11.1426
TAN	-11.1427
SIkEJ	-11.1429
mZBg	-11.1435
IQQsAAAAA	-11.1439
QAAAAAQQ	-11.1439
RZy	-11.144
cj	-11.1441
AQDp	-11.1442
cZ	-11.1443
PRc	-11.1448
SIPAB	-11.1452
iLlXj	-11.1453
IjRR	-11.1458
mQYH	-11.1459
GBQAAAAB	-11.146
maF	-11.146
JOgAAAB	-11.1462
InQiEW	-11.1466
pe	-11.1466
APtlX	-11.1469
IBAAB	-11.1474
hUb	-11.1476
UBAAA	-11.1476
BAABIg	-11.1478
AABIx	-11.1479
pL	-11.1487
AAAAAAAAABY	-11.1491
IjTT	-11.1491
AAAAAAAAAAGo	-11.1492
AAAAAAAAABs	-11.1494
USI	-11.1495
ifCJ	-11.1495
Rcx	-11.15
AZolF	-11.1503
EUPv	-11.1504
AAAABe	-11.1505
gPvkW	-11.1513
gEA	-11.1516
rBbj	-11.1517
EJE	-11.152
jUQ	-11.1521
kgPR	-11.1523
pW	-11.1524
eFdP	-11.1525
FOP	-11.1531
BDAcI	-11.1538
Rh	-11.154
AAAAQAAAAAAAAAAb	-11.1541
EiNR	-11.1544
xkQ	-11.1544
AAAAAAAAAAIQ	-11.1546
VYSAHQ	-11.1547
Fie	-11.1548
JPgAAAB	-11.155
EiLd	-11.1556
FaP	-11.1556
EgByE	-11.1558
AAAAAAAAABo	-11.1559
Fe	-11.1564
iJdCT	-11.1567
EiLhXj	-11.1568
hjy	-11.1574
InIiEW	-11.1576
EgPvoU	-11.1576
Go	-11.1577
SAW	-11.1579
ChcAPlcCIBQAAAA	-11.1584
Ptkwk	-11.1584
AAAAAAAAAAFEAAAA	-11.1585
UL	-11.1585
AAAACL	-11.1588
hh	-11.159
LAAA	-11.1593
IiUQko	-11.1595
InQ	-11.1596
jh	-11.1597
AAAAQAAAAAAAAAAR	-11.16
AAAAAAAAAAXg	-11.1602
Xx	-11.1604
AlIicJIi	-11.1607
InBD	-11.1626
EgPTM	-11.1626
tW	-11.163
CJBQAAAABIi	-11.1637
QkSAEAA	-11.1637
BAAAAi	-11.164
wkAAEAA	-11.1642
IAAAAAQQ	-11.1645
wAYAA	-11.1648
AADlF	-11.1648
Fhe	-11.1649
kUPt	-11.1649
te	-11.165
ZC	-11.165
Elpw	-11.1655
JEB	-11.1655
yAB	-11.166
BCR	-11.166
AEAAI	-11.1665
SU	-11.1666
IlEJO	-11.1673
IjTQ	-11.1674
xfluy	-11.1683
Rax	-11.1685
AAAAAiBQI	-11.1687
AACD	-11.1688
cAAAB	-11.1689
BjV	-11.169
MjSUAAAAA	-11.1691
EPlc	-11.1692
IidBIAcBIAdBIweA	-11.1698
zl	-11.1702
EiJRCTY	-11.1705
HBQAAAAA	-11.1709
fL	-11.171
AEAAABIi	-11.1711
SJhIiUX	-11.1713
JMgAAAB	-11.1716
wAAAADr	-11.1717
gAAABIi	-11.1721
EiLE	-11.1722
aj	-11.1722
dJ	-11.1722
sT	-11.1723
AGaJ	-11.1724
AAPlM	-11.1725
MOe	-11.1727
FWP	-11.1728
hC	-11.1728
Ql	-11.1729
usFu	-11.173
mQTn	-11.1733
pk	-11.1736
oL	-11.174
Qu	-11.1746
om	-11.1747
hv	-11.1749
lIg	-11.175
APr	-11.1751
QhgJDDQYC	-11.1751
kiJwkjB	-11.1751
AAAAPt	-11.1753
zO	-11.1753
AAAAAAAAAAIgAAAA	-11.1755
BgDw	-11.1759
bW	-11.1767
bu	-11.1768
pK	-11.1768
EiNUP	-11.177
INF	-11.1771
RItUJ	-11.1773
Ml	-11.1774
EiLVfBIi	-11.1775
AAAAAAABgAAAAA	-11.1776
mUH	-11.1781
AAAAAYAEAAAAAAAA	-11.1782
hUr	-11.1782
BAD	-11.1788
Eie	-11.179
ZolEJP	-11.1791
AAAAAFM	-11.1791
gPvoV	-11.1793
AABIu	-11.1797
AAABmx	-11.1798
pf	-11.1802
AJIAdBIAcBIicJIi	-11.1802
EiJRCTg	-11.1808
zS	-11.1811
gBAAA	-11.1811
IAQ	-11.1812
WAAAAASI	-11.1814
xoW	-11.1816
AAAABH	-11.1816
BXkFfww	-11.1821
SYt	-11.1821
ger	-11.1823
RfyIBQAAAA	-11.1826
lm	-11.1826
DnID	-11.1835
QPtkX	-11.1835
AEA	-11.1838
SSI	-11.1839
IPCA	-11.184
hmx	-11.1841
RYR	-11.1844
ZgW	-11.1846
SIGE	-11.1849
AAAAAAAAAAdA	-11.1854
THS	-11.1856
gBAABIi	-11.1857
ixS	-11.1862
rAAAA	-11.1863
AAAAQAAAAAAAAAAY	-11.1864
MiVQk	-11.1864
XSD	-11.1865
AQAAAI	-11.1866
QIAAA	-11.1867
cz	-11.1868
IAAAAAwAAAA	-11.1869
wEAAE	-11.187
BEJmhcB	-11.1872
kmD	-11.1873
sAAA	-11.1877
9/9	-11.1879
XwA	-11.188
xd	-11.188
SIlFqEiLVahIi	-11.1884
IXAd	-11.1886
LI	-11.1889
kQB	-11.1891
LhVj	-11.1891
eAAAA	-11.1896
PttJ	-11.1898
ox	-11.1901
EiJRCSg	-11.1901
Pvs	-11.1903
QkWAEAA	-11.1908
ZEiJ	-11.1911
uo	-11.1915
XF	-11.1916
kn	-11.1919
hYD	-11.1923
OcIPRsKJw	-11.1924
JNAAAAB	-11.1926
cd	-11.1927
YFAAAAADHQ	-11.1929
iQUAAAAAg	-11.1932
IBQAAAAC	-11.1933
AAOt	-11.1933
QIi	-11.1936
HAAAA	-11.1936
sR	-11.1938
Rah	-11.1953
TANUJ	-11.1953
BAABMi	-11.1956
AfCS	-11.1956
SGnQ	-11.1957
IAdAPtg	-11.196
okVAAAAA	-11.196
JBB	-11.1961
Rcy	-11.1961
QUAA	-11.1962
EAAAAAAC	-11.1962
XwSItF	-11.1964
ei	-11.1966
SDnCD	-11.1969
AABAAAAAAAAAAAc	-11.1969
BAAC	-11.197
gHQZi	-11.1971
wonCD	-11.1972
IadK	-11.1975
IAdBIA	-11.1978
714////	-11.1978
XDAcIAAAA	-11.1979
hVb	-11.1979
fwAA	-11.198
IiUQkm	-11.1981
PtoQk	-11.1981
ZgU	-11.1983
kiB	-11.1985
cEUA	-11.1995
SIPAC	-11.1995
wkCAEAA	-11.1996
SInB	-11.1998
BQAQAAAAAAAD	-11.1999
qZ	-11.2002
LkBAAAA	-11.2003
Vl	-11.2007
RCQQ	-11.2009
tZ	-11.2013
HQAAAAB	-11.2015
DFIidBIweADSCnQ	-11.2016
RItMJ	-11.2017
EgDhCS	-11.2022
pb	-11.2025
FcP	-11.2027
PlUQk	-11.2027
dFo	-11.2032
EiLRch	-11.2035
PtsB	-11.2037
JIhcB	-11.2039
fa	-11.204
AAAAANgBAAAAAAAA	-11.2042
AkAA	-11.2042
Nac	-11.2044
CAAHAGaJPQAAAAD	-11.2046
hL	-11.2048
JBABAAB	-11.2049
AgAASA	-11.2051
EiJRCTo	-11.2052
xE	-11.2053
bO	-11.2056
jRUAAAAASAHQQIg	-11.2059
FTP	-11.2067
PtsBIY	-11.2068
AEAACAAHAEgPv	-11.2068
hmiUW	-11.2069
AAAAAAAAAAGk	-11.2074
sAAAB	-11.2075
SYk	-11.2077
FR	-11.2077
HM	-11.2081
ImEgB	-11.2082
VgSAHQ	-11.2083
IBQAAAAD	-11.2085
eFXP	-11.2085
IBQAAAAB	-11.2086
tj	-11.2087
AHV	-11.2088
AAAAAKgBAAAAAAAA	-11.2089
khjykhj	-11.2092
JCgBAAB	-11.2093
IT	-11.2094
eM	-11.2094
dy	-11.2096
Rk	-11.21
ai	-11.21
EmDw	-11.2101
SE	-11.2104
dFl	-11.2105
IjQTA	-11.2105
gAAAEEOEIYCQw	-11.2106
cNAAAAA	-11.2107
iJRfBIx	-11.2108
AIAAADp	-11.2108
aY	-11.2109
kAAAB	-11.211
RdB	-11.2113
tS	-11.2118
IidBIweAESCnQSAH	-11.2121
Reg	-11.2122
er	-11.2123
LQAAAAB	-11.2123
icGL	-11.2124
CT	-11.2127
dO	-11.2131
Rdw	-11.2132
AEAAADrBbgAAAAA	-11.2134
IjUQ	-11.2138
Co	-11.2142
OMIPTsIPvs	-11.2144
WG	-11.2146
ANIjVD	-11.2154
EJF	-11.2155
ECIO	-11.2156
ET	-11.2159
aw	-11.2159
AEAACAAHAEAPvv	-11.216
rS	-11.2163
FSP	-11.2165
CFwHQ	-11.2167
IuV	-11.2169
rC	-11.2174
iLhSD	-11.2184
Mdt	-11.2185
IiY	-11.2188
uAEAAAC	-11.2193
AwAASI	-11.2194
AQA	-11.2195
QSn	-11.2199
oG	-11.2202
EgPQs	-11.2202
fQD	-11.2202
EGI	-11.2202
vwogFAAAAA	-11.2205
Sv	-11.2206
wkgPTsJI	-11.2206
AwAAi	-11.2211
zK	-11.2211
EkPR	-11.2212
MYFAAAAAAF	-11.2213
hTb	-11.2213
SMfA	-11.2214
XAiIX	-11.2216
SGPSSIPC	-11.2216
QkYAEAA	-11.2218
rf	-11.2219
InQiEX	-11.2226
uAB	-11.2227
Fif	-11.2229
AwAAAEEOEIYCQw	-11.2232
SGnAxAAAAE	-11.2232
IAdCL	-11.2235
338	-11.2235
AITAdB	-11.2241
wIAAA	-11.2243
SJgPtwRCD	-11.2244
rgBAAAA	-11.2247
CS	-11.2247
kiNFABIi	-11.2248
EiJRCTQ	-11.2248
AQAARA	-11.2249
TIlsJ	-11.225
EiNDAKL	-11.225
qB	-11.2251
EiJRCT	-11.2253
IjTz	-11.2256
gPk	-11.2258
EiLhCS	-11.2259
BBi	-11.2261
////////9/	-11.2261
9/+	-11.2263
KE	-11.2264
oK	-11.2266
EjX	-11.2268
SAU	-11.2268
GS	-11.2268
IiZwk	-11.2273
yY	-11.2274
EiJRCSY	-11.2276
SIkFAAAAAE	-11.2278
mQYk	-11.2278
SIsNAAAAA	-11.2281
pq	-11.2281
WT	-11.2282
AwAAAAAAAC	-11.2286
JAh	-11.2286
iLdCT	-11.2286
EAAAAAAAPt	-11.2286
GbHBQAAAAA	-11.2287
wHQ	-11.2287
Jm	-11.2288
AxOJ	-11.2292
EiNDAJIi	-11.2295
ph	-11.2296
BAA	-11.2297
FcQV	-11.23
GbHBQAAAAABA	-11.2304
AABmx	-11.2305
EEPT	-11.2306
IPtkX	-11.2309
JjU	-11.2312
lv	-11.2313
OMIPTcIPvs	-11.2313
okFAAAAA	-11.2314
JDh	-11.2317
ABD	-11.2324
mQYN	-11.2327
RItcJ	-11.2331
IlEJL	-11.2331
WIAAAASI	-11.2334
wAPlMCIh	-11.2334
rL	-11.2336
IAdCLA	-11.2336
QPtkW	-11.2339
OH	-11.2339
dIA	-11.2346
Tt	-11.2351
CJBQAAAACQ	-11.2351
APvt	-11.2353
wAAAAcAAAAAAAAAO	-11.2356
Oy	-11.2356
AAAAAAAAAAnw	-11.2359
Rfw	-11.2359
He	-11.2359
RJ	-11.236
IAdBIiUX	-11.2364
Ul	-11.2365
BjZ	-11.2368
EAAAAHAAAAAAAAAC	-11.237
JIu	-11.2376
EAPts	-11.2376
HQAAAAC	-11.2378
Rew	-11.238
pl	-11.2381
EgDhCT	-11.2381
hcAPlcAPtsA	-11.2382
Ehry	-11.2382
MYA	-11.2384
pR	-11.2389
Nmg	-11.2389
EyNH	-11.239
WYPH	-11.2395
EQAA	-11.2398
uFeP	-11.24
TAHY	-11.2402
JFA	-11.2403
Yu	-11.2403
aFXP	-11.2403
LO	-11.2408
Mp	-11.2408
QQH	-11.241
jj	-11.2412
TIlcJ	-11.2415
OO	-11.2418
iwCFwA	-11.242
FYP	-11.2421
FZP	-11.2421
GRCT	-11.2421
yF	-11.2422
HuAEAAADrBbg	-11.2425
EwBwEgB	-11.2428
iLhUj	-11.243
mK	-11.2432
DQAAAAD	-11.2438
wkgPRsJI	-11.2441
YSIl	-11.2446
gPR	-11.2446
cEU	-11.2446
Rbx	-11.2447
UAAAAHAAAAAAAAAC	-11.2449
IAUX	-11.2451
ANIAcJIi	-11.2453
AITAdA	-11.2454
pu	-11.2455
pa	-11.2456
YG	-11.2461
wQPt	-11.2464
IRe	-11.247
GRc	-11.2481
Hc	-11.2481
hTL	-11.2483
iQUAAAAASA	-11.2485
mRA	-11.249
EJI	-11.2491
Gz	-11.2494
RCTQ	-11.2502
18////	-11.2503
EJD	-11.2504
xmiUX	-11.2512
QAAABIi	-11.2512
Ty	-11.2513
tz	-11.2514
jAAAA	-11.2515
DwG	-11.2516
BIiUXoSItV	-11.2519
tH	-11.2526
ZgX	-11.2526
RcQ	-11.2527
SAHwiwSB	-11.2531
BQAAAACJ	-11.2534
3//9	-11.2536
AAADE	-11.2538
BIB	-11.2545
jHw	-11.2545
UmN	-11.2548
MiWwk	-11.2553
hH	-11.2555
aFTP	-11.2563
YAgAAAAAAAD	-11.2568
HS	-11.2568
eFWP	-11.2568
AcAAE	-11.257
ReB	-11.2575
APtlW	-11.2577
sZF	-11.2578
wAPlc	-11.2589
ML	-11.2595
RIlN	-11.2596
AAAAAFA	-11.2596
mRIkFAAAAA	-11.2599
kAAA	-11.2603
EEPtg	-11.2604
wkEAEAA	-11.2606
IweIDSI	-11.2607
Rdy	-11.2608
rK	-11.2608
Xj	-11.2614
SItFy	-11.2615
tMi	-11.2615
BwAAA	-11.2616
RdQ	-11.2624
SGnAuAoAAE	-11.2626
ep	-11.2629
BmiYV	-11.2631
AGAAB	-11.2634
IjTR	-11.2634
IjRQASIuF	-11.2635
iAUAAAAASA	-11.2637
DrB	-11.264
pt	-11.2643
aFdP	-11.2644
ZgV	-11.2645
SInQ	-11.265
Zn	-11.2651
eFaP	-11.2652
wdIx	-11.2655
iJVCT	-11.2657
lk	-11.2659
tX	-11.2662
AgAASIu	-11.2663
kiYSMHgA	-11.2663
LK	-11.2664
RV	-11.2664
IjQz	-11.2664
SDnHSA	-11.2664
MOc	-11.2666
woP	-11.2666
Xl	-11.2666
IPq	-11.2671
pd	-11.2671
kGN	-11.2673
AAAAAAAAAAYQ	-11.2674
SDnISA	-11.2679
RItEJ	-11.2679
pS	-11.268
GAm	-11.2684
ZEJM	-11.2685
IidBIweADSAHQS	-11.2686
iJRehIi	-11.2688
Rv	-11.2689
AABI	-11.2689
JEABAAB	-11.269
FgAAAA	-11.269
EiLRdh	-11.2695
fQABIi	-11.2702
iUXci	-11.2703
aFaP	-11.2703
wkhj	-11.2704
ANIi	-11.2705
EiUQk	-11.2706
HBQAAAAB	-11.2706
AAABmg	-11.2713
UiY	-11.2724
Iibwk	-11.2726
bY	-11.2729
BIjT	-11.2729
cEQQ	-11.273
CAACL	-11.2734
tBD	-11.2735
KR	-11.2736
iNUAFIi	-11.2736
SGPw	-11.2738
AAAAALgBAAAAAAAA	-11.2742
gBykjB	-11.2746
EiLhXD	-11.275
AAAAAAAAABgBAAAA	-11.2755
SGnR	-11.2759
EiAUAAAAA	-11.276
hSL	-11.2762
SInQSAHASAHQSAHA	-11.2762
ImEhp	-11.2763
EiFwHQ	-11.2764
TDAcIAAAA	-11.2764
TAHQ	-11.2767
kgPT	-11.2772
zq	-11.2772
eu	-11.2773
JAgBAAB	-11.2777
BOf	-11.2777
FYAAAA	-11.2781
Or	-11.2781
LhUj	-11.2783
AAAAAMABAAAAAAAA	-11.2784
Rey	-11.2786
iwS	-11.2787
CIBQAAAAB	-11.279
AfB	-11.2791
VL	-11.2801
QkUAEAA	-11.2801
uT	-11.2802
OMIPRsIPtsCFw	-11.2804
SGvAZE	-11.2804
cs	-11.2805
FQAAAAA	-11.2806
pp	-11.2806
ps	-11.2813
AABAAAAAAAAAABw	-11.2813
EiDwB	-11.2815
SInCSAHSSAHCSI	-11.2816
hBg	-11.2817
EAAABIi	-11.2818
xz	-11.282
EiNDAIPv	-11.2821
JPAAAAB	-11.2823
xBD	-11.2823
SMcFAAAAAP	-11.2825
Rdx	-11.2828
Eif	-11.2832
dFh	-11.2833
QEAAE	-11.2835
eFZP	-11.2836
SGPySGPQSInQSMHg	-11.2838
ISItVyEiLRcBI	-11.2839
gFAAAA	-11.2839
AEAACAAHAIk	-11.284
YR	-11.2842
SCnQ	-11.2847
wkGAEAA	-11.2847
qE	-11.285
EiJRCSo	-11.2851
hJg	-11.2851
XEi	-11.2853
AAAAAVwAAAAAAAAA	-11.2854
IiUXQ	-11.2856
SInH	-11.2861
oS	-11.2862
EiJRdhIi	-11.2867
jYQ	-11.2868
LhWD	-11.2868
TL	-11.2871
miYQk	-11.2875
eFTP	-11.2877
icpIweICSAHKSAHQ	-11.2883
AAOn	-11.2884
whgZBDjiDBwM	-11.2884
AAAAAAAAAAjg	-11.2887
cwA	-11.2888
zy	-11.2889
no	-11.2889
SGPJSGP	-11.2894
SItFK	-11.2895
LhTj	-11.2896
wkIAEAA	-11.2896
hIiUX	-11.2897
IjTwQ	-11.2899
EcAAAA	-11.2899
JBQAAAABIi	-11.29
PtgQ	-11.2904
JAABAAB	-11.2906
RTHk	-11.2909
LRY	-11.291
InR	-11.2912
RDAcIAAAA	-11.292
GBQAAAAC	-11.2924
tK	-11.2924
IjVAB	-11.2925
OcZ	-11.2926
VH	-11.2929
AAAAAAAAAACm	-11.2931
JCh	-11.2932
dwA	-11.2935
AAAAAAAAAAXw	-11.2937
AAABBD	-11.294
xT	-11.2941
TIlkJ	-11.2941
SAHG	-11.2941
mRYX	-11.2944
GbHRd	-11.2948
SDtF	-11.2949
NFD	-11.295
uFaP	-11.2953
aFPP	-11.2955
uFWP	-11.2955
EkBw	-11.296
IjQSA	-11.296
GSI	-11.2961
wAAOdAPj	-11.2962
je	-11.2962
osEk	-11.2964
hJ	-11.2965
vCQ	-11.2966
FG	-11.2967
AAAASItV	-11.2968
CJBQAAAAC	-11.2969
CSA	-11.297
yR	-11.297
JIm	-11.2971
PlMB	-11.2971
EiBw	-11.2973
APlc	-11.2974
AAAABh	-11.2975
NQAAAAA	-11.2978
EiJRCTI	-11.2981
AAAAAeAEAAAAAAAA	-11.2981
wImF	-11.2981
IBwAA	-11.2981
IRCQ	-11.2982
iLRCQ	-11.2982
FV	-11.2983
EiJRCTA	-11.299
SMHgBEiJwk	-11.2993
ZscE	-11.2993
pZ	-11.3002
RDH	-11.3003
IOd	-11.3006
GO	-11.3009
JBQAAAAD	-11.3009
uR	-11.3009
AwwHCAAA	-11.301
AID	-11.301
IgBAAAA	-11.3017
hYT	-11.3017
AAAAAAAAAACs	-11.3023
AEEPlc	-11.3026
RcB	-11.3027
IAchIjQ	-11.3028
hmZi	-11.3029
GC	-11.3031
Er	-11.3034
EUxw	-11.3036
wIkFAAAAAA	-11.304
AAOm	-11.3041
SJgPtwRC	-11.3042
iwSG	-11.3043
hi	-11.3044
jXL	-11.3044
UUx	-11.3044
yT	-11.3045
AgAAAAAAAG	-11.3045
AAAABAAAAAgAAAA	-11.3046
wEAAADp	-11.3049
AAAAQAAAAAAAAAAc	-11.3052
jG	-11.3052
pc	-11.3054
AABAAAAAAAAAACE	-11.3059
lXj	-11.306
CAAHAMYFAAAAAAH	-11.306
TM	-11.3061
wPfQ	-11.3061
VISAHC	-11.3063
UmD	-11.3063
AEPj	-11.3072
wkMAEAA	-11.3073
Gn	-11.3073
EiLhWj	-11.3075
IiUQkw	-11.3076
wAAAEEOEIYCQw	-11.3078
hcAPlM	-11.308
MjY	-11.3081
ZkU	-11.3081
eFcP	-11.3083
EiDx	-11.3089
ZEi	-11.3089
CJy	-11.3092
TIlUJ	-11.3098
CJRCT	-11.31
FPP	-11.3101
EAQAA	-11.3104
KT	-11.3104
RcR	-11.3115
xS	-11.3117
wjn	-11.3118
SIkdAAAAA	-11.3121
YkFAAAAA	-11.3122
sS	-11.3122
iQUAAAAASItF	-11.3125
AAAAaAAAAAAAAAA	-11.3127
SGnC	-11.3127
tt	-11.3128
tIg	-11.3129
iNFIUAAAAA	-11.313
SAHQSItV	-11.313
JIA	-11.3132
AABAAAAAAAAAAG	-11.3134
iJfCT	-11.3135
BEEPt	-11.3135
SIuVSP	-11.3146
TU	-11.3149
ZEJJ	-11.3153
gPtkQk	-11.3154
BIjTQCD	-11.3155
SAHQSC	-11.3155
AAAAEyL	-11.3156
EiLRdhI	-11.3158
gFAAAAAA	-11.3159
PvkQk	-11.3159
tL	-11.3163
EqNB	-11.3164
iLXCQ	-11.3165
AAAAAAAAAIQAAAAA	-11.3168
tr	-11.317
eFPP	-11.3174
EiDfCT	-11.3176
AQAPt	-11.3178
Rdg	-11.3181
rY	-11.3187
AABIiUX	-11.3187
SDl	-11.3189
AAABED	-11.3189
AAAAAAAAAAYg	-11.3192
gT	-11.3193
ZVz	-11.3194
Hj	-11.3196
AQAATI	-11.3197
EyNDQAAAAB	-11.3202
IjUj	-11.3203
xoQk	-11.3204
SItFQEgB	-11.3213
AAAAAMgBAAAAAAAA	-11.3213
mH	-11.3214
AAAAAAAAABP	-11.3215
IjTx	-11.322
MjV	-11.3222
IQQsA	-11.3222
BQAAD	-11.3222
IQQ	-11.3225
ARA	-11.3226
dn	-11.3231
GaJFQAAAAB	-11.3233
APtoU	-11.3237
SPfY	-11.3238
ro	-11.3241
FMcB	-11.3248
EiJFQAAAAB	-11.3248
MOf	-11.325
Ks	-11.325
av	-11.3251
BmD	-11.3251
IuP	-11.3252
jHBQAAAAD	-11.3252
WoSI	-11.3253
AAABIu	-11.3254
AAEAAAAAAAAAADQ	-11.3254
Fa	-11.3257
rI	-11.3257
IiYV	-11.3261
IacCIAQAA	-11.3261
ItEJP	-11.3261
AcBIicJIi	-11.3262
SItFu	-11.3265
JDgBAAB	-11.3266
hdIPlc	-11.3267
BmiUQk	-11.3268
QkcAEAA	-11.327
EAAAPt	-11.3274
Oa	-11.3275
hs	-11.3279
EEPlc	-11.3279
zlF	-11.3283
MiWQk	-11.3284
JBgBAAB	-11.3286
IweAESI	-11.3288
Rn	-11.3289
bL	-11.3291
OsESItF	-11.3294
LhVD	-11.3294
cu	-11.3297
FMdJ	-11.33
BIN	-11.3301
wdIi	-11.3305
AAAAAOABAAAAAAAA	-11.3307
hIidBIweADSAHQSI	-11.3308
QQQ	-11.3312
wPfY	-11.3314
hSr	-11.3318
gAAAAAAADg	-11.3321
EiJRCSQ	-11.3322
EiJRCTw	-11.3325
yx	-11.3325
NAABIi	-11.3326
cASA	-11.3329
AABEi	-11.3329
ti	-11.3329
BQAAAAAPr	-11.3331
772	-11.3331
IAfp	-11.3334
AAAATIu	-11.3334
GM	-11.3337
rBw	-11.3339
jgNCDiCNBEQOKIwF	-11.3341
MAAAAAAAAAAM	-11.3345
IAdh	-11.3345
TCD	-11.3346
dmg	-11.3347
SMHgBE	-11.335
AIPj	-11.3351
Qkz	-11.3356
RbB	-11.3357
AgAAAEIOEI	-11.3357
FKP	-11.3358
FQAAAAAPr	-11.3359
UxQAAAABIAdBI	-11.3361
UwD	-11.3361
TYs	-11.3361
EAB	-11.3362
af	-11.3363
EiLRe	-11.3363
QkaAEAA	-11.3363
SItVSEgB	-11.3365
EiNBE	-11.3366
AdE	-11.3367
2//9	-11.337
Wx	-11.3376
SIsFAAAAAEiJRfBI	-11.3377
ZsdEJ	-11.3381
as	-11.3392
ohEJ	-11.3393
Qr	-11.3393
iLhTD	-11.3394
EOe	-11.3395
RO	-11.34
SMcE	-11.3403
IlEJN	-11.3406
ZH	-11.3413
QAAE	-11.3414
AFIi	-11.3415
EjHBQAAAAD	-11.3416
EyNBQAAAAB	-11.3416
khpw	-11.3417
EKL	-11.3418
DjQD	-11.3418
rh	-11.3424
sTi	-11.3426
XAiAUAAAAAi	-11.3428
WQAAAASI	-11.343
NQAAAAC	-11.3431
rc	-11.3434
iDffg	-11.3434
FMdt	-11.3436
PAD	-11.3443
Ea	-11.3445
Rmx	-11.3448
VoSAHQ	-11.345
CiAUAAAAAD	-11.3451
IXJD	-11.3451
EAAC	-11.3452
dBIweADSAHQSMHgB	-11.3453
pG	-11.3453
tp	-11.3456
QAAAAAAI	-11.3457
AAAAAHg	-11.3458
SInw	-11.3459
wcXxc	-11.346
SGvADk	-11.3461
EiLAEiJ	-11.3462
ANIg	-11.3463
rT	-11.3464
iJPQAAAAD	-11.347
LhWz	-11.3471
iUXki	-11.3471
AABED	-11.3473
Fid	-11.3474
IAcp	-11.3475
dX	-11.3475
VF	-11.3476
IuA	-11.3477
RCQg	-11.3478
EiLnCS	-11.3478
rCS	-11.3481
Ht	-11.3481
IAAABIi	-11.349
SAHQiwCFwHQ	-11.3491
EiLRT	-11.3492
DAAB	-11.3493
hIiQUAAAAA	-11.3493
kBAAAA	-11.3495
sc	-11.3501
SItFiE	-11.3503
pO	-11.3504
IBQAAAAAPt	-11.3504
QkeAEAA	-11.3506
CgDw	-11.3508
wEgt	-11.3509
cFAAAAAGY	-11.3513
EiNBM	-11.3517
sp	-11.3518
MTBeW	-11.352
xwS	-11.3521
wInCD	-11.3521
XQSI	-11.3523
ZAB	-11.3523
SItVUEgB	-11.3525
JIidBIAcBIAdBI	-11.3526
GK	-11.3526
GAx	-11.3527
ogAAA	-11.3529
SGPKi	-11.353
AJIg	-11.353
IlEJM	-11.3531
IXCT	-11.3532
whgZBDjiDBwN	-11.3533
RTHt	-11.3534
AAAAAAAAAAJw	-11.3534
RCQY	-11.3538
IAdBIiwBI	-11.3539
hSb	-11.3539
WYSItFkEg	-11.3544
xkiJ	-11.3548
Bp	-11.3549
RInI	-11.3555
bm	-11.3555
FhcB	-11.3558
AAAAAAAAAAVg	-11.3561
IPoA	-11.3563
lXz	-11.3565
Yj	-11.3565
6//+	-11.3566
SJhIjQ	-11.3567
NIY	-11.3568
RbQ	-11.357
AABAAAAAAAAAACQ	-11.3572
InBi	-11.3577
EOd	-11.3578
kFAAAAAA	-11.3579
AAAAAAAAAACk	-11.3579
iLlWj	-11.358
IiQQk	-11.3582
to	-11.3583
mge	-11.3585
SJy	-11.3591
JXCT	-11.3597
QAAAAcAAAAAAAAAG	-11.3598
EiLTCQ	-11.36
OwkiJ	-11.36
ce	-11.3601
QAg	-11.3603
RAn	-11.3603
AAAAAAAAAACh	-11.3604
xe	-11.3608
IAfh	-11.3614
QhgJDDQYCc	-11.3617
AITAdAe	-11.3617
uFcP	-11.3618
xOJp	-11.362
AAAAAZokEC	-11.3621
AEPh	-11.3621
ESJw	-11.3622
Yh	-11.3623
JImEhr	-11.3624
Qkx	-11.3628
lAAAA	-11.3631
AAAAAAAAAKABAAAA	-11.3637
AAAAAAAAADM	-11.3642
SMHgBk	-11.3644
gAD	-11.3644
AABAAAAAAAAAABY	-11.3645
xR	-11.3645
EiUwk	-11.3646
jQREDiiMBUEOMIYG	-11.3648
EyJTCT	-11.3651
ItEJO	-11.3651
IsEk	-11.3653
iwSB	-11.3655
IjQy	-11.3656
BQAAAAAPtgUAAAAA	-11.3657
kAQAA	-11.3661
IiF	-11.3662
tl	-11.3666
SIXAd	-11.3666
gEX	-11.3669
ImEhjykiJwk	-11.3672
FVP	-11.3673
SGPKSInCSMHiA	-11.3674
UJA	-11.3677
OAAAA	-11.3677
iFW	-11.3678
EgBwEgByEgB	-11.3678
mb	-11.3678
kiYSI	-11.3682
AAAAASAH	-11.3683
OcIPTsJIm	-11.3685
eFVP	-11.3686
fhAAAAAAAg	-11.3688
ZokFAAAAAEi	-11.3688
maB	-11.3689
kZolF	-11.3689
jRUAAAAASAHQxgAB	-11.3697
LhVz	-11.3697
QAAAEgB	-11.3699
dcJ	-11.3702
DnBD	-11.3703
mxwR	-11.3704
wIhF	-11.3705
IOcdID	-11.3709
QAAAAcAAAAAAAAAH	-11.3711
ta	-11.3712
tO	-11.3714
DnCf	-11.3714
GAp	-11.3715
ak	-11.3718
knB	-11.3719
AoN	-11.372
PCSIXAD	-11.3721
IkFAAAAAItF	-11.3721
aFWP	-11.3724
ZR	-11.3725
sZ	-11.3729
jy	-11.3729
sr	-11.3731
ImEhrwA	-11.3732
wkKAEAA	-11.3732
TIkFAAAAA	-11.3733
Ln	-11.3735
ifB	-11.3735
chIAcBIAchIAcBI	-11.3737
SInI	-11.3737
AABAAAAAAAAAAH	-11.374
PtjUAAAAA	-11.3747
AABAAAAAAAAAACI	-11.3747
OC	-11.3748
AAAAAAAAAAYw	-11.3749
AgAAAAAAAA	-11.3749
NAd	-11.3751
CSGP	-11.3753
nb	-11.3754
RG	-11.3754
wEiYD	-11.3755
EhrwA	-11.3755
SAHQSIsASIlF	-11.3758
3/4	-11.3758
IPg	-11.3759
jlF	-11.376
EiLRbh	-11.376
SDnQD	-11.3761
AJIAdBIAchI	-11.3767
NED	-11.3767
CAAHAFVIieVIgey	-11.3768
hTr	-11.3771
GYPvkX	-11.3775
OwoXAD	-11.3776
ZBi	-11.3781
IkNAAAAA	-11.3784
gCD	-11.3785
EyNHQAAAAB	-11.3785
CAAQAAAAAAAD	-11.3789
OEI	-11.379
SImFeP	-11.3791
Nif	-11.3794
AAAAAFQ	-11.3795
AAAASItF	-11.3798
SGPJSGPSSMHiA	-11.38
OcIPTcJIm	-11.3803
SItFoE	-11.3806
ne	-11.381
SJiL	-11.3813
JCABAAB	-11.3814
JFABAAB	-11.3814
eR	-11.3815
cTi	-11.3817
BjX	-11.3818
iYSMHgA	-11.3819
AAAAAAAAAAjQ	-11.382
wIgFAAAAAJ	-11.3821
RbR	-11.3821
iBw	-11.3822
TANcJ	-11.3823
TlF	-11.3825
RCTI	-11.3826
JCB	-11.3826
zh	-11.3826
az	-11.3828
GcB	-11.3829
vj	-11.384
rBbi	-11.3841
QRA	-11.3842
dEJN	-11.3843
PAB	-11.3845
EiJBQAAAACL	-11.3846
SInY	-11.3852
wAAi	-11.3853
EPtkX	-11.3856
ra	-11.3857
AkAAAAAAAA	-11.3858
EiLhVj	-11.3862
IAcpIg	-11.3865
SIXSD	-11.3868
InI	-11.3868
dAAAA	-11.3868
Zo	-11.3869
eFSP	-11.3873
LVd	-11.3875
lz	-11.3875
SIuVcP	-11.3878
nV	-11.3878
RZx	-11.388
OK	-11.388
tq	-11.3881
FT	-11.3882
nQH	-11.3883
NwoXAD	-11.3883
KJwg	-11.3883
AEAAEiN	-11.3883
RItkJ	-11.3887
AAAAAOAEAAAAAAAA	-11.3887
tx	-11.3892
na	-11.3895
LjQS	-11.3898
AEAACAAHAInw	-11.3899
JyIiF	-11.3902
AAAABY	-11.3907
iJBQAAAAB	-11.3908
hK	-11.391
AAAABW	-11.3916
RIgFAAAAA	-11.392
uAIAAAB	-11.3926
uFYP	-11.3926
GaJBQAAAACL	-11.3926
BQAAAABmiUW	-11.393
AAAAAAAAAAjw	-11.3932
rBbh	-11.3935
QkgAEAA	-11.3935
Lx	-11.394
XsiUX	-11.3941
AAAASMdF	-11.3943
ZokFAAAAAE	-11.3945
hckPh	-11.3945
APg	-11.3946
FBg	-11.3946
BOd	-11.3949
JBh	-11.3953
AfBIweACSI	-11.3955
bCSIlF	-11.3958
EiJBQAAAAD	-11.3959
Gj	-11.3961
IOdB	-11.397
aFZP	-11.3971
Bz	-11.3973
AABAAAAAAAAAABg	-11.3973
JRfyLVfyLRf	-11.3975
Kx	-11.3976
bCSIXAD	-11.3977
AYPh	-11.3978
Zx	-11.398
Hl	-11.3982
GQAAAA	-11.3986
iLhTj	-11.3987
BAABmg	-11.3988
gGAAAA	-11.399
UOGI	-11.3991
EQp	-11.3994
wkQAEAA	-11.3996
BFAPt	-11.3997
EiBUAAAAA	-11.3998
RexmiUX	-11.4
BIjQUAAAAA	-11.4002
iwSC	-11.4004
JGB	-11.4006
RYi	-11.4007
AAAASIm	-11.401
UiF	-11.4015
iQUAAAAAw	-11.4015
lXT	-11.402
JDABAAB	-11.4025
wEQ	-11.4025
aFLP	-11.4026
AGEwHW	-11.4026
wYAA	-11.4027
fAI	-11.4027
wkj	-11.4028
SItFqE	-11.4029
ReQ	-11.403
DwC	-11.403
iAUAAAAAg	-11.403
Ur	-11.403
PfS	-11.4032
FhMB	-11.4032
Wsi	-11.4033
RZh	-11.4035
SAHASAH	-11.4036
SGnAwAYAAE	-11.4039
MjZ	-11.4042
yEjB	-11.4051
HBQAAAAC	-11.4052
ZCS	-11.4052
EiLReh	-11.4055
LhXz	-11.4057
gPT	-11.4064
icIPtoU	-11.4064
RCRA	-11.4068
qf	-11.4069
OG	-11.407
eo	-11.4073
PQAAAAC	-11.4079
EiLRc	-11.408
EiLRah	-11.4082
EiJx	-11.4084
rb	-11.4085
Pq	-11.4087
AAAAASIt	-11.4089
Op	-11.409
AoAA	-11.4093
AAEAAAAAAAAAAJQ	-11.4094
lIA	-11.4096
AQAAg	-11.41
yS	-11.4101
hrwH	-11.4107
SItVmEiLRZBI	-11.4109
AABAAAAAAAAAACM	-11.4113
zd	-11.4113
SMeF	-11.4115
IAcF	-11.4115
Axw	-11.4116
iJRCR	-11.4126
BIjQ	-11.4129
FtBXEFdQV	-11.4132
FQP	-11.4135
JHh	-11.4136
AAACA	-11.4137
tFE	-11.4137
IlEJK	-11.414
hIidBIweACSAHQSI	-11.4143
IiQUAAAAAw	-11.4144
RcS	-11.4144
AMPh	-11.4145
VIg	-11.4148
BIAdBIiwBIhcB	-11.4148
RCQo	-11.4152
hcAPlMAPts	-11.4152
CZ	-11.4154
ugAAAAD	-11.4155
EGJw	-11.4156
Sh	-11.4157
AAAAANABAAAAAAAA	-11.4157
bQVxBXUFeQV	-11.4158
RZR	-11.4159
AAOk	-11.4164
FLP	-11.4166
PtxR	-11.4167
WYAAAASI	-11.4168
AAAAAAAAAAJo	-11.417
AjVB	-11.417
IOUX	-11.4171
DQAAAAAPt	-11.4175
hCSIAAAA	-11.4184
wkgPTcJI	-11.4184
iJRchIi	-11.419
QbgBAAAA	-11.419
mi	-11.4192
tn	-11.4193
idBIiU	-11.4193
Ko	-11.42
mV	-11.4201
fQAC	-11.4201
NwkiJ	-11.4202
OV	-11.4202
zAB	-11.4204
Ts	-11.4205
Jiw	-11.4207
BQQ	-11.4207
RAAAA	-11.4207
OcIPRsKJ	-11.4208
AAAAAAAAAAng	-11.421
FwHQ	-11.4211
tIY	-11.4214
IPtkW	-11.4218
EiNBMB	-11.422
wkOAEAA	-11.4221
aFHP	-11.4226
IhdJ	-11.4229
LhUD	-11.423
AAAAAAAAAACM	-11.4231
USL	-11.4234
EmJx	-11.4235
EAAAAAABmkE	-11.4237
AAAAAAAAAAEEAAAA	-11.4237
Nad	-11.4238
EEPlM	-11.4243
QAgAAAAAAAD	-11.4249
Bj	-11.425
hfYPh	-11.425
SItFq	-11.4252
otN	-11.4253
DGBQAAAAAB	-11.4253
hQb	-11.4254
SAHQSAFF	-11.4256
IiUXw	-11.4259
EJG	-11.4259
izS	-11.4261
KAQAA	-11.4262
AAAABj	-11.4262
kBAAA	-11.4262
Rcw	-11.4264
lWz	-11.4265
IacDYAAAA	-11.4266
ZL	-11.427
AAAAAAAAAAJc	-11.4271
AAEiD	-11.4272
hO	-11.4276
CEwHQ	-11.4277
Tk	-11.4278
WwSI	-11.4281
hRr	-11.4287
PtgUAAAAAiEW	-11.4289
UPv	-11.429
ifiJ	-11.4292
EyNFQAAAAB	-11.4294
AAAAABACAAAAAAAA	-11.4296
RfQ	-11.4299
bq	-11.4301
EjHw	-11.4303
IuFfP	-11.4308
PvgQ	-11.4308
AAAAAPABAAAAAAAA	-11.4312
re	-11.4313
ca	-11.4314
wAAAE	-11.4315
iJBQAAAABIi	-11.4319
hIAcJIi	-11.432
RfB	-11.4322
XL	-11.4324
AIPh	-11.4325
JGh	-11.4326
SAGF	-11.4326
IgFAAAAAE	-11.4327
Elrx	-11.4332
RZg	-11.4332
IiUWw	-11.4333
cVAAAAAA	-11.4335
RdS	-11.4337
iJRfBIi	-11.4339
AQPh	-11.4341
ZoXAd	-11.4341
jx	-11.4341
wGaJBQAAAAAPt	-11.4343
EAAAAQQ	-11.4346
SImFcP	-11.4347
tJ	-11.435
nq	-11.4356
CQQ	-11.4357
BG	-11.436
iLhXj	-11.436
LXCT	-11.4362
IAdBIiUW	-11.4366
hRL	-11.4366
rCT	-11.4367
wIiF	-11.4367
Rr	-11.4368
jd	-11.4368
Un	-11.4371
EAEbDAcIkAEAAD	-11.4372
AsPh	-11.4372
hIx	-11.4375
aJRCT	-11.4379
FgAA	-11.4379
BOc	-11.4381
InxiE	-11.4381
LlXz	-11.4382
uFOP	-11.4382
icLr	-11.4382
DAAAPt	-11.4383
AAAAAAuc	-11.4383
yUhj	-11.4383
IjRTFAAAAAEiLRU	-11.4386
IOchID	-11.4387
UxQAAAABIAcJIi	-11.4388
eFRP	-11.4389
CAAAAQg	-11.439
IiUQkk	-11.4394
ry	-11.4395
RCQI	-11.4397
BxfFz	-11.4404
ECINQAAAAB	-11.4407
ADAAA	-11.4407
yi	-11.441
JJA	-11.4412
EgPr	-11.4414
MxQAAAABIi	-11.4415
GRb	-11.4416
XCSI	-11.4417
wEiNFQAAAABmiTQQ	-11.4418
uDAcIAAAA	-11.442
Tl	-11.4424
TAHC	-11.4425
hQr	-11.4426
eFYP	-11.4426
iwUAAAAAiUW	-11.4426
MhQAAAABIi	-11.4428
IjQx	-11.4428
AhcAPlcCI	-11.4429
FQAA	-11.4432
Yz	-11.4432
kiDwg	-11.4433
JGABAAB	-11.4436
NAAB	-11.4441
PtzUAAAAA	-11.4445
RItsJ	-11.4445
IOfBID	-11.4446
mxwUAAAAAAAB	-11.4449
SIsFAAAAAEiJ	-11.445
TYk	-11.4455
RIa	-11.4455
EiLBQAAAAB	-11.4458
IRY	-11.4459
YPvkX	-11.4465
LL	-11.4465
kGA	-11.4466
SItEJJ	-11.4467
WR	-11.4467
SDnwSA	-11.447
QkoAEAA	-11.4473
pY	-11.4473
IiUXISItVyEiLR	-11.4474
Qkt	-11.4474
REi	-11.4477
JHgBAAB	-11.4478
BFBmhcB	-11.4478
oSA	-11.448
AGaY	-11.448
hFD	-11.4483
OcIPRsK	-11.4483
EiYSC	-11.4485
Nr	-11.4486
uFSP	-11.4486
mm	-11.4488
aFcP	-11.4488
AAAAAIgFAAAAA	-11.4489
SIPCA	-11.449
AMPj	-11.4492
MAch	-11.4492
IRd	-11.4493
SAHQSIsASIXAD	-11.4493
IAcBIjVD	-11.4494
SIlFmEiLVZhIi	-11.4494
LjQT	-11.4496
EiLhWD	-11.4498
RIgNAAAAA	-11.4499
icGJ	-11.4503
HT	-11.4504
AAAAAWwAAAAAAAAA	-11.4505
iJy	-11.4505
PvsCD	-11.4506
mRIm	-11.4507
BmxwUAAAAA	-11.4507
UWJ	-11.4511
uFUP	-11.4512
CIRc	-11.4517
NQAAAAD	-11.4517
EAAAAAAAPHwC	-11.4517
gYAA	-11.4518
idB	-11.4518
AkPh	-11.452
iLhRD	-11.4526
tu	-11.4527
DwAA	-11.4527
JEgBAAB	-11.454
RCTA	-11.454
fQAA	-11.4542
InG	-11.4544
Pns	-11.4546
QcYE	-11.4552
iAUAAAAASItF	-11.4552
kiYSGPSSGv	-11.4554
cAZolF	-11.4557
FEi	-11.456
LhSj	-11.456
AAAAAAAAADABAAAA	-11.456
AfCR	-11.4561
SAHQSImF	-11.4564
LVZ	-11.4566
AAAAAAAAAAJgAAA	-11.4567
RYt	-11.4568
SGnAL	-11.457
iNFMUAAAAASIuF	-11.4573
rq	-11.4577
SAHQSDmF	-11.4581
eS	-11.4586
yp	-11.4588
Pls	-11.459
Wki	-11.4591
kAPtv	-11.4592
EjHBQAAAAA	-11.4592
XuD	-11.4594
yDnCD	-11.4594
SAHSSI	-11.4595
AAAAAAAAAACV	-11.4595
EPtkW	-11.4595
JOf	-11.4596
Xt	-11.4596
aM	-11.4598
wUiJ	-11.4599
yZ	-11.4601
PCSIlF	-11.4608
AQAAAOs	-11.4608
BAKEwHQ	-11.4612
Xn	-11.4614
icKLBQAAAAA	-11.4614
OsDi	-11.4616
SIsVAAAAAEg	-11.4616
InW	-11.4617
SAHKSI	-11.4618
eFLP	-11.4619
iJRCT	-11.462
APl	-11.462
IacDABgAA	-11.4622
ogNAAAAA	-11.4626
cCAAA	-11.463
GRa	-11.4632
pED	-11.4634
RZQ	-11.4635
McC	-11.4637
FAAAAAEiJ	-11.4637
KSI	-11.4642
Mo	-11.4646
AEAAADr	-11.4646
AdQe	-11.4647
IjQRA	-11.4649
AAAAAAAAAAJs	-11.4649
KJw	-11.465
AAABwAAAAAAAAACw	-11.4651
Jaf	-11.4652
fhAAAAAAAkE	-11.4653
BIAc	-11.4655
Mad	-11.4656
IiUWo	-11.4659
zi	-11.4663
xwE	-11.4663
TAiEW	-11.4663
DwD	-11.4666
Bh	-11.4667
Up	-11.4668
vgEAAAB	-11.467
AAAAAOgBAAAAAAAA	-11.467
JIweICSI	-11.4671
iJx	-11.4673
AfBIweADSI	-11.4675
ZVv	-11.4675
RIgdAAAAA	-11.4677
CAABID	-11.4679
TAHo	-11.4679
rz	-11.468
eFUP	-11.468
EiNBEB	-11.4684
IweEE	-11.4685
IichI	-11.4686
rZ	-11.4686
sHD	-11.4689
NZdh	-11.4689
Sr	-11.4691
CZokFAAAAAA	-11.4691
lVT	-11.4693
Fhcl	-11.4694
fCSY	-11.4696
SItFkE	-11.4697
QjwJFDhiOA	-11.4698
Qkr	-11.4701
LRCS	-11.4704
IacDhAAAA	-11.4704
AIAAAAAAAB	-11.4705
IAdAPt	-11.4706
gAAAI	-11.4706
AAEAAAAAAAAAAJw	-11.4709
IRf	-11.471
FhO	-11.4712
zI	-11.4718
RYXAD	-11.4719
MAAABIi	-11.4721
cBIOcJI	-11.4721
BmiYU	-11.4722
Gs	-11.4722
lWj	-11.4723
SJw	-11.4724
AAAABi	-11.4725
KF	-11.4731
aFSP	-11.4732
SItFs	-11.4732
FUP	-11.4733
PtgUAAAAAiIV	-11.4733
sAQAA	-11.4734
IAfJ	-11.4734
IjRQASItFGEgB	-11.4736
AAAABk	-11.4737
HSI	-11.4738
oCAAAA	-11.4739
AQB	-11.474
EUB	-11.474
CdBIiQUAAAAA	-11.4743
SAHH	-11.4744
IAEAAAAAAAA	-11.4746
ZolUJ	-11.4746
PtkWs	-11.4747
mT	-11.4747
BIjQwC	-11.4748
JfCT	-11.4748
AAAAAGY	-11.4752
QkqAEAA	-11.4753
LhUz	-11.4753
IOfhID	-11.4753
hu	-11.4754
bAi	-11.4757
IiUXA	-11.476
FHP	-11.4762
JFgBAAB	-11.4764
BIAdAPt	-11.4765
5//8	-11.4765
AAAABgAAAAAAAAAC	-11.4765
AchIweACSI	-11.4766
PvpW	-11.4767
IsFAAAAAImF	-11.4767
PQv	-11.477
qgAAA	-11.477
VAAAAAGaJDBAPt	-11.4772
XgSI	-11.4774
GEAAAA	-11.4774
AAAAAAAAANABAAAA	-11.4775
iJBQAAAAD	-11.4775
AgDp	-11.4777
AAAAPtkX	-11.4782
TAHK	-11.4782
BAAAPv	-11.4783
AjVA	-11.4783
SAHCSIuF	-11.4785
CJBQAAAAD	-11.4786
LVb	-11.4786
QhgJDDQYCd	-11.4786
RfyJBQAAAA	-11.4789
EiLRCSg	-11.479
lH	-11.4792
AoPh	-11.4793
LjQR	-11.4793
PtoVs	-11.4798
AABAAAAAAAAAADM	-11.4799
bAiAUAAAAAD	-11.4803
uz	-11.4803
HV	-11.4804
SIlEJKh	-11.4807
bn	-11.4808
SGPySGPQ	-11.4812
wAAABIi	-11.4813
iLlVj	-11.4814
xH	-11.4814
gPH	-11.4816
SAX	-11.4816
SAG	-11.4817
IS	-11.4818
ifCI	-11.482
RW	-11.4826
xwA	-11.4826
jz	-11.4827
XISAHQ	-11.4831
Gm	-11.4832
EqL	-11.4833
LhXT	-11.4836
dED	-11.4839
gPvoU	-11.4839
JFD	-11.484
AYV	-11.4841
SIlEJNh	-11.4843
gUAAAAAiEX	-11.4844
GaJRewPt	-11.4846
AwPh	-11.4848
DGRCT	-11.4849
SCH	-11.4849
eH	-11.485
IiQ	-11.4853
izy	-11.4853
ZY	-11.4853
yEiJ	-11.4854
RCTs	-11.4856
CIRd	-11.4859
FNP	-11.4859
EiBRCS	-11.486
AgPh	-11.486
InK	-11.4861
YEE	-11.4861
th	-11.4862
ZokFAAAAAItF	-11.4863
ffxmxwUAAAAA	-11.4863
iLhWj	-11.4865
AQAASMdF	-11.4866
Rp	-11.4871
UgPR	-11.4872
ARI	-11.4873
ZVy	-11.4876
yc	-11.4879
whgZBDjiDBwO	-11.488
Raw	-11.4882
lo	-11.4883
Qn	-11.4883
GbHRc	-11.4884
FRP	-11.4885
jwOOB	-11.4886
ZcJP	-11.4888
AAAAAVQAAAAAAAAA	-11.4891
CJBQAAAAAPt	-11.4893
OAAA	-11.4894
ImEiLBMJI	-11.4897
ZVt	-11.49
ys	-11.4901
rU	-11.4906
SIlsJ	-11.4907
EiJTCS	-11.4907
Gy	-11.4907
yO	-11.4907
AAAAADH	-11.4907
dIa	-11.4908
AZIi	-11.4909
EiLRCTI	-11.4909
EiNh	-11.4912
IjVA	-11.4912
IiUXgSMdF	-11.4914
iH	-11.4915
EJH	-11.4916
EiLRd	-11.4916
mRIkNAAAAA	-11.4919
GIAAAA	-11.4923
SAV	-11.4928
wkz	-11.4931
QoOMEEOKEIOIEIOG	-11.4932
EjHRfgAAAAA	-11.4935
EmJw	-11.494
IAdBIOUX	-11.4942
EiLvCT	-11.4943
PlcA	-11.4944
BmhcB	-11.4945
AAAAAqAEAAAAAAAA	-11.4946
TK	-11.4949
xfluBQAAAAB	-11.495
YhEJ	-11.4951
IjRQASItFIEgB	-11.4954
YFAAAAAAHQ	-11.4955
gPvoX	-11.4957
ScH	-11.4959
hfL	-11.496
EiJdCS	-11.4962
DwH	-11.4964
AAAAAAAAACX	-11.4964
ZEJL	-11.4964
Zr	-11.4965
eFOP	-11.4965
RK	-11.4965
SIlEJJ	-11.4967
fCSI	-11.4967
JHABAAB	-11.497
AEAACQAIAMX	-11.4973
Pb	-11.4974
SANcJ	-11.4976
vCR	-11.4976
Ha	-11.4977
AIhF	-11.4979
BgP	-11.4982
SIlFs	-11.4985
jt	-11.4985
TJ	-11.4986
QcAA	-11.4987
SIlEJNB	-11.499
AUPh	-11.4992
MAcB	-11.4993
RYk	-11.4993
kGL	-11.4994
Ke	-11.4994
zX	-11.4994
OcIPTcK	-11.4996
wUQ	-11.4998
nj	-11.4999
IacDIAAAA	-11.4999
aFVP	-11.4999
hRb	-11.4999
gcAA	-11.5001
FS	-11.5004
km	-11.5004
gAAAABBDhCGAkMNB	-11.5008
icp	-11.5008
jl	-11.501
CJx	-11.5012
mOf	-11.5012
wkSAEAA	-11.5015
EiLRCSo	-11.5016
TIkNAAAAA	-11.5018
kEPR	-11.5019
AcPh	-11.5021
AAAAEi	-11.5021
RYy	-11.5022
IgI	-11.5022
AAAAACgCAAAAAAAA	-11.5023
sQAAABIa	-11.5027
wUAAAAAZolF	-11.5028
IUAAAA	-11.5029
BIAf	-11.503
cFAAAAAAHQ	-11.5031
Rfz	-11.5032
LQAA	-11.5034
lL	-11.5037
ifmIT	-11.5038
TnCD	-11.5042
QkiAEAA	-11.5044
SIsASIXAd	-11.5044
dAD	-11.5044
kAEAAAAAAAA	-11.5045
LQAAAA	-11.5048
PtgUAAAAAg	-11.5048
AAPlcAPts	-11.5049
SIlEJOh	-11.5049
ItEJN	-11.5049
rO	-11.5053
1//9	-11.5056
MYFAAAAAA	-11.5058
AAEAAAAAAAAAAHg	-11.5059
SYN	-11.5059
lImEhjykiJwk	-11.5065
fCSo	-11.5065
iJwkjB	-11.5066
ReC	-11.5067
gAAAEgB	-11.5069
VQSAHC	-11.507
Ut	-11.5072
JGgBAAB	-11.5073
RaQ	-11.5075
YQD	-11.5076
QkkA	-11.5077
SAHx	-11.5078
ZEJA	-11.5079
QkmAEAA	-11.5079
SJhIg	-11.5081
IAfF	-11.5081
bAiUW	-11.5085
EAwAA	-11.5086
MCAAA	-11.5091
mRYk	-11.5091
Biw	-11.5092
xMJ	-11.5094
ReR	-11.5095
xG	-11.5095
TAHw	-11.5098
TAAAAAEEOEIYCQw	-11.5098
oR	-11.5099
IacCpAAAA	-11.5101
SIHC	-11.5102
EuNF	-11.5104
kiJRfhIi	-11.5105
QkkE	-11.5105
JBQAAAAB	-11.5107
OsFuA	-11.5108
EiLRCSw	-11.5108
iLVfhIi	-11.5108
/7//2	-11.5113
OcIPTsK	-11.5118
BxgQ	-11.5119
tAAAAAE	-11.512
FGP	-11.5122
zs	-11.5122
sh	-11.5125
IAdBIAfhI	-11.5126
wDnBD	-11.5126
HAABIi	-11.5127
YnwiVXkic	-11.5127
yt	-11.5127
AAAABz	-11.5127
SIlEJOB	-11.5129
IicJIweIDSAHCSI	-11.5129
AAAAAAAAAAKwAAAA	-11.513
QbkBAAAA	-11.5131
AMD	-11.5132
AAEAAAAAAAAAAKA	-11.5133
RYXSD	-11.5134
IRb	-11.5135
gMAAAAAAAA	-11.5137
SGPSSGPI	-11.514
hfb	-11.5141
MAdB	-11.5142
IRZ	-11.5144
AAEAAAAAAAAAAIg	-11.5145
EKc	-11.5145
wcAA	-11.5145
SItFSEgB	-11.5145
EiEQk	-11.5146
BIAcIPtkX	-11.5146
hcAPlc	-11.5151
AAAAEgBwg	-11.5151
QCA	-11.5152
EOM	-11.5153
hl	-11.5154
SGnW	-11.5155
EiLRCS	-11.5156
ux	-11.5157
icIPtgUAAAAAMd	-11.5158
AAAAAPgBAAAAAAAA	-11.5158
Rbw	-11.516
EiLRCSY	-11.5161
HO	-11.5161
IidBIweACSAHQ	-11.5162
tY	-11.5164
wSAHID	-11.5166
iNUPhIi	-11.5168
UJP	-11.5171
LhWT	-11.5172
CAAHAEFXQVZBVYn	-11.5176
AAAABBDhCGAkMNBg	-11.5179
wAQ	-11.5179
EgBx	-11.518
AAACL	-11.518
FAE	-11.5181
QYu	-11.5184
EiLRCTQ	-11.5186
Iid	-11.5187
AgPj	-11.5189
LRR	-11.519
fCSQ	-11.5192
AAAAAAACAAAAAAAA	-11.5192
znCf	-11.5193
BmiQUAAAAAk	-11.5194
ICAAA	-11.5198
JReSLVeSLRe	-11.5198
iJBQAAAAC	-11.5199
FQAAAAD	-11.5203
sa	-11.5204
YgVAAAAA	-11.5205
BXkFf	-11.5206
AABIjQ	-11.5207
Aet	-11.5207
hQL	-11.5208
IAcIPv	-11.5209
EyQ	-11.5213
SInK	-11.5217
BEic	-11.5219
EyLfCS	-11.5221
SAHa	-11.5222
kgBykjB	-11.5224
kEPT	-11.5225
AAPlcCEwHQ	-11.5226
fgAAAAAC	-11.5227
/7//+	-11.5228
CAAHAFVIieWJdeiJ	-11.5229
Mr	-11.5232
EiJVCS	-11.5233
AAAAAAAAAAbg	-11.5235
gUAAAAA	-11.5237
GAABIi	-11.5239
WZBg	-11.5239
AAAACJ	-11.5239
BSI	-11.524
kEPv	-11.5246
RIkFAAAAA	-11.5246
////30	-11.5246
EiLRCTA	-11.5249
JHB	-11.525
Ray	-11.5253
ggAAA	-11.5255
wIPj	-11.5256
OdZ	-11.5257
IjRQASItFEEgB	-11.526
AAAAAAAAAAGc	-11.5262
Rex	-11.5269
Vwk	-11.527
SGPxSJhIY	-11.527
AAEAAAAAAAAAAJg	-11.527
APtsA	-11.5272
BoB	-11.5273
IgID	-11.5275
AADF	-11.5276
UiYD	-11.5278
Rez	-11.5279
AAEAAAAAAAAAAE	-11.5279
tC	-11.5283
Oq	-11.5283
uFQP	-11.5285
AAAAAAAAACn	-11.5286
AQAAAEG	-11.5286
SJhIjRUAAAAAxgQQ	-11.5289
wPtkW	-11.5289
EiLRTB	-11.5291
JPx	-11.5293
APtsBmiQUAAAAA	-11.5294
wCAAA	-11.5296
pIA	-11.5297
iciI	-11.5297
IiZQk	-11.5299
Wci	-11.5302
DwkiJ	-11.5306
GQQ	-11.5307
wkiJyEjB	-11.5308
GAy	-11.5312
SItFyEgB	-11.5313
SGvD	-11.5313
Pfa	-11.5314
uEAAAB	-11.5314
AAAAABgCAAAAAAAA	-11.5315
Ocd	-11.5316
Ss	-11.5316
PcHF	-11.5316
FImEhjykiJwk	-11.5317
RdC	-11.5319
BOM	-11.5321
jHBQAAAAA	-11.5323
YSA	-11.5324
EhjyUhj	-11.5326
iAQ	-11.5328
esFu	-11.5329
SItVYEgB	-11.5332
IidBIweADSAHQSI	-11.5334
EGNQ	-11.5335
iBx	-11.5336
YK	-11.5336
gQAAA	-11.5338
kp	-11.5339
GH	-11.534
xmx	-11.5341
PQAAAAD	-11.5342
uFKP	-11.5342
LoAAAAA	-11.5343
Afd	-11.5344
McFAAAAAP	-11.5344
AAAAAAAAAAJY	-11.5345
rn	-11.5347
RZw	-11.5347
xQAAAABIAdBIicpI	-11.5349
cER	-11.535
IjRSFAAAAAEiLRU	-11.5352
khjy	-11.5355
AAAAAAgCAAAAAAAA	-11.5356
fCTo	-11.5357
SItFmE	-11.5358
SAHwSAH	-11.5358
ZolEJO	-11.5361
SItFwE	-11.5365
IiUXwSItV	-11.5366
IlEJJ	-11.5367
MYAA	-11.5368
DwF	-11.5369
SAHQiwC	-11.5371
nCi	-11.5371
EiDRCS	-11.5375
EiLRCTY	-11.5376
AAAAPtkW	-11.5376
SIuVOP	-11.5384
EiDfCS	-11.5386
YAAABIi	-11.5386
TX	-11.5387
AAAAAiAUAAAAA	-11.5388
zAD	-11.5389
OcIPTsKFw	-11.5389
lED	-11.5394
UV	-11.5394
AQAAAOm	-11.5399
bl	-11.54
SItFo	-11.54
NgAAAAAAAAAM	-11.5401
SItEJO	-11.5401
sPv	-11.5407
ALmN	-11.5409
iLfCQ	-11.541
PAAoiF	-11.5411
IacAvDQAA	-11.5416
qi	-11.5419
wkgPRsJIhcB	-11.542
SImFaP	-11.5421
iDx	-11.5422
SGPKSGPQSInQSMHg	-11.5426
EEPr	-11.5427
AGEwHQ	-11.5429
Ry	-11.543
gDp	-11.543
rk	-11.543
vfY	-11.5431
eFNP	-11.5431
hq	-11.5431
AgAAAA	-11.5432
MAdh	-11.5436
APtk	-11.5439
EAMAA	-11.5441
rd	-11.5441
NAAAAAEiJFAgPt	-11.5445
wkWAEAA	-11.5445
SGnAqQAAAE	-11.5446
sYFAAAAAA	-11.5447
SIlEJPB	-11.545
EyLVCT	-11.5451
AAAAAIAIAAAAAAAA	-11.5452
wAQAAAAAAAD	-11.5457
EmBx	-11.546
KdBmiQUAAAAA	-11.546
SMcFAAAAAAAAAAB	-11.5463
gAAOdAPj	-11.5464
UUPt	-11.5465
SMHgAk	-11.5466
APH	-11.5467
AQAAAOn	-11.5469
dEJM	-11.5469
mbH	-11.547
iNHQAAAAB	-11.547
WbH	-11.5471
lWT	-11.5472
lt	-11.5473
Eb	-11.5475
jVQ	-11.5476
wMPj	-11.5479
LhRj	-11.5479
qAB	-11.548
LRa	-11.5484
ZVo	-11.5484
IjQUAAAAASI	-11.5486
XYSAHQ	-11.5489
ZokdAAAAA	-11.5489
Wn	-11.5493
WgAAAASI	-11.5496
AHASAHQSAHASAHw	-11.55
iLhRj	-11.55
AAAAAAAAAAZA	-11.5501
HMAAAA	-11.5502
SDmF	-11.5503
mAQAA	-11.5505
BIjR	-11.5506
APtsBIiQUAAAAA	-11.5506
SGvJ	-11.5507
ao	-11.5508
EiNhA	-11.551
hIAcIPtkX	-11.5513
Xh	-11.5516
Ewp	-11.5517
OAf	-11.552
IweICSI	-11.5522
jHJ	-11.5522
EiLRcB	-11.5523
jHBQAAAAAAAAAA	-11.5523
vwokFAAAAA	-11.5524
ECAAA	-11.5525
maJBQAAAAB	-11.5526
McAPH	-11.5528
CIRe	-11.5528
AAEgPv	-11.5529
kgPvs	-11.553
ZVx	-11.5532
MdJI	-11.5534
iLhQD	-11.5535
GgAA	-11.5536
AABIiwUAAAAASIlF	-11.5536
PhI	-11.554
ad	-11.5541
ABAAC	-11.5542
WgSI	-11.5543
JNQAAAAD	-11.5543
EiLVCQ	-11.5544
JBQAAAAC	-11.5544
zm	-11.5548
gPQ	-11.5549
EiZSPf	-11.5549
se	-11.5551
kiNFQAAAAB	-11.5551
IKd	-11.5552
ZVr	-11.5553
sq	-11.5554
idZ	-11.5556
RaB	-11.5558
pDAcIAAAA	-11.5559
AAAAAAAAACY	-11.5559
EiLBMFI	-11.556
oQQ	-11.556
McCF	-11.556
BAd	-11.556
ifdIY	-11.5561
TImN	-11.5561
SGvSDkgBykgB	-11.5563
ACAABIi	-11.5564
MYFAAAAAP	-11.5564
mOc	-11.5571
EiJwkjB	-11.5571
GQAA	-11.5573
AABJgc	-11.5577
EiJBQAAAABIg	-11.5582
xED	-11.5582
LAAAAAC	-11.5587
IFQAAAAB	-11.5587
LlXT	-11.5589
Bnb	-11.5591
sAB	-11.5593
AJIAdBIAcBIAcJIi	-11.5594
hAD	-11.5596
SIuFwP	-11.5602
FMP	-11.5603
GRY	-11.5605
BIAdAPv	-11.5606
IRA	-11.5609
AHQH	-11.5609
SInR	-11.5612
UJG	-11.5613
SIlEJMh	-11.5613
kgp	-11.5614
wkUAEAA	-11.5615
dFk	-11.5618
fAhcB	-11.5618
SIuVYP	-11.562
rDAcIAAAA	-11.5621
EgBwEgBy	-11.5622
bAOcJ	-11.5623
AiEX	-11.5626
kr	-11.5627
YFAAAAAAnQ	-11.5629
Ncv	-11.563
OYX	-11.563
EiXwk	-11.5631
TAHg	-11.5633
AAAAAAAAACK	-11.5633
xZ	-11.5634
ImEiLBMJIhcB	-11.5639
SGnAlQgAAE	-11.564
wfg	-11.5641
OgBAAAA	-11.5642
rx	-11.5642
QAAOdAPj	-11.5643
Pvt	-11.5644
Cz	-11.5645
EiLhVD	-11.5646
SGvAMU	-11.5647
DwE	-11.5648
iLhVj	-11.5648
SDnGSA	-11.5649
BwAAAAAAAD	-11.5651
wkgPRsK	-11.5653
iNPQAAAAB	-11.5653
AAPlcCIBQAAAACQ	-11.5653
EEB	-11.5654
AAAAAAAAACj	-11.5655
Rt	-11.5656
Mn	-11.5657
TO	-11.5658
IhcAPh	-11.5658
SIuFsP	-11.5665
AAAOdAPj	-11.5667
OcHF	-11.5669
SItEJM	-11.5671
RIlMJ	-11.5672
EiLRCSQ	-11.5672
oiXXk	-11.5673
AsAA	-11.5673
SItEJJh	-11.5675
EiLRfh	-11.5678
QksAEAA	-11.5682
EQPR	-11.5683
EPtt	-11.5683
IicJ	-11.5683
GZBD	-11.5684
SItFuE	-11.5684
JJi	-11.5685
aJBQAAAAD	-11.5685
AAEiL	-11.5688
iLRR	-11.5688
FAAB	-11.5691
SZ	-11.5694
AgAASIt	-11.5695
ZolMJ	-11.5696
gCAABIi	-11.5697
gVAAAAA	-11.5699
AAEAAAAAAAAAANw	-11.57
ImEgt	-11.5701
ZEJK	-11.5702
AAAAAAAAABe	-11.5706
HwAA	-11.5707
fAZokFAAAAAA	-11.571
FFD	-11.5711
RInK	-11.5711
kWE	-11.5712
nCQ	-11.5716
QkqA	-11.5717
iYVY	-11.5718
GG	-11.5719
TW	-11.5721
Sff	-11.5721
eFHP	-11.5722
AAAAPv	-11.5723
LVa	-11.5724
IOYV	-11.5724
AJIAdBIAfBI	-11.5729
AAAAADACAAAAAAAA	-11.5733
XYD	-11.5735
GBA	-11.5736
AAAAAAAAABt	-11.5736
Cp	-11.5737
bSI	-11.5737
SItFuEgB	-11.5737
AOM	-11.5742
FAf	-11.5744
IjRQASItFKEgB	-11.5744
iJRbhIi	-11.5747
yX	-11.5749
fCSg	-11.5751
oAAABIi	-11.5754
Ehjx	-11.5755
VCAAA	-11.5756
weIDSAHKSAHQSAH	-11.5757
YQQ	-11.5759
EiLtCS	-11.5764
ISAHASAHISAHQSAH	-11.5764
iLRd	-11.5765
KSInCSAHSSAHCSI	-11.5766
Mq	-11.5768
Mb	-11.577
oOMEEOKEIOIEIOG	-11.5771
oiV	-11.5771
iLRX	-11.5772
AAAAACACAAAAAAAA	-11.5773
EiLRcBI	-11.5774
RYXbD	-11.5774
QAU	-11.5774
LBQAAAACJ	-11.5777
AABAAAAAAAAAADA	-11.5778
AAAAAAAAACW	-11.5778
EkPT	-11.5779
AABIOUX	-11.5781
GaJRCS	-11.5781
CJRfyLVfyLRf	-11.5782
Ocp	-11.5783
OcIPTcKFw	-11.5785
EjQWMBoMHA	-11.5789
LgCAAAA	-11.5789
QDAcIAAAA	-11.5789
FhMl	-11.5789
yz	-11.579
aR	-11.5791
ar	-11.5795
hfr	-11.5797
fhAAAAAAASA	-11.5798
SItFm	-11.5799
GBQAAAAABD	-11.5799
XAQAA	-11.58
aFOP	-11.5803
bgBAAAA	-11.5803
EiLhCT	-11.5806
wMPh	-11.5807
IjTw	-11.5807
EiJRCQY	-11.5807
MJE	-11.5808
YCAAA	-11.5809
WISItFgE	-11.581
eFKP	-11.581
YAiEX	-11.5814
APtsCJ	-11.5815
KAP	-11.5816
AAOl	-11.5819
fAiUX	-11.582
InH	-11.5821
xIA	-11.5822
ISIl	-11.5822
AoAAAAAAAA	-11.5823
Yr	-11.5823
QkkAEAA	-11.5824
hpwLgKAABIi	-11.5826
SMHgBEgB	-11.5827
SDH	-11.5827
QkmE	-11.583
iNe	-11.5833
IAgAAAAAAAD	-11.5834
RX	-11.5837
LVe	-11.5837
chIweADSAHISMHgA	-11.5837
AAAAAAAAAADY	-11.584
PthUAAAAAD	-11.5842
Gu	-11.5845
wkiJyEgBwEgByEgB	-11.5845
cl	-11.5847
GwkiJ	-11.5849
wEiNFQAAAABmiTwQ	-11.5849
IibQk	-11.585
wQPtkX	-11.585
TWPJ	-11.5851
zu	-11.5851
Ub	-11.5855
QkmA	-11.5857
AAAAAAAAAAnQ	-11.586
Mja	-11.586
UWF	-11.5861
yl	-11.5862
AAEAAAAAAAAAAKg	-11.5865
EiLnCT	-11.5865
cAAABIi	-11.5872
FCP	-11.5875
AAEAAAAAAAAAADg	-11.5877
EiNL	-11.5877
AGD	-11.5879
AAAAAEACAAAAAAAA	-11.588
QkwAEAA	-11.5882
sd	-11.5887
EiJRCQQ	-11.5889
GbHBQAAAAB	-11.589
jRQ	-11.5892
ZVu	-11.5895
SGvH	-11.5895
fCTw	-11.5899
DjgSNBYwGgwcD	-11.5899
SItFwEgB	-11.5902
jVACD	-11.5902
sn	-11.5906
gBwouF	-11.5907
wEPh	-11.5907
xfn	-11.5909
Ip	-11.5909
Py	-11.591
BEFm	-11.5912
QccE	-11.5912
idBmiUW	-11.5913
LhTD	-11.5915
EAAAAAAAB	-11.5917
Rby	-11.5919
EgPvoX	-11.592
EiNNA	-11.5923
ImIsEgoXAd	-11.5926
AQAAQQ	-11.5926
QkoA	-11.5929
SItEJLh	-11.593
wYPh	-11.593
icEPt	-11.5932
ifd	-11.5932
iLhSj	-11.5939
FEP	-11.5941
Fdv	-11.5944
jRUAAAAASAHQiA	-11.5946
aFGP	-11.5948
SItFsE	-11.5948
ARIKdBIicFIi	-11.595
lh	-11.5952
AQPj	-11.5954
SW	-11.5955
oPAB	-11.5956
FQAAAACJ	-11.5958
WYSI	-11.596
UZ	-11.5961
AAAAQAAAAAAAAAAT	-11.5961
EiDf	-11.5961
iwSQhcB	-11.5963
AQAAZsdF	-11.5964
BJD	-11.5964
WUi	-11.5978
AAIP	-11.5978
RYXJD	-11.5979
MTicT	-11.5983
be	-11.5986
rM	-11.5987
WaJT	-11.5989
bU	-11.5989
APD	-11.599
///39	-11.5993
LM	-11.5995
yLRCT	-11.5996
GaJBQAAAAD	-11.5996
zW	-11.5998
gwcC	-11.5999
Ud	-11.6
wAH	-11.6003
vfQ	-11.6003
JIjQ	-11.6003
EqN	-11.6012
aH	-11.6013
SDAcIAAAA	-11.6016
whgZBDjiDBwP	-11.6017
SGvAeU	-11.6017
kCE	-11.6018
SIuFyP	-11.6025
bSgeq	-11.6025
QAAAAAAJC	-11.6027
SGPwSGPSSInQS	-11.6027
QBwAA	-11.6029
GbHBQAAAAC	-11.6031
SAHwSAHASI	-11.6031
EiLRCTg	-11.6031
LhSz	-11.6032
ZVq	-11.6033
Ekp	-11.6033
JNQAAAAB	-11.6034
ZomE	-11.6036
Ihcl	-11.6036
LlWz	-11.6038
IacDoAwAA	-11.6039
InCi	-11.6045
PtrV	-11.6045
EyLbCR	-11.6052
SIlEJMB	-11.6053
AAEAAAAAAAAAAKQ	-11.6056
SItEJKh	-11.6058
SItEJE	-11.6059
lVj	-11.6063
GRCS	-11.6063
SJgPtwRCZoXAd	-11.6065
JIABAAB	-11.6068
ba	-11.6068
AAAAADgCAAAAAAAA	-11.607
kiNFMUAAAAA	-11.607
EOf	-11.6071
AAAAAHACAAAAAAAA	-11.6071
iYSIsEw	-11.6073
Gt	-11.6081
ht	-11.6083
AQAAAOsFuAAAAACJ	-11.6084
SItFyE	-11.6085
ANI	-11.6086
BQAAAABmxwUAAAAA	-11.6088
AAAPtkQk	-11.609
AHQZi	-11.609
rBbgBAAAA	-11.6092
IxwT	-11.6094
QEAAI	-11.6094
MjW	-11.6094
GMAAAA	-11.6095
jYj	-11.6096
SIkFAAAAAEi	-11.6097
AsPj	-11.6101
IAMAA	-11.6105
nh	-11.6107
yq	-11.6107
wkYAEAA	-11.6108
EPR	-11.611
AQAAAAAAAE	-11.611
AAEAAAAAAAAAAOQ	-11.611
iLhfD	-11.6112
lCQ	-11.6112
wBAAB	-11.6112
IAcd	-11.6114
oPtkX	-11.6115
RBg	-11.6115
Sp	-11.6116
FIA	-11.6117
VCSQ	-11.6117
MiQUAAAAA	-11.6118
yu	-11.612
icHr	-11.6122
SYPC	-11.6127
FCR	-11.6129
aFKP	-11.6131
gxw	-11.6131
IAdBIAUX	-11.6132
MwUAA	-11.6136
AAMaF	-11.6138
ZQff	-11.6138
IAcIPt	-11.6139
SGM	-11.6139
mj	-11.6143
InKRIlF	-11.6143
wEPj	-11.6147
Nid	-11.6147
Ael	-11.6148
qEQAA	-11.6148
FUAAAA	-11.6149
AAAAxOJ	-11.6149
EiLhCR	-11.6151
GZEiQ	-11.6151
WAAAAASAHQ	-11.6154
SIPAD	-11.6158
gAgAAAAAAAD	-11.6159
EiJRCQI	-11.616
SDnKSA	-11.6161
Ls	-11.6161
ynz	-11.6162
gEW	-11.6163
iUXUi	-11.6165
EiLRchI	-11.6165
RIgVAAAAA	-11.6169
mQoM	-11.6172
Ofp	-11.6172
OXwk	-11.6172
704////	-11.6173
iBUAAAAAD	-11.6174
KFwHQ	-11.6176
iAEAA	-11.6176
aFRP	-11.6176
JIiQUAAAAAD	-11.6176
jHR	-11.6177
AAAAAPf	-11.6177
EiDw	-11.6177
LVc	-11.6178
Rdi	-11.6178
RCQw	-11.6179
AAAAAEiJ	-11.618
eFQP	-11.618
QCAAA	-11.618
wEiNFABIi	-11.6182
SIkVAAAAAE	-11.6184
tED	-11.6185
DnwD	-11.6186
EiLlCS	-11.6187
idCJ	-11.6188
wkkA	-11.619
AABIiYQk	-11.6191
qH	-11.6192
EiJwU	-11.6192
RbS	-11.6193
OAP	-11.6193
hCSoAAAA	-11.6193
BSA	-11.6194
SGlEJ	-11.6194
QkwA	-11.6195
SYu	-11.6196
SGPK	-11.6199
oAHQ	-11.62
CIBQAAAACL	-11.6202
zZ	-11.6203
AAEAAAAAAAAAAIw	-11.6204
XYSIlF	-11.6205
AYAAAAAAAAAAAAAA	-11.6206
EiLT	-11.6207
FAP	-11.6207
FZ	-11.6208
wFF	-11.6209
AAwAAAAAAAD	-11.6211
CnI	-11.6211
CAAHAFVIieWJfcyJ	-11.6216
aJRY	-11.6217
IizUAAAAA	-11.6219
EiXQk	-11.6221
RYQ	-11.6223
hCSYAAAA	-11.6226
SInISMHgAkgByEgB	-11.6226
li	-11.6226
IieVBV	-11.6228
GRZ	-11.6232
ReS	-11.6233
QkoE	-11.6234
TWPA	-11.6236
lVz	-11.6237
IweIG	-11.6238
iJBQAAAAAPt	-11.6241
qF	-11.6244
PRP	-11.6244
cn	-11.6249
hCSQAAAA	-11.625
yG	-11.6257
wIPh	-11.6258
APvkX	-11.6259
cEQmaJ	-11.6259
wYP	-11.626
fhAAAAAAASI	-11.626
TIlN	-11.6265
ITAd	-11.6266
lgAAA	-11.6268
Wr	-11.6269
SItFO	-11.6274
klj	-11.6278
AgAAAAAAAD	-11.6279
EiLRbB	-11.6282
EyJRCT	-11.6283
mz	-11.6283
hIjT	-11.6285
ZVs	-11.6286
BmiQUAAAAAi	-11.6286
CCg	-11.6287
qT	-11.6288
Nq	-11.6289
BJi	-11.629
PQt	-11.629
Qq	-11.629
zL	-11.6292
cFAAAAADHQ	-11.6293
UGN	-11.6294
Tu	-11.6295
UAAABIi	-11.6295
JIiUX	-11.6296
SK	-11.6299
ASIt	-11.63
////32	-11.6301
iLlUj	-11.6301
IiUWg	-11.6302
ImIsEg	-11.6302
BAAAPtkW	-11.631
Fb	-11.6311
PlcJ	-11.6312
AoPj	-11.6312
AAAAAJgCAAAAAAAA	-11.6313
LhTz	-11.6315
SItFgE	-11.6316
BEO	-11.632
gCAAA	-11.6321
fhAAAAAAAZpC	-11.6324
TIkVAAAAA	-11.6326
GAf	-11.6332
KdC	-11.6332
BAwHCAAA	-11.6332
RmiUX	-11.6332
RInC	-11.6333
iJTCT	-11.6333
Lm	-11.6336
LhQj	-11.6336
SItEJG	-11.6338
RCRI	-11.6338
AAAAAIP	-11.6339
SItEJK	-11.634
AAAAAHc	-11.6341
SIlEJLh	-11.6341
JEi	-11.6342
SAHQi	-11.6343
AABAAAAAAAAAABU	-11.6346
UiB	-11.6346
+2/0	-11.6346
AAEAAAAAAAAAAKw	-11.6347
VwQ	-11.6348
SMHgAkiNUPxIi	-11.6352
AAAAAFACAAAAAAAA	-11.6354
BEFmhcB	-11.6354
vfS	-11.6355
ABAAAPt	-11.6356
EiLTCR	-11.6357
heL	-11.6358
EyNP	-11.6358
EyXQ	-11.636
wAPlM	-11.636
otEJ	-11.6362
iBQ	-11.6363
AHASAHQSAHwSAHI	-11.6364
QYAA	-11.6364
Wb	-11.6366
ggAA	-11.6366
ARIA	-11.6367
EiJReBIi	-11.6369
chIweADSAHISMHgB	-11.637
SItEJJB	-11.6372
QAAAAcAAAAAAAAAF	-11.6373
wEAAI	-11.6374
rCQ	-11.6376
ZolFz	-11.6377
EiLRb	-11.6377
XsZolF	-11.638
SJhIiwTCSIXAd	-11.6381
PgA	-11.6382
IAEAA	-11.6383
ZscFAAAAAA	-11.6384
FIjQ	-11.6386
QTI	-11.6387
JdCT	-11.6388
zHJ	-11.6388
eFDP	-11.6388
AAAAAAAAAACr	-11.6389
RQB	-11.639
wAAAAAAADg	-11.6391
mh	-11.6391
RInY	-11.6392
IhfZ	-11.6395
gDD	-11.6397
QksE	-11.6398
IAcqL	-11.6398
CIBQAAAAD	-11.64
SIlEJLB	-11.6401
mAB	-11.6407
SItEJKB	-11.6407
NwogFAAAAA	-11.6407
RTj	-11.6408
AAEAAAAAAAAAAJA	-11.6408
hIjQ	-11.6408
SItEJNh	-11.6408
ESJRCT	-11.6408
ScHhB	-11.6411
tG	-11.6411
YAhMAPh	-11.6413
AAAAAAAAAAow	-11.6413
FIP	-11.6414
iLl	-11.6416
AABIAdBI	-11.6421
SGnAVwEAAE	-11.6424
sdF	-11.6425
AAAAAAAAAAVQ	-11.6428
NAAAAAEiJBAoPt	-11.6428
TAiIV	-11.6433
JJgBAAB	-11.6434
AcPj	-11.6434
uAQAA	-11.6434
IjZB	-11.6436
hrwBxIi	-11.6436
AAAAAAAAAAtw	-11.6437
MiRUAAAAA	-11.6437
vwEAAAB	-11.6438
gGD	-11.6438
ZEJD	-11.6438
APtpV	-11.644
SItEJF	-11.6442
hrwDhIi	-11.6443
YUA	-11.6443
VCSY	-11.6444
OSI	-11.6445
rV	-11.6445
SIuFuP	-11.6449
XoD	-11.645
Ffv	-11.6451
SDtEJ	-11.6451
kEPlc	-11.6453
CAAD	-11.6454
AABMA	-11.6455
ZsJ	-11.6455
HQAA	-11.6455
kWN	-11.6456
hIAdBIiwBIhcB	-11.6456
Hm	-11.6459
iLfCS	-11.6459
SItVWEgB	-11.646
YEB	-11.6461
GaJBQAAAABmg	-11.6461
maQ	-11.6461
oAAAAA	-11.6463
wHQL	-11.6466
gPtg	-11.6467
AxkQk	-11.6468
FAd	-11.6468
sj	-11.6468
gPts	-11.6469
VAAAAAEiL	-11.647
SIlEJJB	-11.647
ZEJC	-11.6471
AAAAAAAAADACAAAA	-11.6472
RCTk	-11.6473
Ofh	-11.6474
cdF	-11.6476
BgAAD	-11.6476
kAAABIi	-11.6477
SItEJMh	-11.6477
EiLRCTo	-11.6478
UCE	-11.6478
IadL	-11.6479
BQAAAACIRe	-11.648
AHUH	-11.648
Gq	-11.6484
AAAAAAAAAEgBAAAA	-11.6487
OXQk	-11.6493
AAAAAwAEAAAAAAAA	-11.6494
uAIAAADrBbgBAAAA	-11.6496
UWE	-11.6497
xflvDQAAAAB	-11.6497
GaJBQAAAABID	-11.6498
wkgPTsJIhcB	-11.6499
EcPt	-11.65
SPfQ	-11.65
BQAAAAAp	-11.6501
rAB	-11.6503
hrwB	-11.6504
IOUW	-11.6504
OwogFAAAAA	-11.6504
AABIjZ	-11.6505
IuU	-11.6507
AAAAACAIAAAAAAAA	-11.6509
Jgzz	-11.651
IiUXwSItF	-11.6511
ze	-11.6512
mQccE	-11.6512
HEAAAA	-11.6513
HUGD	-11.6513
AAEAAAAAAAAAANg	-11.6513
IBQAAAABIg	-11.6513
EDAcI	-11.6517
AQAASIm	-11.6517
IMBwgAAAAA	-11.6517
EiLf	-11.6518
AAAAAAAAABgCAAAA	-11.652
hpwMAGAABIi	-11.6525
SAHQSAHASI	-11.6525
SMHjB	-11.6528
ANIAfBI	-11.6528
VAAAAAEiJ	-11.6531
AABIiQUAAAAA	-11.6532
Ihe	-11.6532
IjZC	-11.6534
QkyAEAA	-11.6534
EiDwAJ	-11.6535
ln	-11.6536
EiQUAAAAA	-11.6544
AABIAUX	-11.6547
ZkGDf	-11.6547
QkyA	-11.655
QkiA	-11.6551
CAQAA	-11.6551
bAiQUAAAAAD	-11.6551
ah	-11.6552
GDwA	-11.6552
uZ	-11.6553
dsJ	-11.6553
hCSgAAAA	-11.6554
wny	-11.6557
RIkNAAAAA	-11.6564
AjF	-11.6565
JjX	-11.6567
UwIgFAAAAA	-11.6568
BAKI	-11.6569
7/2	-11.6571
RDl	-11.6575
RYB	-11.6575
BAI	-11.6577
TAHS	-11.658
EjHRfg	-11.6582
CQAAAAAAAD	-11.6583
SAHISAHASI	-11.6583
YFAAAAAE	-11.6584
OcZID	-11.6585
iLRc	-11.6588
HQQ	-11.6588
SDnBSA	-11.6588
dFg	-11.6589
FFP	-11.6593
wkr	-11.6594
GJw	-11.6598
Vxk	-11.6599
EgDRCS	-11.6602
SGnJxAAAAEhr	-11.6603
EiLRU	-11.6606
nd	-11.6608
ZK	-11.6609
dEJL	-11.6611
lO	-11.6613
yr	-11.6614
Ie	-11.6614
kCAAA	-11.6614
IhUJ	-11.6614
won	-11.662
IiUWY	-11.6621
/7//8	-11.6625
EiLRdB	-11.6627
AAAAAOAIAAAAAAAA	-11.6627
Rdz	-11.6628
RJg	-11.6629
OdF	-11.663
AAAAAAAAAAdQ	-11.6631
IRc	-11.6631
AACJRCT	-11.6633
AAAACF	-11.6634
SAQAA	-11.6634
JQAAAAB	-11.6635
AAAAAFgCAAAAAAAA	-11.6636
dAe	-11.6638
iLhQj	-11.6639
SGPG	-11.664
ItEJM	-11.6643
bSger	-11.6643
wAB	-11.6646
kGB	-11.6646
SGvB	-11.6647
AAEAAAAAAAAAALA	-11.6647
fSgeq	-11.6648
AABBi	-11.6649
QSIt	-11.6649
maDfd	-11.665
IjYQ	-11.6651
Sk	-11.6652
JBQAAAAAPt	-11.6652
IOcJ	-11.666
xfH	-11.6662
AEZolF	-11.6662
FhdJ	-11.6662
Zb	-11.6662
EOOIMHRw	-11.6662
AUPj	-11.6662
PtkXsiEX	-11.6663
AAEAAAAAAAAAANQ	-11.6667
CJBQAAAAB	-11.6668
RCRQ	-11.6668
gHw	-11.6669
AAAAAOACAAAAAAAA	-11.6671
wkqA	-11.6672
TAOE	-11.6673
IsEgYXAd	-11.6676
eb	-11.6677
JPR	-11.6678
AAEi	-11.6678
ARIi	-11.668
CAAHAEFXQVZBVUmJ	-11.6681
VIY	-11.6683
IOcFID	-11.6683
BIac	-11.6688
GJy	-11.6691
AAAABV	-11.6692
NeP	-11.6693
IOEEIOCAAAAAAA	-11.6695
xfFz	-11.6696
IjRQASItFMEgB	-11.6697
SGPSSGPJSMHiA	-11.6698
SGPy	-11.6698
tCQ	-11.6702
Tm	-11.6702
cEQmaFw	-11.6703
GwoXAD	-11.6703
IoAAAA	-11.6704
UJE	-11.6707
CSJhIiQUAAAAA	-11.6711
SYPD	-11.6711
BgH	-11.6711
JCg	-11.6711
QBAABIi	-11.6713
EgPvt	-11.6714
oPH	-11.6715
tEJP	-11.6719
LlWT	-11.6719
LBJ	-11.672
NmDx	-11.672
IjRy	-11.6721
PlAUAAAAA	-11.6721
oh	-11.6723
cAZoXAd	-11.6726
ZG	-11.6727
IAdBIiUQk	-11.6727
SImFYP	-11.6728
lUz	-11.6728
ZIiUQk	-11.6729
aFDP	-11.6729
Odh	-11.6731
FmiQUAAAAA	-11.6732
hNt	-11.6733
eSI	-11.6736
rCki	-11.6738
AABBg	-11.674
jRz	-11.6741
jCQ	-11.6743
IuFaP	-11.6745
EPlM	-11.6746
wkgPTcK	-11.6747
EyLTCT	-11.6751
IiWwk	-11.6752
SGvADkgB	-11.6753
DwoXAD	-11.6753
EyLTCR	-11.6757
BAKEw	-11.6757
AQAAAOsFuAAAAACD	-11.6757
MiQ	-11.6757
XAiIW	-11.6758
EiDwC	-11.6759
OsFuP	-11.6759
SIPAAg	-11.6762
OcIPRsKFw	-11.6762
ms	-11.6767
kiNBQAAAAB	-11.6768
MTj	-11.677
LhUT	-11.6773
FWQVVBVFVT	-11.6773
UFXQVZBVUFUU	-11.6773
AhO	-11.6773
AEAAAB	-11.6774
SoM	-11.6775
AAAAAGACAAAAAAAA	-11.6775
RfY	-11.6776
lQgAA	-11.6776
MaEJ	-11.6779
AMAAADp	-11.678
dBIweADSAHCSItF	-11.6784
idd	-11.6784
SIuVKP	-11.6786
PABIiF	-11.6787
AAAAAAAAAACq	-11.6788
SItEJDh	-11.6789
EiLtCT	-11.6791
QkqE	-11.6792
gBgAA	-11.6792
ISIt	-11.6794
4//8	-11.6796
eX	-11.6796
IkFAAAAAE	-11.6797
gJAAAA	-11.6797
KAQ	-11.6798
QPtkQk	-11.6802
iLnCT	-11.6804
AQAAAOk	-11.6805
wkcAEAA	-11.6805
SAUAA	-11.6808
Gp	-11.6808
IAUW	-11.6808
NIa	-11.6809
ue	-11.681
SGvG	-11.6811
Sc	-11.6812
RaS	-11.6814
SInD	-11.6814
IAdAPtwAPt	-11.6815
AAAAAAAAAAoQ	-11.6817
QkuA	-11.6817
IRa	-11.6819
IweYE	-11.6819
RInQ	-11.682
in	-11.6821
MdL	-11.6821
MlQAAAABIi	-11.6824
sb	-11.6826
EmDx	-11.6826
QksA	-11.6826
EiLnCQ	-11.6827
WIAAAASAHQ	-11.6827
ZkKDP	-11.6827
sTieT	-11.6827
AYPj	-11.6828
UJJ	-11.6829
rBbgAAAAA	-11.6829
ITAD	-11.683
IuFeP	-11.6835
Sd	-11.6835
AEAAAC	-11.6836
IiUXo	-11.6841
AAwAA	-11.6841
hCSAAAAA	-11.6842
GAv	-11.6842
RIlF	-11.6846
AAAAAAAAAAtg	-11.6848
Fhdt	-11.6848
gBAAC	-11.6853
IPoB	-11.6853
iLVUBIjQwQ	-11.6854
iLRe	-11.6854
MFAAA	-11.6855
GaJBQAAAAAPtkX	-11.6856
IacCVCAAA	-11.6856
AAAAAAAAAAog	-11.6861
uS	-11.6862
SIHs	-11.6862
ASIkFAAAAA	-11.6862
ZVn	-11.6867
wQPh	-11.6867
SItEJPh	-11.6867
idh	-11.6869
ECId	-11.687
PTM	-11.6871
pEi	-11.6872
iLVTBIjQwQ	-11.6872
bID	-11.6873
QkuE	-11.6875
PtkXs	-11.6876
SInQSAHASAHQSI	-11.6877
jQw	-11.6877
ZAgAA	-11.6877
RYBI	-11.6877
BIAcIPtkW	-11.6878
OcpID	-11.6878
wsPh	-11.6878
IAVwk	-11.688
oBAAB	-11.6882
SIlFiEiLVYhIi	-11.6882
IuFbP	-11.6885
RSI	-11.6886
EiNDAIPt	-11.6886
lUj	-11.6887
EiJRCQg	-11.6888
CAAHAFVIieVIgez	-11.6891
SIsEJ	-11.6891
AhIicJIi	-11.6891
QAAAAcAAAAAAAAAJ	-11.6892
SAHBD	-11.6894
AYPt	-11.6894
SGO	-11.69
jVj	-11.6902
QCAAB	-11.6902
ey	-11.6904
YgNAAAAA	-11.6906
Gr	-11.6907
QkuAEAA	-11.6908
ItFE	-11.6912
DrG	-11.6914
EiNU	-11.6916
CLRCT	-11.6921
YAwAAAAAAAD	-11.6922
jUo	-11.6923
APvkW	-11.6923
XoiUX	-11.6923
EiLBMFIhcB	-11.6923
Qkl	-11.6924
LRCQ	-11.6926
AAAAAAAAABu	-11.6927
DRQ	-11.6928
SO	-11.6929
iUXQ	-11.6934
EwBwEjB	-11.6934
hcAPj	-11.6938
iLV	-11.694
Mm	-11.6942
ItFr	-11.6942
GFwA	-11.6942
bAiYV	-11.6942
Mu	-11.6943
FMeR	-11.6944
JjY	-11.6946
FcAAAA	-11.6952
maDf	-11.6953
AHASAH	-11.6953
AKD	-11.6955
AAEAAAAAAAAAAOw	-11.6956
aFNP	-11.6956
AEAACAAHAEmJ	-11.6957
AAAAAAAAAAtQ	-11.6958
UGA	-11.6959
AAAAARQ	-11.6963
wAPlMAPts	-11.6965
rAAAAAEEOEIYCQw	-11.6965
SItEJN	-11.6966
XwSI	-11.6967
SJhIiwTCSIlF	-11.6968
UJI	-11.6968
fRAAAD	-11.6968
SAnQSIkFAAAAA	-11.697
wkoE	-11.6971
LlVz	-11.6975
EiLvCS	-11.6976
oAAAAAAAAAA	-11.6976
RmiUW	-11.6976
ANIAdBIAcBIicJIi	-11.6976
wkyA	-11.6978
SAHQSAHw	-11.6978
AABIa	-11.6978
xOH	-11.6978
AADnBD	-11.6979
QboBAAAA	-11.6979
CAAAAAAAAD	-11.6984
AAAAAZok	-11.6984
AAAAAAAAABj	-11.6984
ZgF	-11.6986
IjXD	-11.6987
Pnc	-11.6988
iLVThIjQwQ	-11.6988
AAAAAUwAAAAAAAAA	-11.6988
SGvQ	-11.6989
EPQ	-11.6989
wkt	-11.6989
icIPtgUAAAAAAd	-11.6989
EAAAAAABID	-11.699
SJiLBIK	-11.699
JKg	-11.699
SIlEJCB	-11.6993
GaJNQAAAAB	-11.6994
Uhpw	-11.6996
wkgAEAA	-11.6997
JmiQUAAAAAD	-11.7
EyJRch	-11.7001
BQAAAACL	-11.7002
MAeh	-11.7003
SItEJIh	-11.7005
ZokFAAAAAIB	-11.701
CwAQAAAAAAAD	-11.7011
FyX	-11.7014
PtoVo	-11.7018
FQAAAABIi	-11.7019
OsFuAAAAA	-11.702
WoAAAASI	-11.702
yHz	-11.7022
EyNL	-11.7024
EgDhCQ	-11.7027
SIlEJJh	-11.7027
miY	-11.7031
EPtk	-11.7033
FQAAAAAx	-11.7033
AAAAAiBQID	-11.7034
ZVp	-11.7036
iflmiU	-11.7037
IVCT	-11.704
EiJRCQo	-11.704
MPtkW	-11.7041
IAAAC	-11.7042
AHT	-11.7043
gMAAA	-11.7046
SItEJMB	-11.7047
ALAAAAAAAA	-11.7047
Aem	-11.7048
JImE	-11.7048
uFGP	-11.7049
SMHgAkiN	-11.7049
IPBA	-11.7051
ugEAAAC	-11.7052
wkx	-11.7052
SGNUJ	-11.7053
AQAASAH	-11.7054
AAAAAEgCAAAAAAAA	-11.7056
AAAAQAAAAAAAAAAU	-11.7057
EyNNQAAAAB	-11.7058
rs	-11.7059
ECIfCT	-11.706
fAg	-11.7063
RfxmiQUAAAAA	-11.7065
uDnCD	-11.7066
EiNFQAAAABIAdBEi	-11.7066
JOx	-11.7069
AAAAASIu	-11.7072
ADZolF	-11.7073
YAHQ	-11.7073
EiNBIB	-11.7075
AABIY	-11.7076
bSD	-11.7077
UiYSMHgA	-11.7083
IKf	-11.7083
JJD	-11.7083
FAAAA	-11.7083
wUPh	-11.7084
VCTo	-11.7084
cy	-11.7085
MYFAAAAAAG	-11.7085
hXX	-11.7085
LVeyLReg	-11.7085
ZokFAAAAAEgPv	-11.7087
DwAKIh	-11.7089
uVfP	-11.709
wEiD	-11.7091
KIBQAAAAB	-11.7093
CYB	-11.7093
wcPh	-11.7095
LRS	-11.7096
PhK	-11.7097
TAiAUAAAAA	-11.7098
FJP	-11.7103
QMBwgAAAAA	-11.711
EiLjCS	-11.711
IjRz	-11.7111
EiNFQAAAABIAdAPt	-11.7111
IiUXg	-11.7111
hpwC	-11.7114
YEAoTAD	-11.7114
dW	-11.7116
SIuVUP	-11.7117
FhNJ	-11.7119
QSH	-11.7119
tEJO	-11.712
Ptr	-11.7121
IhMJ	-11.7124
yLZCR	-11.7124
SJhIjRSFAAAAAEiL	-11.7128
AAAAAKg	-11.7128
AsAAAAAAAA	-11.7129
MPtkX	-11.7131
AkPj	-11.7131
fSger	-11.7133
DAAC	-11.7133
iNBQAAAAB	-11.7133
EiLhUj	-11.7134
wsX	-11.7135
SIXSd	-11.7136
DrC	-11.7138
SGPSSGPJ	-11.7138
eFMP	-11.714
TieT	-11.7141
AAAAACoAAAABAAAA	-11.7143
XGD	-11.7143
kmL	-11.7146
ImEhr	-11.7148
Rl	-11.715
kiJRCS	-11.715
AoO	-11.715
hBi	-11.7151
wokFAAAAA	-11.7153
LTR	-11.7155
SGPSSJh	-11.7158
mxwUAAAAAAQB	-11.7158
AHASAHQSAHw	-11.716
IidBIweACSAHQSI	-11.7163
RIkVAAAAA	-11.7164
SAHQiwCJ	-11.7164
RCTc	-11.7165
BQAAAABmiYV	-11.7165
SItViEiLRYBI	-11.7169
VwEAA	-11.717
SItFqEgB	-11.717
xgUAAAAAAY	-11.717
QAAAAAAAH	-11.7172
RRn	-11.7174
SItEJNB	-11.7182
GwonC	-11.7182
VYSAHC	-11.7183
IAcJ	-11.7187
kiYSGPSSGn	-11.7188
sAAABIi	-11.719
iNFIUAAAAASIuF	-11.7191
CUiL	-11.7192
ZEJB	-11.7193
hdr	-11.7195
AAAAGgAAAAAAAAAL	-11.7195
iLVUhIjQwQ	-11.7195
LXCQ	-11.7197
eY	-11.7197
BBic	-11.7197
aJRa	-11.7199
sDAcIAAAA	-11.7199
AABIiVwk	-11.7201
fCSw	-11.7203
AAAAAAAAADs	-11.7203
kiNNQAAAAB	-11.7204
hdt	-11.7207
SAHISIsA	-11.7207
JlB	-11.7208
UQi	-11.7208
aFYP	-11.7209
OfB	-11.7213
SGvAOE	-11.7213
BAIPts	-11.7217
JKABAAB	-11.7218
IidBI	-11.7219
kiJFQAAAAB	-11.7221
AAAAAAAAAAeA	-11.7223
SItFsEgB	-11.7223
hIAdCLAIXAd	-11.7224
IPvs	-11.7225
EPtg	-11.7226
IsU	-11.7226
fhAAAAAAAQQ	-11.7228
ITCT	-11.7228
ImEgF	-11.7228
MjX	-11.7228
AAAAEyJ	-11.7228
wksE	-11.7228
wkaAEAA	-11.7229
lXD	-11.723
APtsD	-11.723
gDRCR	-11.7231
hdL	-11.7234
wkeAEAA	-11.7235
JPQAAAAB	-11.7236
XISIlF	-11.7236
Rei	-11.7237
weACSInCSItF	-11.7238
gBAAAPt	-11.7239
ZVm	-11.7241
vAB	-11.7244
wkwA	-11.7248
AAAAAAAAAAcQ	-11.7248
ifGIT	-11.7251
VwSAHQ	-11.7253
wIP	-11.7254
wkuA	-11.7255
IidBIweACSAHQSAH	-11.7255
InQiU	-11.7255
iUWo	-11.7256
bZ	-11.7259
+///32	-11.726
woPh	-11.7261
VRCT	-11.7261
SItEJOh	-11.7262
EiLRCQ	-11.7262
SDnBD	-11.7262
xl	-11.7263
xOI	-11.7264
xwGZ	-11.7265
AAAAAEgB	-11.7265
jUgBD	-11.7268
ECIPQAAAAB	-11.7268
ye	-11.7269
iDwAJ	-11.727
KC	-11.7271
ZkEPv	-11.7273
JjV	-11.7276
AAAAAAAAAACp	-11.7277
PCR	-11.7279
EQPtg	-11.7283
sl	-11.7284
SGnAMwUAAE	-11.7284
DAACL	-11.7285
ERg	-11.7287
mgz	-11.7288
/3//4	-11.7289
hWv	-11.729
lUT	-11.7291
AQAAAAAAAF	-11.7292
EiLRZh	-11.7295
AUiL	-11.7295
CwAAAAAAAAA	-11.7296
hG	-11.7298
cPtkX	-11.7299
GAB	-11.7301
gIV	-11.7302
Su	-11.7303
APlQUAAAAA	-11.7305
UoSAHCi	-11.7305
wkiD	-11.7306
AABAAAAAAAAAABc	-11.7307
IweAGSI	-11.7308
Elrw	-11.731
UgSAHCi	-11.7311
eq	-11.7312
AAEAAAAAAAAAAOg	-11.7312
BAABBD	-11.7313
QAPh	-11.7314
AdS	-11.7317
CAABIg	-11.7318
bM	-11.7318
+///30	-11.7319
wkPh	-11.7319
bCSIXAd	-11.732
iYVo	-11.7321
XeD	-11.7322
FAAAAQQ	-11.7322
Lu	-11.7323
xK	-11.7323
wkgPTcJIhcB	-11.7324
SItEJOB	-11.7324
wGaJBQAAAACQ	-11.7324
IAe	-11.7326
ym	-11.7327
PlQUAAAAAw	-11.7327
IjRTS	-11.733
ZVj	-11.7334
BQAAAABIg	-11.7334
Kr	-11.7337
CJBQAAAACL	-11.7338
QAAAI	-11.7341
SGvAOEiLV	-11.7344
AAABEi	-11.7344
AAAAARI	-11.7348
APtoX	-11.7349
ZgFF	-11.7349
lEJP	-11.7351
ZVl	-11.7351
AAAFF	-11.7351
AABAAAAAAAAAADE	-11.7352
iNSP	-11.7353
IAchI	-11.7353
TCTo	-11.7356
qO	-11.7356
ZolEJN	-11.7357
AQAAAOt	-11.7357
IsAic	-11.7359
hIidBIweACSAHQS	-11.7359
aFUP	-11.7361
DgAQAAAAAAAD	-11.7365
ZkKJ	-11.7369
AHW	-11.7371
Odd	-11.7372
AACF	-11.7373
AAAAQAAAAAAAAAAt	-11.7373
IPH	-11.7374
eFJP	-11.7374
LfCT	-11.7375
kkPv	-11.7376
ZoXSD	-11.7376
iLhfj	-11.7377
SGnAiAEAAE	-11.7378
SItEJEh	-11.738
ZolFu	-11.7381
iLRb	-11.7382
ASY	-11.7383
Zh	-11.7384
SIsM	-11.7385
QkwE	-11.7386
IiwT	-11.7387
gwdHD	-11.7388
AHQM	-11.7388
AAAAAIk	-11.7391
Qkp	-11.7393
EiJRfBI	-11.7393
hpwMQAAABIi	-11.7393
IjRRS	-11.7396
IAdBIiYV	-11.7397
lmg	-11.7397
LVY	-11.7398
VAAAAAEi	-11.7398
JRdyLVdyLRd	-11.7399
aS	-11.7399
SJhIacC	-11.74
AABB	-11.74
izUAAAAA	-11.74
yLfCT	-11.74
PhJ	-11.7401
NAAAAAI	-11.7402
iLd	-11.7403
FOf	-11.7403
IXSd	-11.7404
yj	-11.7405
DwAOIh	-11.7405
IAfl	-11.7407
EiLRCRI	-11.7407
Sm	-11.7409
IRCR	-11.7413
LhVT	-11.7414
McA	-11.7415
ouN	-11.7416
IiQUAAAAAi	-11.7417
AAGaD	-11.7418
AAEAAAAAAAAAAIQ	-11.7419
EiLBN	-11.7423
AEAACAAHAEgPvv	-11.7424
SGPxSGPSSGPI	-11.7424
uFTP	-11.7424
EgByIsA	-11.7427
IsAiUX	-11.7427
IweAGSInCSItF	-11.7429
kqN	-11.743
hIAcIPtkW	-11.743
GaJBQAAAABIg	-11.7431
AAAAAAAAALgBAAAA	-11.7432
OfJ	-11.7432
EiLRaB	-11.7433
hpwJUIAABIi	-11.7434
yh	-11.7435
+3/0	-11.7436
WISI	-11.7438
iYVI	-11.7439
lK	-11.7441
PtsAt	-11.7441
IjRQ	-11.7441
14////	-11.7443
AAAAAAAAAADc	-11.7443
fhAAAAAAAi	-11.7444
IidBIweAESCnQ	-11.7444
EiJBQAAAABID	-11.7446
WwAAAASI	-11.7447
WQSI	-11.7448
iLVShIjQwQ	-11.7449
VCTw	-11.7449
iLRS	-11.745
chIAcBIAchIweAC	-11.7451
SItEJL	-11.7453
weACSAHQSAHw	-11.7453
JAgCAAB	-11.7454
SIHH	-11.7455
kiNFIUAAAAA	-11.7456
JNABAAB	-11.7457
ab	-11.7457
GaJBQAAAAA	-11.7459
KIBQAAAAD	-11.7459
onK	-11.746
XsZjnCD	-11.746
Mcm	-11.746
PtoVc	-11.7461
Lhfj	-11.7461
Ru	-11.7462
GZEiQUAAAAA	-11.7462
AAAAAAAAAADU	-11.7467
iLRCT	-11.7468
JReyLVeyLRe	-11.7469
jZQ	-11.7476
nEMBwgAAAAA	-11.7476
ed	-11.7478
wQPj	-11.748
TV	-11.7481
AITAdC	-11.7481
hCTIAAAA	-11.7485
EiLhUD	-11.7485
wksA	-11.7486
khpycQAAABIa	-11.7487
SYH	-11.7487
Hn	-11.749
IadJ	-11.749
Qkn	-11.7492
ScHiB	-11.7492
wgPh	-11.7493
AABFD	-11.7493
ty	-11.7494
uVVP	-11.7495
DnQf	-11.7497
AABJi	-11.7501
YAiEW	-11.7501
UEPv	-11.7501
uFMP	-11.7503
QsYE	-11.7506
ZUJP	-11.7507
oAAAC	-11.7507
AEG	-11.7507
MYFAAAAAAB	-11.7507
QbsBAAAA	-11.7507
PhL	-11.7511
SIuVGP	-11.7511
UYSAHCi	-11.7512
AgAAx	-11.7513
lEi	-11.7515
OGI	-11.7516
Mie	-11.7517
Uxw	-11.7517
AAAAAAAAACu	-11.7518
kwBw	-11.7518
AAAAEhp	-11.7518
ouF	-11.7519
wPtkX	-11.7519
EyNPQAAAAB	-11.7519
EiEwk	-11.752
nu	-11.7521
kiBw	-11.7523
LhSD	-11.7523
UiNF	-11.7525
BAABED	-11.7525
CAcAA	-11.7526
EyLXCS	-11.7527
DrBbj	-11.7527
EPr	-11.7529
mRIkVAAAAA	-11.7529
AchI	-11.7531
kiNFQAAAADHBBA	-11.7537
iUXI	-11.7537
QhgJDDQYCi	-11.7541
GSY	-11.7542
ScHgB	-11.7546
YUE	-11.7546
heb	-11.7547
wGaJBQAAAAD	-11.7547
kiYSGPJ	-11.7548
AAAAAIACAAAAAAAA	-11.7549
fBIAcBIAfBI	-11.755
IjRQASItFOEgB	-11.755
lTz	-11.7552
mhdJ	-11.7553
EiJRbhIi	-11.7553
sCAAA	-11.7554
hXH	-11.7555
UFAAAAAE	-11.7556
kAEAA	-11.7557
SImFWP	-11.7562
SGnAyAAAAE	-11.7563
goOMEEOKEIOIEIOG	-11.7563
pIa	-11.7563
AiL	-11.7567
icIPtoX	-11.757
VBQAAAAC	-11.757
IacAzBQAA	-11.7571
IPwAQ	-11.7571
EiNFAFIi	-11.7571
AAAAQAAAAAAAAAAr	-11.7571
iJXCS	-11.7573
yESJ	-11.7574
iJRahIi	-11.7574
ZolFr	-11.7578
jZC	-11.7578
jTQ	-11.7579
hXn	-11.7579
AAEAAAAAAAAAAOA	-11.758
ru	-11.7582
RInB	-11.7583
SIlEJIh	-11.7583
AABIiUW	-11.7583
iLhCS	-11.7584
DwASIh	-11.7587
PtkXc	-11.7588
hpwNgAAABIi	-11.7588
uAMAAAB	-11.7589
AfBIAfhIAcgPtg	-11.7589
///3+	-11.759
St	-11.7591
eFGP	-11.7592
SIlEJKB	-11.7594
AAAAAAAAAAbQ	-11.7594
AAAASAH	-11.7597
hmiUQk	-11.76
iLVc	-11.76
IuFXP	-11.7604
cFAAAAAP	-11.7604
kT	-11.7604
RZB	-11.7606
FheR	-11.7609
PtkWc	-11.761
miX	-11.761
xt	-11.7611
cJI	-11.7612
EiLRa	-11.7613
EFXQVZBVYnwQVRVU	-11.7618
SMcFAAAAAA	-11.7618
EiDwD	-11.7622
UJM	-11.7625
hjyUiYSGPSSGvw	-11.7626
QYsE	-11.7627
IBQAAAACL	-11.7627
IBQAA	-11.7628
wcPj	-11.7629
fCTg	-11.7629
AAAAAAAAACt	-11.7631
ACZolF	-11.7632
iLRY	-11.7632
ZEJE	-11.7632
wkgPRsJ	-11.7632
EAAAAAABBD	-11.7633
uY	-11.7633
SIPC	-11.7634
oCAAA	-11.7635
EiJRCSI	-11.7637
RCRY	-11.7637
AAAAAKACAAAAAAAA	-11.7638
NAAAAAGaJFAgPt	-11.764
AIAAI	-11.764
Wh	-11.7641
UnB	-11.7647
EuN	-11.7649
iUXMi	-11.7652
BEKY	-11.7652
TAOM	-11.7653
iJRCS	-11.7653
CAABIx	-11.7654
RZBI	-11.7657
SAHo	-11.7659
ReyIRf	-11.766
gr	-11.7662
EyNN	-11.7663
GaJDQAAAAB	-11.7664
IgFAAAAAItF	-11.7664
UgEAA	-11.7667
JIiRUAAAAA	-11.7669
QhgJDDQYCj	-11.7673
DQAAAABIi	-11.7674
IPr	-11.7678
roBAAAA	-11.7678
IAdBIOUW	-11.7679
iJXCQ	-11.768
BHb	-11.7682
aJBQAAAAB	-11.7682
AAAAASIP	-11.7682
JIAdJIjQ	-11.7684
EiDwg	-11.7685
wkqE	-11.7685
her	-11.7686
xq	-11.7686
EgByg	-11.7689
wwPh	-11.7695
XsD	-11.7696
rm	-11.7696
NAAAAAMX	-11.7699
IdBIiQUAAAAA	-11.77
wUPj	-11.7701
wsPj	-11.7701
TCSo	-11.7701
vwoXAD	-11.7701
EwAA	-11.7703
wYPj	-11.7705
hQAAA	-11.7706
FQAAAACL	-11.7708
EyNJQAAAAB	-11.7708
AAAAAJACAAAAAAAA	-11.7709
wLp	-11.7713
tAB	-11.7713
hWH	-11.7717
hcAPlcDr	-11.7717
ZolFt	-11.7718
SGPJSGPSSJhIa	-11.7719
EiNe	-11.7722
JiNk	-11.7722
XmD	-11.7723
CscFAAAAA	-11.7726
bAhcB	-11.7729
SGPJSGPSSAHSSAHK	-11.773
zV	-11.773
IgFAAAAAIB	-11.7731
wkoA	-11.7735
FDAcIAAA	-11.7737
vwkiJBQAAAA	-11.7738
AAEAAAAAAAAAAPA	-11.7743
AAAAAAAAAHgBAAAA	-11.7744
hckPlc	-11.775
gDgAD	-11.775
wkmA	-11.775
VfYPt	-11.7752
nAB	-11.7753
ItEJK	-11.7755
SGnw	-11.7756
wEiNFMUAAAAA	-11.7756
yLdCT	-11.7757
iLdCS	-11.7758
ANIjRUAAAAASIk	-11.7758
jL	-11.7758
CJRCS	-11.7759
JJABAAB	-11.7759
UAEAAAAAAAA	-11.7762
iLVCT	-11.7764
AwAAAEIOEI	-11.7766
ZpC	-11.7766
SItEJFh	-11.7766
MAeB	-11.7767
EyLRCR	-11.7767
IAcFIi	-11.7767
sPtkX	-11.7769
TAHa	-11.777
FMfZ	-11.7771
AHASAHwSAHI	-11.7774
AicB	-11.7774
wMAAA	-11.7777
xu	-11.7778
EkPvs	-11.7778
lQAAA	-11.7779
AAAAAAAAABN	-11.7783
PtoVM	-11.7783
eFIP	-11.7785
Afe	-11.7786
KZ	-11.7786
wkgPTsK	-11.7787
AAAAAGM	-11.779
mwAAA	-11.7791
IuFdP	-11.7795
CAABMi	-11.7795
ItEJL	-11.7795
iLhCT	-11.7795
dCTo	-11.7797
NBg	-11.7797
oPtkW	-11.7798
TCSY	-11.7798
SGPQSInQSMHgBEg	-11.7798
RYS	-11.7799
XID	-11.78
ZolN	-11.78
IAcoPt	-11.7802
UCAAA	-11.7802
XcD	-11.7803
iUWw	-11.7806
AJIjRUAAAAAiTQQ	-11.7807
Ehjxkhj	-11.7807
SGnACAcAAE	-11.7809
AAAAAAAAAAVw	-11.781
JAACAAB	-11.7816
woPj	-11.7816
hFi	-11.7817
VCSo	-11.7818
EmNF	-11.782
SItEJP	-11.782
YEO	-11.7821
GSA	-11.7825
QAQAASI	-11.7825
ZVk	-11.7828
PfQiAUAAAAA	-11.7828
EiNi	-11.7829
MMPH	-11.783
IAYAA	-11.783
oDAcIAAAA	-11.783
AiH	-11.7832
TIkdAAAAA	-11.7832
AHQB	-11.7832
AAAAAAAAAGABAAAA	-11.7835
PRN	-11.7836
iFwHQ	-11.7836
718////	-11.7838
McFAAAAAAAAAAB	-11.784
QkyE	-11.7841
SItFUEgB	-11.7841
MAAAC	-11.7845
TWPS	-11.7848
AEAAEyL	-11.7852
SIXS	-11.7853
ifKIV	-11.7853
jRUAAAAASAHQD	-11.7855
iNNBCL	-11.7856
BAAAi	-11.7856
IweAD	-11.7857
AAAAAGgCAAAAAAAA	-11.7858
APtsB	-11.7859
YEAoTAd	-11.7859
zY	-11.7861
EiJBQAAAAAPtkX	-11.7863
VwITAdA	-11.7864
MJP	-11.7865
CmGaJBQAAAAAPt	-11.7867
SGPC	-11.7869
EiNBP	-11.7869
jTw	-11.787
YAAAC	-11.7871
XZ	-11.7871
AQAAAOl	-11.7872
CK	-11.7875
EQQ	-11.7875
ZkSJBQAAAAB	-11.7876
AAAAGQAAAAAAAAAL	-11.7877
ImEiN	-11.7877
JIacnEAAAA	-11.7878
AAAAAAAEAAAAAAAA	-11.7879
LlUz	-11.7879
SYsE	-11.788
kAgAA	-11.788
wkmE	-11.7883
EiLjCT	-11.7883
Ofl	-11.7883
BAABEi	-11.7883
NCR	-11.7886
AAAAAawAAAAAAAAA	-11.7886
BQAAAADGBQAAAAAB	-11.7887
IhFz	-11.7889
Rfx	-11.7891
///3/	-11.7892
gPvoW	-11.7892
EiVwk	-11.7895
wDH	-11.7897
weACSAHQSAHwSAH	-11.7902
hCTgAAAA	-11.7903
RYXJ	-11.7904
EiJPQAAAAD	-11.7904
OcIPTcKJBQAAAA	-11.7905
ItEJJ	-11.7906
wGaJBQAAAAC	-11.7906
GbHRb	-11.7909
AAAAABu	-11.791
SItFoEgB	-11.7911
dEi	-11.7912
IidBIweADSCnQ	-11.7915
ZO	-11.7916
Se	-11.7917
YFAAAAAAF	-11.7918
FDP	-11.7919
JIidBIweACSAHQS	-11.7919
dEJK	-11.7921
uVbP	-11.7923
EiNPA	-11.7927
AHASAHQSAHwSAH	-11.7928
YMBwgAAAAA	-11.7928
gFF	-11.7928
jUL	-11.7928
EyNJ	-11.7931
gAAAEg	-11.7932
ANIKdBIicFIi	-11.7932
MYFAAAAAAH	-11.7933
SInISAHASAHI	-11.7934
AHQK	-11.7935
FOe	-11.7937
VwUhj	-11.794
iAB	-11.7941
RAEAA	-11.7941
HQiQUAAAAA	-11.7942
EiJRCQw	-11.7943
hCTYAAAA	-11.7945
GQA	-11.7947
PtgQCD	-11.7947
iLRV	-11.7947
hCTQAAAA	-11.7948
PCB	-11.7949
oPo	-11.795
AQAAxkX	-11.795
AAAAAAAAAAcg	-11.795
uVdP	-11.795
hgAAA	-11.7952
SImFUP	-11.7956
RIhMJ	-11.7956
VgSAHC	-11.7957
APtgUAAAAA	-11.7959
JBi	-11.796
xEi	-11.7964
IweAFSI	-11.7966
IL	-11.797
aFJP	-11.7971
JDQAAAAB	-11.7971
AUiJ	-11.7973
Bxk	-11.7973
SIlEJDh	-11.7977
yLXCT	-11.7977
Uwg	-11.7978
AAAARI	-11.7978
JIgBAAB	-11.7979
wIAAADp	-11.798
YPvkW	-11.7981
FAAAAAI	-11.7983
yIn	-11.7984
QkAAIAA	-11.7984
PtsCD	-11.7987
TANkJ	-11.7988
DAAAAQg	-11.7993
EiLhTD	-11.7994
gEQk	-11.7996
wItV	-11.7997
PlcI	-11.7997
hIac	-11.7997
IicB	-11.7998
hjyEhj	-11.7998
so	-11.7999
gOAAAA	-11.7999
tDAcIAAAA	-11.8001
PCSIXAd	-11.8004
WoSAHQ	-11.8007
QAAAAcAAAAAAAAAK	-11.8007
SGvAeE	-11.8008
BQAASI	-11.8009
WYD	-11.801
dBIAcBIAdBIAcBI	-11.8011
kiNDQAAAACJBAoPt	-11.8012
cEQmaFwHQ	-11.8013
kiLdCS	-11.8015
SwA	-11.8016
VCSw	-11.8021
kPtkX	-11.8022
IiUQkG	-11.8023
SJyIhF	-11.8026
CiQUAAAAAk	-11.8029
SANsJ	-11.803
ADAABIi	-11.8031
iLheD	-11.8031
SJgPt	-11.8032
EiLRCTw	-11.8033
JOgBAAB	-11.8034
AEAACQAIAEFX	-11.8036
AAAAAHgCAAAAAAAA	-11.8036
AAAABx	-11.8036
lCR	-11.8037
RMA	-11.8037
EiLAEi	-11.8038
EAABID	-11.8038
SccE	-11.8039
EiJdCQ	-11.804
GwkiFw	-11.8041
MjQT	-11.8041
kMBwgAAAAA	-11.8041
EiLRCRg	-11.8042
xh	-11.8044
QPts	-11.8046
EiLhCQ	-11.8047
ua	-11.8047
EyLVCS	-11.8047
iLbCT	-11.8048
BAACJ	-11.8049
EiNNAJIi	-11.8049
gBHQ	-11.8049
PChcB	-11.8051
yy	-11.8053
IAdAPtgCEw	-11.8055
EiJRfBIu	-11.8057
dEJJ	-11.8057
LhTT	-11.8057
ZVi	-11.806
iYVw	-11.8061
EiNBL	-11.8061
iDwAN	-11.8063
SGnAhAMAAE	-11.8065
weADSInCSItF	-11.8068
SIuVQP	-11.8068
IweAH	-11.807
FUVVN	-11.807
HIAAAA	-11.8071
Yp	-11.8071
SItEJEB	-11.8072
AACA	-11.8072
rl	-11.8073
SIsEw	-11.8073
iLhdD	-11.8073
khpy	-11.8074
XQSIlF	-11.8076
mQA	-11.8076
ZCQ	-11.8076
EOc	-11.8077
EIPtgQ	-11.8078
EiLRCRQ	-11.8078
AAAAAHk	-11.8078
PHwC	-11.8078
PtwUAAAAAZomF	-11.8078
ss	-11.8079
iNFQAAAAB	-11.808
CIBQAAAABIg	-11.8082
AwPj	-11.8085
LlVT	-11.8087
///38	-11.8088
EEPvs	-11.8092
Cnb	-11.8093
eFFP	-11.8094
QMAAA	-11.8095
wOt	-11.8097
aFFP	-11.8097
AAAx	-11.8101
SIHE	-11.8101
mhfZ	-11.8101
AiC	-11.8101
YPAA	-11.8103
Xd	-11.8103
JLg	-11.8104
EiYSGnA	-11.8105
lEJM	-11.8106
eFCP	-11.8106
lSz	-11.8107
QAAAAAAEgPv	-11.8108
st	-11.8109
lq	-11.811
IweIF	-11.8111
BgAAA	-11.8113
EAPvs	-11.8113
IweM	-11.8114
SIHG	-11.8115
Qkj	-11.8117
AAAAQAAAAAAAAAAu	-11.8119
YFAAAAAP	-11.8119
EiLRCRY	-11.812
bChcB	-11.812
BIjRUAAAAA	-11.8121
fCQQ	-11.8123
JIx	-11.8125
JIweICSAHK	-11.8126
Jzkhjyk	-11.8127
eC	-11.8128
EiJNQAAAAB	-11.8131
hpwOgDAABIi	-11.8132
ItFG	-11.8133
dmiQUAAAAA	-11.8133
WoD	-11.8136
IweAJSInC	-11.8138
UGL	-11.8138
SGnI	-11.8138
VCTY	-11.8142
BAc	-11.8142
OsHSMfA	-11.8143
iJBQAAAACQ	-11.8144
an	-11.8145
xs	-11.8145
AAAAAAAAADV	-11.8146
UwSAHCi	-11.8146
EgByEgF	-11.8146
lEJL	-11.8148
QBAAC	-11.8148
CIRb	-11.8149
kCA	-11.815
MAAAAAAABg	-11.8151
iDfCS	-11.8151
EiNFA	-11.8151
maDfe	-11.8151
hIAf	-11.8155
BCQ	-11.8155
gEAAI	-11.8156
EyLdCS	-11.8157
APtw	-11.8158
sz	-11.8158
EiLRCRA	-11.8158
hIAdAPt	-11.8159
qkAAAB	-11.816
QYnA	-11.816
gKD	-11.8161
FBP	-11.8161
FAe	-11.8161
lXb	-11.8162
IAABIi	-11.8163
UAAAC	-11.8166
wAwAAAAAAAD	-11.8171
QSMHgBEgp	-11.8172
KS	-11.8172
AAAAAL	-11.8173
SJiLBIKJ	-11.8173
hbXUFcQV	-11.8175
hIjR	-11.8178
SAHwSIsEw	-11.8178
EiLRYB	-11.8183
XWD	-11.8183
XoSIlF	-11.8186
DHAZm	-11.8186
SIlEJPh	-11.8189
AAAAAAAAAGACAAAA	-11.819
AAAABt	-11.8193
BAAAPtkX	-11.8196
lTT	-11.8197
LfCS	-11.8199
PtxUAAAAAD	-11.8199
BIiUXYSItV	-11.8202
EEPtw	-11.8202
IlFzItVzItF	-11.8204
Zl	-11.8204
kVAAAAA	-11.8209
FhNt	-11.8209
PvwR	-11.821
Rq	-11.821
gpyEgB	-11.8211
qR	-11.8211
EiRUAAAAA	-11.8211
JBQAAAACL	-11.8212
QAAi	-11.8213
vDAcIAAAA	-11.8218
AMBwgAAAAA	-11.8218
CIRf	-11.8219
ZolFv	-11.822
EQPts	-11.8222
JIaf	-11.8222
rgAAA	-11.8224
hCSwAAAA	-11.8224
UEPT	-11.8226
OVwk	-11.8227
UMBwgAAAAA	-11.823
EyLTCS	-11.823
TievfC	-11.823
AwAASA	-11.8232
IcAAAA	-11.8232
sQAAAB	-11.8232
IxOJ	-11.8233
PhM	-11.8233
AHQFi	-11.8234
bQi	-11.8235
mfd	-11.8235
Sl	-11.8236
CIRa	-11.8237
UAU	-11.8237
ZjnID	-11.8237
AABAAAAAAAAAADQ	-11.8238
gAAAAPt	-11.8239
BAABIu	-11.8239
IacDCAQAA	-11.824
SX	-11.824
InGD	-11.8242
gIA	-11.8243
Jge	-11.8243
wYn	-11.8244
FJg	-11.8244
NQAAAAAPt	-11.8246
mo	-11.8246
lXr	-11.8247
CIRZ	-11.8247
uVRP	-11.8247
QVR	-11.8248
wIA	-11.8251
wYgFAAAAA	-11.8257
CwAAA	-11.8258
XoZolF	-11.8263
AAAAASIk	-11.8263
Rcg	-11.8264
JImEhp	-11.8265
iLT	-11.8265
ax	-11.8266
OcIPn	-11.8267
icKJyA	-11.8271
AAAAAEyL	-11.8273
su	-11.8273
AABAAAAAAAAAADI	-11.8274
wmY	-11.8276
FAAAAAGaJ	-11.8276
BQAAAAAPtwUAAAAA	-11.8277
YRA	-11.8277
DrBbg	-11.8279
CZoN	-11.828
FIiQUAAAAA	-11.828
aFwA	-11.828
SIPAAk	-11.8281
VCTg	-11.8281
ARn	-11.8282
fCTY	-11.8284
SGnX	-11.8285
iUWg	-11.8287
AAAAAEQ	-11.8287
JwYtF	-11.8287
IuK	-11.8293
AABIgYQk	-11.8294
cBAAB	-11.83
kxp	-11.83
DnRf	-11.83
EiLdCQ	-11.8301
LhST	-11.8301
JFQAAAAB	-11.8303
RCRo	-11.8303
CxgQ	-11.8303
CHb	-11.8306
gAAi	-11.8306
AAAARQ	-11.8309
JIAd	-11.831
OAEAA	-11.831
BQAAAACJw	-11.8311
wEiJRehIi	-11.8311
QAAI	-11.8312
hIjQUAAAAA	-11.8313
bASIkFAAAAAA	-11.8313
hrwGRIi	-11.8317
kwBy	-11.8319
SJlJ	-11.832
PtoUs	-11.832
GZFi	-11.8321
MiR	-11.8322
hdb	-11.8322
CXb	-11.8323
GwogFAAAAA	-11.8323
qDAcIAAAA	-11.8324
jXr	-11.8324
GaJRCQ	-11.8326
EOch	-11.8328
LVR	-11.8328
798	-11.8329
AAAAAAAAAJEAAAAA	-11.833
CAABmx	-11.8333
xQAAAAB	-11.8334
SIlEJBB	-11.8336
IiUQkE	-11.8336
CHQiAUAAAAA	-11.8339
AAAAAEADAAAAAAAA	-11.8341
AAGY	-11.8343
IPtoV	-11.8344
BIC	-11.8348
DwAJ	-11.835
InyZolV	-11.8354
iLnCS	-11.8354
CmIXAd	-11.8354
IXbD	-11.8355
lu	-11.8357
IacBXAQAA	-11.8358
IjQUAAAAASAH	-11.8358
twAAA	-11.8359
aFBP	-11.836
JOg	-11.836
ESJTCT	-11.8362
SItEJH	-11.8363
lEJJ	-11.8363
DnGD	-11.8363
UQSAHCi	-11.8366
IBAABIi	-11.8366
RIlEJP	-11.8368
GRA	-11.837
VMi	-11.8371
AIAAEgB	-11.8371
EgPvkQk	-11.8371
cgAAAB	-11.8371
yd	-11.8375
AAAAALACAAAAAAAA	-11.8375
OcIPRsI	-11.8375
GaDe	-11.8375
AAAABy	-11.8376
LhRD	-11.8376
iQUAAAAASINF	-11.8376
hEO	-11.8379
yK	-11.8384
uAMAAADrBbgCAAAA	-11.8384
MTieffC	-11.8385
EPT	-11.8388
maJBQAAAAD	-11.839
icIPtgUAAAAAIdC	-11.839
gHAAAA	-11.8391
AAAAAABHQ	-11.8392
wEiJBQAAAAD	-11.8392
RDt	-11.8393
YEM	-11.8394
wEiJBQAAAAAPt	-11.8395
LhRz	-11.8397
AYP	-11.8398
wGaJBQAAAABIi	-11.8398
AJIAfBI	-11.84
JDB	-11.8401
InIiEXo	-11.8402
iwT	-11.8402
CZokFAAAAAJ	-11.8402
gBwEiNUP	-11.8402
kkPR	-11.8403
SGvAfU	-11.8403
XAiAUAAAAAg	-11.8404
Gl	-11.8404
PtnW	-11.8406
mRIkdAAAAA	-11.8406
APtgQ	-11.8406
IAwAAAAAAAD	-11.8407
BIad	-11.8407
OfF	-11.8409
cTieT	-11.8409
RCRg	-11.841
wkgPTcJ	-11.8411
UJN	-11.8413
QOGI	-11.8413
SCnQSIkFAAAAA	-11.8414
EmB	-11.8417
hXv	-11.8419
JMg	-11.842
Rbi	-11.8422
UAIAAAAAAAA	-11.8423
TCSQ	-11.8424
wkhpx	-11.8425
WMi	-11.8426
LVCT	-11.8427
Hb	-11.8428
ifl	-11.8432
AAAAQY	-11.8432
EiJRCQ	-11.8434
EiLB	-11.8435
Lhej	-11.8435
SGvAPE	-11.8436
AAAAAHY	-11.8438
EiLRCT	-11.8438
ugEAAAA	-11.8439
EEPtk	-11.844
LhQz	-11.844
Rci	-11.8442
UJO	-11.8442
yLbCT	-11.8442
AvCS	-11.8443
Lhez	-11.8443
QCg	-11.8446
Iuv	-11.8447
lWD	-11.8449
EiDfeg	-11.8449
IhcJ	-11.845
EQPT	-11.8451
JIAf	-11.8453
CSIkFAAAAAJ	-11.8453
GAz	-11.8457
AAAAAAAAAAMYAAAA	-11.8459
EgCAAAA	-11.8461
PtkXM	-11.8462
IAeh	-11.8463
NkP	-11.8464
Cki	-11.8467
AABAAAAAAAAAAEU	-11.8467
IiUQkC	-11.8468
wEiYSIlF	-11.8469
EiLVeBIi	-11.8471
AABFi	-11.8473
AAAAAAAAAAGY	-11.8473
acJ	-11.8474
JLgBAAB	-11.8474
ZVh	-11.8474
IjRTFAAAAAEiLRV	-11.8474
Tq	-11.8474
gIAAE	-11.8475
Ehjykhj	-11.8477
BmiYX	-11.8478
Fev	-11.8479
UCA	-11.8479
MAfB	-11.848
kgBykgB	-11.848
XCTo	-11.848
CRIi	-11.8481
wEiJBQAAAABIi	-11.8481
BwAAD	-11.8482
RfR	-11.8483
WaB	-11.8484
AAAAAAAAAAbw	-11.8486
AAAAAAAAAACl	-11.849
wInC	-11.849
BMD	-11.8494
PAF	-11.8496
wEiNFIUAAAAA	-11.8497
ZkJ	-11.8497
icgPr	-11.8497
oAD	-11.85
AIAAADr	-11.85
IiUQkK	-11.8501
Odp	-11.8502
Ius	-11.8503
EjHh	-11.8504
EiLRSh	-11.8504
aDfCT	-11.8511
ffQ	-11.8512
XUFcQV	-11.8514
hcAPlcAPts	-11.8514
iAIAA	-11.8515
AAAAAAAAABO	-11.8516
AYU	-11.8516
Ch	-11.8517
LBI	-11.8518
YEC	-11.8518
EiLtCQ	-11.8519
ZoNEJ	-11.8519
xyY	-11.852
FwHQHuAEAAADrBbg	-11.852
GwAA	-11.852
EiJhCS	-11.8523
BIAd	-11.8523
onR	-11.8526
nt	-11.8527
hcb	-11.8527
miQUAAAAAi	-11.8527
WsD	-11.8528
JLABAAB	-11.8528
IuG	-11.8532
79//9	-11.8534
ZkQPv	-11.8534
RfxIiQUAAAAA	-11.8535
AfhI	-11.8536
IuO	-11.8537
jRx	-11.854
MMBwgAAAAA	-11.8541
XOD	-11.8542
AACAfCT	-11.8543
IuFZP	-11.8547
PlQQ	-11.8548
OcIPTsKJBQAAAA	-11.8549
aFMP	-11.855
iQS	-11.8551
gByEiNDMUAAAAAS	-11.8552
AABAAAAAAAAAAEY	-11.8553
wkuE	-11.8554
UJC	-11.8555
PtgUAAAAAiIU	-11.8555
IacAAGwAA	-11.8558
hpwLw	-11.8558
AQAAQY	-11.8559
IuH	-11.8559
GeQwHC	-11.8561
yV	-11.8561
BAAgAAAAAAAD	-11.8564
iJfCS	-11.8564
AAAPh	-11.8566
BQAAAABmiQUAAAAA	-11.8566
WQAAAASAHQ	-11.8567
SM	-11.8567
PfQZokFAAAAA	-11.8569
SYPB	-11.8571
SDm	-11.8571
ASGnA	-11.8571
EiLAInC	-11.8572
iRS	-11.8574
IacBeGgAA	-11.8574
khry	-11.8575
lTj	-11.8576
SAHISIPA	-11.858
yLdCR	-11.8581
Ym	-11.8584
TAHB	-11.8586
IidBIAcBIAcJIi	-11.8586
iLXCS	-11.8587
AAAAEgPv	-11.8587
AAEiB	-11.8588
lEJO	-11.8589
JOR	-11.8591
BuAEAAAB	-11.8591
SGPISGPSSInQS	-11.8592
OcYPj	-11.8593
ABBD	-11.8595
RFD	-11.8595
IAY	-11.8596
IicN	-11.8599
EiNLQAAAAB	-11.86
MAfh	-11.86
AAAAAAAAABh	-11.86
YFAAAAAInC	-11.8602
McBIg	-11.8602
AAAAAAAAAAMQ	-11.8602
AGaFwHU	-11.8602
SItVcEgB	-11.8603
EiYSIkFAAAAAA	-11.8604
BIAdBIiwBIiUX	-11.8606
kiLRR	-11.8606
JIweIDSAHK	-11.8607
MjQQ	-11.8607
idCI	-11.8607
EiJDQAAAAB	-11.8608
EiJReBI	-11.8608
Ihc	-11.8611
iJReBIi	-11.8611
IAUwk	-11.8611
DCR	-11.8612
gKAAAA	-11.8613
pBg	-11.8614
wkkE	-11.8614
ItFz	-11.8615
rQAAA	-11.8615
IRQ	-11.8618
ifp	-11.8619
AAAAAAAAADX	-11.862
sAD	-11.8621
IjQzVAAAAAEiLV	-11.8621
EiCUAAAAA	-11.8625
SIuFqP	-11.8627
miU	-11.863
iTUAAAAAw	-11.863
PtoUc	-11.8631
AHQGSItF	-11.8633
wQAAA	-11.8634
uAEAAAA	-11.8636
fCQY	-11.864
IicF	-11.864
Aff	-11.8641
GaJRfxmg	-11.8643
EiLFM	-11.8643
GbHRa	-11.8643
CAAHAFVIieVIiXXg	-11.8645
IAcgPtg	-11.8645
AfhIAfAPtgAPts	-11.8648
AAAAAfgAAAAAAAAA	-11.8648
hCTAAAAA	-11.865
CSIP	-11.8651
SInwSMHgA	-11.8652
EUxyU	-11.8653
ImF	-11.8653
EiVQk	-11.8653
SIlEJAh	-11.8654
QPtk	-11.8654
AfewAd	-11.8656
NUAEPv	-11.8656
PAAmaJh	-11.8657
SIuVCP	-11.8658
SJRCT	-11.8661
EiJRCRA	-11.8666
CwAAAC	-11.8666
AAAASIl	-11.8667
XPYCMX	-11.8669
JBACAAB	-11.867
AIAAEiJ	-11.8671
CIBQAAAAAPtkX	-11.8674
SAHQSAGF	-11.8674
DGBQAAAAAA	-11.8675
AAAAAIgCAAAAAAAA	-11.8675
AAEAAAAAAAAAAIA	-11.8675
fSgeo	-11.8676
AAAAAItV	-11.8679
Lz	-11.8679
JRCT	-11.8685
hCRgAQAA	-11.8686
Fcv	-11.8686
oXAd	-11.8687
NSg	-11.869
lXL	-11.869
JwQ	-11.8692
PoAon	-11.8693
Maf	-11.8694
iYSIsEwkiJ	-11.8695
iLTCT	-11.8699
AAMdF	-11.87
SJhIiQUAAAAAD	-11.8701
EEPTM	-11.8702
SGnApAIAAE	-11.8702
ESA	-11.8702
hcr	-11.8702
zkhj	-11.8704
eFEP	-11.8704
EgPvoW	-11.8706
iLVTh	-11.8706
EiLBQAAAABIiUXg	-11.8707
hIAdAPv	-11.8709
OfAPj	-11.871
ob	-11.8711
aFCP	-11.8711
wQH	-11.8713
wAASIlF	-11.8713
idBmiUX	-11.8714
DwogFAAAAA	-11.8714
mRTn	-11.8715
AHQP	-11.8717
JIicJIweIDSAHCSI	-11.8718
DjBBDihCDiBCDhh	-11.8719
wAPlcDr	-11.8721
IPtoU	-11.8722
IiYU	-11.8723
ni	-11.8725
lwAAA	-11.8725
IOUQk	-11.8725
wSIt	-11.8726
IPAAmaJ	-11.8727
PtoVY	-11.8729
klp	-11.8729
weACSAHQSI	-11.873
IjRUAAAAAiAwQ	-11.8733
ItcJP	-11.8734
EiNBJ	-11.8738
hpwF	-11.8741
IacAIBwAA	-11.8742
AMAAAAAAAB	-11.8745
AAAAAGI	-11.8745
wUAAAAASIlF	-11.8746
ESNQ	-11.8746
LAD	-11.8747
Uhjy	-11.8748
kGI	-11.8749
BQB	-11.8751
dCTw	-11.8751
ifBIi	-11.8753
AdCIh	-11.8753
AIPt	-11.8753
RdT	-11.8755
QkSE	-11.8757
SIuFiP	-11.8758
EiJBQAAAAA	-11.876
SGvAFk	-11.8762
JMgBAAB	-11.8763
EiNV	-11.8763
OcIPT	-11.8766
SIlEJEB	-11.8768
IgdAAAAA	-11.8768
QkiE	-11.8771
PABGaJh	-11.8774
RImN	-11.8775
AQAASGn	-11.8776
EYPt	-11.8776
AEEPlM	-11.8777
AAAAAEiD	-11.8778
TDl	-11.8778
yUjB	-11.878
uFXP	-11.878
VCSg	-11.878
uFfP	-11.8781
Sq	-11.8781
wcPt	-11.8781
kicqIVexmiUXo	-11.8782
AAAASAHQD	-11.8783
BBIi	-11.8784
kCI	-11.8788
AcgPt	-11.879
IicJIi	-11.8791
DZg	-11.8792
SIuFmP	-11.8793
JBgCAAB	-11.8794
RInCRIlN	-11.8795
JCACAAB	-11.8796
SYO	-11.8796
AHQN	-11.8798
Fbv	-11.8802
UOII	-11.8803
EAAABBDhCGAkMNBg	-11.8803
qIVfxmiUX	-11.8804
uFIP	-11.8804
AAEQ	-11.8804
EiDUAAAAA	-11.8807
cAAAC	-11.8807
RehmiUX	-11.8808
TIms	-11.8809
AQAATIt	-11.881
MEItF	-11.881
hWX	-11.8811
RZS	-11.8814
TSn	-11.8816
EAAD	-11.8816
LbCR	-11.8819
SGvAHE	-11.8821
wAAAEIOEI	-11.8825
wkmAEAA	-11.8827
SWnG	-11.8828
rX	-11.8829
SGnT	-11.8831
Vmg	-11.8832
uVZP	-11.8835
QkCAIAA	-11.8837
hpwDMFAABIi	-11.8837
YAiIV	-11.8838
JNx	-11.8839
iLlTj	-11.884
SGnAUgEAAE	-11.8842
GaDfCS	-11.8843
gAwAAAAAAAD	-11.8845
Ixfl	-11.8846
IkFAAAAAIB	-11.8846
hUn	-11.8848
ZolFn	-11.8849
hmiQUAAAAAD	-11.8852
EjHRfj	-11.8852
JjQS	-11.8852
EiLhTj	-11.8855
ITI	-11.8857
IiwTQSIXAd	-11.8857
onQ	-11.8858
ns	-11.8862
AJIAdBIAcBIAchI	-11.8862
SGnAeGkAAE	-11.8863
BgPk	-11.8863
EiLRZB	-11.8866
IPoT	-11.8867
wkn	-11.8867
hXP	-11.8874
gLAAAA	-11.8875
AAAAQAAAAAAAAAAp	-11.8875
wMBwgAAAAA	-11.8876
tFG	-11.8877
wIPAA	-11.8877
UhjyEiJy	-11.8877
Kn	-11.888
dcJP	-11.888
cMBwgAAAAA	-11.8881
lx	-11.8881
FwH	-11.8882
GV	-11.8882
KdA	-11.8882
LhQD	-11.8884
ifJ	-11.8884
AEAACAAHAFV	-11.8885
hpwFcBAABIi	-11.8885
AAAAAEQPt	-11.8886
BNY	-11.8891
ISGP	-11.8892
AAAAAEyJ	-11.8893
xBIi	-11.8893
IacDZAgAA	-11.8893
OVQk	-11.8896
geo	-11.8896
CpAAAASInQS	-11.8897
mYB	-11.8899
IacCEAwAA	-11.8899
hWn	-11.89
EWFwA	-11.89
bxUAAAAA	-11.8901
BIiVwk	-11.8906
uFCP	-11.8908
Ptpwk	-11.891
hIAc	-11.891
YZolF	-11.8911
iUXY	-11.8911
bc	-11.8911
iLReB	-11.8912
AfZ	-11.8915
kkPT	-11.8916
ZmZi	-11.8916
AAADF	-11.8918
Mid	-11.8919
RaxI	-11.892
icgp	-11.892
ECIdCT	-11.892
ADiEX	-11.8922
5//+	-11.8923
gByg	-11.8925
Qm	-11.8925
QBHQ	-11.8925
tmg	-11.8928
SGnAcBUAAE	-11.8929
iDfCT	-11.8933
AAAAAAAAAAMcAAAA	-11.8933
PfYiAUAAAAA	-11.8935
icIPtwUAAAAA	-11.8935
iQUAAAAAx	-11.8935
iLVVBIjQwQ	-11.8937
IacCkAgAA	-11.8937
BON	-11.8937
qr	-11.8939
gUAAAAAD	-11.8942
EGNh	-11.8943
MjQR	-11.8943
maJFQAAAAB	-11.8945
iYVg	-11.8946
iYSC	-11.8947
dCSQ	-11.8948
Lhfz	-11.8949
AAQQ	-11.8951
AcB	-11.8951
IaUQk	-11.8953
uVPP	-11.8953
qAAAAAEEOEIYCQw	-11.8954
mgAAA	-11.8955
RYTAd	-11.8955
hVn	-11.8956
BAAAx	-11.896
qDnCD	-11.8961
VwOsI	-11.8961
ZkSJDQAAAAB	-11.8963
RcC	-11.8964
GAAB	-11.8964
hXf	-11.8964
ml	-11.8965
BImE	-11.8967
BImEg	-11.8969
iLRa	-11.897
bCiAUAAAAA	-11.8972
IBF	-11.8974
iJRCTA	-11.8975
AAAPtoV	-11.8975
hcL	-11.8977
AEAACAAHADHASIX	-11.8977
QYny	-11.8977
sm	-11.8978
kiNP	-11.8978
kPQ	-11.8979
aSI	-11.898
JKhIi	-11.8981
SDt	-11.8981
JMBIi	-11.8982
wkyE	-11.8983
IDQAAAAC	-11.8983
ZEJF	-11.8983
wAAAEi	-11.8987
mS	-11.8987
ZokVAAAAAA	-11.8989
JPgBAAB	-11.8992
iAw	-11.8992
xgUAAAAAAA	-11.8996
iLvCS	-11.8997
iZwk	-11.8999
dCSo	-11.8999
IacBSAQAA	-11.8999
xAB	-11.8999
QFAAAAA	-11.9
734/	-11.9001
icBIiQUAAAAA	-11.9002
mgc	-11.9004
qj	-11.9004
ZjnHD	-11.9004
kAAAC	-11.9006
fSgep	-11.9009
JRayLVayLRa	-11.9016
SGvAHEiLV	-11.9016
AGwAA	-11.9017
AAAAANACAAAAAAAA	-11.9019
RdA	-11.902
KjQT	-11.9021
jnCf	-11.9023
LlUT	-11.9023
BIAdCLAI	-11.9024
CJfCT	-11.9025
EAAAC	-11.9026
eZ	-11.9028
SIuFgP	-11.9032
tEi	-11.9033
AAAAZoN	-11.9033
Kz	-11.9033
QVZ	-11.9034
icIPtgUAAAAACd	-11.9035
jXH	-11.9035
AAAAGwAAAAAAAAAL	-11.9035
WwSAHQ	-11.9035
TCSg	-11.9037
KkAAA	-11.9038
AHQO	-11.9038
dAAAAAA	-11.9039
CiQUAAAAAi	-11.9039
BIidBIweADSAHQSI	-11.9039
AAAAAAAAABx	-11.9042
mYt	-11.9044
EiJRCRI	-11.9045
AQAAAEi	-11.9045
JLBIi	-11.9045
EON	-11.9046
AABAAAAAAAAAAEk	-11.9047
AAAAAAAAAKoAAAAA	-11.9048
BIiUW	-11.9048
icZIi	-11.9049
iUXs	-11.9051
aFQP	-11.9051
IiUQki	-11.9051
iDwQ	-11.9051
EIc	-11.9053
QBBD	-11.9053
MjQS	-11.9053
SGPwSInISMHgA	-11.9054
DwAO	-11.9055
Jie	-11.9055
QAASI	-11.9055
QIgtAAAAA	-11.9056
AdCDwA	-11.9056
AAAAAbgAAAAAAAAA	-11.9059
EiLlXj	-11.9062
lWr	-11.9065
CJyIhF	-11.9065
EgDhCR	-11.9066
GZE	-11.9067
kQPv	-11.9067
TAHASAH	-11.9067
cPtkW	-11.9068
EiLRCSI	-11.9068
IKdBIiQUAAAAA	-11.907
YBAAB	-11.9071
ZokFAAAAAGaD	-11.9073
AHS	-11.9074
ySI	-11.9074
EQPtkQk	-11.9074
SItFOEiN	-11.9075
GZED	-11.9075
iYSGP	-11.9075
bd	-11.9078
ZgGF	-11.9079
AMAAEiJ	-11.9079
IicJIAdJIAcJI	-11.9079
EiNBN	-11.908
BQAAAACIRd	-11.9081
DrK	-11.9082
EgBwEiJwkiL	-11.9082
cEUGaFwHQ	-11.9084
AAOsFu	-11.9084
BIOdBID	-11.9086
IicFIi	-11.9086
weAESInCSItF	-11.9087
IuFTP	-11.9087
KdB	-11.9087
IPtt	-11.9088
DnYD	-11.9088
iNDBBIi	-11.9088
AAAPtoU	-11.9088
QkOE	-11.9091
UJB	-11.9091
IacBIBQAA	-11.9092
AAPlcDr	-11.9092
RYw	-11.9096
ZMJP	-11.9099
AAPlcDrB	-11.91
iLhej	-11.9102
MTie	-11.9103
MjQy	-11.9104
IAdp	-11.9105
IAcZ	-11.9106
uAgAA	-11.9106
InyiFX	-11.9106
Fav	-11.9107
DrH	-11.9108
DrF	-11.9109
kCAAB	-11.911
AEAAEyJ	-11.9111
AGAAA	-11.9112
uVXP	-11.9113
dCSY	-11.9116
AQDr	-11.9118
AAAAAAAAACa	-11.9118
IBQAAAAA	-11.912
IacAQAwAA	-11.912
BIAcIPtoV	-11.9121
rt	-11.9123
ANIKdBIAchI	-11.9126
CIBQAAAABID	-11.9127
wkkAEAA	-11.9127
WIAAAA	-11.9128
VAAAAAEiJDBAPt	-11.9129
iUXEi	-11.9129
Rai	-11.9131
hCToAAAA	-11.9136
AAAPtkW	-11.9138
JKgBAAB	-11.9138
ZMA	-11.914
ItcJO	-11.9141
IiwQk	-11.9141
AAAACI	-11.9143
iJRfBI	-11.9144
AAAp	-11.9145
xL	-11.9145
bCg	-11.9146
AEgPvsBI	-11.9146
HSA	-11.9147
yJRCT	-11.9148
JKBIi	-11.9149
BIiRUAAAAA	-11.9151
SItVaEgB	-11.9152
QbwBAAAA	-11.9154
UgPT	-11.9154
xIa	-11.9157
VAAAAAMYEE	-11.9158
QAAAAcAAAAAAAAAM	-11.9159
AfBIAcgPtgAPts	-11.9161
gJIAf	-11.9162
aAABIi	-11.9162
IuL	-11.9163
IacAANgAA	-11.9164
sgAAA	-11.9164
Iicd	-11.9164
jTz	-11.9168
AABAAAAAAAAAAEc	-11.9168
WaF	-11.9169
EyLpCS	-11.9169
SGPSSAHSSI	-11.9171
iLvCT	-11.9172
EhjyU	-11.9172
IPoc	-11.9173
BMY	-11.9175
OwoXAd	-11.9175
FXv	-11.9175
AAAAAGaJ	-11.9175
AdG	-11.9177
SAOc	-11.9178
IAQAASI	-11.9178
SGnASAUAAE	-11.9179
SInISAHASAHISAHA	-11.9179
nRSJhIA	-11.918
BQAAAABB	-11.9182
JCA	-11.9184
EiDwG	-11.9185
wkgPTsI	-11.9188
EiJRCRQ	-11.9188
TSI	-11.919
EiJPQAAAAB	-11.9191
IacBwFQAA	-11.9192
PoAkhj	-11.9192
gkAA	-11.9193
EjHBQAAAAB	-11.9196
sZolF	-11.9198
iNUA	-11.9198
BxwS	-11.9198
EiNBH	-11.9198
wPr	-11.9199
EiNc	-11.92
SGnAXhoAAE	-11.9201
za	-11.9203
nCR	-11.9204
gAAAOsFu	-11.9204
AAAAAKgCAAAAAAAA	-11.9206
SIlEJEh	-11.9206
aFIP	-11.9207
FyP	-11.9208
EGNg	-11.9211
IjVC	-11.9211
UAPtv	-11.9212
AAAAQAAAAAAAAAAq	-11.9212
BFi	-11.9212
FWQVV	-11.9214
iJXCR	-11.9217
HYAAAA	-11.9218
gep	-11.9219
SItEJGh	-11.9219
hrwG	-11.9219
EPvs	-11.9219
PtrU	-11.9223
hAMAA	-11.9225
AAAAASIl	-11.9226
BAAAPtoV	-11.9226
TCSI	-11.9227
RfhIg	-11.9227
IwecE	-11.9229
BIjTUAAAAA	-11.9229
SIlEJBh	-11.923
VwOt	-11.9231
AAAAAAAAAADw	-11.9231
kiJBQAAAAB	-11.9232
PfQiQUAAAAA	-11.9232
XCSo	-11.9232
fhAAAAAAAQY	-11.9232
oTI	-11.9233
JNi	-11.9233
EyLVCQ	-11.9233
ifiI	-11.9234
VAAAAAMYEEA	-11.9235
dIiQUAAAAA	-11.9235
cb	-11.9238
AABMa	-11.9239
IiUWQ	-11.9243
Rdj	-11.9245
iLVS	-11.9246
RIkdAAAAA	-11.9248
BQAAA	-11.9248
oZ	-11.925
xQAAA	-11.925
EhjyEiJ	-11.9251
Kp	-11.9252
AAAAAgAAAAAAAAAC	-11.9252
PlEQk	-11.9252
McFAAAAAAAAAAD	-11.9254
SLn	-11.9255
ZolEJM	-11.9256
CJRf	-11.9256
EQh	-11.9257
SWnF	-11.9257
SJiLBIKFw	-11.9258
aZ	-11.9258
AAAADx	-11.9261
HCR	-11.9261
PlMAPts	-11.9262
GaFwA	-11.9264
ycX	-11.9266
wFQAA	-11.9266
IacA	-11.9266
gNAAAA	-11.9267
IiYQkgAAAA	-11.9267
hUf	-11.9269
iLVCR	-11.9269
xflv	-11.9269
jk	-11.927
mQYl	-11.9272
AAAAAHo	-11.9272
AHASAHwSAH	-11.9272
hWP	-11.9273
mLR	-11.9273
IjRSFAAAAAE	-11.9277
IPoE	-11.9277
AAAAAgwAAAAAAAAA	-11.9278
wkoAEAA	-11.9279
wkgPT	-11.9281
SAFMJ	-11.9282
FIu	-11.9283
hUH	-11.9283
ADp	-11.9284
JJhIi	-11.9284
Zse	-11.9285
UgPvs	-11.9287
AHX	-11.9289
IlEJB	-11.929
fQAAPt	-11.9291
OwonC	-11.9293
wBAABIi	-11.9293
EiYSIsVAAAAAEg	-11.9293
BQAAAABI	-11.9293
EiLhSj	-11.9294
AKL	-11.9294
iwUAAAAAiYV	-11.9295
FrP	-11.9296
MAcBI	-11.9296
AAAASIlF	-11.9297
jRT	-11.9297
EiLlCT	-11.9298
Anb	-11.9298
NBF	-11.9301
iYiwSChcB	-11.9301
NFJ	-11.9301
wkiAEAA	-11.9301
lRz	-11.9304
wkgPTsJ	-11.9304
Bgc	-11.9305
hjyEiJ	-11.9305
GbHRZ	-11.9306
BIjTwCD	-11.9306
BIiXwk	-11.9307
VED	-11.9307
SGnAvDQAAE	-11.9308
iLRTh	-11.9309
RZi	-11.931
XQSAHQ	-11.9311
iLVVhIjQwQ	-11.9312
UJK	-11.9313
JJBIi	-11.9314
EiYSMHgA	-11.9314
IPAC	-11.9314
mQYO	-11.9315
SAHQSIsQ	-11.9317
ACAAB	-11.9317
79//8	-11.9319
ZokE	-11.9319
ly	-11.9321
ImEhrwD	-11.9323
tCR	-11.9323
QkQE	-11.9324
MQAAAB	-11.9326
QgAA	-11.9326
AEAACAAHADHAZoX	-11.9327
Ly	-11.9328
AAAAEgBwouF	-11.9328
IuFWP	-11.9328
IacCoRAAA	-11.9329
iUXo	-11.933
AAABIO	-11.933
VCTQ	-11.9331
SAHKSIPC	-11.9333
SIHD	-11.9334
BQAAAAAPh	-11.9335
iDwg	-11.9336
IjRSFAAAAAEiLRV	-11.9336
PtkWo	-11.9338
SWnH	-11.9339
lSj	-11.9341
AdCDwF	-11.9342
PttJIY	-11.9342
Rcp	-11.9343
wkwE	-11.9343
mp	-11.9344
DrBbgBAAAA	-11.9345
SGnAVCIAAE	-11.9345
RIglAAAAA	-11.9346
AFAAA	-11.9347
SInW	-11.9348
SIsVAAAAAEgx	-11.9349
IlUJP	-11.935
AdCDwE	-11.9352
XCSQ	-11.9353
IhEJP	-11.9353
AABIjT	-11.9355
lWb	-11.9358
Nhe	-11.9361
iUXg	-11.9362
Ptmwk	-11.9362
AHQR	-11.9363
IAcJI	-11.9363
ECc	-11.9363
MTievfC	-11.9364
EiLRCRo	-11.9364
AAEAAAAAAAAAATg	-11.9365
miQUAAAAAw	-11.9366
AAAAAIB	-11.9367
wCH	-11.9369
iLlZAAAAB	-11.9369
FAAC	-11.9371
PtgQC	-11.9371
GaJPQAAAAB	-11.9372
uVLP	-11.9372
EiLRYh	-11.9373
DrBA	-11.9373
iLVSBIjQwQ	-11.9373
AAAAEg	-11.9373
MAcp	-11.9374
kiLd	-11.9376
dLEAAAASGvADkgB	-11.9376
IacDAVQAA	-11.9377
AEAACAAHAInQ	-11.9379
IiUQkO	-11.9382
fCTQ	-11.9385
wkOE	-11.9385
iLhcD	-11.9386
AAAAAaAIAAAAAAAA	-11.9386
kxj	-11.9386
wkPj	-11.9387
CAAHAGbHBQAAAAA	-11.9388
gJIY	-11.939
mOd	-11.9392
PCA	-11.9393
AAAAAAAAAAACAAAA	-11.9395
AAAAALgCAAAAAAAA	-11.9398
iwUAAAAAD	-11.9399
AAAACH	-11.9399
AAAAABIx	-11.94
rBb	-11.94
EQPtkwk	-11.9401
RDnIf	-11.9402
TAO	-11.9405
SItFM	-11.9405
LRCR	-11.9409
iUWsi	-11.9411
woPo	-11.9412
iLVd	-11.9415
rW	-11.9415
Zu	-11.9417
IAchIg	-11.9418
IacCADQAA	-11.9418
uFLP	-11.9419
kAB	-11.9419
uFVP	-11.9419
WASI	-11.9424
iNR	-11.9426
CgAASI	-11.943
EyLRCS	-11.943
AAAAAAAAAADW	-11.9432
IPoF	-11.9432
IHQAAAAB	-11.9433
GAP	-11.9433
AQAAAItV	-11.9434
nQiIV	-11.9435
EiDwE	-11.9435
EiWwk	-11.9435
PhN	-11.9436
wmaJBQAAAAC	-11.9437
IlMJO	-11.9437
jWj	-11.944
IadI	-11.9441
iLlSj	-11.9441
XaD	-11.9443
oAB	-11.9444
EiLAEiFwHU	-11.9444
Rag	-11.9445
IjQyVAAAAAEiLV	-11.9447
AAEEPt	-11.9447
JBA	-11.9448
Mae	-11.945
AABAAAAAAAAAAEo	-11.945
ZolFs	-11.945
FhfZ	-11.9451
fCRA	-11.9452
EIOEEIOCE	-11.9455
SIPk	-11.9455
EQPtlQk	-11.9455
IAdBIweADSI	-11.9456
sDnCD	-11.9459
GaDfCQ	-11.9459
IAdF	-11.9463
IkFAAAAAEi	-11.9464
SIuFkP	-11.9464
EjHRCS	-11.9464
YAwAA	-11.9465
bHBQAAAAD	-11.9467
wmaJ	-11.9468
BmiRUAAAAA	-11.9468
Rfi	-11.9469
hIiVwk	-11.947
AAAAAHU	-11.947
BXb	-11.9471
QIAAEgB	-11.9471
AiEW	-11.9471
IgFAAAAAEi	-11.9472
lBg	-11.9472
LdCT	-11.9473
AABmxwUAAAAA	-11.9473
AAAATIt	-11.9474
ZkOJ	-11.9474
iUWY	-11.9474
iJFQAAAAB	-11.9477
APthUAAAAAD	-11.9477
ll	-11.9479
SItFWEgB	-11.9479
AABAAAAAAAAAADU	-11.9479
uFEP	-11.948
WQAAAA	-11.948
IPob	-11.9481
IPoO	-11.9483
RIA	-11.9483
EiNBQAAAABIiUQk	-11.9483
lIweIDSAHKSMHi	-11.9487
JAAB	-11.9489
AdCDwC	-11.9491
QAAAOsFuAAAAABIm	-11.9492
EEPl	-11.9494
oZolF	-11.9495
SMcFAAAAAAEAAAB	-11.9495
JMhIi	-11.9495
7+///	-11.9498
fCTI	-11.9498
IPtsCJ	-11.95
JLhIi	-11.95
Lhdj	-11.95
gPtk	-11.9502
iJXCT	-11.9503
wAAAOsFu	-11.9504
LgDAAAA	-11.9507
AIgFAAAAA	-11.9508
CHQ	-11.9508
AdCDwB	-11.9508
SIHq	-11.9511
qY	-11.9515
MAAAAHAAAAAAAAAD	-11.9515
XCSY	-11.9516
IPvkX	-11.9516
AAAAAAAAABy	-11.9518
mQAAA	-11.9519
hCRIAQAA	-11.9519
FnP	-11.952
YPwAYTA	-11.952
qz	-11.952
EwPR	-11.9521
PtwRC	-11.9523
MAAAAHAAAAAAAAAB	-11.9524
IPoS	-11.9525
Eljw	-11.9526
EkBx	-11.9526
bV	-11.9526
Pvr	-11.953
Rfg	-11.953
GaJXCT	-11.953
NJg	-11.9531
wkgPR	-11.9532
XASIlF	-11.9533
Kgzz	-11.9533
kgBwkiNBBJIicJIi	-11.9534
Ptrwk	-11.9535
jo	-11.9535
EyLZCT	-11.9536
Oeh	-11.9536
IKdBI	-11.9537
ZpBIi	-11.954
jHBQAAAAB	-11.9544
EEPtt	-11.9546
IlcJP	-11.9547
EicB	-11.9548
AAAAASAHIiBAPt	-11.9549
JMABAAB	-11.9552
IgAA	-11.9552
PHwBIi	-11.9552
qk	-11.9553
iwCJ	-11.9555
CgL	-11.9555
SItVyEgB	-11.9555
SIkFAAAAAEiL	-11.9556
GAAAAQQ	-11.956
dCSg	-11.956
nc	-11.9561
iNDABIi	-11.9561
wkgPRsJIiUX	-11.9562
iLRUBI	-11.9564
sQAAA	-11.9564
iJfCQ	-11.9564
IPoQ	-11.9564
AABAAAAAAAAAAEs	-11.957
SIkFAAAAAIB	-11.957
HgAA	-11.957
gAAAEi	-11.9572
HgCAAAA	-11.9574
CJwQ	-11.9574
QYHo	-11.9575
IPAD	-11.9576
MHgA	-11.9577
iQUAAAAAgH	-11.9581
SItVeEgB	-11.9581
AABmiQUAAAAA	-11.9582
EiR	-11.9582
SIkFAAAAAItF	-11.9583
LQAAAAA	-11.9583
FAAAAAMX	-11.9585
SAHX	-11.9585
RInG	-11.9586
SImFSP	-11.9591
IPoR	-11.9594
AAAAcAAAAAAAAAAs	-11.9594
BQAAAABAD	-11.9595
XAiAUAAAAASItF	-11.9596
EhrwH	-11.9596
OwkiFw	-11.9597
HAAB	-11.9598
jRUAAAAASAHQRIgA	-11.9601
ugIAAAB	-11.9602
SLk	-11.9602
dIiUQk	-11.9602
AAAAAAAAAKsAAAAA	-11.9604
RYXkD	-11.9605
AAAAAAAAAJACAAAA	-11.9606
NUAEPt	-11.9607
IjRw	-11.9608
AjE	-11.9608
IuB	-11.9609
AESJ	-11.961
hUX	-11.9611
kFUVVOJ	-11.9612
gNAAAAA	-11.9613
NAAAAAEiL	-11.9615
cAZoXAdB	-11.9615
IacDgKgAA	-11.9616
SGvALE	-11.9617
Gdt	-11.9618
Ptwx	-11.9618
pIicJIAdJIAcJIjQ	-11.9618
RYXA	-11.9618
iNUAF	-11.9618
IweAC	-11.9619
uX	-11.9619
qU	-11.962
iUXA	-11.9622
wkWE	-11.9624
IXJd	-11.9625
XCQY	-11.9625
CxOJ	-11.9626
hbr	-11.9626
mq	-11.9632
QkEAIAA	-11.9632
Reo	-11.9634
ACiEX	-11.9634
IacAgBgAA	-11.9634
XMD	-11.9638
jRD	-11.9638
oAQAASI	-11.964
eK	-11.9641
AAAAEyN	-11.9641
XCTw	-11.9641
MAAAAHAAAAAAAAAC	-11.9641
IXS	-11.9642
ZolFj	-11.9647
TAOU	-11.9647
IacAqEQAA	-11.9648
AXb	-11.9649
JNY	-11.9649
jHBQAAAAC	-11.965
aFEP	-11.9651
JNhIi	-11.9651
BEAc	-11.9651
AAAAAEi	-11.9652
QDr	-11.9652
QAAAAcAAAAAAAAAN	-11.9653
TCQQ	-11.9654
IacAgAwAA	-11.9654
wgPj	-11.9655
Ros	-11.9656
iIBQAAAAB	-11.9657
EiJRCRg	-11.9657
iAUAAAAAQQ	-11.9658
DnHD	-11.9658
BAAAAEIOEI	-11.9659
NOe	-11.9661
EiLF	-11.9661
aJNQAAAAB	-11.9664
BgAASI	-11.9665
BuQEAAAB	-11.9667
Mif	-11.9668
wBAAC	-11.9669
AQAASIN	-11.9669
IPoa	-11.9673
JPg	-11.9673
kiLRS	-11.9673
TCTw	-11.9673
AEiEX	-11.9674
RAHA	-11.9675
nQAAA	-11.9676
4/////////39	-11.9676
EyLXCQ	-11.9676
wTn	-11.9676
TAHR	-11.9676
LVfSLRfA	-11.9678
XoOcIPQ	-11.9679
OdgPj	-11.968
AEAAEhp	-11.968
hcC	-11.9681
uFZP	-11.9682
SGnAgA	-11.9684
wIPAB	-11.9684
Kl	-11.9685
APtwUAAAAA	-11.9686
XqD	-11.9687
Rcz	-11.9687
SItcJOh	-11.9688
AAAAANg	-11.9689
DfcgAD	-11.9689
weACSAHQ	-11.969
IAdAPtgCIh	-11.969
VASAHCi	-11.9693
SImV	-11.9696
EiLC	-11.9697
SQHB	-11.9697
JRcyLVcyLRc	-11.9698
EiNDI	-11.9698
YFAAAAAAG	-11.97
nIiIV	-11.97
mLV	-11.9701
SItEJLB	-11.9702
GaJfCT	-11.9702
IPoI	-11.9702
inQ	-11.9702
IPoM	-11.9702
SGnAkAEAAE	-11.9703
AAAAAAAAAAOAAAAA	-11.9705
Nhf	-11.9706
IixT	-11.9707
AAAAAbwAAAAAAAAA	-11.9707
RYTJd	-11.9707
iLdCQ	-11.9709
iLlXD	-11.9709
TANsJ	-11.971
AAAAAAAAAAHIAAAA	-11.9711
SItFmEgB	-11.9712
EiJBCR	-11.9712
Egh	-11.9712
hCQAAQAA	-11.9713
OfgPj	-11.9714
QAHQ	-11.9714
zQD	-11.9714
qd	-11.9715
EiLhSD	-11.9715
IPod	-11.9716
gDwAA	-11.9717
yAMAA	-11.9718
SV	-11.9719
SIlV	-11.9719
RYXAd	-11.972
Bl	-11.972
AAAAAAAAAAuw	-11.9722
SAOF	-11.9722
WcD	-11.9723
hpwIgBAABIi	-11.9723
nISMHgA	-11.9723
Iwec	-11.9724
JAABIi	-11.9725
lST	-11.9725
McBm	-11.9727
JPAA	-11.9728
iQUAAAAASMdF	-11.9728
mDnCD	-11.9728
kiLRCS	-11.9729
Ach	-11.9732
CDhhCDhBCDgh	-11.9734
CJdCT	-11.9736
EiLRCR	-11.9736
VVN	-11.9738
EiLRY	-11.9738
EKd	-11.9741
AAEAAAAAAAAAAHw	-11.9742
IPoU	-11.9743
BEJm	-11.9744
SInISMHgAkgByEjB	-11.9746
qn	-11.9746
SJjr	-11.9746
Ofd	-11.9747
SMfC	-11.9748
DfCT	-11.9749
AQAAS	-11.9749
AIAAEiL	-11.975
EOcB	-11.975
IPoX	-11.9751
EiNNMUAAAAASAHw	-11.9751
SIlN	-11.9751
EAAAAQg	-11.9752
AAAAAggAAAAAAAAA	-11.9752
kxr	-11.9753
IjQw	-11.9753
BKc	-11.9755
MjQz	-11.9756
yLXCR	-11.9757
EhjwUhjykiJwk	-11.9758
gCAAC	-11.9758
iUWQ	-11.9759
MAAAAHAAAAAAAAAA	-11.9759
hdsPh	-11.976
LhRT	-11.9761
TgA	-11.9762
AAAAASIkECk	-11.9762
IweAESCnQSAHwSAH	-11.9763
EKN	-11.9765
EAAAAAAD	-11.9766
RIlsJ	-11.9768
AAAAAMACAAAAAAAA	-11.9769
THJ	-11.9769
AAAAAEG	-11.977
CmIlF	-11.977
EQPtlwk	-11.977
AQAAZoN	-11.977
RbC	-11.9772
VAAAAAGbHBBD	-11.9772
Afh	-11.9774
SItcJNh	-11.9774
yEi	-11.9776
LlTz	-11.9777
WEi	-11.9777
IHp	-11.9778
ZQA	-11.9778
DfRAAd	-11.9781
BgPg	-11.9782
EOP	-11.9783
FOc	-11.9783
jRUAAAAASAHQiAhI	-11.9783
qe	-11.9783
wEiLFQAAAABI	-11.9784
ImEiNFQAAAADGBBA	-11.9784
YSIt	-11.9784
BIidBIweACSAHQSI	-11.9784
IPoY	-11.9786
iYSIlF	-11.9786
fsB	-11.9787
GwonB	-11.9788
hVH	-11.9793
EEPQs	-11.9795
AAEAAAAAAAAAAUA	-11.9797
SItFYEgB	-11.9798
LAAB	-11.98
EiNS	-11.9801
APvv	-11.9801
Rbz	-11.9802
AEAAEgD	-11.9802
IPoZ	-11.9802
JweE	-11.9806
AAEAAAAAAAAAATw	-11.9807
EGJx	-11.9807
IlMJP	-11.9809
OsFuAEAAA	-11.981
uFbP	-11.9812
RCTU	-11.9812
AAAAAQY	-11.9812
Aen	-11.9814
Rbg	-11.9815
IPCB	-11.9815
FhOR	-11.9819
or	-11.9819
FgP	-11.982
PlcF	-11.982
IPoH	-11.9822
lcJO	-11.9822
pAIAA	-11.9824
LgAA	-11.9826
VoSAHC	-11.9826
kAPts	-11.9827
AAAAAagAAAAAAAAA	-11.9827
AwAAAAAAAD	-11.9828
hCRQAQAA	-11.9828
hCQYAQAA	-11.9829
ZoXSd	-11.9829
QAAAAcAAAAAAAAAI	-11.983
EiJRCRY	-11.983
EiJRchIi	-11.983
WYAAAASAHQ	-11.983
JIAAAAC	-11.9831
PnM	-11.9832
QVV	-11.9832
tIA	-11.9832
SItEJAh	-11.9833
MdBIiQUAAAAA	-11.9834
GwoXAd	-11.9837
IPoN	-11.9837
ANIAdBIweADSI	-11.9837
QkUE	-11.9839
CYC	-11.9839
iLRZh	-11.984
EyLrCS	-11.984
iJBQAAAACL	-11.9841
JweI	-11.9842
iLRZ	-11.9842
MAAABBDhCGAkMNBg	-11.9844
iLlYgAAAB	-11.9845
Zd	-11.9845
iAUAAAAAw	-11.9845
DHt	-11.9848
IAcBIjQ	-11.9849
AEgPvs	-11.9851
AgAAAOm	-11.9853
sAAAC	-11.9854
SIHB	-11.9855
aJRZ	-11.9857
BIxwUAAAAA	-11.9858
EiQ	-11.986
iLRCTQ	-11.9861
SYHB	-11.9862
gByE	-11.9862
ZolFq	-11.9862
DnKfP	-11.9865
QAAAAD	-11.9866
EiHwk	-11.9866
JBQAAAAAPtoV	-11.9867
ZoE	-11.9867
fgAAAAABIi	-11.9868
weACSAHw	-11.9868
QYh	-11.9868
OEAAABIidB	-11.987
AABIiXwk	-11.987
AAAAAAAAAAmw	-11.987
AdCDwH	-11.987
BQAAAABmD	-11.9871
jHBQAAAAABAAAA	-11.9874
IZolF	-11.9876
EEA	-11.9876
EjHBQAAAAC	-11.9876
iLVR	-11.9877
GwkiFwHQ	-11.9878
InwiEX	-11.9879
wEiJBQAAAAC	-11.9879
AAAAAQA	-11.9882
sMBwgAAAAA	-11.9883
ImIsEgo	-11.9884
IOfJID	-11.9884
BAADGh	-11.9885
SItFMEiN	-11.9886
IiYQkiAAAA	-11.9887
FIiUQk	-11.9891
FTv	-11.9893
Rap	-11.9893
lEJK	-11.9893
zb	-11.9894
EkBy	-11.9894
NmLg	-11.9895
cFAAAAAAnQ	-11.9895
JIAAAAA	-11.9896
McFAAAAAA	-11.9896
BgAAAAAAAD	-11.9897
AAEAAAAAAAAAATQ	-11.9897
wkiL	-11.9898
IjRUAAAAASI	-11.9898
BAADF	-11.9899
kUB	-11.9899
TAHJ	-11.9902
EiLtCR	-11.9904
TCRA	-11.991
idCIRc	-11.9911
AAGbHh	-11.9912
SIlEJGB	-11.9913
IhFu	-11.9913
wHr	-11.9913
QPtt	-11.9914
WgAAAASAHQ	-11.9914
QAAAEgPv	-11.9914
wAgAAAAAAAD	-11.9915
IiUWI	-11.9917
hCQIAQAA	-11.9918
AQAASIl	-11.9918
PRs	-11.9918
AAAAAAAAAAeQ	-11.9919
SAHQiwCJw	-11.992
AAEAAAAAAAAAAVA	-11.992
yLfCR	-11.9921
gAASI	-11.9921
LBQAAAACJRf	-11.9922
SItcJKB	-11.9923
mLf	-11.9924
AJIjRUAAAAAiTwQ	-11.9926
jAB	-11.993
EAAAAPt	-11.993
aFzP	-11.9931
AABAAAAAAAAAADY	-11.9932
aJBQAAAAC	-11.9933
ISMHgA	-11.9934
EFXQVZBVUFUVVOJ	-11.9934
aAAA	-11.9934
xfluDQAAAAB	-11.9935
QTH	-11.9935
IuFcP	-11.9939
UGB	-11.9939
AdCDwG	-11.9941
GaJBQAAAAAPv	-11.9941
op	-11.9942
TImk	-11.9943
ImUn	-11.9944
kPT	-11.9944
BIiXQk	-11.9949
jZA	-11.9949
SAHZ	-11.995
AAAAQAAAAAAAAAAx	-11.9951
iJRZhIi	-11.9951
FwAA	-11.9952
IPoJ	-11.9952
iLRCTo	-11.9952
AAAAAAAAAADT	-11.9952
KQAAAA	-11.9953
oDnCD	-11.9953
kiNPQAAAAB	-11.9954
lIweICSAHKSMHiAk	-11.9954
FWQVVBVFN	-11.9955
aJBQAAAABIi	-11.9955
PtoVk	-11.9956
VAAAAAEjHBBA	-11.9957
gPtlX	-11.9958
IjQwASItF	-11.9959
MPtk	-11.9959
IsEh	-11.996
xkg	-11.9961
PfYiQUAAAAA	-11.9962
SGnAKhEAAE	-11.9963
EiLfCQ	-11.9963
ZcJO	-11.9964
AQAASAO	-11.9966
hUP	-11.9966
QBA	-11.9967
SGPH	-11.9968
MJA	-11.9969
AAAAAAAAAKkAAAAA	-11.9971
kPtkW	-11.9971
hQAAAAB	-11.9972
GbHB	-11.9973
MjQx	-11.9974
IPoP	-11.9975
4////6	-11.9975
IjUr	-11.9975
Zt	-11.9975
gAPlc	-11.9978
CIBQAAAAA	-11.9978
IiwTC	-11.9983
lEJN	-11.9984
me	-11.9987
eFBP	-11.9988
AAAAAEwB	-11.9989
Iug	-11.9991
JIiUQk	-11.9992
QDA	-11.9994
AvX	-11.9994
Zq	-11.9997
iLRCTY	-11.9997
JwouF	-11.9998
SItFKEiN	-11.9999
QAAAAAAJBIi	-12.0001
SYHA	-12.0002
Ptsl	-12.0002
SItEJFB	-12.0002
IjTQQD	-12.0003
hNIPh	-12.0004
SDlEJ	-12.0004
SIuVIP	-12.0004
CAAHAMYFAAAAAAD	-12.0005
SItcJMh	-12.0009
wkp	-12.001
BJY	-12.001
EPtlW	-12.0011
MJJ	-12.0014
uFHP	-12.0014
wkiA	-12.0016
JOgA	-12.0016
IacCgDwAA	-12.0018
9/6	-12.002
VwITAdB	-12.002
wkCE	-12.002
RInJ	-12.0021
AAAAAMgCAAAAAAAA	-12.0021
EMPt	-12.0024
Uxj	-12.0026
SIuVMP	-12.0027
SGvI	-12.0028
hmD	-12.0028
wkqAEAA	-12.0031
GDww	-12.0031
IPoL	-12.0032
ifeJ	-12.0034
IPoC	-12.0037
NAAAAAGaJBAoPt	-12.0037
CgAAAAAAAD	-12.0038
UqN	-12.0038
BRA	-12.004
IPoK	-12.0043
PCiAUAAAAA	-12.0044
jUb	-12.0046
AAAAAAAAAADR	-12.0046
SIlEJFB	-12.0048
ichIAcBIAchIAdBI	-12.0049
SJgPtwRCZoXAD	-12.005
JjQR	-12.0051
LoCAAAA	-12.0054
BQAAAAAAAG	-12.0054
IacCQAQAA	-12.0054
iLRCTg	-12.0055
GZB	-12.0055
hjyouV	-12.0056
IAciIE	-12.0056
Afc	-12.0058
TCTg	-12.0059
ibwk	-12.0059
GDwQ	-12.006
AfiLBI	-12.006
ItFn	-12.0061
SAHQSIkFAAAAA	-12.0063
Ptjw	-12.0064
EiJRdBIi	-12.0067
SJiLBII	-12.0069
SGnAZgoAAE	-12.0069
IiYX	-12.0071
SInISMHgBEgpyEgB	-12.0071
cEUGaFwA	-12.0073
wAPlcAPts	-12.0073
AAEAAAAAAAAAAUg	-12.0074
JwU	-12.0075
dCTY	-12.0077
Qos	-12.0079
FjU	-12.0079
sDAAA	-12.0079
iYVs	-12.0081
IAdBMAcBI	-12.0083
AAEAAAAAAAAAAUQ	-12.0084
AHAAB	-12.0084
fgUAAAAAw	-12.0085
jVAB	-12.0087
EAACL	-12.0087
IFQAAAAD	-12.0089
VwIgFAAAAAEi	-12.009
SDnYSA	-12.0092
AACJRCS	-12.0092
SIlEJCh	-12.0093
EiSUAAAAA	-12.0097
CRg	-12.0097
pmiVXsZolF	-12.0097
EZoN	-12.01
fASIlF	-12.0101
GaJPQAAAAD	-12.0101
Naf	-12.0102
RYXtD	-12.0103
XCRA	-12.0104
NAAAABwAAAAAAAAA	-12.0104
SLl	-12.0105
SGnAmCkAAE	-12.0105
YTI	-12.0106
AAAAAEAEAAAAAAAA	-12.0107
hbL	-12.0107
JJgAAAA	-12.0108
UiJyEjB	-12.0108
AAAAQAAAAAAAAABC	-12.0109
xon	-12.011
BQAAAABBD	-12.0112
iNFQAAAAC	-12.0113
AAAAASY	-12.0113
wGY	-12.0114
TnQf	-12.0116
uFdP	-12.0118
GAs	-12.0118
wInA	-12.0121
RaC	-12.0121
AdCDwD	-12.0121
DrBbh	-12.0122
CHQiQUAAAAA	-12.0125
uVTP	-12.0125
iLhcgAAA	-12.0125
ZolFy	-12.0127
JPgA	-12.0128
gCic	-12.0128
SIsVAAAAAEgB	-12.0128
Pjm	-12.0133
AAAAAAAAACZ	-12.0135
EiLvCR	-12.0137
DwAJIY	-12.0138
hjyUiYSGPSSGnw	-12.0139
DrL	-12.0139
SGnAIAMAAE	-12.0139
AfAPt	-12.014
AAAAAcgAAAAAAAAA	-12.0141
GAw	-12.0141
BAAAAAAAAG	-12.0142
AAAAEiD	-12.0143
MdIxw	-12.0145
AwAASIu	-12.0147
oRA	-12.0149
xwIX	-12.015
DnDD	-12.015
eEAAAB	-12.0151
BJa	-12.0152
RInw	-12.0152
uVNP	-12.0154
IsNAAAAA	-12.0156
eFAP	-12.0156
AABIjR	-12.0157
WgD	-12.0159
kmDw	-12.0159
iLRUh	-12.0159
onI	-12.0161
mAAAAAEEOEIYCQw	-12.0162
iLhbD	-12.0163
hpwNkCAABIi	-12.0164
wkgPTcJIiUX	-12.0165
DwonB	-12.0166
YAQAASI	-12.0166
tFi	-12.0169
IgFAAAAAEgPv	-12.017
NBE	-12.017
rJ	-12.0171
fQAD	-12.0171
jVB	-12.0172
SIuFoP	-12.0174
aAA	-12.0175
BCS	-12.0175
OcIPTsI	-12.0175
AQAAAAAAAG	-12.0175
BIiwUAAAAA	-12.0176
LlSz	-12.0177
IidBIweADSCnQSAH	-12.0177
NIA	-12.0177
AEAACAAHAECA	-12.0178
AgAATIu	-12.0179
SIlEJB	-12.0179
EiNFQAAAACIDBAPt	-12.0179
AAAAiUQk	-12.0179
EiWQk	-12.018
jTTFAAAAAEgB	-12.0181
bCZokFAAAAA	-12.0182
LBQAAAAA	-12.0188
DgDw	-12.0192
IAdBIweACSI	-12.0195
iYVQ	-12.0197
Bq	-12.0197
jyU	-12.0197
cFAAAAACHQ	-12.0198
cEQWaFw	-12.0198
GYPvkW	-12.0199
kiJRehIi	-12.02
wksAEAA	-12.0204
hrwDFIi	-12.0205
UPtkX	-12.0205
iUXoi	-12.0205
JQAA	-12.0207
MwU	-12.0207
jVQC	-12.0207
aJFQAAAAB	-12.0207
MTB	-12.0208
wKDv	-12.0208
SMHgAkiJwk	-12.0211
PvlQk	-12.0211
hpwK	-12.0211
Afb	-12.0212
Afa	-12.0213
XIAAAASI	-12.0213
APvoV	-12.0213
yEiY	-12.0217
AABAAAAAAAAAADg	-12.0217
ILY	-12.0221
QzMgAu	-12.0223
RInJi	-12.0224
PtlQ	-12.0224
EiBRCR	-12.0227
ZmiQUAAAAA	-12.0229
NBM	-12.0229
SInBSItF	-12.023
ITA	-12.0231
IPoe	-12.0232
ARIKdBIAchI	-12.0234
IiUQkI	-12.0235
Za	-12.0235
gQA	-12.0236
IuI	-12.0236
qb	-12.0236
DwkiFwHQ	-12.0237
ZEJG	-12.0237
fAiQUAAAAA	-12.0237
jm	-12.0238
YSD	-12.0239
SGPSSGPISInQSMHg	-12.0239
PtkXY	-12.024
XgSItF	-12.0241
IPoW	-12.0241
PhB	-12.0241
AAADrBb	-12.0242
CLRc	-12.0242
MAkiL	-12.0243
mZEi	-12.0243
LTCT	-12.0245
pFD	-12.0246
SImFQP	-12.0248
JNBIi	-12.0248
sAHQ	-12.0249
wIAAE	-12.0249
GJx	-12.025
PAI	-12.025
IiUXQSMdF	-12.025
RIiUQk	-12.0252
EiJBQAAAABmg	-12.0253
iNSv	-12.0253
wRIg	-12.0253
JFg	-12.0257
IAdJIjQ	-12.0257
AEAACQAIAFV	-12.0257
ae	-12.0257
IiYVo	-12.0258
EiLRZ	-12.0258
VCQQ	-12.0261
JFQAAAAD	-12.0261
gAAAC	-12.0261
CAAHAFVIieWJffxI	-12.0264
AAAAAEyN	-12.0265
SGnAwgEAAE	-12.0265
AcBIAchI	-12.0266
EAAAAAAAPHwBIi	-12.0267
SGnAyAMAAE	-12.0268
SItEJHh	-12.027
IiYVw	-12.027
qa	-12.027
AAAAANgCAAAAAAAA	-12.0271
IhFy	-12.0272
SGNMJ	-12.0276
qS	-12.0279
ZkSJFQAAAAB	-12.0281
SItcJOB	-12.0282
AAAAQAAAAAAAAAAy	-12.0283
wkgPRsKJw	-12.0284
ABAAD	-12.0285
JKA	-12.0285
ILc	-12.0286
AITAdD	-12.0286
SItcJNB	-12.0288
AwAAAE	-12.0289
CdBmiQUAAAAA	-12.0289
KgAA	-12.0289
IacDQBwAA	-12.0289
ffzGBQAAAAAB	-12.0291
NAAAAAEiJBApI	-12.0291
IuFPP	-12.0291
kiYiwSC	-12.0293
Iuq	-12.0294
AJIAdBIAcBIAdB	-12.0294
EiJRCRo	-12.0296
QAAADnQD	-12.0296
fCQo	-12.0297
iLVb	-12.0297
Aek	-12.0299
ScHjB	-12.0299
LQD	-12.0301
GBQAAAAAAD	-12.0301
APtgUAAAAAD	-12.0302
InO	-12.0302
QAB	-12.0303
hVX	-12.0308
dBg	-12.0309
DrJ	-12.031
AABAAAAAAAAAADk	-12.0311
AHwAA	-12.0313
IacCYKQAA	-12.0314
EyLTCQ	-12.0315
gHAAB	-12.0316
AAAAAGc	-12.0317
SGvANE	-12.0319
EiLVchIi	-12.0321
SIlEJFh	-12.0322
zc	-12.0324
miV	-12.0327
EyJRdh	-12.0328
BQAAAADp	-12.0329
jQRGDiiMBUEOMIYG	-12.0333
ABAACL	-12.0333
SItEJD	-12.0336
gKgAA	-12.0336
AQAAAOsFuAAAAACI	-12.0338
cBAABIi	-12.0338
IAAABBDhCGAkMNBg	-12.0338
lQz	-12.0338
iJRCTg	-12.0338
EQPth	-12.0339
wAAAEg	-12.0339
RIgtAAAAA	-12.034
JAAAABwAAAAAAAAA	-12.034
iNDA	-12.0342
wwPj	-12.0342
CAACJ	-12.0344
GZEiR	-12.0347
AAAAADADAAAAAAAA	-12.0347
iYVA	-12.0347
QAAAEi	-12.0348
wUiD	-12.0348
XCSg	-12.0349
DfbgAD	-12.035
SAHQSAHwSIPA	-12.035
AgAAAOs	-12.035
bAOcEPj	-12.0351
UPtkW	-12.0351
dIjT	-12.0352
PlcAPts	-12.0352
wAU	-12.0353
SInQS	-12.0353
EiLhQj	-12.0354
oj	-12.0354
IAfBIiUQk	-12.0355
QjwJEDhiOA	-12.0356
FsP	-12.0356
AAAAAAAAADt	-12.0356
FAD	-12.0357
EiLRCQI	-12.0358
WIAAAASAHC	-12.036
BQAAi	-12.0362
lWL	-12.0362
hpy	-12.0364
BgHw	-12.0366
RYu	-12.0367
ZolEJL	-12.0369
ZZ	-12.0371
BQAAAABmiYU	-12.0372
XCSw	-12.0372
RdxI	-12.0372
AABAAAAAAAAAADc	-12.0373
PtoUo	-12.0373
HRY	-12.0374
lRj	-12.0375
BQA	-12.0376
jRUAAAAAiAwQ	-12.0376
CIRY	-12.0378
woXAD	-12.0378
SItcJL	-12.038
oAAAAAEEOEIYCQw	-12.0381
QoB	-12.0382
XUD	-12.0383
ImU	-12.0383
ZX	-12.0384
hWf	-12.0385
BQAAAADF	-12.0387
PTP	-12.0387
BIAdCLAIXAD	-12.0389
FBi	-12.039
bASIsVAAAAAEg	-12.0392
IPoD	-12.0392
AEAACAAHADHAQIT	-12.0393
SIuFgAAAAEgB	-12.0394
AADGBQAAAAAB	-12.0394
SGPwSItN	-12.0396
QEA	-12.0397
3//5	-12.0397
wMA	-12.0399
SJgPtkQC	-12.0399
FOd	-12.0401
AAAAQA	-12.0401
ZVg	-12.0401
AAPlcDrC	-12.0401
710////	-12.0404
AAAAZg	-12.0405
oRAAA	-12.0405
AEAACAAHALh	-12.0408
aJRCS	-12.0409
UJL	-12.041
VCTA	-12.041
qo	-12.041
hjyUiYSGPSSMHgA	-12.0413
EiNFJ	-12.0414
UAEiLRSBIAdAPtw	-12.0414
lVD	-12.0415
BIAcIPvkX	-12.0415
MJN	-12.0415
EyLtCS	-12.0416
hIAdBIiwBIiUX	-12.0417
icaL	-12.0418
iLRCTA	-12.0419
ffS	-12.042
WFwA	-12.0421
JNgBAAB	-12.0421
mkE	-12.0422
FwHU	-12.0422
kiNFQAAAACJDBAPt	-12.0423
RIiUX	-12.0424
FIv	-12.0425
NFI	-12.0425
FYv	-12.0426
uFAP	-12.0426
wHQZomF	-12.0426
QAAAAAAEEPt	-12.0427
EWI	-12.0428
VBA	-12.0428
SItcJKh	-12.0429
QVZBVUFUVV	-12.0429
AAAAAmAIAAAAAAAA	-12.043
LhfD	-12.0431
AAAAAEhj	-12.0432
QAAAEg	-12.0433
TImM	-12.0434
Iuo	-12.0435
DwARmiUX	-12.0436
EiDffA	-12.0436
XiD	-12.0438
QDjwD	-12.0439
ILb	-12.044
AAAAAAAAAAeg	-12.0441
SAHQSIP	-12.0443
SItEJPB	-12.0444
AhcB	-12.0444
IFA	-12.0445
AUAAA	-12.0445
ifF	-12.0446
FyXQ	-12.0447
CQAIAEFXQVZBVU	-12.045
AEAAEi	-12.045
PtnX	-12.045
IuFOP	-12.0452
UEPR	-12.0453
SIlEJC	-12.0454
FwHV	-12.0454
xwQ	-12.0454
QDAAB	-12.0459
chIweACSAHISI	-12.046
iJRdBIi	-12.0463
IAcpIiwTQ	-12.0464
EiLAEg	-12.0465
PtlXv	-12.0465
kgBwEgB	-12.0466
IjQRASI	-12.0466
IacBmCgAA	-12.0466
InIZolF	-12.0467
iwCFwHQ	-12.0468
Rejr	-12.0469
IiUQkM	-12.047
ESJwkSJ	-12.047
QkGAIAA	-12.0471
SMHiAkgB	-12.0471
ReT	-12.0472
AAAAQAAAAAAAAAAn	-12.0472
AAAAOdB	-12.0473
SDnySA	-12.0473
SGnAIAYAAE	-12.0475
ykiL	-12.0477
XBD	-12.0477
SIPBA	-12.0478
KQQ	-12.0478
AAMeF	-12.0479
NjA	-12.0479
hZr	-12.048
hCTwAAAA	-12.0481
AGY	-12.0482
SAHW	-12.0482
pAB	-12.0482
iLRCTI	-12.0484
Rezr	-12.0485
iYVk	-12.0486
hcAPlcC	-12.0486
EOdh	-12.0487
OcIPjW	-12.0487
SJhIiUW	-12.0488
EiDfdg	-12.0489
AAAAACADAAAAAAAA	-12.049
TAiIU	-12.049
LlTT	-12.049
AAAAEgD	-12.049
ItFj	-12.049
AAAAAAAAAMABAAAA	-12.0492
SJgPtwRCm	-12.0492
jZB	-12.0493
icEPv	-12.0493
xIu	-12.0493
kiLBN	-12.0494
FhdIPh	-12.0495
AHQQ	-12.0495
TCTY	-12.0495
SGvAHk	-12.0495
iLhcj	-12.0496
AMPt	-12.0496
mib	-12.0499
BmiQ	-12.05
NOf	-12.05
jwE	-12.0501
AAAAAAAAADd	-12.0501
AAAAAEgPv	-12.0501
AAAAAAAAAMACAAAA	-12.0503
AAAAZsdF	-12.0505
md	-12.0505
GaJReyJ	-12.0507
EhjwUhj	-12.0509
SGnAADYAAE	-12.0509
yJyIhF	-12.0509
iQy	-12.0511
rwAAA	-12.0512
RcZ	-12.0513
mG	-12.0513
CLRb	-12.0513
RmZi	-12.0513
jVADD	-12.0514
iJVCQ	-12.0515
GbHRY	-12.0515
SItEJB	-12.0516
SYm	-12.0516
AAAAAAAAAAMo	-12.0516
YkNAAAAA	-12.0521
AAAAAAAAAKgBAAAA	-12.0522
AAAAAAAAAAzg	-12.0522
GcCDwA	-12.0523
EgByIgQ	-12.0523
EFXQVZBVUFUVVN	-12.0523
QAASIlF	-12.0523
iUWci	-12.0523
iAQAA	-12.0523
EGNR	-12.0524
IPtk	-12.0524
iLTCS	-12.0525
waL	-12.0525
hdK	-12.0525
EOdB	-12.0526
AcBIjQ	-12.0526
AEAACAAHADHAhf	-12.0527
EiYiwSC	-12.0527
AAAAZm	-12.0528
ZokVAAAAAE	-12.053
SItEJHB	-12.053
EiLVdBIi	-12.0531
39//9	-12.0532
InIRIlF	-12.0532
SGnAQB	-12.0532
gED	-12.0533
icKJ	-12.0533
gPtoV	-12.0534
IBQAAAABBD	-12.0535
PQAAAAA	-12.0536
iUXc	-12.0536
RDnAf	-12.0536
MzI	-12.0537
jCR	-12.0539
aFfv	-12.0539
IAdAPtwBmhcB	-12.0541
iLVe	-12.0541
IjTUAAAAASI	-12.0542
EGJy	-12.0543
EgBwQ	-12.0543
EAABIg	-12.0544
APtkA	-12.0544
AAAAPtoV	-12.0544
yInA	-12.0545
QYPAA	-12.0545
SIsVAAAAAEgPr	-12.0545
iJz	-12.0545
BIixUAAAAA	-12.0545
WwD	-12.0546
gAAADnQD	-12.0546
DwAJmiUX	-12.0547
APto	-12.0548
uAQAAADrBbgDAAAA	-12.0548
SGPyi	-12.0548
uVHP	-12.0548
wNIg	-12.0549
EAABMi	-12.0549
IAdhIiUQk	-12.0551
AAAAAGE	-12.0551
AAAAAZwAAAAAAAAA	-12.0551
wOL	-12.0552
XCi	-12.0553
UjH	-12.0553
FxP	-12.0553
EiLRf	-12.0553
KO	-12.0555
ogFAAAAAA	-12.0556
MZEJP	-12.0556
gBwkiJyEgBwEgByE	-12.0557
ARnAg	-12.0558
wAAADnQD	-12.0558
wUhj	-12.0558
DfcgAd	-12.0559
Rdo	-12.0559
dCTg	-12.056
AEAD	-12.056
Sy	-12.0561
AOSAHQ	-12.0561
RCTwD	-12.0563
wBy	-12.0564
EiNs	-12.0566
PtkXo	-12.0566
oSIt	-12.0568
SIkNAAAAAE	-12.0568
QAAAAcAAAAAAAAAP	-12.0569
PRd	-12.057
dAB	-12.057
IhFt	-12.0571
CIFQAAAAB	-12.0571
EgBwU	-12.0571
SMHgCEiJwkiL	-12.0572
QkIAIAA	-12.0573
DrI	-12.0573
AIgFAAAAAA	-12.0573
weg	-12.0573
TAHy	-12.0574
PlMJ	-12.0574
IhFq	-12.0575
hry	-12.0576
SWnE	-12.0577
RIhEJ	-12.0577
IAdBIjRUAAAAA	-12.0577
miZ	-12.0577
FvP	-12.0577
AJIAdBIAcBIAdBIa	-12.0578
IiYQkmAAAA	-12.0579
TCSw	-12.058
jgNCDiCNBEYOKIwF	-12.058
QFF	-12.0581
mhcAPh	-12.0581
cFAAAAAGaJRf	-12.0582
EiLfCS	-12.0582
js	-12.0582
LVCS	-12.0583
qu	-12.0584
wkuAEAA	-12.0585
ZgFcJ	-12.0586
GJz	-12.0587
ItFx	-12.0587
ESQ	-12.0587
PTs	-12.0588
kgBwkiJ	-12.059
Ptj	-12.059
AAAAAQg	-12.0594
/9//9	-12.0594
UAQAA	-12.0594
IacBcBQAA	-12.0594
AAAAQAAAAAAAAABE	-12.0595
yJy	-12.0596
AAAAAAAAADu	-12.0596
PRf	-12.0597
Ehpz	-12.0599
ZkHHB	-12.0599
AAAAAEkB	-12.06
ABsAA	-12.0601
iUXwi	-12.0602
EiNFAZIi	-12.0602
IlEJC	-12.0603
FZv	-12.0603
TAHZ	-12.0605
EWFyQ	-12.0608
mAVwk	-12.0608
IjQzFAAAAAEiLR	-12.0608
ADQAA	-12.0609
rBA	-12.061
kgAAA	-12.0611
GZBgz	-12.0611
EmNN	-12.0612
EiNg	-12.0613
AMAAADr	-12.0613
AInCD	-12.0614
ZolFx	-12.0614
AABIjRUAAAAA	-12.0614
ap	-12.0615
wRA	-12.0615
SFwA	-12.0616
PhP	-12.0619
hwAAA	-12.0621
fhAAAAAAAZpBIi	-12.0621
EiLRV	-12.0621
KgCAAAA	-12.0621
hpwMQAAAB	-12.0621
EiLVbh	-12.0621
SJhIiUQk	-12.0622
ZwA	-12.0624
SGPKSItV	-12.0624
AAItV	-12.0625
hIiXwk	-12.0625
JOhIi	-12.0626
IjRx	-12.0626
PtoVU	-12.0627
BQwHCAAA	-12.0627
JLA	-12.0628
ReY	-12.0628
gPAAAA	-12.0628
PvhQ	-12.0629
RaZ	-12.0629
ANgAA	-12.0629
BoN	-12.063
ygAAA	-12.0631
SMHo	-12.0634
maJRCT	-12.0634
omE	-12.0636
gDAABIi	-12.0637
NBI	-12.0639
DwANmiUX	-12.064
AAAAAOgCAAAAAAAA	-12.0641
kiYi	-12.0642
wkwAEAA	-12.0643
IuC	-12.0643
KAEAA	-12.0643
EiYSIPA	-12.0645
GDwg	-12.0646
GDx	-12.0647
BXkFfXcN	-12.0648
KhEAA	-12.0648
XCTY	-12.065
ILe	-12.0651
BAABIiUQk	-12.0651
bHBQAAAAAAA	-12.0652
SMd	-12.0652
AQAASAHQ	-12.0653
mEhj	-12.0654
iAUAAAAASI	-12.0654
OdhID	-12.0654
IacDkAQAA	-12.0655
IlFxItVxItF	-12.0655
cJP	-12.0655
ARQ	-12.0656
FVv	-12.0656
SGPJSI	-12.0657
EiLhRj	-12.0657
TDt	-12.0659
SInX	-12.0659
AAAAQAAAAAAAAAAz	-12.0659
yNHQAAAAB	-12.0661
SJhIA	-12.0661
dQV	-12.0661
GYPvg	-12.0662
LfCR	-12.0662
PtoVI	-12.0664
NwonB	-12.0664
qK	-12.0664
SIXJD	-12.0665
SGnAzBQAAE	-12.0665
iTy	-12.0666
UZolF	-12.0668
Exw	-12.0669
ILa	-12.067
OwonB	-12.067
ZolFp	-12.0671
QSIN	-12.0674
MyAC	-12.0675
OsL	-12.0675
EyJy	-12.0676
ACAAC	-12.0676
PhO	-12.0679
IiYwk	-12.0679
NwoXAd	-12.068
hIjQwC	-12.0681
AAAAAESJ	-12.0681
ImEiNFMUAAAAA	-12.0681
ItFq	-12.0683
Iur	-12.0683
AQAARI	-12.0683
SIny	-12.0684
OcIPjV	-12.0686
RIng	-12.0687
SIsFAAAAAEiJReBI	-12.0688
OcIPTcKJ	-12.069
iLVCS	-12.0691
mt	-12.0692
OccPj	-12.0692
hfYPlc	-12.0693
Ku	-12.0694
Rbp	-12.0695
wGaJBQAAAAB	-12.0696
AACLBQAAAACJ	-12.0696
ZjnBD	-12.0698
nCSInISMHgA	-12.0699
gPRs	-12.07
IAfBI	-12.07
IuJ	-12.07
dIx	-12.0701
RbZ	-12.0701
sHF	-12.0701
AOSI	-12.0702
BFBm	-12.0702
AABIO	-12.0702
osFAAAAA	-12.0704
EiJRahIi	-12.0705
hSn	-12.0708
iLVehIi	-12.0709
AAAAAAAAAAMU	-12.0709
IAfhIiUQk	-12.0709
PtpQk	-12.071
JOQ	-12.0711
XAAAAASI	-12.0711
ISIlF	-12.0711
BQAAAABIxwUAAAAA	-12.0713
ANIAdBIweACSI	-12.0714
sAEAA	-12.0716
AnQ	-12.0718
IPvkW	-12.0719
jq	-12.0721
AAAAAgAIAAAAAAAA	-12.0721
SItcJLh	-12.0723
aAQAA	-12.0723
AYAAA	-12.0724
RSn	-12.0724
QAAAEiL	-12.0726
Pks	-12.0727
LdCQ	-12.0728
SItcJPB	-12.073
mFfP	-12.073
IAdd	-12.0731
bAZomF	-12.0733
kFUVVN	-12.0735
AgAATI	-12.0735
AAAAAaAEAAAAAAAA	-12.0736
AEAACAAHAEFXQYn	-12.0737
Afg	-12.0737
XASAHQ	-12.0737
YBAABIi	-12.0738
VwIgFAAAAAItF	-12.0738
iFyQ	-12.0741
IiUXY	-12.0742
McE	-12.0742
VCSI	-12.0742
IuFRP	-12.0742
iYUg	-12.0743
JBQAAAABIx	-12.0743
Bie	-12.0744
RmiQUAAAAA	-12.0745
PBA	-12.0747
HgAAAA	-12.0747
nQiY	-12.0748
FhPZ	-12.075
IiYQkkAAAA	-12.0752
EAABBD	-12.0752
dEJB	-12.0753
SAn	-12.0753
iLVWBIjQwQ	-12.0754
IjRSS	-12.0754
hmDx	-12.0755
Rfo	-12.0755
PfYZokFAAAAA	-12.0756
JPABAAB	-12.0758
IAcoPtwRQ	-12.0758
SItFSEiN	-12.0759
au	-12.076
ZsH	-12.076
MTieTvBxfl	-12.076
nQZomF	-12.076
oQAAA	-12.076
CNUA	-12.0762
IiYQkoAAAA	-12.0762
IHC	-12.0763
VeYPt	-12.0764
XQD	-12.0766
ZJg	-12.0767
DrM	-12.0767
EiJy	-12.0767
CAAHAEiLBQAAAAB	-12.077
SGnAXAUAAE	-12.0772
iLdCR	-12.0772
CAAHAFVIieWJfbyJ	-12.0773
MBAABIi	-12.0775
FWv	-12.0775
yEQ	-12.0777
SMHiBU	-12.0779
IidBIweADSAHQSAH	-12.078
AAAAIB	-12.0781
hCRoAQAA	-12.0784
AAAAAFgDAAAAAAAA	-12.0784
wAwAA	-12.0785
VfcPtkX	-12.0786
AHQT	-12.0788
LfCQ	-12.0793
cFAAAAAGaJRe	-12.0795
OjS	-12.0796
ECIPQAAAAD	-12.0796
SMHgBkgB	-12.0797
MjRT	-12.0797
IacBAHwAA	-12.0798
TCTQ	-12.0798
wkgPTsJIiUX	-12.0799
QBw	-12.0803
FVQVRV	-12.0807
lIm	-12.0807
EiLRCRw	-12.0807
gEAD	-12.0808
EiNRA	-12.0809
SIlEJDB	-12.081
BugEAAAB	-12.0811
DrCki	-12.0812
TCQY	-12.0813
IuFSP	-12.0813
SYl	-12.0814
SGnArgIAAE	-12.0814
SItcJEh	-12.0816
Owpi	-12.0818
Ze	-12.0819
UkPv	-12.082
SGnAwFUAAE	-12.082
KJBQAAAACQ	-12.082
AAAAAAAAAADS	-12.0821
UBAABIi	-12.0821
CIfCT	-12.0822
mBw	-12.0822
AAAAAPACAAAAAAAA	-12.0822
kmPA	-12.0823
IuFVP	-12.0824
ZwIPg	-12.0825
wEiJBQAAAAB	-12.0825
AotF	-12.0827
BFCY	-12.0828
lRT	-12.0829
LAEAA	-12.0829
WwSIlF	-12.0829
IPtlX	-12.083
DwAR	-12.083
IPoV	-12.0832
UPtk	-12.0833
EyJTCS	-12.0834
CmIXAD	-12.0834
EiLVdB	-12.0835
wkgPTsKJw	-12.0836
TSD	-12.0836
gIxOJ	-12.0838
gFAAB	-12.0839
Iich	-12.0841
CLRCS	-12.0841
AAAAASIkFAAAAA	-12.0841
ZkGDe	-12.0842
IBQAAAACQ	-12.0843
SIPG	-12.0843
EUPts	-12.0843
OcIPTcI	-12.0844
SGnAqEQAAE	-12.0844
iLRCSo	-12.0844
gAAAEiL	-12.0844
FzP	-12.0848
dQe	-12.085
QosE	-12.0853
JRaSLVaSLRa	-12.0854
RfZ	-12.0855
XkD	-12.0858
ixUAAAAAD	-12.0858
aJXCT	-12.0859
JOA	-12.0861
JCgCAAB	-12.0861
iYSIsEwkiFwHQ	-12.0862
AAAAAAAAADe	-12.0862
CicFIi	-12.0862
sPtkW	-12.0863
SIPABA	-12.0863
JIafDhAAAASI	-12.0864
NFA	-12.0865
KH	-12.0866
XCTg	-12.0867
IPoG	-12.0868
UAAAAASI	-12.0868
oDAAAA	-12.087
BiA	-12.087
SItVwEgB	-12.0871
Sa	-12.0872
aJBQAAAAAPt	-12.0872
iLVRhIjQwQ	-12.0873
IAdZ	-12.0874
BAiDUAAAAA	-12.0874
DnBf	-12.0875
CmA	-12.0875
Cna	-12.0876
KIBQAAAAC	-12.0876
mRIlEJ	-12.0877
QOcp	-12.0878
BImUj	-12.0879
SIuEJIAAAAB	-12.0881
BMjQ	-12.0882
CIRCT	-12.0883
GRCQ	-12.0884
SGnAoA	-12.0885
IAchIiUQk	-12.0885
IacDyAAAA	-12.0885
AAAAAAAAABz	-12.0886
dCSw	-12.0886
SItcJLB	-12.0887
ILZ	-12.0888
EiHQk	-12.0889
ESJwIhF	-12.089
APtlwk	-12.089
HBI	-12.089
CoAAE	-12.089
iYUY	-12.0891
DfRgAd	-12.0891
DXb	-12.0892
cAZomF	-12.0893
Rej	-12.0893
idCJykSJ	-12.0893
IiR	-12.0894
iDvXj	-12.0894
mRQ	-12.0894
TWPb	-12.0895
kgPvkX	-12.0895
PfR	-12.0897
FUv	-12.0898
hCQgAQAA	-12.09
hVv	-12.09
CSIO	-12.09
oBAABIi	-12.0901
JRdSLVdSLRd	-12.0902
CJReyLVeyLRe	-12.0902
AAAAAAAAADq	-12.0902
wkhpw	-12.0903
Km	-12.0904
RdZ	-12.0904
UwQ	-12.0906
DHASI	-12.0909
SGPB	-12.091
EqNF	-12.0912
hrwCxIi	-12.0912
BwAgAAAAAAAD	-12.0912
ANIAchIweAD	-12.0913
kDAAA	-12.0915
lVr	-12.0916
kiNDQAAAAB	-12.0918
EPl	-12.0918
Pjl	-12.0919
CAAHAFVIieWJddiJ	-12.092
ItFp	-12.0921
SSA	-12.0921
ONAPT	-12.0922
nOSGPKSGPQSInQS	-12.0922
wkSE	-12.0923
SMcFAAAAAAAAAAC	-12.0923
EiLFQAAAABIAdBI	-12.0923
CTUAAAA	-12.0923
ay	-12.0923
OwkiFwHQ	-12.0929
UCI	-12.093
aJPQAAAAB	-12.093
DfdgAD	-12.0931
QAAEgPv	-12.0931
SDnDSA	-12.0931
ZolEJK	-12.0931
yAQ	-12.0932
IiQUAAAAASA	-12.0932
AAAASIN	-12.0934
qh	-12.0934
AEAACAAHALi	-12.0935
AABAAAAAAAAAADo	-12.0936
EiLfCSg	-12.0937
AAAAABgDAAAAAAAA	-12.0938
miS	-12.0939
oPCA	-12.0939
SAHe	-12.094
OsHD	-12.094
AJImA	-12.0941
CLA	-12.0941
ECg	-12.0942
wUE	-12.0942
RIno	-12.0943
IicZ	-12.0944
eGkAA	-12.0945
RCRw	-12.0945
QYnS	-12.0945
XKD	-12.0947
EqDP	-12.095
Bix	-12.0951
AABIgc	-12.0954
UAg	-12.0954
iLnCQ	-12.0954
AAAAxkX	-12.0956
MKd	-12.0956
wODv	-12.0956
IuFYP	-12.0956
SIuEJJAAAAB	-12.0956
QkKAIAA	-12.0957
IjRUAAAAAD	-12.0958
QkOAIAA	-12.0958
xfHvy	-12.0958
jUH	-12.0963
BBif	-12.0964
qLV	-12.0965
GAEAA	-12.0965
Iq	-12.0966
hjykiJwk	-12.0966
AAAAOcIPj	-12.0967
OcIPjU	-12.0969
SGvAcE	-12.0969
KAABIi	-12.097
RYXJd	-12.097
EkPQs	-12.0971
ixQ	-12.0972
mQok	-12.0972
tIa	-12.0972
IacCyBQAA	-12.0973
tAE	-12.0974
iLVaB	-12.0975
ReiIRf	-12.0975
AASA	-12.0977
pCS	-12.0977
EiLRVh	-12.0977
AdBIAfhIAfAPtg	-12.0978
ESNS	-12.0979
Xoi	-12.0979
AAAAABf	-12.0979
JJC	-12.0981
EiLlWj	-12.0982
UYSAHQSIsA	-12.0983
aK	-12.0983
SItcJJ	-12.0983
AAAAAAAAAAew	-12.0985
RZC	-12.0985
SMHhA	-12.0986
ImEiNFABIi	-12.0986
AOAB	-12.0986
EBAABIi	-12.0987
OwpiJ	-12.0987
xa	-12.0988
olUJ	-12.0989
GaJBQAAAAAPtkW	-12.0991
EgDRCQ	-12.0993
IAdBIOYV	-12.0994
iLXCR	-12.0994
LhfT	-12.0994
AAAAAAAAACb	-12.0997
EiLXCTA	-12.0997
UiLRCS	-12.0998
RCSs	-12.0998
BMAc	-12.0999
SGnAsgUAAE	-12.0999
Uhjykhj	-12.1
SItEJBB	-12.1
IHu	-12.1
JIafipAAAASI	-12.1002
EiNNAKL	-12.1003
Kq	-12.1004
QYC	-12.1004
UAEiLRRBIAdAPtw	-12.1006
lQT	-12.1007
iUXk	-12.1009
IjRQB	-12.1009
Lhcj	-12.101
EjHRegAAAAA	-12.1011
SItcJMB	-12.1011
AQAAAOsFuAAAAAC	-12.1012
jnQf	-12.1012
VCQI	-12.1012
uQEAAAC	-12.1013
dfiLRfyJBQAAAA	-12.1015
AAAAAAAAAApQ	-12.1016
PlcC	-12.1016
mu	-12.1016
gDRCT	-12.1016
hTv	-12.1017
Iuk	-12.1017
VAAAAAMcEEAAAAA	-12.1017
EiLVcB	-12.1019
yJTCT	-12.102
gAAACL	-12.102
ITSD	-12.1022
AABIac	-12.1023
WQAAAASAHC	-12.1025
weACSAHwSAHI	-12.1025
SItcJJB	-12.1025
PtrQk	-12.1026
BAABIa	-12.1027
AgAASIm	-12.1027
wQPtkW	-12.1027
EgBwEiJwkiLRR	-12.1027
AAEAAAAAAAAAAQ	-12.1027
AgAAAE	-12.1028
AAEAAAAAAAAAAUw	-12.1029
708////	-12.103
KdCJ	-12.1032
iZSPf	-12.1032
EiNl	-12.1035
HAAC	-12.1038
PAAAAAAAAAAM	-12.104
oq	-12.1041
BQAAAAAPtlX	-12.1042
iLRCTw	-12.1043
AAAAAAAAAJMAAAAA	-12.1044
AAAAAEUx	-12.1044
QPr	-12.1045
eFzP	-12.1045
IkFAAAAAEiL	-12.1045
EyLnCS	-12.1048
AAAAAAAAAApg	-12.1048
EiLFQAAAABIMdBI	-12.1049
MJM	-12.105
WuD	-12.1051
EiLXCTY	-12.1051
SItVuEgB	-12.1052
gem	-12.1052
GDAcI	-12.1053
wkOA	-12.1053
SIuVgAAAAEgB	-12.1053
PlsAPts	-12.1053
IiUQkQ	-12.1054
iJRCSo	-12.1054
hZL	-12.1054
JOBIi	-12.1055
ItFt	-12.1055
EQBy	-12.1056
APtpU	-12.1057
uFPP	-12.1057
rBouF	-12.1058
gAASIlF	-12.1058
Iup	-12.106
iJwkgB	-12.1061
VAAAAAGbHBBAAA	-12.1061
EFXQVZBVUFUVVNIg	-12.1061
jUoBD	-12.1062
hrwD	-12.1063
QhgJDDQYCp	-12.1063
tmZi	-12.1064
SQHA	-12.1065
XCRQ	-12.1066
SosE	-12.1066
CLT	-12.1066
CiUX	-12.1067
ya	-12.1067
hCRwAQAA	-12.1068
SMe	-12.1069
BMAd	-12.1069
xb	-12.1069
Ulj	-12.107
UgPvkX	-12.107
ju	-12.107
JIafjhAAAASIn	-12.1071
BmDx	-12.1073
EPvkX	-12.1074
aJfCT	-12.1075
GaJdCT	-12.1076
IOcNID	-12.1079
kWL	-12.1079
SItcJDh	-12.1081
cBUAA	-12.1082
WMD	-12.1083
OAQAA	-12.1083
MAdp	-12.1084
JjTQ	-12.1085
EwPT	-12.1085
WoSIlF	-12.1086
FuP	-12.1086
AAAADr	-12.1086
QFA	-12.1088
IacP	-12.1088
iNc	-12.1088
PfZ	-12.1088
Nae	-12.1088
JKc	-12.109
IBAAAAAAAAD	-12.109
sBAABIi	-12.1091
BIiwUAAAAASIlF	-12.1091
SItcJM	-12.1093
JjZ	-12.1093
AAAAAAAAAAMs	-12.1093
cEUGaJ	-12.1094
wEiYSIkFAAAAA	-12.1094
JNw	-12.1094
jSz	-12.1094
wOLR	-12.1098
Br	-12.1099
JTCT	-12.1099
jRQB	-12.1099
FhdsPh	-12.1099
AHASAHQSI	-12.11
CLBI	-12.1102
am	-12.1103
pQAAA	-12.1104
PtsCJ	-12.1106
hIAd	-12.1107
EiLhCSAAAAA	-12.1109
IacO	-12.111
EiJRejp	-12.1111
aq	-12.1111
EiLRfhI	-12.1112
nm	-12.1112
FMc	-12.1114
RZxI	-12.1115
SIkFAAAAAI	-12.1115
nQhcAPlcCIBQAAAA	-12.1116
CgwHCEELAAAA	-12.1116
FXQVZBV	-12.1116
SInlQVdBVkFVQVRT	-12.1116
WYSAHQ	-12.1117
QkYE	-12.1119
iLhdj	-12.112
MiT	-12.1121
DAABMi	-12.1121
hIAcIPvkX	-12.1121
JMY	-12.1122
SGOE	-12.1123
SItcJN	-12.1123
PlMC	-12.1124
AQAAAEQB	-12.1124
RSA	-12.113
TAHi	-12.113
idCJTdyJ	-12.1131
weACSAHQSAHwSAHI	-12.1133
AAAAABADAAAAAAAA	-12.1136
fhAAAAAAASIt	-12.1136
dUJP	-12.1136
DrD	-12.1137
Tievf	-12.1138
gBAAD	-12.1139
iYSGPS	-12.114
ZkODP	-12.114
InX	-12.114
iJRCTw	-12.114
TjCD	-12.1141
NAAAAAEiJ	-12.1143
ADYAA	-12.1144
aG	-12.1144
EFXQVZBVYnQQVRVU	-12.1145
LVdyLRdg	-12.1146
EyNLQAAAAB	-12.1146
Ugp	-12.1147
YdAAAAA	-12.1151
SJhIacD	-12.1151
HAQAAAAAAAAAAAAA	-12.1152
kiNFQAAAADHBBD	-12.1152
AHUJ	-12.1153
oXSD	-12.1155
AAAAATIu	-12.1156
uVJP	-12.1158
wkl	-12.1158
AcgPtgAPts	-12.1159
hab	-12.116
wAPt	-12.116
FpP	-12.1161
EEPtgQ	-12.1161
iZQk	-12.1161
iJhXj	-12.1162
MdJB	-12.1163
AOD	-12.1164
iYVc	-12.1165
AAAAQAAAAAAAAAAm	-12.1166
IjRRA	-12.1168
nBD	-12.1169
IacDMFAAA	-12.1169
XwOcIPQ	-12.117
IjQUAAAAASAHQ	-12.117
iJBQAAAABIg	-12.1174
bHRc	-12.1177
gOD	-12.1178
IBQAAAABID	-12.118
NwpiJ	-12.118
RIlMJP	-12.1181
QYHp	-12.1182
kiJRCR	-12.1182
PhE	-12.1183
AAPhI	-12.1183
UWN	-12.1184
SItFS	-12.1184
TAHq	-12.1185
NwkiFwHQ	-12.1185
IacDIAwAA	-12.1186
BxOJ	-12.1188
wHQB	-12.1189
EiLRCQQ	-12.1189
FJD	-12.119
NBN	-12.1191
oe	-12.1191
lVb	-12.1192
YtEJ	-12.1194
nCSItF	-12.1195
SIPqA	-12.1195
SMHgAkiJ	-12.1196
FqP	-12.1196
SIlEJHh	-12.1197
AcX	-12.1197
XgD	-12.1199
hAiH	-12.1199
izz	-12.12
ift	-12.12
MJL	-12.1201
APns	-12.1201
SItFQ	-12.1202
iRUAAAAAD	-12.1202
IacCuAgAA	-12.1203
gPvlX	-12.1203
oMBwgAAAAA	-12.1205
gDd	-12.1206
eG	-12.1206
ichEic	-12.1207
vCSYAAAA	-12.1207
SJhIjRTFAAAAAEiL	-12.1207
WgSAHQ	-12.1208
JIweADSAHQSMHgA	-12.1208
ZjnGD	-12.1209
EiLvCQ	-12.1209
iLlRj	-12.1209
SItcJJh	-12.121
bSKd	-12.1211
LjRR	-12.1211
DwoXAd	-12.1212
TCRQ	-12.1213
AAAAAAAAAAPU	-12.1214
IAXwk	-12.1215
Jix	-12.1216
EiLXCTg	-12.1217
iLVWB	-12.1217
idZIY	-12.1218
EgBwEgBwkiLR	-12.1218
EiLhCSIAAAA	-12.1218
gsAA	-12.1219
AwDp	-12.122
SIsFAAAAAEiJRf	-12.122
OcIPR	-12.122
AAAASGn	-12.1221
FhckPh	-12.1222
gAAAEgPv	-12.1225
iwCJw	-12.1225
IhFr	-12.1226
AdAkPt	-12.1226
RahI	-12.1226
rCR	-12.1227
SItcJK	-12.1229
IacDIFgAA	-12.1231
RYTSd	-12.1232
EiUW	-12.1232
BIAciLA	-12.1232
SJiLBIKJw	-12.1234
SAHO	-12.1234
AAAAAAAAADh	-12.1235
iLRCS	-12.1236
iJdCS	-12.1237
JKgAAAA	-12.1238
RAHC	-12.1239
nBi	-12.1241
EgPvlX	-12.1242
JIDAcIAAAA	-12.1243
icpmiVX	-12.1244
Biz	-12.1246
KJx	-12.1246
SItFUEiN	-12.1246
GaDPE	-12.1247
EiLt	-12.1247
kSJw	-12.1249
QkWE	-12.1249
IAHQ	-12.1249
QAAAItF	-12.1249
EeL	-12.1249
hCQwAQAA	-12.1249
PAJ	-12.125
kiYSGvS	-12.125
aFdv	-12.1252
AAABAAQAAAAAAAD	-12.1254
AAAAAGADAAAAAAAA	-12.1255
ZkGDP	-12.1255
SAHQSAW	-12.1256
iLBQAAAABI	-12.1257
RInH	-12.1257
kBAABIi	-12.1257
AABIOUW	-12.1258
ZomFfP	-12.1259
QAAxOJ	-12.1259
PvsCJ	-12.1263
KDAcIAAAA	-12.1263
iJRCTo	-12.1263
yNJQAAAAB	-12.1264
EiLRbhI	-12.1265
kiLRfh	-12.1265
EiLBNBI	-12.1266
ugAAA	-12.1267
iLRfh	-12.1269
YAMAA	-12.1269
lIx	-12.127
akAAAB	-12.1271
Iuu	-12.1272
iLVRB	-12.1277
mLd	-12.1277
kQAAA	-12.1278
ZjnwD	-12.1279
gIU	-12.1279
EiJRCRw	-12.1281
EQPtnwk	-12.1281
CQAIAEFXQVZBVUGJ	-12.1281
EiLXCS	-12.1281
kiNDQAAAACJFAgPt	-12.1282
IPof	-12.1285
pgAAA	-12.1285
PvsCNUA	-12.1285
Sok	-12.1285
OfcP	-12.1288
UYSIPA	-12.1289
XAiAUAAAAASA	-12.1292
EQPtmQk	-12.1293
ISJgPtgQC	-12.1294
AAAAAAAAAALIAAAA	-12.1294
NgCAAAA	-12.1297
TImc	-12.1297
EItF	-12.1298
CFwHR	-12.1299
IweEF	-12.1301
hCQQAQAA	-12.1301
Dna	-12.1303
hVP	-12.1305
AAAAAAAAAAug	-12.1305
BIiVQk	-12.1305
IjRQASItFQEgB	-12.1305
JxwT	-12.1306
QAAAAAAEG	-12.131
EiLjCQ	-12.131
ZoF	-12.131
BQAAAAAPttC	-12.1311
iJRCTY	-12.1311
NBB	-12.1312
SIuFiAAAAEgB	-12.1312
dCTQ	-12.1312
AAAAAAAAAAMk	-12.1313
SIlcJNh	-12.1313
jQQ	-12.1314
IweI	-12.1314
XAQA	-12.1316
SMHgBEiJwkiLRR	-12.1316
AJIAdBIAcBIAfBI	-12.1317
AAAAAAAAAAPQ	-12.1317
PoB	-12.1317
FwP	-12.1318
lUr	-12.1318
RchIg	-12.1319
AEAAEiD	-12.1319
IacBgAwAA	-12.1319
iYUo	-12.132
eIBQAAAAD	-12.132
AHASAHQSMHgAkgBy	-12.1321
wAAAMdF	-12.1321
AAAAAOsFuP	-12.1321
jK	-12.1322
jTx	-12.1323
aAEAA	-12.1324
BuwEAAAB	-12.1325
RbT	-12.1326
BmiYW	-12.1327
SGvAaE	-12.1328
LTCR	-12.1328
JPBIi	-12.1329
EQPtnQk	-12.133
InASIkFAAAAA	-12.1331
OcIPTsKJ	-12.1333
UEPlc	-12.1333
MKf	-12.1334
vfa	-12.1335
IjQQ	-12.1336
MJO	-12.1338
gDhCS	-12.1338
EgByEiDwA	-12.1338
wFUAA	-12.1341
AgAAg	-12.1341
eFfv	-12.1342
MKc	-12.1342
OcMPj	-12.1342
iLRW	-12.1343
kiLRT	-12.1344
LdCS	-12.1344
NAAAAAEgB	-12.1345
flu	-12.1347
AAAAQAAAAAAAAABV	-12.1348
iLVWhIjQwQ	-12.1348
EiNFF	-12.1349
MiTUAAAAA	-12.1349
kPR	-12.135
AAAAAKAEAAAAAAAA	-12.1351
IPtgQ	-12.1351
AAASIlF	-12.1354
xKF	-12.1355
hpwHAVAABIi	-12.1356
aJRCQ	-12.1356
EAAAAAACJ	-12.1356
EiLRRh	-12.1357
UkPT	-12.1357
AEPtsB	-12.1361
SLm	-12.1361
GZBOc	-12.1362
hSX	-12.1362
SGtEJ	-12.1362
iUQku	-12.1362
iLRYh	-12.1364
IsFAAAAAA	-12.1365
EiJRfjp	-12.1366
GiAUAAAAA	-12.1368
Ave	-12.1368
EGDw	-12.1369
jRR	-12.137
egwHCAAAAAA	-12.137
goAA	-12.1371
YEG	-12.1371
hAAA	-12.1372
bgS	-12.1372
IHv	-12.1373
AAAAAxOJ	-12.1373
SGPSSGv	-12.1375
LDAcIAAAA	-12.1375
AAAADnQD	-12.1377
iXW	-12.1377
hJi	-12.1377
BIAA	-12.1378
ATF	-12.1379
gPtgQ	-12.1381
SIPCB	-12.1381
uFwP	-12.1382
ZolcJP	-12.1385
iUWki	-12.1385
iNLQAAAAB	-12.1388
Rep	-12.1391
SGnO	-12.1394
EiJhXj	-12.1394
fRAAAg	-12.1395
SDnQ	-12.1396
ZolFl	-12.1396
Jxw	-12.1398
aJRe	-12.1399
VAAAAAGaJDBBI	-12.1399
EgDlCS	-12.1401
QkMAIAA	-12.1402
MTjfTn	-12.1403
AQAAAOsFuAAAAAA	-12.1404
ZoXS	-12.1404
AAEmD	-12.1405
PvtA	-12.1405
GZBx	-12.1405
SItcJO	-12.1405
AAAAEhj	-12.1405
AfhIweACSI	-12.1405
SItFa	-12.1407
yYn	-12.1408
FjP	-12.1409
IiYQksAAAA	-12.1416
RZhI	-12.1417
TBD	-12.1417
JRZyLVZyLRZ	-12.1419
fCQI	-12.142
aFff	-12.142
ZscFAAAAAB	-12.142
yLVCR	-12.1424
OUwk	-12.1424
Axf	-12.1425
CgHw	-12.1426
nGD	-12.1427
OAB	-12.1427
gjQR	-12.1427
SItFaEgB	-12.1428
JHg	-12.1429
NAAAAAEiJFAhI	-12.143
AEAAEgPv	-12.143
RdxmiUX	-12.1433
AAAAQAAAAAAAAABa	-12.1433
Ihd	-12.1434
gYAAAAAAAAAAAAA	-12.1437
SImEJIgAAAB	-12.1441
IjRUAAAAAZokME	-12.1442
iLBQAAAAB	-12.1443
IkdAAAAA	-12.1443
UgBy	-12.1443
EEPtj	-12.1443
EiLXCTQ	-12.1445
EQPtmwk	-12.1445
LhQT	-12.1445
EEPtv	-12.1448
DrBbi	-12.1449
Zsc	-12.145
EiNFEB	-12.145
CAAHAEiJPQAAAAD	-12.1454
SIkFAAAAAEgPv	-12.1457
Lhbj	-12.1457
SIuEJIgAAAB	-12.1458
BvwEAAAB	-12.1458
RYXbd	-12.1458
AAAAAEEPt	-12.1459
BAAAAAAAAD	-12.1459
XcZjnCD	-12.146
EOO	-12.146
RIlkJ	-12.146
SGnARAEAAE	-12.146
SGnY	-12.1461
hYb	-12.1461
ItUJD	-12.1461
wkyAEAA	-12.1462
SItFQEiN	-12.1463
UQSAHQSIsA	-12.1463
EiLXCSw	-12.1464
QhgJDDQYCo	-12.1465
EUZ	-12.1466
SIlcJOB	-12.1467
qAQAA	-12.1468
QAAAABIiUQk	-12.1468
hUv	-12.1469
IiUQkS	-12.1469
gen	-12.1469
sKD	-12.147
APn	-12.147
SIlEJGh	-12.1471
SItcJF	-12.1472
mQYm	-12.1476
iLlWD	-12.1477
SMHgBEiJwkiLRT	-12.1477
gPs	-12.1478
AAAAATIt	-12.1479
lUD	-12.1479
CYN	-12.148
vCSgAAAA	-12.148
APtoW	-12.148
CmI	-12.1481
/3//2	-12.1482
bCic	-12.1482
AAAAAPgCAAAAAAAA	-12.1482
GSItF	-12.1482
SGvAGk	-12.1483
ffyJdfiDffwA	-12.1483
SJhIixUAAAAA	-12.1484
PlMA	-12.1484
sFAAAAA	-12.1484
EiLlXD	-12.1485
PtsCFwA	-12.1486
PtgCEwHQ	-12.1487
SGnAYAMAAE	-12.1487
AOAAA	-12.1487
SImFOP	-12.1487
BAAASI	-12.1487
BQAAAABED	-12.1487
EAPvv	-12.1488
wAAxOJ	-12.1488
uFNP	-12.1488
HkAAAA	-12.1489
qSI	-12.149
gCA	-12.1491
icJIjQ	-12.1492
Pjq	-12.1494
QYPBA	-12.1494
PtwRQ	-12.1494
gPtlW	-12.1495
GAu	-12.1495
JXCQ	-12.1495
TIktAAAAA	-12.1496
OfgPT	-12.1496
NhA	-12.1496
JBQAAAAAPtkX	-12.1497
CnQZokFAAAAA	-12.1497
QAAAAAPh	-12.1498
AVIA	-12.1499
TYt	-12.1499
nwSAHASAHwSI	-12.1499
cJA	-12.1501
QZIi	-12.1502
xOJxP	-12.1502
BIhcB	-12.1503
SYPF	-12.1504
PfQSJhI	-12.1504
AFwk	-12.1506
vCSQAAAA	-12.1506
dgAAAB	-12.1508
uFJP	-12.1513
AAAAESJ	-12.1513
kiLBQAAAABI	-12.1514
Iacm	-12.1516
aVa	-12.1516
IRCS	-12.1517
SJiLBIKFwHQ	-12.1518
hcAPlcCEwHQ	-12.1519
fCTs	-12.152
MJK	-12.1521
WqD	-12.1521
BIjb	-12.1521
IlEJD	-12.1521
Pjp	-12.1522
IAAAAPt	-12.1522
IacBUIgAA	-12.1522
SQQ	-12.1522
DrE	-12.1523
iJRCTQ	-12.1525
CNR	-12.1527
AQAASIO	-12.1527
kiLdCR	-12.1529
SAHKSMHiA	-12.1529
AdAlIi	-12.1532
PtwRQD	-12.1532
hEic	-12.1536
APvsCD	-12.1538
wAAAEgPv	-12.1538
AABAAAAAAAAAADs	-12.1539
iNBI	-12.154
iLVXB	-12.154
IAdAPtgAPtsBI	-12.1542
IacBEAQAA	-12.1544
eFyP	-12.1544
ISIN	-12.1547
hTX	-12.1547
tBg	-12.1549
uVeP	-12.1549
okNAAAAA	-12.155
iLVTB	-12.155
AAAAAAAAAAuQ	-12.1552
AAAAQAAAAAAAAAAs	-12.1552
TGPA	-12.1553
/38	-12.1553
MAcJ	-12.1553
MYFAAAAAAE	-12.1555
JIhIi	-12.1555
iLFQAAAABI	-12.1555
HuAAAAADrBbj	-12.1556
SIlEJHB	-12.1557
AYX	-12.1557
AwAASIt	-12.1557
DGRCQ	-12.1557
xogFAAAAA	-12.1559
FhfYPh	-12.1562
kiLRcB	-12.1562
AAAAQAAAAAAAAABZ	-12.1563
bAiUQk	-12.1563
wDn	-12.1563
IlFvItVvItF	-12.1564
FoP	-12.1565
SGvAYk	-12.1565
AAAAAAAAAAMEAAAA	-12.1566
SYHC	-12.1566
Iul	-12.1566
DwolF	-12.1567
ItcJN	-12.1568
iLRfB	-12.1568
BHa	-12.1569
EjHRCT	-12.1569
SGnAABsAAE	-12.157
IjQTASI	-12.157
EAAAAAABMi	-12.157
ZUJO	-12.157
yUiJ	-12.1571
FAAAAAEG	-12.1571
GaJRfYPt	-12.1572
uFDP	-12.1573
SItcJFB	-12.1575
IPGA	-12.1576
SIkVAAAAAA	-12.1576
ZEJH	-12.1577
kiLRV	-12.1577
ReZ	-12.1578
Rcj	-12.1578
Bxo	-12.1579
InBSItF	-12.158
tEJN	-12.1582
RZp	-12.1582
UQSAHQiw	-12.1583
UFAAAAAMMA	-12.1583
iUXU	-12.1585
SGvADkiLV	-12.1588
Rdp	-12.1589
iLReh	-12.1589
iNNBBIi	-12.1589
lCSYAAAA	-12.1589
wQSIl	-12.159
RYXS	-12.1591
WaQ	-12.1592
xOJxO	-12.1594
VCQY	-12.1594
SIsEx	-12.1595
iIRc	-12.1595
FjY	-12.1596
AAAAAAgDAAAAAAAA	-12.1597
AAEiNk	-12.1597
DwAJmiUW	-12.1597
xgAAA	-12.1599
EiLfCSw	-12.16
iJPQAAAAB	-12.16
EiJBQAAAAAPtkW	-12.1601
QYl	-12.1602
LSI	-12.1602
Iui	-12.1603
MAotF	-12.1603
PtoVE	-12.1604
vCSIAAAA	-12.1604
SGnAyBYAAE	-12.1605
AAADrBbg	-12.1606
JLgAAAA	-12.161
yFwA	-12.1611
gRIA	-12.1611
AHp	-12.1613
Iuh	-12.1614
IXAdA	-12.1614
McBmg	-12.1615
PtkWM	-12.1616
ZoXJD	-12.1616
wSDv	-12.1618
ldj	-12.1618
BgPo	-12.1619
AAMTi	-12.162
mgzw	-12.1625
PlcAPtsB	-12.1626
SIkFAAAAAEiD	-12.1626
xen	-12.1626
WYAAAA	-12.1629
AQAAgL	-12.1629
bHBQAAAAA	-12.163
GZEiRUAAAAA	-12.163
UAEiLRRhIAdAPtwB	-12.163
EiYSIsEw	-12.1631
gIxfn	-12.1632
lFD	-12.1632
XoSAHQ	-12.1633
BIaf	-12.1633
wAPlcCEwHQ	-12.1633
AAAAAAAAAAMMAAAA	-12.1633
iDvVD	-12.1634
oAQ	-12.1634
mRAN	-12.1636
BQAAAABmg	-12.1637
IidBIweAESCnQSIn	-12.1639
RIjQ	-12.164
bAiYU	-12.164
YAiIU	-12.164
AgAASItF	-12.1644
iLRdh	-12.1644
IPtlW	-12.1645
chIAcBIAchIAcB	-12.1645
MibQk	-12.1646
Pvkwk	-12.1646
qx	-12.1647
EiYSIkFAAAAAJ	-12.1647
mYF	-12.1649
BQAAAACIRc	-12.1649
EiLVah	-12.165
AAAASAO	-12.165
XyD	-12.1651
xIx	-12.1652
AHUJD	-12.1652
xmiQUAAAAA	-12.1653
EiLhRD	-12.1654
FQB	-12.1654
SGPISGPC	-12.1654
AQAASL	-12.1656
lEJB	-12.1656
JDAcIAAAA	-12.1658
NAAAAAEiJBApIi	-12.1658
FIx	-12.1659
iLlej	-12.1659
kuN	-12.1661
mhcl	-12.1663
CnQiQUAAAAA	-12.1663
IjRSFAAAAAEiLRW	-12.1664
uVaP	-12.1665
gPTs	-12.1666
SInQSAHASAHCSItF	-12.1668
JNR	-12.167
PqA	-12.1671
AAAAAAAAADK	-12.1672
lQj	-12.1673
YEAohF	-12.1673
iAUAAAAAgH	-12.1674
YAQ	-12.1674
Pgk	-12.1675
JPhIi	-12.1675
ZkAPvv	-12.1676
hpwMBVAABIi	-12.1677
iDvWj	-12.1679
aFdf	-12.1679
oDAAA	-12.168
ImIsEgoXAD	-12.168
EiLnCR	-12.168
BQAAAABEi	-12.168
FAAAAAEiN	-12.168
IlcJO	-12.168
SIlcJOh	-12.1682
yEyJ	-12.1685
UmL	-12.1685
JVCT	-12.1685
mOdAPT	-12.1686
ONAPR	-12.1686
AgAAAOt	-12.1689
AABIiXQk	-12.169
lVL	-12.169
Odl	-12.1691
EgBwEiJwkiLRS	-12.1692
IjTQCD	-12.1693
Pgm	-12.1694
IjQSASI	-12.1695
SItEJC	-12.1696
cUU	-12.1697
lTD	-12.1697
bHRd	-12.1698
Ium	-12.1699
ILd	-12.1701
EuND	-12.1701
SItEJGB	-12.1702
hcAPlQUAAAAA	-12.1703
oSIN	-12.1704
RDnQf	-12.1705
OcIPjS	-12.1707
OII	-12.1707
SWM	-12.1709
jYw	-12.1709
hRH	-12.1709
BIgUQk	-12.171
PQAAAAAPt	-12.171
xUAAAAA	-12.1713
FwHR	-12.1714
iLRCSY	-12.1714
kCId	-12.1714
SIkE	-12.1714
kgBw	-12.1715
AVQAA	-12.1715
SJhIiUXoSItV	-12.1716
gJIAcpIweICSAHy	-12.1716
bHRZ	-12.1716
HQiAUAAAAA	-12.1716
iNDIUAAAAASItF	-12.1718
SItcJE	-12.1719
KIAAAA	-12.1719
MPts	-12.1719
Acg	-12.172
hAiD	-12.1722
kiDx	-12.1723
SItcJEB	-12.1723
hIAcIPtoV	-12.1724
IacCiAAAA	-12.1724
IuFUP	-12.1726
IOYU	-12.173
IkFAAAAAEgPv	-12.173
QAAAAPt	-12.173
SAHBi	-12.1731
EkPTM	-12.1731
JiwT	-12.1732
SJwg	-12.1732
ZscFAAAAAI	-12.1734
iLTCQ	-12.1734
iFw	-12.1734
XgSIlF	-12.1736
gMD	-12.1738
PhH	-12.1738
JweM	-12.174
kiNHQAAAAB	-12.1741
yNLQAAAAB	-12.1741
QYsU	-12.1741
Mibwk	-12.1742
TCQI	-12.1743
haL	-12.1744
SIlEJD	-12.1745
IsAiUW	-12.1746
hIO	-12.1747
gIAAAA	-12.1747
QEAAEiL	-12.1748
SItFkEgB	-12.1748
AAAAESL	-12.1749
ImEj	-12.1749
SCnC	-12.1751
cAZoXAdA	-12.1752
OcIPTcJmiQUAAAAA	-12.1752
kgPvkW	-12.1753
SGPJSJhIa	-12.1753
EMc	-12.1754
xwEiF	-12.1755
iLRZB	-12.1757
EiNPB	-12.1757
TAOc	-12.1758
RdhIi	-12.1758
aJRf	-12.1758
AlIMBwgAAAA	-12.1759
EiLBMZI	-12.1759
AQAAxkW	-12.1759
BmiQUAAAAAg	-12.1761
QgwIC	-12.1761
AfhIAfAPtwRB	-12.1763
cAgAA	-12.1764
VCIAA	-12.1766
gNIAcpIweIDSAHy	-12.1768
FRv	-12.177
EiJhCSAAAAA	-12.177
whIg	-12.1771
IAXQk	-12.1773
SItFiEgB	-12.1774
idCIRb	-12.1775
SGvAMk	-12.1776
gpy	-12.1777
IuFLP	-12.1777
IjVAC	-12.1778
ichEiUW	-12.1778
idp	-12.1778
AAABIY	-12.1779
xoP	-12.178
DwonC	-12.178
InASIlF	-12.178
iQQk	-12.1782
MTieTnBxfl	-12.1782
SJjrB	-12.1783
TAHG	-12.1785
QDjGD	-12.1785
FVIieWJffxIiXXwi	-12.1786
Rdzr	-12.1786
VCTI	-12.1787
ABAABMi	-12.1789
PtgUAAAAAiIX	-12.1789
yLXCS	-12.179
qwAAA	-12.179
GwolF	-12.1791
AQAAAOsFu	-12.1791
RcJ	-12.1792
DfagAD	-12.1793
EiLXCSg	-12.1793
BIiUwk	-12.1794
aDvX	-12.1794
iLhbj	-12.1795
IhFx	-12.1797
UiJBQAAAAB	-12.1798
KDwA	-12.1799
kAD	-12.1799
AMAAI	-12.1799
boBAAAA	-12.1799
EiLfCTQ	-12.18
SYHD	-12.1802
gEPh	-12.1803
EgByEiNF	-12.1803
FUVVOJ	-12.1805
UiJRfhIi	-12.1805
xfp	-12.1805
iDvUj	-12.1805
MjQw	-12.1806
oAAAAAAAAs	-12.1806
JDQAAAAD	-12.1808
AQAAAOsFugAAAAA	-12.1809
kiLRch	-12.181
gCEwA	-12.181
AAAAAlwAAAAAAAAA	-12.1811
RcxI	-12.1811
WyD	-12.1811
FQAAAABm	-12.1812
VISAHCi	-12.1813
Raz	-12.1814
QAAAAcAAAAAAAAAL	-12.1815
UhjyEiJ	-12.1815
aQA	-12.1815
IuFKP	-12.1815
mFdP	-12.1816
AAAAAEiY	-12.1816
Iicp	-12.182
IjVABSInQSMHgA	-12.1821
AfY	-12.1822
iNkK	-12.1823
EyLvCS	-12.1824
ZscFAAAAAAAAD	-12.1824
wIkFAAAAAJ	-12.1824
kiLRbh	-12.1824
IAdDr	-12.1825
aFcv	-12.1825
EiLfCSQ	-12.1825
hYL	-12.1828
CLRe	-12.1828
uW	-12.1828
hVf	-12.1828
ifV	-12.1829
XPYAs	-12.183
SDnCd	-12.183
EiLfCSo	-12.1834
PtoUY	-12.1836
AdBmiQUAAAAA	-12.1838
wkgPTcKJw	-12.1838
iNh	-12.1839
Mfa	-12.184
TCTI	-12.184
EiDwF	-12.1841
iLRT	-12.1842
OgAA	-12.1842
AABAAAAAAAAAADw	-12.1843
wJIg	-12.1844
EiLRRhI	-12.1844
Iuj	-12.1844
AAAAAsAIAAAAAAAA	-12.1845
aFAP	-12.1847
ee	-12.1847
UiNDQAAAAB	-12.1847
WgAAAA	-12.1849
ffxIxwUAAAAA	-12.185
JIgAAAA	-12.185
VFD	-12.1851
SItVyEiJ	-12.1852
CSInB	-12.1852
yJw	-12.1852
DrN	-12.1853
EicJEiU	-12.1854
hpwAAbAABIi	-12.1856
UYSAHQiw	-12.1856
IjRTFAAAAAEiLRW	-12.1856
hbb	-12.1856
lcj	-12.1857
bHRb	-12.1857
SMHgBUgB	-12.1858
oXAD	-12.1859
IiUWA	-12.1859
CSQ	-12.1861
APth	-12.1861
ILf	-12.1861
QkQAIAA	-12.1862
RcT	-12.1864
pJg	-12.1865
AAAAQAAAAAAAAABX	-12.1865
AAAAAAAAAADC	-12.1866
ZBOc	-12.1866
iYUI	-12.1867
kPvs	-12.1868
ZIiQUAAAAA	-12.1869
UUB	-12.187
RIlcJ	-12.187
BEAd	-12.187
APtgAPts	-12.1871
BQAAAABIiwUAAAAA	-12.1871
RCToD	-12.1874
JBQAAAAAPtkW	-12.1877
MAdJ	-12.1877
hYr	-12.1877
EPtoV	-12.1879
Igzw	-12.188
OsR	-12.1884
WmD	-12.1884
AAAAAcwAAAAAAAAA	-12.1884
MiSUAAAAA	-12.1885
mAU	-12.1886
XhoAA	-12.1887
CJRCQ	-12.1888
xAAAAE	-12.1889
aFbv	-12.1891
eAQAA	-12.1891
UgSAHQSIsA	-12.1892
DfdgAd	-12.1892
har	-12.1892
BIjQR	-12.1893
UkPR	-12.1895
hpwOEAAABIi	-12.1895
PtwAPt	-12.1895
SAHQSIPo	-12.1896
sPtlX	-12.1896
mFeP	-12.1897
wISIl	-12.1897
RegPt	-12.1898
aMJ	-12.1899
GaJReiJ	-12.1899
AAAACd	-12.19
IhCS	-12.19
APtlQk	-12.19
CHa	-12.1901
AADGRb	-12.1901
SGvC	-12.1901
hpwHhpAABIi	-12.1902
SGnAogAAAE	-12.1905
yIhF	-12.1906
EiNu	-12.1906
jUoB	-12.1906
iEXc	-12.1908
BEGY	-12.1908
DrBbgAAAAA	-12.191
JOABAAB	-12.191
GAlA	-12.1913
EiLXCTw	-12.1914
EyJw	-12.1914
IiTwQ	-12.1914
dAAA	-12.1915
EAAAAAACD	-12.1916
KDAcIQQsAAAAA	-12.1918
LlST	-12.1919
SIuEJJgAAAB	-12.192
AAAAAAAAAPACAAAA	-12.192
DQAAAACJ	-12.1921
RYTAD	-12.1923
JmiRUAAAAA	-12.1924
Miawk	-12.1924
fhAAAAAAAkA	-12.1924
NIjR	-12.1924
iUWI	-12.1924
BIAdCLAIlF	-12.1926
SImEJIAAAAB	-12.1927
PhG	-12.1928
DAABID	-12.1928
yIP	-12.1929
iNBM	-12.1929
AAAAAAAAAADI	-12.1932
OcIPjX	-12.1933
EiLVa	-12.1934
jRTFAAAAAEgBwkiL	-12.1934
JKAAAAA	-12.1936
JRbyLVbyLRb	-12.1937
SItEJBh	-12.1937
UoSAHQSIsA	-12.1939
CiAUAAAAAk	-12.194
EiNm	-12.1941
SAHKi	-12.1942
aFYf	-12.1942
RYTbd	-12.1943
EiJRfjr	-12.1944
QRQ	-12.1944
AJIAdBIAfhI	-12.1945
PqAkhj	-12.1945
AQAAAGZ	-12.1946
al	-12.1947
YFAAAAAC	-12.1948
EiNFAdIac	-12.1949
XCQo	-12.1949
SIXJ	-12.1949
EiLRCQY	-12.195
AESI	-12.1953
AABMY	-12.1954
iUWA	-12.1954
ITAdA	-12.1956
IgVAAAAAE	-12.1956
EEPth	-12.1957
NPP	-12.1957
lfz	-12.1957
EgByk	-12.1958
AAAAAAAAAApw	-12.1958
aFa	-12.1959
AAAAAAAAAJcAAAAA	-12.196
AQAAAEiD	-12.1961
KjQS	-12.1962
AAAAAAAAADL	-12.1963
ESIBQAAAAB	-12.1964
JReBIx	-12.1964
AAAAAAAAAAHAAAAA	-12.1964
ECIf	-12.1964
EEPvg	-12.1965
gDsA	-12.1966
RIx	-12.1968
jGBQAAAAAB	-12.1971
MdJIi	-12.1973
QAAABIA	-12.1974
SAHq	-12.1974
AgAAAOn	-12.1975
xkhj	-12.1975
IicJIAdJIAcJIjQ	-12.1976
uFFP	-12.1977
SMHgBEiJwkiLRS	-12.1978
EmJy	-12.1978
PhA	-12.198
AJIac	-12.1983
AABIiYV	-12.1983
bHhX	-12.1983
DnKf	-12.1985
JIweACSAHQSMHgAk	-12.1986
RAHK	-12.1986
PfYic	-12.1987
kiLRdh	-12.1987
AAAAQYn	-12.1987
EiLfCSY	-12.1991
XPYBMX	-12.1992
iLlYAAAAB	-12.1992
SGnAZAsAAE	-12.1993
xgUAAAAAAc	-12.1995
AMAAEiL	-12.1998
WYAAAASAHC	-12.1998
mRIklAAAAA	-12.1999
hTP	-12.1999
CIBQAAAABmg	-12.1999
hpwIQDAABIi	-12.2002
PDAcIAAAA	-12.2003
GaJRCR	-12.2003
QPtnwk	-12.2004
TInA	-12.2004
SDHQSIkFAAAAA	-12.2005
dEJD	-12.2007
AEAACAAHAPff	-12.2008
mQscE	-12.2008
FlP	-12.2008
XAUAA	-12.2009
wEE	-12.2009
ZCR	-12.2009
AAAAAyAIAAAAAAAA	-12.2011
WAAAAASAHC	-12.2012
hRP	-12.2012
jHwP	-12.2012
MYAAQ	-12.2012
RBi	-12.2013
SAHQiwBIm	-12.2013
SJhIiwTCSIXAD	-12.2014
SYsU	-12.2016
KSGP	-12.2016
ZolEJJ	-12.2019
AJIAdBIweACSI	-12.202
hQH	-12.202
lcJP	-12.2022
QAAAEIOEI	-12.2023
AAAASYn	-12.2023
SGPQSItF	-12.2024
uFmP	-12.2025
AAAAAAAAAJIAAAAA	-12.2025
IOdF	-12.2025
Nwpi	-12.2028
PCg	-12.2029
rgIAA	-12.2029
cPH	-12.2029
bHRe	-12.203
CIBQAAAAAPtkW	-12.2031
SAHKSIsE	-12.2031
lfj	-12.2031
TieffC	-12.2031
BQAAAAAPv	-12.2032
LhdT	-12.2033
gEd	-12.2034
cQAAAB	-12.2035
iYVM	-12.2036
AAAAADgDAAAAAAAA	-12.2036
SItVuE	-12.2036
EiJhCSIAAAA	-12.2038
EhpwC	-12.2038
IAciL	-12.2039
ReyJRfy	-12.2039
IAU	-12.2041
JIgAAAC	-12.2042
NhcB	-12.2042
AAEE	-12.2043
hcBBD	-12.2044
eFvP	-12.2044
AAEG	-12.2044
xwUAAAAAAAAAAA	-12.2045
AAAAAAAAAAIw	-12.2047
AAAAAAAAAADZ	-12.2047
iJNQAAAAB	-12.2048
KJBQAAAAC	-12.2048
aFav	-12.2049
GIBQAAAAB	-12.2051
CmC	-12.2051
iLRWB	-12.2051
PvxR	-12.2052
EGAe	-12.2052
gNIAcpIAdBI	-12.2052
IjRTA	-12.2053
SItVqEgB	-12.2053
RZT	-12.2054
kiYSGv	-12.2054
ARIKch	-12.2055
WoAAAASAHQ	-12.2055
tFz	-12.2056
iLVUB	-12.2057
bsDE	-12.2057
wkgPTcI	-12.2057
SIsASIXAD	-12.2057
hCSAAQAA	-12.2058
SMeE	-12.2058
IacBkCwAA	-12.206
hpx	-12.2061
GZBgzx	-12.2061
UoSIPA	-12.2065
hpwIANAABIi	-12.2067
gCd	-12.2067
SNQ	-12.2071
SImEJJAAAAB	-12.2071
awA	-12.2071
yEgPv	-12.2072
PAAkhj	-12.2073
EiLXCRQ	-12.2073
iDvXD	-12.2073
OME	-12.2074
iwz	-12.2075
EgL	-12.2076
AAAAEQPt	-12.2076
iUQkq	-12.2076
JJAAAAC	-12.2076
NDAcIAAAA	-12.2077
Fmx	-12.2077
iLVVh	-12.2082
EiLhCSoAAAA	-12.2082
SInO	-12.2083
ZoXA	-12.2083
BAf	-12.2083
EiLlCQ	-12.2083
SLRCT	-12.2084
APtsC	-12.2084
BhIi	-12.2084
IiYQkqAAAA	-12.2085
JJgAAAC	-12.2086
Pjn	-12.2087
eFev	-12.2087
IhdIPh	-12.2092
OCAAAAAAA	-12.2094
wkCA	-12.2095
sFAAAAAIlF	-12.2097
SAFUJ	-12.2098
gUAAA	-12.2099
EUPtt	-12.21
gPvt	-12.21
iIBQAAAAC	-12.2102
EhrwB	-12.2104
UiLRdh	-12.2104
lUL	-12.2106
IBQAAAAAPtkX	-12.2107
IjQUAAAAASQH	-12.2108
AAAAAAAAAADa	-12.2109
HQiAUAAAAAD	-12.2109
AdBIiQUAAAAA	-12.211
EKf	-12.211
SCHQSIkFAAAAA	-12.2111
BOcB	-12.2113
nWicp	-12.2114
AAEAAAAAAAAAAHQ	-12.2114
nQSAHASAHQSMHgBE	-12.2114
BEAA	-12.2115
mZE	-12.2115
[...]
