<unk>	0
<s>	0
</s>	0
0	-3.13147
AAAAAAAAAAAAAAAA	-3.49191
4	-3.59744
A	-3.84758
5	-4.03358
7	-4.11052
AAAAAAAAAAAAAAA	-4.15728
w	-4.15957
1	-4.1813
D	-4.19416
8	-4.21751
+	-4.27058
/	-4.31497
9	-4.47094
V	-4.63866
3	-4.65067
g	-4.67462
C	-4.72349
f	-4.72759
6	-4.73827
2	-4.74909
B	-4.88407
v	-4.89714
E	-4.89809
Y	-4.92025
M	-4.96385
I	-5.0072
P	-5.12335
J	-5.13212
i	-5.15078
+2	-5.18574
k	-5.19724
////	-5.22001
Q	-5.22136
//	-5.2393
F	-5.24918
N	-5.25124
s	-5.2739
W	-5.36211
x	-5.37749
U	-5.42073
X	-5.50848
l	-5.54715
AC	-5.55429
o	-5.60719
AAAAA	-5.71351
G	-5.72139
+3	-5.76364
Z	-5.78058
H	-5.7966
y	-5.80285
S	-5.82892
c	-5.85138
z	-5.87192
50	-5.87543
L	-5.89391
O	-5.90324
p	-5.91077
h	-5.9209
AAAAAAAAAA	-5.94451
AAAA	-5.95042
K	-6.00467
t	-6.01677
BAAAAAAAAAA	-6.04852
R	-6.05297
j	-6.08431
b	-6.09146
n	-6.09234
BAQAAAAAAAAAAAA	-6.09275
MRgI	-6.09518
EAPgAB	-6.09518
▁	-6.09522
a	-6.10272
r	-6.12581
m	-6.13895
T	-6.14099
=	-6.19055
d	-6.20357
e	-6.21046
QAAAAAAAAAAAA	-6.24859
SI	-6.24916
///	-6.26462
u	-6.28349
///9	-6.32748
Ii	-6.35351
q	-6.35689
MX	-6.3714
VidW	-6.45145
BAAAAAwAAAAAAAAA	-6.47171
xMS	-6.49689
///8	-6.50003
bnR	-6.51279
uNC	-6.52775
gMTE	-6.52883
SA	-6.54189
YnVudHU	-6.54481
AAAAAAAAAAAEAAAA	-6.5598
///0	-6.57346
++	-6.5853
QAAAAMAAAAAAAAAA	-6.59108
wk	-6.62647
AA	-6.63961
AAAAAAAAAAAAAAAC	-6.64172
AAAAEAAAAAAAAAA	-6.65607
QAAAAAAAAAAAAAA	-6.6743
ic	-6.71535
AAAAAAAAACw	-6.71593
EjB	-6.75203
+/	-6.76317
Qk	-6.76976
EAAAADAAAAAAAAAA	-6.78947
AAAAAAAAALAAAAA	-6.80791
wg	-6.82067
AAAAAAAAAEAAAAAA	-6.82491
EAAAAAAAAAAAAAA	-6.85249
+//9	-6.86024
7//	-6.882
EiJ	-6.88206
jb	-6.88524
EgB	-6.89768
AAAAAAAAAAAAAAAB	-6.89851
///+	-6.94141
QQ	-6.97809
AF	-6.98648
Eg	-6.98706
Ei	-6.98922
ZGF	-7.01603
+//8	-7.01853
ub	-7.02326
gB	-7.03173
hYgA	-7.03748
AAAAAAABcAAAA	-7.04108
AuZ	-7.04239
Fjaw	-7.04324
nJh	-7.04327
tZW	-7.04331
udG	-7.04338
WhfZ	-7.0435
zdG	-7.04358
RlL	-7.04367
cnR	-7.04367
dOVS	-7.04369
dAAu	-7.04382
bWUA	-7.04383
zaH	-7.04383
QAuY	-7.04397
nNzA	-7.04398
IAAAAAwAAA	-7.04596
AAAAAAcAAAAAQAAA	-7.04621
AAAABAAAAAgAAAA	-7.04673
AD	-7.04687
QAAAAYAAAA	-7.04938
AAAAAAADU	-7.06463
AAAABAAAAAAAAAAE	-7.06493
wAAAA	-7.07213
AAAAAQAAAAAAAAAB	-7.07555
AAAABAAAA	-7.08728
WJ	-7.10039
7//0	-7.11979
elIAA	-7.12549
XgQARsMBwiQAQAA	-7.12553
Pt	-7.12661
dSA	-7.14037
MjI	-7.14397
dTF	-7.14397
EAAAA	-7.14446
gKF	-7.14448
uMDQpIDExLjQuMAA	-7.14464
DQzo	-7.14466
LjAt	-7.14515
21	-7.17113
EAAAAAAAEAACAAHA	-7.17261
AAAAAAAAAAEQAAAA	-7.17536
XpSA	-7.20382
HJ	-7.20456
NCk	-7.206
NDOi	-7.20607
IDExLjQuM	-7.20619
AoV	-7.20669
yMi	-7.20754
xdW	-7.20776
KSA	-7.20891
BAAAAAAAAAAAAAAA	-7.2126
EAAAAAAAAAAQ	-7.22358
ZS	-7.23694
xfj	-7.23736
LTF	-7.23796
IyLj	-7.23818
ICh	-7.24021
UgA	-7.24279
aF	-7.24512
AAAAAAAAAAAsAAAA	-7.2492
AAAAAAAAAAFwAAAA	-7.25027
UAAAAAAAAAAF	-7.26145
ZXh	-7.26388
AAAAAAAAAARAAAAA	-7.26437
LXN	-7.2657
lbn	-7.26618
vbW	-7.26683
UuR	-7.267
YWN	-7.26704
mcm	-7.26738
vdG	-7.26747
Ryd	-7.2675
FtZ	-7.26752
Noc	-7.26768
GFi	-7.26779
kYXRh	-7.26797
gAAAADAAAA	-7.26808
AAAAABwAAAABAAAA	-7.26821
DAEd	-7.26951
BAAAABgAA	-7.26997
laF	-7.27125
QALm	-7.27249
ALmN	-7.27544
AAAAAQAAAA	-7.27597
rAC	-7.27918
MAAAAAAAAAA	-7.28065
ALm	-7.28282
ZyY	-7.28861
LnRleHQ	-7.29038
hzd	-7.29358
YWIA	-7.29427
LmRhdGEALmJzcwAu	-7.29436
HTl	-7.2947
tbW	-7.2951
VudAA	-7.29558
RhY	-7.2957
Utc	-7.29579
AAAAEAAAAG	-7.2963
VoX	-7.29687
AAAAAHAAAAAEAAAA	-7.29731
AAAAAAAAAABEAAAA	-7.29811
AAAAAQAAAAIAAAA	-7.29816
ubm	-7.29833
wBHQ	-7.2991
XAAAAC	-7.30051
AAAAAAAAAANQAAAA	-7.3047
AAAAAAAAAlAAAAA	-7.3072
AAAAAAAAAAAgAAAA	-7.31347
AAAAAAAAACUAAAA	-7.33023
ID	-7.33949
AAAAQAAAAAAAAAA	-7.33949
///4	-7.34519
iJ	-7.35179
EAEbDAcIkAEAAB	-7.36524
BIi	-7.36702
BeBABGwwHCJABAAA	-7.38831
QAAAAAAAAAAAAAAA	-7.38882
29	-7.39396
IY	-7.39635
AAA	-7.40355
AABQAAAAAAAAAA	-7.41084
EAAAAAAAAAAAAAAA	-7.42927
Ig	-7.43489
PH	-7.43855
AAAAAAAALAAAAA	-7.44925
uc	-7.47129
ZF	-7.50394
AEAACAAHAFVIieWJ	-7.50601
IP	-7.50791
AAAAAAAAA	-7.52899
RA	-7.52989
SItF	-7.53396
SIt	-7.56102
Re	-7.56428
dF	-7.57729
AB	-7.58867
wAAA	-7.59479
+//+	-7.60018
AAAABAAAAAAAAAA	-7.60619
Rc	-7.61632
ItF	-7.61748
AAAAAAAAAJQAAAA	-7.62467
AAAAAAIAAAAA	-7.63499
SIu	-7.64891
Rb	-7.64985
SItV	-7.65408
BD	-7.6632
Rd	-7.66456
EAAAACAAAAA	-7.67051
Rf	-7.67269
DAAAAAAAAAAA	-7.69822
CD	-7.70444
QAA	-7.7074
IA	-7.70751
QA	-7.70846
RY	-7.73288
AAAAAEAAAAD	-7.73953
AAAAAMAAAAAAAAAA	-7.73967
bA	-7.74827
AQAAAAAAAAAAAAAA	-7.75013
EiL	-7.76281
AAAAPwAAAAAAAAA	-7.76425
AFAAAAAAAAAAB	-7.76812
SIlF	-7.7694
gAAAA	-7.77666
OcJID	-7.78819
ED	-7.80478
AQAA	-7.80789
hj	-7.82497
hIi	-7.82564
RZ	-7.83534
SGP	-7.83541
AAAAAAAAAB	-7.83838
cMAR	-7.84184
wB	-7.85425
AAAAFAAAAAAAAAAB	-7.87212
TI	-7.87787
AAAAAAAAAD	-7.87939
99	-7.8892
AAAAAAAAAJQ	-7.89467
EgBwEgB	-7.89609
Ra	-7.89731
7//4	-7.89837
AAAAAQAAAAAAAAA	-7.91024
32	-7.91105
/8	-7.91921
AAAAAAAAAAAAA	-7.9232
JD	-7.93354
IhF	-7.9406
HAAAABwAAAAAAAAA	-7.94351
AEAA	-7.9455
Mi	-7.95266
ZolF	-7.95885
QAAAAAAAAA	-7.96094
GA	-7.969
Pj	-7.97213
Ln	-7.97784
IB	-7.98574
FAAAABwAAAAAAAAA	-7.99506
EiD	-8.00447
76	-8.01244
EA	-8.01346
AAABAAAAAAAAAAA	-8.01671
XA	-8.02001
SIP	-8.02141
ALn	-8.02162
Zg	-8.02338
Bg	-8.04367
Pv	-8.04805
uDx	-8.05008
MAAAA	-8.0628
wAA	-8.07482
gAAAAAAAAAAAAAA	-8.07874
UA	-8.09273
Ph	-8.10013
Il	-8.10713
ZV	-8.10758
RQ	-8.11574
Ehj	-8.11784
Iu	-8.11847
eF	-8.12169
UQ	-8.12549
wW	-8.12656
gAA	-8.12844
GY	-8.12943
mg	-8.13171
gAAA	-8.13327
APt	-8.13685
AAAAAMAAAA	-8.14229
mLg	-8.14361
AAAAAAAA	-8.1451
79	-8.15029
SIN	-8.15041
iL	-8.15281
RI	-8.1566
SIl	-8.16704
33	-8.17408
gH	-8.1743
LjAAAAA	-8.17789
BA	-8.18594
wAAAAAAA	-8.18639
DnCD	-8.18669
In	-8.19062
aV	-8.19107
EgPv	-8.19202
AAAAD	-8.19368
iD	-8.1938
Xo	-8.19518
Ia	-8.1968
EyL	-8.20543
BI	-8.20882
QAAA	-8.2105
AE	-8.21498
Bdw	-8.227
Uw	-8.22888
ZmY	-8.23437
Vw	-8.23509
ZoN	-8.24562
//9	-8.24596
SP	-8.25013
Ug	-8.25479
QD	-8.25982
CJ	-8.2605
AHQ	-8.26558
khj	-8.27054
AAAACAAAAA	-8.27171
GZ	-8.27173
EQ	-8.27303
TAH	-8.27411
Dx	-8.28296
HQ	-8.2852
wQ	-8.28532
SAH	-8.28775
XQ	-8.28919
QB	-8.29023
+///	-8.29339
JP	-8.29409
TIt	-8.29704
GD	-8.29964
SD	-8.30358
kiJ	-8.30383
AAAAAPwAAAAAAAAA	-8.30643
APh	-8.3082
XY	-8.31244
AAAAAA	-8.31255
ItV	-8.31662
LjAAAAAAAAA	-8.3201
TA	-8.3328
jB	-8.33948
EyJ	-8.352
IPt	-8.35449
Ew	-8.3688
GaJ	-8.37236
dV	-8.37486
XAD	-8.37893
Cg	-8.3803
RCT	-8.38053
EAAAACAAAAAAAAAA	-8.38885
mZi	-8.39257
Ag	-8.40234
JO	-8.40335
AAAAAEEOEIYCQw	-8.40809
AQ	-8.40814
9//9	-8.40922
AEAAAAAAAA	-8.40989
CAAHAFVIieVIiX	-8.41384
CL	-8.41393
AAAAAEAAAAAAAEAA	-8.41443
fhAAAAAAA	-8.41526
MMAR	-8.4204
kF	-8.42242
SQ	-8.42388
xOJ	-8.42991
KD	-8.42999
SIm	-8.4384
Xg	-8.44602
EE	-8.46267
AgAA	-8.46784
JIY	-8.46882
yJ	-8.4692
QAAAA	-8.47378
PtoV	-8.47475
xw	-8.49387
iUX	-8.49567
ZomF	-8.50868
SL	-8.51016
iAUAAAAA	-8.51144
AQAAA	-8.5119
SGv	-8.51685
QAAAAAAA	-8.52172
RIn	-8.5241
IiUQk	-8.53003
AAB	-8.53103
AR	-8.53188
IlF	-8.54147
LjA	-8.54181
/////	-8.5496
XI	-8.55041
BAAAA	-8.55059
oP	-8.55194
YAD	-8.55405
SJ	-8.55835
AAAAAwAAAAA	-8.56022
FD	-8.56535
SDn	-8.57315
PtkX	-8.57642
AAAAAAAAAC	-8.57886
iUQk	-8.57992
yA	-8.58112
oAAAAAAAAAD	-8.58369
kgB	-8.58373
ESJ	-8.58412
Xw	-8.58576
gPt	-8.588
///2	-8.58857
WY	-8.5901
DAAAAAAAAAAD	-8.59101
SY	-8.59231
QYn	-8.59308
HgAAAAAAAAA	-8.59355
VwA	-8.59488
UAAAAHAAAAAAAAAA	-8.5971
SGn	-8.59792
AAAAC	-8.60141
gL	-8.6107
AAAuc	-8.61291
AdB	-8.6134
AAAAAAAAAAABAAAA	-8.61718
iEX	-8.61935
ZjnCD	-8.62146
aD	-8.63447
eV	-8.63564
iY	-8.63704
Wo	-8.65395
CQ	-8.65574
QY	-8.65792
Vc	-8.66095
BQAAAAC	-8.66097
AAAAAAAAAAH	-8.66156
ZokFAAAAA	-8.66593
MA	-8.67169
ZoO	-8.67247
VY	-8.67657
EiY	-8.6773
BAAA	-8.68431
nQ	-8.68913
AAAAIAAAAA	-8.69317
3//	-8.69514
jH	-8.69567
aJ	-8.69599
mD	-8.69618
9//8	-8.6973
AgAAAAAAAAAAAAAA	-8.69806
gBAAAA	-8.70233
AIAA	-8.70447
3//0	-8.7104
AwAA	-8.71066
Ix	-8.71306
YP	-8.71429
It	-8.71447
Os	-8.71873
dA	-8.72444
MD	-8.72478
SIn	-8.73268
Ww	-8.73377
QhgJDDQZ	-8.74049
GaD	-8.74085
Zi	-8.7513
iQUAAAAA	-8.75229
id	-8.75385
JN	-8.76125
PtkW	-8.76191
PtlX	-8.76277
Ac	-8.76572
AABIi	-8.76722
kiL	-8.76997
JM	-8.77391
UE	-8.77549
SAHQD	-8.78866
SIO	-8.78984
SIuF	-8.79439
QYP	-8.79809
SAN	-8.79823
Wg	-8.80104
znCD	-8.80183
Iac	-8.80532
Ve	-8.80577
tF	-8.8082
AQAAD	-8.80836
FAAAAA	-8.81723
dB	-8.82061
yL	-8.82109
QPt	-8.82689
Ej	-8.8297
kjB	-8.83048
mx	-8.83063
AAAEAAAAAAAEAA	-8.8319
mL	-8.83342
AAAAAAAAAAOAAAAA	-8.83988
oB	-8.84514
SJh	-8.84572
RIi	-8.85122
Dwg	-8.85229
MBwgAAAA	-8.85602
SAO	-8.85807
Ehp	-8.86085
PtoU	-8.86227
IC	-8.86255
hc	-8.86312
gPv	-8.86466
WQ	-8.87004
YFAAAAA	-8.87146
ABQAAAAAAAAAA	-8.87375
Ad	-8.87409
Pr	-8.87621
AdA	-8.87701
MdF	-8.87887
JK	-8.88517
SInQSMHgAkgB	-8.88876
JIi	-8.88896
oD	-8.89071
Ll	-8.90051
Cw	-8.9009
Xc	-8.90141
CAAA	-8.9021
BX	-8.90247
SGnA	-8.90713
7//2	-8.90819
EQPt	-8.90903
ImE	-8.90981
EiLVfhIi	-8.91046
EiLRfBI	-8.91291
CQX	-8.91529
uF	-8.91817
WI	-8.92055
SMdF	-8.92382
SIuV	-8.92453
RCR	-8.92674
RCQ	-8.92688
/7//	-8.92784
YPt	-8.92824
IXAD	-8.92826
HD	-8.92987
BB	-8.93049
IO	-8.93055
JJ	-8.93137
AAAAAD	-8.93156
ZIi	-8.93283
BE	-8.93392
XCT	-8.93405
uAAAAAAAAAA	-8.93469
cAAAAHAAAAAAAAAA	-8.935
QhgJDDQYD	-8.93968
////6	-8.94472
kiN	-8.95015
TY	-8.95031
yN	-8.9523
ND	-8.95302
XwSDnC	-8.95502
xg	-8.95596
AJIAdBI	-8.95666
SIkFAAAAA	-8.95713
UiJ	-8.96645
gEAA	-8.96866
hQ	-8.97002
BQAAAAB	-8.97073
cA	-8.97288
Xs	-8.97313
mDx	-8.97315
VCT	-8.97415
Oc	-8.976
BID	-8.97862
jU	-8.97939
RDn	-8.98038
gAAAAAAAAAOAAAAA	-8.98167
YAAAAAAAAAD	-8.98624
TCT	-8.98884
UY	-8.9902
Jg	-8.9903
SN	-8.99114
kg	-8.99193
iUW	-8.99254
BIY	-8.99424
QAAAAAA	-8.9964
OsFu	-8.99813
SYn	-8.99901
OD	-8.99978
IAAAA	-9.00068
AAAAAAAAABABAAAA	-9.00357
OgAAAAAAAAAAAAAA	-9.00735
EPt	-9.0091
VAAAAAEgB	-9.01048
AH	-9.01089
BIg	-9.01154
maJ	-9.01616
AAD	-9.0181
Vd	-9.02187
PtlW	-9.02353
SC	-9.02362
SInQSMHgA	-9.02432
BMi	-9.02457
KJ	-9.02604
ZsdF	-9.02645
cAAAAHAAAAAAAAAB	-9.02681
NF	-9.02761
Vo	-9.02843
UxQAAAABIi	-9.03071
ESL	-9.03089
SAHQ	-9.0356
Ae	-9.03957
RD	-9.03969
IAdBI	-9.04074
GJ	-9.04146
DAcIAAAA	-9.04165
TAD	-9.04166
SYP	-9.04415
IlV	-9.05133
SJhI	-9.05215
wki	-9.05612
oAAAA	-9.05715
AAAAAAAAAAgAAAAA	-9.0604
IiQUAAAAA	-9.06196
XU	-9.06208
IkFAAAAA	-9.06337
wAAAAcAAAAAAAAAB	-9.06453
ZoP	-9.06481
PT	-9.06682
IN	-9.0679
FIi	-9.0686
AAAAAQQ	-9.06964
EB	-9.06993
JI	-9.07127
MBwgAAC	-9.07258
mB	-9.07297
bH	-9.07351
jX	-9.0768
QP	-9.07845
SQH	-9.0785
Zok	-9.07971
JB	-9.0799
SMHgA	-9.08021
VQ	-9.08181
IsA	-9.08335
QAAAAcAAAAAAAAAB	-9.08398
TQ	-9.08518
APv	-9.08685
iYV	-9.08902
Vb	-9.09074
fRAAA	-9.09122
IgFAAAAA	-9.09145
Im	-9.09204
lIY	-9.0943
bC	-9.09499
IAAAAAAAAAD	-9.09539
AAAAAAAAAMgAAAAA	-9.09672
So	-9.09778
hcB	-9.10124
Ehpw	-9.10125
PCD	-9.1024
gp	-9.10308
AAABIi	-9.10663
bCD	-9.1081
PtoX	-9.1101
gHwk	-9.11139
AHU	-9.1122
Uo	-9.11265
xIi	-9.11323
UhQAAAABIi	-9.1134
cFAAAAA	-9.11413
jY	-9.11453
AwAAAAAAAAAAAAAA	-9.1189
TIu	-9.12038
ImA	-9.12107
CFwA	-9.12395
hf	-9.12488
//6	-9.12641
Ok	-9.13209
VwIgFAAAAA	-9.13319
AAAAAAAAAAAAAAAI	-9.13337
wkgPQ	-9.13348
InCD	-9.13359
miQUAAAAA	-9.13367
Va	-9.13369
PtpV	-9.13423
YB	-9.13509
Gwg	-9.13569
ZkSJ	-9.1358
kiD	-9.13676
SMHgB	-9.13687
hIY	-9.13796
AAAAOAAAAAAAAAA	-9.13841
7//+	-9.1398
DH	-9.14115
Zol	-9.14337
AAAAAAAAEQAAAA	-9.14565
RCS	-9.14752
ANIAdBI	-9.14905
Ih	-9.15039
wEAA	-9.15242
EEPt	-9.15336
pIY	-9.15339
PR	-9.15599
UwA	-9.15652
fCQ	-9.15766
OcIPj	-9.15777
EO	-9.1579
pIi	-9.1581
AAAASI	-9.15861
VI	-9.1609
Om	-9.16101
ASI	-9.16208
BQAA	-9.16315
iEW	-9.16393
AO	-9.16431
IidBIAcBIAdBI	-9.16513
JL	-9.166
IlN	-9.16677
Uhj	-9.17064
uV	-9.17115
fhAAAAAAADx	-9.17156
QTn	-9.17396
uA	-9.17857
APts	-9.17988
AEAAA	-9.18238
wIXAD	-9.18244
on	-9.18351
UiL	-9.18369
Qg	-9.18538
Of	-9.18947
cP	-9.19492
PgAAAAA	-9.19627
AAAAAAAAAAO	-9.19644
wAAAAAAAAAs	-9.20127
cB	-9.20138
dE	-9.20302
Mc	-9.20465
jQ	-9.20589
BXEFdQV	-9.20814
SIk	-9.20885
XM	-9.20928
WE	-9.2101
Xk	-9.21035
cJ	-9.21086
HR	-9.21098
RAH	-9.21121
dIi	-9.2132
AAAAQAAAAAAAAAC	-9.21904
EGJ	-9.22127
IuF	-9.22257
nk	-9.22991
Ek	-9.23003
SIsE	-9.23032
hI	-9.23059
Hw	-9.23275
oA	-9.23443
bQ	-9.23549
TCS	-9.23849
fCR	-9.24035
NIi	-9.24096
gBAAAAAAAAAAAAA	-9.24113
McB	-9.24119
Kd	-9.24438
AAAAE	-9.24657
EwB	-9.24875
gAAAAAAAAAs	-9.24885
Ehr	-9.24933
Md	-9.25062
MEA	-9.25092
AAE	-9.25418
xgUAAAAAA	-9.2561
hMi	-9.25806
TIn	-9.25817
mA	-9.25864
AMAA	-9.25964
oPt	-9.2606
YQg	-9.2632
9//+	-9.26371
QQg	-9.26404
Dn	-9.2652
Lj	-9.26536
iF	-9.2672
JIg	-9.26743
AAAAAAAAAAK	-9.26804
PtoW	-9.27118
AAAAAgAAAAA	-9.27174
On	-9.27397
Ot	-9.27413
he	-9.27499
Ui	-9.27551
jZ	-9.27877
dQ	-9.27916
cE	-9.27993
Uk	-9.28202
EAAAAAAB	-9.28357
ZseF	-9.28682
iIV	-9.28701
EgByA	-9.28875
AQAASI	-9.28938
QEAA	-9.28954
TD	-9.28962
xk	-9.29003
KL	-9.29118
UB	-9.29261
Fi	-9.29445
gQg	-9.2958
kQ	-9.30047
yU	-9.30197
DHA	-9.30231
EG	-9.30293
uP	-9.30818
kE	-9.30889
Rg	-9.31091
dCT	-9.31119
TDn	-9.31608
AEAAE	-9.31805
JF	-9.31852
LD	-9.31893
Qb	-9.31914
AEd	-9.3196
AQAAAAAAAC	-9.32145
AABIA	-9.32479
fCT	-9.32685
CQg	-9.32921
hXj	-9.33022
AAAAAAAAAAAAAAAK	-9.33064
yD	-9.3317
fCS	-9.33251
NAAAAA	-9.33414
Qo	-9.3342
wQQ	-9.33593
Wc	-9.33893
AAAAEgB	-9.3393
BQ	-9.33982
NP	-9.34025
xkX	-9.34027
YAA	-9.34307
Ws	-9.34511
EgBwg	-9.34663
BAABIi	-9.35151
AAAAQQ	-9.35166
xwUAAAAA	-9.35216
ZIY	-9.35652
hX	-9.35676
kiY	-9.35744
lU	-9.35824
BBD	-9.35976
UU	-9.36052
RS	-9.36332
Ow	-9.36507
DQAAAAB	-9.36899
SWn	-9.36934
UgB	-9.37003
EP	-9.37137
lIi	-9.37263
sAAAA	-9.37276
SItN	-9.37332
FI	-9.38169
cD	-9.38232
mZ	-9.3847
IiVwk	-9.38482
oAA	-9.38529
Jwg	-9.38742
EmJ	-9.38975
QIg	-9.39046
GL	-9.39092
BeBABGwwHCJABAAB	-9.39227
EU	-9.39386
oQg	-9.39414
wAAAAAAAAAAA	-9.39559
eD	-9.39582
DwA	-9.3976
AIAAAAAAAA	-9.39865
OP	-9.39926
EJL	-9.39997
hCS	-9.40299
XCS	-9.40361
bS	-9.40374
mF	-9.40447
mJ	-9.4064
AACJ	-9.40766
VwIhF	-9.41096
khr	-9.41288
8//9	-9.41329
Bm	-9.41333
JIa	-9.41457
EJK	-9.41463
FQAAAAB	-9.41649
OcIPQ	-9.41935
MY	-9.4203
AwHCAAA	-9.42041
ESI	-9.4214
hd	-9.4222
FwA	-9.42255
gwHCAAA	-9.42411
AAAB	-9.42539
AdCD	-9.42626
ZoX	-9.42659
wwHCAAA	-9.42795
XAiAUAAAAA	-9.42898
IiXwk	-9.43034
hU	-9.43122
Od	-9.43158
hpw	-9.43275
AAABBDhCGAkMNBgJ	-9.43332
xgUAAAAA	-9.43335
FIY	-9.43449
EiLReBI	-9.43521
IAc	-9.43614
mxwUAAAAA	-9.43816
hF	-9.43833
aN	-9.43869
Zk	-9.4389
UP	-9.43923
Kc	-9.44098
CgAA	-9.44365
Bi	-9.44397
IAd	-9.44418
TCQ	-9.44561
UiN	-9.44627
hIg	-9.44628
PgAAAAAAAAAAAAAA	-9.4467
AAAAAE	-9.44692
BQAAAAA	-9.44797
eP	-9.44889
QR	-9.44921
CwAA	-9.44923
hWj	-9.45051
nB	-9.45084
AAAAAAAAAAL	-9.45185
Zjn	-9.45314
AAAAAAAAACABAAAA	-9.45363
SJhIY	-9.45438
Ol	-9.45571
AAAAi	-9.4558
JE	-9.45676
SGPS	-9.45755
EgBy	-9.46179
iEQk	-9.46265
mY	-9.46349
WaJ	-9.46523
FB	-9.46648
qA	-9.46786
iBUAAAAA	-9.47471
MB	-9.47612
sAA	-9.47657
AADp	-9.4772
yg	-9.47788
AAAAAAAAACgBAAAA	-9.47794
EAEbDAcIkAEAAE	-9.47911
3//4	-9.4805
Plc	-9.48129
BAAB	-9.48143
TQH	-9.48174
SDnCS	-9.48367
gt	-9.48625
BgAA	-9.48969
hp	-9.48983
RYn	-9.49009
XE	-9.49259
BmiQUAAAAA	-9.4968
Is	-9.49723
iYD	-9.49734
ZokFAAAAAA	-9.50123
AQAAAE	-9.50208
khp	-9.50256
bg	-9.50267
hW	-9.50421
miYV	-9.50435
QT	-9.5046
MPt	-9.50618
iAUAAAAAD	-9.50704
Lg	-9.50825
Fk	-9.50898
FAAAAAE	-9.5102
Pto	-9.51028
PvkX	-9.51141
AACL	-9.51188
OA	-9.51193
BF	-9.51207
EJJ	-9.51216
EmN	-9.51226
QS	-9.51289
EgF	-9.51433
Tj	-9.51468
Sg	-9.51469
aP	-9.51771
PtgUAAAAA	-9.51819
UI	-9.5187
MdJ	-9.51896
QIh	-9.51928
SAHQSI	-9.51939
AIAAE	-9.52156
yQ	-9.52259
AAAAAAAAAAS	-9.5232
VZ	-9.52334
AAAAQAAAAAAAAAD	-9.52534
STn	-9.52633
GaJRe	-9.5265
PtpU	-9.52765
Wk	-9.52785
hXz	-9.53307
UG	-9.53378
BXkFfw	-9.53485
uN	-9.53557
gCAAB	-9.5356
GB	-9.53614
CAAAA	-9.53955
dCQ	-9.54089
dAAAAA	-9.54184
QwHCAAA	-9.54234
uD	-9.54267
gAAAE	-9.54401
GYt	-9.5451
IjQ	-9.5462
iYU	-9.54627
jr	-9.54716
gCAAAA	-9.55169
PtkQk	-9.55267
AAAPt	-9.55404
Ux	-9.55413
RT	-9.55646
Tb	-9.55815
FVIieVIg	-9.55841
AAAABIAAAAAAAAAC	-9.55959
///85	-9.55983
miUX	-9.56
hM	-9.56079
hUj	-9.56198
XgSDnC	-9.56297
xflu	-9.56311
dCS	-9.5641
IjR	-9.56576
dD	-9.56771
ki	-9.56918
qD	-9.56937
YAhMB	-9.56999
EJE	-9.57034
gF	-9.57047
nCD	-9.5716
AAAAAAAAABgBAAAA	-9.57171
iJwk	-9.57332
SDlF	-9.57476
EiJRfhIi	-9.57545
EJM	-9.57589
IOII	-9.57704
EJI	-9.57711
hVj	-9.57752
zjCD	-9.57823
DQg	-9.58094
hXD	-9.58217
AAACL	-9.58223
cAA	-9.58325
TIm	-9.5851
IiUX	-9.58516
Tw	-9.58525
SInQSAHASAHQS	-9.58555
SAHCD	-9.5858
Qkm	-9.58834
kAA	-9.58933
FE	-9.58979
BwAA	-9.5921
EjHR	-9.59424
tIi	-9.59471
wPt	-9.59535
AAAD	-9.59548
Tc	-9.59618
IiXQk	-9.59681
Hp	-9.59699
dv	-9.59719
Ni	-9.5975
iIU	-9.59791
qL	-9.59801
MAd	-9.59817
APlc	-9.59824
we	-9.59849
/////8	-9.5991
PfY	-9.59919
jp	-9.59979
us	-9.60061
IPv	-9.60156
AAAAAAAAAAgBAAAA	-9.60264
BIiQUAAAAA	-9.60366
Qkq	-9.60426
/7//0	-9.60566
Bif	-9.60575
ME	-9.60621
IjRUAAAAA	-9.60657
Qku	-9.60717
Hg	-9.6074
EiNFMUAAAAA	-9.60809
cAAAAHAAAAAAAAAC	-9.61046
TS	-9.61179
oC	-9.61251
Ft	-9.61276
FQAAAAA	-9.61304
OdB	-9.61506
hR	-9.61526
IAQAA	-9.61674
MHgAkgB	-9.61752
IjT	-9.61761
AQAAi	-9.61778
EJN	-9.6185
gDAAAA	-9.6192
Hy	-9.62025
YFAAAAAA	-9.62189
jn	-9.62216
VCQ	-9.62441
TCR	-9.62466
RYT	-9.62482
hT	-9.62552
lQ	-9.6259
IjQUAAAAA	-9.62644
kgPv	-9.6301
ARIicJIi	-9.63075
SJgPtgQC	-9.63273
APtt	-9.63298
MP	-9.63332
Eic	-9.63335
GBQAAAAAB	-9.63422
BQAAAAD	-9.63425
EJB	-9.6344
MZF	-9.63443
DHS	-9.6347
EiLVehIi	-9.63515
iNk	-9.63916
AADH	-9.63959
Gh	-9.64091
AAAAAAAAAEABAAAA	-9.64143
Pz	-9.64199
ug	-9.64223
FF	-9.64324
MAc	-9.64367
XoSItF	-9.64518
EJA	-9.64529
hm	-9.64545
maD	-9.64574
hWz	-9.64616
Qi	-9.64763
wkm	-9.64788
Bmg	-9.64807
GbH	-9.64821
SGPJ	-9.64911
AgAAA	-9.65056
WP	-9.65192
GaJRf	-9.65223
SIs	-9.65326
VwIiF	-9.65328
EJP	-9.65363
EWF	-9.65439
yE	-9.655
Ga	-9.65583
TH	-9.65615
TYn	-9.65639
WU	-9.6566
Tn	-9.65825
fz	-9.65887
wDp	-9.65957
dI	-9.65962
xkQk	-9.65962
vCS	-9.66028
EiDwA	-9.66092
EJH	-9.66321
wAAAAAAAAAD	-9.66323
hWD	-9.66474
SLj	-9.66559
XC	-9.66608
hCT	-9.66622
iQUAAAAAD	-9.66623
dc	-9.66692
EGN	-9.66693
mQ	-9.66718
aQ	-9.66881
MjQ	-9.66964
hB	-9.66975
wHQg	-9.67097
PvkW	-9.67192
LR	-9.67207
zn	-9.67232
jVD	-9.67313
cPt	-9.67449
nCS	-9.67597
wku	-9.67604
AMAAAAAAAA	-9.6783
AAAAADp	-9.67868
hcAPlc	-9.679
RYX	-9.67956
xfl	-9.67994
SLg	-9.68032
iVwk	-9.68145
QIT	-9.68184
bD	-9.6824
bCT	-9.68295
TB	-9.68378
iwUAAAAA	-9.68477
hZ	-9.68496
SAHID	-9.6852
SJhIa	-9.68552
Egt	-9.68571
OQ	-9.68747
AAABCDhCPAk	-9.6876
BIa	-9.6887
QE	-9.69082
AAAAAAAAAOgAAAAA	-9.69167
lW	-9.69213
fe	-9.69285
Ma	-9.69335
XCQ	-9.6949
kB	-9.69541
lX	-9.69552
GI	-9.6965
hr	-9.69799
IiUwk	-9.69828
ha	-9.69846
IOGI	-9.69869
EJO	-9.69896
cg	-9.69938
KA	-9.70051
QAQAA	-9.70259
fr	-9.70264
iB	-9.70286
Ji	-9.70469
RB	-9.7061
Fm	-9.70635
EGD	-9.7065
ECI	-9.70738
oHq	-9.70796
QH	-9.70983
HB	-9.7099
YS	-9.71068
xkW	-9.71078
qJ	-9.711
bw	-9.71151
ZkGD	-9.71306
TG	-9.71371
HF	-9.71444
Kf	-9.71559
JG	-9.71694
EJC	-9.71756
ImEjB	-9.71789
PQAAAAB	-9.71956
wky	-9.72051
hS	-9.72143
jjCD	-9.72195
BIidBIAcBIAdBI	-9.72243
AAAAAAAAAAG	-9.72431
Gf	-9.72445
iI	-9.7252
wko	-9.72532
otF	-9.7257
ZN	-9.72573
HU	-9.72592
wkQ	-9.726
Ehrw	-9.72812
icIPt	-9.72819
OJ	-9.72839
TIl	-9.72973
SMH	-9.72991
hY	-9.73273
IiUW	-9.73294
AAAAAAAAAAmAAAAA	-9.73347
miUQk	-9.73543
KB	-9.73552
UC	-9.73562
AAAAAAAAADABAAAA	-9.73678
nR	-9.73739
TP	-9.73923
SAHwD	-9.73952
XS	-9.73999
QAAAAAAE	-9.74008
hXT	-9.74033
bXUFcQV	-9.74121
oO	-9.74132
Fo	-9.74201
BH	-9.74225
RIg	-9.74245
wH	-9.74249
AhcAPlcCI	-9.74376
GYF	-9.7451
ZE	-9.74517
iXwk	-9.7453
bCS	-9.74532
To	-9.74595
Hu	-9.74716
AAAAQg	-9.74841
BAACL	-9.75247
qP	-9.75315
WM	-9.75406
TC	-9.75442
HQAAAAB	-9.75442
BIiUQk	-9.75497
miUW	-9.75603
lM	-9.75701
eg	-9.75802
7///8	-9.75815
tA	-9.75902
mk	-9.76212
hUD	-9.76219
hb	-9.76236
hV	-9.76239
gIAA	-9.76262
Ik	-9.76491
EK	-9.76493
InC	-9.76545
VU	-9.76576
jW	-9.76606
GaDf	-9.76641
wkk	-9.77082
xQ	-9.77215
XP	-9.77258
Tg	-9.77313
IiVQk	-9.77574
SAHASI	-9.77632
MjR	-9.77672
QjwJCDhiOA	-9.77718
AAAAASI	-9.77975
EUx	-9.78036
Td	-9.78202
Lp	-9.78224
AAAAAAAAAPAAAAAA	-9.78225
IiYQk	-9.78435
Fj	-9.78446
AAAAAAAAAAdA	-9.7845
Pvs	-9.78456
gEAAA	-9.78519
MYFAAAAAA	-9.78548
mP	-9.78671
yk	-9.78782
VCS	-9.78861
fp	-9.78936
QAAAE	-9.79034
hVz	-9.79043
CiAUAAAAA	-9.79053
AMAAE	-9.7913
hVD	-9.79136
sP	-9.7932
IAf	-9.79324
SCn	-9.79339
PwAYTA	-9.79342
Zp	-9.79464
QAAAAB	-9.79522
wks	-9.79583
gAQAA	-9.79586
fQAB	-9.79656
SIX	-9.79841
QkF	-9.79945
TWP	-9.79962
kP	-9.80085
hTj	-9.80085
iVQk	-9.80148
fa	-9.80179
NQAAAAB	-9.80331
IjQS	-9.80422
jCS	-9.80604
gR	-9.80627
AADr	-9.80793
PvoV	-9.80803
PfQ	-9.80949
bs	-9.81046
EAAAAAAAPH	-9.81053
ogFAAAAA	-9.81113
KP	-9.81158
EiB	-9.81447
Cm	-9.81574
kwB	-9.81594
CAAB	-9.81618
GaJRd	-9.81628
wR	-9.8164
dw	-9.81693
EiLA	-9.81933
tV	-9.81935
SLi	-9.81993
Fs	-9.82062
jVA	-9.82185
oX	-9.82277
AwAAA	-9.82311
BIm	-9.8239
EmD	-9.82398
UiD	-9.82425
Og	-9.82636
LQ	-9.82727
OcJ	-9.82854
OM	-9.82892
QIAA	-9.82935
bP	-9.82936
SInC	-9.8304
EUPt	-9.83049
wHQ	-9.83068
gAAAB	-9.83093
dCR	-9.83234
gBy	-9.83236
At	-9.83304
GP	-9.8339
lCS	-9.83507
IPAA	-9.83536
AAQAA	-9.83795
SLh	-9.83831
oAQAA	-9.83856
SINF	-9.84031
Lf	-9.84049
Iad	-9.84063
EiNBQAAAAB	-9.84124
7//8	-9.84245
CJwg	-9.84246
EiLRdBI	-9.84254
aL	-9.84307
DnQD	-9.84356
IgFAAAAAA	-9.84444
Yt	-9.84474
hAAAA	-9.84512
ZoM	-9.84566
IkFAAAAAA	-9.84631
RAAAABwAAAAAAAAA	-9.84709
AAAABBDhCGAkMNBn	-9.84795
kJBd	-9.84828
Rw	-9.849
IjTUAAAAA	-9.85048
iNFABIi	-9.85061
Ja	-9.85126
Gg	-9.8514
wIlF	-9.852
hID	-9.85242
hMB	-9.85361
Nj	-9.85375
AIAAA	-9.85457
Id	-9.8563
NUA	-9.85648
APj	-9.85672
weA	-9.85866
hWT	-9.85872
Ic	-9.85873
EAAAAAABmk	-9.85891
AAAASA	-9.85944
SAHQSAH	-9.85945
EJF	-9.8596
jR	-9.85967
dM	-9.86015
RP	-9.861
SJhIi	-9.86162
Ey	-9.86214
dC	-9.86217
jAVBDjCGBkEOOIMH	-9.8623
mI	-9.86248
EAA	-9.86275
Ld	-9.86297
PAA	-9.86388
YAQAA	-9.8647
miQ	-9.86542
VAAAAAE	-9.86548
QAAAAAAGaQ	-9.86571
IX	-9.86738
Lr	-9.86839
PlQUAAAAA	-9.86866
FtdQVxBXUFeQV	-9.86935
xo	-9.86958
kgD	-9.87024
gFAAAAA	-9.87087
SAHQSIsA	-9.87201
Hz	-9.87212
xy	-9.87222
py	-9.87238
AdC	-9.87248
GR	-9.87293
hRj	-9.87546
AABIg	-9.87612
wAAAAcAAAAAAAAAE	-9.87752
UAA	-9.87852
vCT	-9.87947
AABIiUQk	-9.87964
iRUAAAAA	-9.88183
zH	-9.88232
IAQAAAAAAAD	-9.88232
Qko	-9.88235
IjV	-9.88373
iQ	-9.88497
cX	-9.88543
ZkQ	-9.88594
APtkX	-9.88709
Fz	-9.88823
SIXAd	-9.88981
Xb	-9.89008
EPv	-9.89076
IjX	-9.89185
iT	-9.89312
Qkk	-9.8937
EJD	-9.89595
Bic	-9.89707
NI	-9.90004
nP	-9.90093
mE	-9.90106
hUz	-9.90292
JH	-9.90296
QAAAB	-9.90331
eE	-9.90362
wkq	-9.90383
OL	-9.90549
ZM	-9.90566
QSI	-9.90619
eJ	-9.90638
Qki	-9.9068
hN	-9.90784
yH	-9.90795
ST	-9.90886
JAc	-9.90921
XG	-9.90932
miYU	-9.90957
zQ	-9.90966
Fg	-9.91001
Na	-9.91011
EAAAAAACQ	-9.91086
IXAd	-9.91087
dN	-9.91115
AwAAAAAAAD	-9.91135
jF	-9.91174
Es	-9.91178
SIkFAAAAAA	-9.91303
EkB	-9.91315
MAe	-9.91359
7///9	-9.91399
IjU	-9.9141
nr	-9.91435
ch	-9.91521
iXQk	-9.91527
OMIPQ	-9.91572
fb	-9.91647
IuV	-9.91653
IOf	-9.91758
tCS	-9.91839
AQAASIu	-9.91842
wIAA	-9.91885
AEAACAAHAEAPtv	-9.919
IacC	-9.91922
AdAe	-9.91944
ABAAA	-9.92174
hSD	-9.92189
UFAAAAA	-9.92404
QkQ	-9.92624
Ov	-9.92635
Jac	-9.92826
AgAAD	-9.92855
AcKL	-9.92897
Zv	-9.92897
TGP	-9.92901
Lh	-9.92931
XAiEX	-9.92991
QPv	-9.92995
YPH	-9.93042
nI	-9.93053
yI	-9.93079
BEi	-9.93113
qAAAAAAAAAA	-9.93182
OI	-9.9319
IOd	-9.93241
kSJ	-9.93253
gwcD	-9.93348
GBQAAAAAA	-9.9343
iLXCS	-9.93692
eL	-9.93791
SIkVAAAAA	-9.93799
IAA	-9.93804
PtwUAAAAA	-9.93855
ev	-9.93892
wAAAAcAAAAAAAAAD	-9.93897
DQAAAAC	-9.93922
ITAd	-9.94019
Bo	-9.94045
SImF	-9.9405
ES	-9.94081
AAAABBDhCGAkMNBl	-9.94175
zg	-9.94193
AABMi	-9.94238
LgBAAAA	-9.94251
XB	-9.94417
SMHiB	-9.94419
hSj	-9.94427
SWv	-9.94486
KI	-9.94541
kyJ	-9.94566
AADnQD	-9.94632
TYX	-9.94694
IxwUAAAAA	-9.94705
QAAAABIi	-9.94737
rP	-9.94783
Fy	-9.94805
OdAPj	-9.94862
AAAASIu	-9.94982
uJ	-9.95018
nH	-9.95041
uE	-9.95212
VCR	-9.95218
RIm	-9.95278
iXX	-9.95287
ABAAB	-9.95355
fS	-9.95405
MiU	-9.95436
cEQ	-9.9553
lF	-9.9573
Qks	-9.95747
ISI	-9.95767
Eo	-9.95805
eA	-9.95813
XCR	-9.95899
BIA	-9.95909
uAEAAAB	-9.9603
9///	-9.96117
eQ	-9.96183
UgPv	-9.96217
zk	-9.96278
IiRUAAAAA	-9.96281
fhAAAAAAAk	-9.96289
SMHiA	-9.96295
AgAAAAAAAC	-9.96296
RIt	-9.96478
iJRCT	-9.96514
UPt	-9.96549
miT	-9.96671
hCQ	-9.96722
uL	-9.96741
FQAAAAD	-9.96844
Ki	-9.96905
AAAAAAAAAAFg	-9.96938
AdQ	-9.97077
OUX	-9.97088
YEAg	-9.97092
won	-9.97121
MTi	-9.97182
BED	-9.97261
Kg	-9.97332
zw	-9.97383
CH	-9.97418
miRUAAAAA	-9.97589
Qc	-9.97682
nn	-9.97741
Ptk	-9.97786
RTn	-9.97852
wkO	-9.97891
hBD	-9.97997
Qky	-9.98027
YPv	-9.98125
EQB	-9.98129
QDj	-9.98149
EJG	-9.98165
fj	-9.98197
pg	-9.98249
EGA	-9.98261
MAA	-9.98281
un	-9.98308
dP	-9.98349
hTz	-9.98463
hQj	-9.98483
hRz	-9.98597
IidBIweACSAHQS	-9.98612
AEAAAAAAAAAAAAAA	-9.98631
UjB	-9.98659
RIY	-9.98668
AAAPv	-9.9867
OE	-9.98825
kG	-9.98908
Zj	-9.99018
kyL	-9.99027
db	-9.99054
Yn	-9.99116
GN	-9.99121
NY	-9.99124
FQAAAAC	-9.99372
IT	-9.99395
EAAB	-9.99496
PtpX	-9.99502
mOcIPRsIPt	-9.99623
AOn	-9.99681
YFAAAAAIhF	-9.99754
hmiUX	-9.99819
NQ	-9.99856
Te	-9.99941
AAAAAAAAAADg	-9.99944
jT	-9.9995
MAg	-10.0002
IAdAPtg	-10.001
eN	-10.0011
NAAAAAE	-10.0012
lc	-10.0013
Sb	-10.0016
RR	-10.002
IjRSFAAAAAEiL	-10.0024
FU	-10.0027
MAf	-10.0031
Gd	-10.0044
nw	-10.0051
kFAAAAA	-10.0052
ZokVAAAAA	-10.0056
QYs	-10.0061
BAAAAQQ	-10.0061
ge	-10.0066
EAAA	-10.0077
GT	-10.0078
CAABIi	-10.0085
xoV	-10.0093
Pvt	-10.0094
ou	-10.0106
iYX	-10.0111
Bk	-10.0117
IAAAB	-10.0119
EEPv	-10.013
AAAAAAAAAAdw	-10.0141
gPh	-10.0144
Ng	-10.0147
Me	-10.0158
cm	-10.0174
Nh	-10.018
AQAAAAAAAD	-10.019
hdj	-10.0193
xmiUX	-10.0218
Zom	-10.0227
HH	-10.0228
fgUAAAAA	-10.0231
TT	-10.0233
lT	-10.0236
TGn	-10.0244
Uc	-10.025
mff	-10.0256
ASIlF	-10.0256
IOc	-10.0256
SJhIiQUAAAAA	-10.0259
pI	-10.026
Gi	-10.0261
QPj	-10.0264
AAAAPt	-10.0269
Qkw	-10.0272
APtkW	-10.0279
ON	-10.0283
AQAAAA	-10.0286
AABm	-10.0286
wkw	-10.0295
ma	-10.0309
GQ	-10.0323
kyN	-10.0327
WL	-10.0352
hIA	-10.0365
hIiUQk	-10.0371
SLr	-10.0372
SAHI	-10.0378
wAHQhcAPlcCI	-10.0378
SAHC	-10.0379
Ta	-10.0381
Bid	-10.0382
EiF	-10.0396
AABI	-10.0407
hTT	-10.0407
AJIAdBIAcBIAdBI	-10.0411
BmiUX	-10.0421
MjS	-10.0421
wcX	-10.0422
cFAAAAAGaJ	-10.0426
IAcJIi	-10.0434
Oe	-10.0434
LP	-10.0441
Gc	-10.0445
hVT	-10.0448
Jy	-10.045
QkO	-10.0452
SWP	-10.0458
8//8	-10.0465
sB	-10.0469
XW	-10.0477
HG	-10.0482
NUP	-10.0497
mOcIPQ	-10.0503
pAAAA	-10.0505
RIu	-10.0506
cAD	-10.0523
wAAAAAAAAADg	-10.0526
AAAAAGaJ	-10.0527
ZokFAAAAAJ	-10.053
iLXCT	-10.0531
PQs	-10.0536
EiJBQAAAAB	-10.0537
iIX	-10.0541
cAAAA	-10.0549
EGL	-10.0551
uQ	-10.0556
kU	-10.0576
cAAAAHAAAAAAAAAD	-10.0578
Cd	-10.0578
Tr	-10.0588
EiLRCS	-10.0589
NH	-10.0601
AJIAdBIAcBI	-10.0607
wEAAA	-10.061
AAAABIi	-10.0613
EAAAB	-10.0616
IAdAPt	-10.0626
QkS	-10.0635
hQz	-10.0636
EiNFIUAAAAA	-10.0644
EH	-10.0648
BAAC	-10.0651
VwOs	-10.0673
Hr	-10.0681
hUT	-10.0686
FN	-10.0692
EgPR	-10.0693
IBQAAAAB	-10.0694
PthUAAAAA	-10.0696
uv	-10.0699
AAEiJ	-10.07
CSIkFAAAAA	-10.0707
QYA	-10.0715
AUAA	-10.072
hmg	-10.0726
XQSDnC	-10.0727
SYH	-10.0727
sX	-10.0737
AAAAADr	-10.0739
Iaf	-10.0739
XYSItF	-10.0743
Fq	-10.0746
EiLVdhIi	-10.0752
gAAAAAAAAAD	-10.0757
GaJRc	-10.0762
zP	-10.0768
AgP	-10.077
Bu	-10.077
AQAAAEEOEIYCQw	-10.0773
IiwUAAAAA	-10.0775
es	-10.0784
LB	-10.0791
woP	-10.0796
ew	-10.0796
BIu	-10.0797
YEA	-10.0802
um	-10.0824
BOc	-10.0836
EiYSI	-10.0847
SGnS	-10.0849
wAAAE	-10.0861
AJI	-10.0869
LF	-10.0871
///41	-10.0874
iLRCT	-10.0883
gDw	-10.0885
APvs	-10.0897
GaF	-10.0902
Jic	-10.0903
df	-10.0914
ib	-10.0926
SMeF	-10.093
uk	-10.0938
Nm	-10.0938
QhgJDDQYC	-10.0938
ABhMAPh	-10.0955
GYPH	-10.0962
bAAdCFw	-10.0964
AOm	-10.0964
AGEwA	-10.0969
cF	-10.0982
UM	-10.0991
EiLhCS	-10.101
/3//	-10.1021
Cn	-10.1032
tM	-10.1037
AHR	-10.1041
AAAAAAAAADgBAAAA	-10.1052
EiJBQAAAACQ	-10.1054
EWE	-10.1055
JNh	-10.1056
pw	-10.1058
dAAAAAE	-10.1059
hTD	-10.1068
Owg	-10.1071
ZB	-10.1079
MAR	-10.1081
IjZ	-10.1086
wDnCD	-10.1095
CJw	-10.1095
hjykhj	-10.1096
td	-10.1102
IH	-10.1104
BQAAAACD	-10.1108
SIXAD	-10.1109
IjQR	-10.1124
AJIicJIi	-10.1137
AAAAAAAAAASw	-10.1137
hfj	-10.1139
Tp	-10.1145
oH	-10.1145
Vx	-10.1153
QYH	-10.1163
MjT	-10.117
WaD	-10.1182
iTUAAAAA	-10.1187
Li	-10.1203
vCQ	-10.1216
SLo	-10.1231
Xa	-10.1232
Kj	-10.1232
SAHISI	-10.1236
BDAcIAAA	-10.1239
nW	-10.1253
Fh	-10.1258
FwHQ	-10.1258
ifCJ	-10.1258
el	-10.1259
DQAAAAA	-10.126
wPj	-10.1263
ZP	-10.1269
AQwHCAA	-10.1283
JOh	-10.1287
AAAAAAAAABZ	-10.1302
tCT	-10.1303
hST	-10.1307
LgAAAAAAAAAO	-10.1311
cQ	-10.1329
Ptlwk	-10.1335
BIiUX	-10.1336
IjQT	-10.1338
BQAAAAAPt	-10.1356
jE	-10.1356
AiDUAAAAA	-10.1372
GaJBQAAAAB	-10.1373
QkW	-10.1373
7+//8	-10.1376
miYX	-10.138
wAQAA	-10.1383
YtF	-10.1385
EiNFQAAAAB	-10.1388
IjY	-10.1388
zp	-10.1394
AAAABM	-10.1395
iNDBAPt	-10.1398
AAAAAi	-10.14
nQSMHgBEgp	-10.1413
IidBIweADSAHQ	-10.1422
AABID	-10.1431
QX	-10.1438
hSz	-10.144
ZoH	-10.1442
AfCT	-10.1446
Qka	-10.1446
hE	-10.1451
SAHCSItF	-10.1454
Pn	-10.1455
Bn	-10.1455
nz	-10.1464
mOcIPTcKY	-10.147
Fx	-10.1471
AiD	-10.1479
ZkWF	-10.1484
AQAAAAAAAA	-10.1494
USJ	-10.1494
Qx	-10.1496
wIgFAAAAA	-10.1496
PvoU	-10.1497
CZokFAAAAA	-10.1522
BAAAPt	-10.1525
mN	-10.153
gMAA	-10.154
gAQAAAAAAAD	-10.1549
Wa	-10.1551
APlM	-10.1552
AAEg	-10.1559
IweAE	-10.157
gEAAAAAAAA	-10.1571
olF	-10.1577
BQAAAABm	-10.1579
LZ	-10.1584
wkS	-10.1595
oBAAAA	-10.1604
QEAAA	-10.1605
bAD	-10.1608
UYSAHQ	-10.1609
Uj	-10.1617
AAABBDhCGAkMNBgM	-10.1618
dd	-10.1626
JmiQUAAAAA	-10.1628
ja	-10.164
cEU	-10.1642
SYs	-10.1647
iUwk	-10.1648
sH	-10.1653
SJgPtwRC	-10.1655
Lc	-10.1659
zr	-10.1665
wOs	-10.1673
AAACJ	-10.1673
sFu	-10.1678
SAHB	-10.1687
TZ	-10.1692
NR	-10.1702
Nwg	-10.1703
ohV	-10.1705
Ehjy	-10.1706
cJP	-10.1716
IgFAAAAAJ	-10.172
SLq	-10.172
SLp	-10.1722
nE	-10.1722
598	-10.1722
iJRCR	-10.1722
ZFz	-10.1725
GaDv	-10.173
iwSQ	-10.1732
wn	-10.1736
hdJ	-10.1737
nCT	-10.174
MO	-10.1741
IAgAA	-10.1742
iNU	-10.1768
JIAAAAB	-10.1775
JIiQUAAAAA	-10.1777
AQAASA	-10.1778
hJ	-10.1778
DjCD	-10.1789
wotF	-10.1789
lCT	-10.179
qAAAA	-10.1792
gBAAB	-10.1802
Elp	-10.1813
AAPlM	-10.1813
gAD	-10.1829
iFwA	-10.1833
jRTFAAAAAEgB	-10.1837
FP	-10.1838
br	-10.1842
CDhBCDgh	-10.1847
BQAAAAAx	-10.1847
oT	-10.1849
IjRQA	-10.186
JJh	-10.1873
weAESInCSItF	-10.1877
jCT	-10.1886
hg	-10.1889
GaJBQAAAACQ	-10.1895
SGPQSInQSAHASAHQ	-10.1898
QYD	-10.1905
AAAAABL	-10.1906
UgD	-10.1906
ut	-10.1907
Qff	-10.1912
QEAAAAAAAAAAAAAA	-10.1913
jc	-10.1916
Fr	-10.192
hRD	-10.192
AAAAAAAAABa	-10.193
AAADrBb	-10.1935
hQD	-10.1937
EgByEgB	-10.1939
en	-10.1943
PtpW	-10.1962
AADE	-10.1964
Mcl	-10.1973
Ptnwk	-10.1978
JMh	-10.1979
cC	-10.1981
lB	-10.1983
IiUXoSItV	-10.1988
LQAAAAB	-10.1988
wUAAAAA	-10.199
AAAAEiJ	-10.1991
wkU	-10.1994
EiNFABIi	-10.1997
XAiAUAAAAAD	-10.1998
hQT	-10.2014
iLfCR	-10.2015
IiwUAAAAASIlF	-10.2031
QkU	-10.2035
Eh	-10.2036
mOcIPTsKY	-10.2036
og	-10.2037
yb	-10.2038
Egp	-10.2038
wIAAAAAAAAAAAAAA	-10.2056
CQAA	-10.2065
xIY	-10.2067
hIm	-10.2069
IAdAPtgAPts	-10.207
LT	-10.2079
AAEiL	-10.2093
hfz	-10.2101
miQUAAAAAD	-10.212
hmiQUAAAAA	-10.2123
Och	-10.2127
dU	-10.2136
oSI	-10.2141
iciI	-10.2151
AEAACAAHAIn	-10.2158
hej	-10.2164
lR	-10.2165
IAdBIg	-10.2177
JPB	-10.2194
XH	-10.2207
iLRCR	-10.2213
SGPQSInQSMHgAkgB	-10.222
AIAAAAAAAAAAAAAA	-10.2224
IiYV	-10.2233
dZ	-10.2239
EwBw	-10.2246
iJXCT	-10.2247
gEAAE	-10.2249
SIuFcP	-10.2249
PtlQk	-10.225
AOs	-10.2252
ECE	-10.2257
AAAAAOm	-10.2258
RC	-10.2261
QG	-10.2269
otV	-10.2271
EAc	-10.2272
EiLBM	-10.2274
Tf	-10.2274
LU	-10.2276
ds	-10.2289
UgSAHQ	-10.2289
OU	-10.2298
HP	-10.2301
Hx	-10.2307
Us	-10.231
Xz	-10.231
yP	-10.2321
dj	-10.2323
HE	-10.2325
qN	-10.2333
EiYD	-10.2335
SAFF	-10.2346
TTn	-10.2352
ARIKdBI	-10.2355
Fu	-10.2366
JNB	-10.2375
wEg	-10.2377
wPv	-10.238
ABAABIi	-10.2381
ImF	-10.2383
lCQ	-10.2384
dT	-10.2385
APg	-10.2386
ANIKdBI	-10.2395
UoSAHQ	-10.2396
AOk	-10.2398
QIAAAAAAAAAAAAAA	-10.24
hcl	-10.2402
FyQ	-10.2405
AOt	-10.2412
Ec	-10.2414
Qj	-10.2416
JJg	-10.2424
hMA	-10.2425
tB	-10.2436
cp	-10.2436
ZFi	-10.2442
ZCT	-10.2445
bB	-10.245
UJP	-10.2456
AQAASIt	-10.246
IAchI	-10.2469
iLfCT	-10.2471
IAch	-10.2473
AAAAAAAAAAdg	-10.2477
iNDBAPv	-10.2477
EkPv	-10.2493
Exj	-10.2498
QkC	-10.2507
wkG	-10.2516
kj	-10.2517
LY	-10.2517
oU	-10.252
Em	-10.2525
PP	-10.2537
BwAAAAAAAAAAAAAA	-10.2539
VIi	-10.2541
LRR	-10.2543
ANIicJIi	-10.2548
iIW	-10.2548
kPt	-10.2559
TIk	-10.2563
Zm	-10.2578
IkFAAAAAJ	-10.2582
SMHgAkgB	-10.2592
gFAAAA	-10.2594
UwB	-10.2595
CIBQAAAAB	-10.2598
UJN	-10.2598
wka	-10.26
wIkFAAAAA	-10.2601
BAAD	-10.2602
ZU	-10.2623
cJN	-10.2625
aE	-10.2627
Fn	-10.2636
Fc	-10.2642
ej	-10.2659
kEPt	-10.2661
ul	-10.2664
QkY	-10.2665
CiQUAAAAA	-10.2665
pP	-10.2673
JIm	-10.2676
KAAAA	-10.2684
TGv	-10.2685
AgAASI	-10.2689
EiYSIkFAAAAA	-10.2693
bp	-10.2698
Uhp	-10.2706
kGJ	-10.2709
ot	-10.2712
PvoW	-10.2724
kAAAAAAAAAA	-10.2731
xj	-10.2734
TIlN	-10.2739
IjVD	-10.2747
idCI	-10.2748
AAAAAAAAAFABAAAA	-10.2749
ny	-10.2749
hjy	-10.2753
EOMEEOKEIOIEIOGE	-10.2757
cT	-10.2764
kgPT	-10.2764
GAl	-10.2767
tAAAAA	-10.2767
PtxUAAAAA	-10.2774
hRT	-10.2782
AQQ	-10.2783
yn	-10.2789
gPr	-10.2794
fgAAAAAB	-10.2796
de	-10.2797
hjyUhj	-10.2802
Hq	-10.2807
UyL	-10.2807
GZBg	-10.282
MJP	-10.2829
7+//9	-10.2829
ep	-10.283
JKAAAAB	-10.2831
ohF	-10.2835
AABIjZ	-10.2837
Jmg	-10.284
mR	-10.2846
cVAAAAA	-10.2851
gBwkiJ	-10.2857
TWn	-10.2858
qI	-10.2858
SDnQSA	-10.2862
ek	-10.2875
pIicJIweIDSAHCSI	-10.2894
Rj	-10.2894
AHASAHQSMHgAkgB	-10.2904
ixUAAAAA	-10.2905
tP	-10.2912
IBQAAAAD	-10.2913
JLh	-10.2917
wkW	-10.2918
EAAAAAAAPHwB	-10.292
ABAAAAAAAAO	-10.2922
QMAA	-10.2925
EPts	-10.293
IweADSI	-10.293
Ehpx	-10.2935
EAACAAHAFVIieVIg	-10.2937
gNIAcJIi	-10.2939
+//85	-10.294
3//2	-10.294
APtoV	-10.2941
ZEJP	-10.2947
PtgUAAAAAD	-10.2947
bG	-10.2951
JRCT	-10.2953
Fp	-10.2953
BQAAAACJ	-10.2957
GaJRb	-10.2976
6//9	-10.2981
EmL	-10.2985
UyJ	-10.2985
dp	-10.2991
IAfB	-10.2992
Pvo	-10.2998
AAAALn	-10.3
AAAAAAAAAAFQ	-10.3009
da	-10.3009
TR	-10.3012
RIh	-10.3014
iNFQAAAAB	-10.3016
IiQUAAAAAD	-10.3031
QF	-10.3042
xON	-10.3042
AAAAATI	-10.3043
UQSAHQ	-10.3048
IsFAAAAA	-10.3054
QkG	-10.3055
vz	-10.3061
iYQk	-10.3061
pm	-10.3066
BIAdBIi	-10.3078
AAAASIt	-10.3079
EAAAAAAC	-10.308
US	-10.3091
cU	-10.3094
UwSAHQ	-10.3114
weACSInCSItF	-10.3115
dg	-10.3117
ScH	-10.312
FID	-10.3127
AITAD	-10.3127
hCR	-10.3133
iUXYSItV	-10.3142
iYSI	-10.3146
AAAAASIkEC	-10.3148
AAABID	-10.3149
SAHCi	-10.3158
DQAAAAD	-10.3169
SIuFeP	-10.3174
Ge	-10.3174
BIidBIweACSAHQS	-10.3179
dR	-10.3183
RCTo	-10.3183
DAABIi	-10.3188
gIAAAAAAAAAAAAAA	-10.3193
uI	-10.3199
EiLXCR	-10.3199
Ho	-10.3199
Rex	-10.3201
gDAAB	-10.3206
Xu	-10.3209
JKh	-10.3211
LRCT	-10.3216
SGPI	-10.3217
wAAAADp	-10.3219
woXAD	-10.322
wImF	-10.3231
kAAAAAQQ	-10.3232
gByEjB	-10.3234
UAAAAHAAAAAAAAAB	-10.3237
SInISMHgA	-10.3241
JRfyLVfyLRf	-10.3243
IQ	-10.325
iQUAAAAAi	-10.3252
bj	-10.3256
OUW	-10.3256
RCSg	-10.3257
IweACSI	-10.3285
gBAAAAAAAA	-10.3291
PvoX	-10.3295
EQg	-10.3295
EiJyEjB	-10.3297
/////0	-10.3299
AABBD	-10.3299
Lo	-10.33
rg	-10.3313
cZ	-10.3314
RCSY	-10.3315
PtsB	-10.3315
ag	-10.3317
cH	-10.3321
wGaJ	-10.3329
wkE	-10.3332
ANIAchI	-10.3332
SGPy	-10.3349
IOEEIOCE	-10.335
EWJ	-10.3358
AhP	-10.3367
EiLFQAAAABI	-10.3373
AAAAAAAAAAFA	-10.3375
jS	-10.3376
et	-10.3385
jUj	-10.339
fhAAAAAAAZpB	-10.3395
OAAAAAAAAAA	-10.3399
InB	-10.3399
IOdBID	-10.3403
EiLhCT	-10.3404
ac	-10.3404
AQAAAOsFuAAAAA	-10.3437
HK	-10.344
ZFy	-10.3448
Ro	-10.3452
IjRTFAAAAAEiL	-10.3456
TF	-10.3456
AVIicJIi	-10.3464
nX	-10.3466
RCSo	-10.3466
hcAPlcCIBQAAAA	-10.3471
idCJ	-10.3471
Rdg	-10.3476
SGPySGPQSInQS	-10.3476
EiLRCQ	-10.3477
BDjBBDihCDiBCDhh	-10.3486
SMHgAkiN	-10.3489
hED	-10.3499
Rz	-10.3499
QkgAAAA	-10.3503
iNFQAAAABIAdBAiD	-10.3508
LAAAA	-10.351
ZFv	-10.3511
AiAUAAAAA	-10.3513
kPv	-10.3515
ChcB	-10.3521
tD	-10.3522
JID	-10.3522
xMF	-10.3526
kH	-10.3533
bJ	-10.3544
AUW	-10.3562
AAABBDhCGAkMNBgO	-10.3565
dG	-10.3567
gNIjQ	-10.3573
Le	-10.3573
JMB	-10.3584
hez	-10.3587
Oj	-10.3588
XAiEW	-10.3593
xoU	-10.3595
RCSQ	-10.3598
SG	-10.3599
IiwTQ	-10.3609
hEi	-10.361
EgPvkX	-10.3626
LE	-10.3627
AAABBDhCGAkMNBgN	-10.3634
wEhj	-10.3636
JIh	-10.3645
La	-10.365
wkc	-10.3659
vr	-10.366
Uz	-10.3671
ZBg	-10.3672
hNJ	-10.3675
IFQAAAAB	-10.3684
UH	-10.3693
jHA	-10.3703
iNDQAAAABIiQQK	-10.3719
YT	-10.372
Qkc	-10.372
OcF	-10.3727
mRIk	-10.373
Lb	-10.3738
SIkFAAAAAJ	-10.375
QkK	-10.3751
PtwRQ	-10.3752
EgPT	-10.3761
BjU	-10.3763
Qke	-10.3765
AiH	-10.3765
PvpV	-10.3769
AAAAAAAAAAGg	-10.3777
UO	-10.3777
AACD	-10.3781
wEAAE	-10.3784
xOL	-10.3788
AAAAAAAAAAFM	-10.3792
cJM	-10.3794
cL	-10.3802
AgAAAAAAAD	-10.3804
khjyUhj	-10.3821
wAAAAcAAAAAAAAAC	-10.3824
FhP	-10.3829
AAAAAAAAABU	-10.3835
GAAAA	-10.3835
bAiQUAAAAA	-10.3838
OMIPRsIPts	-10.384
Xe	-10.3844
CQy	-10.385
UAAA	-10.3851
JDh	-10.3853
QPh	-10.3853
gPtkX	-10.3857
mQYP	-10.386
RIs	-10.3863
FCP	-10.3863
EiJRehIi	-10.3864
AAAAAAAAAATA	-10.3865
SAHw	-10.3866
7//41	-10.3867
ZkGJ	-10.3869
jRQ	-10.3871
DnBD	-10.3874
AYAA	-10.3881
Bmx	-10.3881
iLRCS	-10.3885
Jif	-10.3895
EOe	-10.3907
McC	-10.3911
SAHQSIlF	-10.3912
fR	-10.3921
ZFr	-10.3923
QAAAAAAJB	-10.3926
IAdBIi	-10.3929
AAAAAAAAAASg	-10.3929
UyN	-10.393
miTUAAAAA	-10.3935
GAEAAAAAAAA	-10.3936
FQAAAAAPt	-10.3939
FfP	-10.3941
EiJBQAAAABIi	-10.3946
FwHR	-10.3953
SIuN	-10.396
IPts	-10.3962
RCTg	-10.3963
icK	-10.3963
UAAAA	-10.3968
PtwUAAAAAZolF	-10.3976
DnQf	-10.3979
EiJBQAAAAD	-10.3982
ZscFAAAAAAAA	-10.3982
EuN	-10.3991
wMAA	-10.3998
EiLfCS	-10.4001
IiTUAAAAA	-10.4004
RTH	-10.4004
wEAAAAAAAAAAAAAA	-10.4005
IRe	-10.4014
PHwB	-10.4014
EiYSIlF	-10.4019
SGPQ	-10.403
JLgAAAB	-10.4038
tCQ	-10.4042
Hi	-10.4049
AEAACAAHAEFX	-10.4049
weADSInCSItF	-10.4052
jP	-10.4062
gPR	-10.4062
JJB	-10.4063
Xq	-10.4064
hfZ	-10.4072
AAAAAAAAAAhQ	-10.4073
UJO	-10.4076
nb	-10.4079
ez	-10.408
em	-10.4084
BmiQUAAAAAD	-10.4086
FAAAAAI	-10.4086
AAEgB	-10.4092
AAAAAAAAABb	-10.4093
Eid	-10.4096
AAAAAAAAABR	-10.4099
bAhcAPlcCIBQAAAA	-10.41
iDwA	-10.4101
iJwg	-10.4113
hbD	-10.4114
dm	-10.412
Ptkwk	-10.4123
EAABIi	-10.4126
pmg	-10.4126
ZBD	-10.4131
MAAAB	-10.4131
QAAAAcAAAAAAAAAD	-10.4134
698	-10.4139
hrwA	-10.4141
MiUwk	-10.4145
AEAAEgB	-10.4146
YAAA	-10.416
ZEi	-10.4163
AEAAI	-10.4164
MJL	-10.4169
cJI	-10.4171
IjRS	-10.4174
IAcp	-10.4176
PvlW	-10.4176
GaJBQAAAAD	-10.4185
ZFq	-10.4186
Exp	-10.4191
EOd	-10.4192
dk	-10.4194
cK	-10.4196
IiT	-10.4196
hIa	-10.4198
ugEAAAB	-10.4202
whgZBDjiDB	-10.4204
JFh	-10.4208
wUiJ	-10.4208
Jid	-10.4214
JLAAAAB	-10.4215
kQPt	-10.4221
nK	-10.4226
FAAA	-10.4228
LRY	-10.4231
MH	-10.4244
gAAABIi	-10.4246
EiLBQAAAABI	-10.4247
wAAAAcAAAAAAAAAH	-10.425
IhV	-10.4259
KkAAAB	-10.4261
SInB	-10.4262
APtv	-10.4264
SPf	-10.4266
xfn	-10.4269
fT	-10.4271
PQAAAAD	-10.4272
PvlX	-10.4279
QkE	-10.4281
gBAAA	-10.4285
uY	-10.4287
bAZokFAAAAA	-10.4292
ZokNAAAAA	-10.4296
ImUj	-10.4297
iLT	-10.4298
Ihf	-10.4303
NQAAAAA	-10.4306
APtg	-10.4306
NQAAAAC	-10.4313
AUAAAAAAAA	-10.4313
UwSI	-10.432
UJM	-10.432
ERQ	-10.4331
iQUAAAAAk	-10.4335
heD	-10.4339
SIkNAAAAA	-10.4343
ZFu	-10.435
BmiUW	-10.4352
JBD	-10.436
Rdy	-10.4361
RCTw	-10.4364
AABIu	-10.4366
ZFx	-10.4373
Qz	-10.4373
XAhMB	-10.4376
LS	-10.4376
gBykgB	-10.4378
SJy	-10.4382
IBQAAAAA	-10.4384
Pp	-10.4391
wAAAAcAAAAAAAAAG	-10.4396
QAgAA	-10.4401
JOB	-10.4405
UT	-10.4409
EPlc	-10.4411
Tz	-10.4423
SJlI	-10.4428
eh	-10.4433
LH	-10.4434
EjU	-10.4436
PtnQk	-10.4438
RM	-10.4442
JIgAAAB	-10.4455
bT	-10.4458
gBAABIi	-10.4459
bk	-10.446
UiY	-10.4475
GBQAAAAD	-10.4476
rD	-10.4476
SDmF	-10.4493
IRd	-10.4494
AAAAAAAAAAsAAAA	-10.4495
RmiUX	-10.4496
JPh	-10.4496
hdz	-10.4496
7//9	-10.4498
gByEgB	-10.4498
gBwouF	-10.45
Sj	-10.4501
AEAAEiN	-10.4501
SAHwSI	-10.4502
PtgUAAAAAiEX	-10.4512
JLB	-10.4512
YhN	-10.4515
SJhIiwTC	-10.4518
SGPK	-10.4519
tc	-10.4519
wkgPRsJI	-10.4525
SIuFYP	-10.4529
wkiFwA	-10.4531
wEiN	-10.4531
IOUX	-10.4532
KDjBBDihCDiBCDhh	-10.4535
vCR	-10.4535
AAAAAAAAABT	-10.4541
AAAAEiL	-10.4542
cM	-10.4543
AHQJ	-10.4546
Sz	-10.4547
JJAAAAB	-10.4547
HABAAAA	-10.4551
Zc	-10.4555
CAAHAFVIieWJfeyJ	-10.456
EAAAAAAAEAACQAIA	-10.4561
PQAAAAC	-10.4565
cJC	-10.4572
IPAB	-10.4578
IsAhcB	-10.4583
KgAAAAAAAAA	-10.4583
JJgAAAB	-10.4587
dt	-10.4594
oAAAAAQQ	-10.4595
ImEhj	-10.4596
IAfh	-10.4596
YFAAAAAIiF	-10.4601
BCR	-10.4604
dID	-10.4606
dr	-10.4606
jQRCDiiMBUEOMIYG	-10.4608
InI	-10.4613
EiNNB	-10.4619
YgFAAAAA	-10.4621
BAIPts	-10.4625
SIsFAAAAA	-10.4627
EgPvs	-10.4627
QPtkX	-10.4633
DrB	-10.4639
VASI	-10.4644
AEAAEiJ	-10.4645
KN	-10.4646
AdD	-10.465
YnwiVX	-10.465
UoSI	-10.4652
BVFVT	-10.4662
ZFn	-10.4673
cAZoXAd	-10.4674
bAg	-10.4681
AEAAEiL	-10.4685
AHQHuAEAAADrBbg	-10.469
AOl	-10.4693
SIsVAAAAAEg	-10.4697
IjRR	-10.4705
nU	-10.4706
ZFt	-10.4707
RQH	-10.4707
AAAAAOn	-10.471
BQAAAABI	-10.4714
MfZ	-10.4725
rQ	-10.4728
JOc	-10.4729
QBAAB	-10.4729
AAPlc	-10.473
OcIPT	-10.4731
QkI	-10.4743
bCQ	-10.4745
GRCT	-10.4746
Elj	-10.4753
iYiwSC	-10.4754
AchI	-10.4755
QkiAAAA	-10.4756
XT	-10.4757
8//+	-10.4771
iFX	-10.478
SGvS	-10.4793
lCR	-10.4798
EiJykjB	-10.481
SAHQSIPA	-10.4814
oPv	-10.482
ixS	-10.4833
OcIPTsK	-10.4843
XASDnC	-10.4845
xgQ	-10.4845
SIM	-10.4847
VISI	-10.4847
NmZi	-10.4857
QID	-10.4866
AAAAAOt	-10.487
JAd	-10.4887
SH	-10.4891
RCTY	-10.4894
cO	-10.4897
ABhMB	-10.4902
EuNB	-10.4902
AAAAAAAAAAWQ	-10.4908
IjS	-10.4914
RCSw	-10.4915
EiLnCS	-10.4916
Uhr	-10.4919
IAAAAAAAAADgAAAA	-10.4925
HBQAAAAAAAAAA	-10.4929
hfD	-10.4931
ABAAC	-10.4931
OcEPj	-10.4933
Ou	-10.4937
AAAAABK	-10.4938
ANIAdB	-10.4939
AAAACL	-10.4953
dFz	-10.4959
AABmg	-10.4964
FVIieWJffyJ	-10.4964
IgVAAAAA	-10.4968
gPT	-10.4969
iJRCQ	-10.4974
AAABBDhCGAkMNBgP	-10.4976
AJIAchI	-10.4981
tU	-10.4983
AACA	-10.4984
IiUXw	-10.4986
FwHU	-10.5002
RU	-10.5004
AAgAA	-10.502
QVRVU	-10.5024
EqN	-10.5024
yAAAA	-10.5025
EiLT	-10.5031
jCQ	-10.5039
UEPt	-10.5041
hcj	-10.5043
Ti	-10.5046
AAAAASAH	-10.5047
LQAAAA	-10.5048
dz	-10.5054
BMA	-10.5054
kgBy	-10.5056
HBQAAAAB	-10.5059
uAAAA	-10.5061
ImEhjykiJwk	-10.5063
RE	-10.5068
InQiEX	-10.5075
QAAAEiJ	-10.5077
YAgAA	-10.5079
CnQ	-10.5092
uB	-10.5093
sPt	-10.5101
BIjR	-10.5101
CDwA	-10.5104
rp	-10.5111
BIx	-10.5116
fAZokFAAAAA	-10.5124
KQ	-10.5129
AABIa	-10.5131
JKgAAAB	-10.5132
LBQAAAACJ	-10.5138
kiB	-10.5141
Tievf	-10.5143
AHASAHQSAH	-10.5144
EgPvkW	-10.5145
AABEi	-10.5147
OYV	-10.515
iYSIsEw	-10.515
SIsFAAAAAEiJ	-10.5153
du	-10.5162
UJK	-10.5171
hcz	-10.5172
iLRU	-10.5178
XO	-10.5182
AAAAAAAAAABk	-10.5186
AAAAASIkUC	-10.5188
PttJ	-10.5197
EiNPQAAAAB	-10.5198
Rm	-10.5203
hIAdBIi	-10.5207
na	-10.5212
IjRT	-10.5217
hdD	-10.5219
AfhI	-10.5219
QAAD	-10.5241
UgSAHC	-10.5252
UGJ	-10.5255
OEAAAB	-10.5269
bASIkFAAAAA	-10.527
xwUAAAAAAAAAA	-10.5273
wAAD	-10.5276
hy	-10.5276
heT	-10.5277
AGAAB	-10.528
hdIPh	-10.5282
XAiIV	-10.5289
/7//4	-10.5296
JNgAAAB	-10.5311
AOP	-10.5312
yo	-10.5319
RDj	-10.533
EiLRR	-10.5331
SItVyEiLRcBI	-10.5335
PQAAAAA	-10.5342
SGPQSInQSMHgA	-10.5344
AUX	-10.5344
EwHQ	-10.5345
Rmg	-10.5347
FXP	-10.5348
jXD	-10.5349
HBQAAAAD	-10.535
ISA	-10.5356
dh	-10.5358
Rdh	-10.5358
rH	-10.5359
QkmAAAA	-10.536
wkiL	-10.5363
ZkE	-10.5365
CAAHAEFXQVZBVU	-10.5365
hZj	-10.5372
iLdCT	-10.5389
JAf	-10.5391
UYSAHC	-10.5393
JKB	-10.5406
OEI	-10.5407
nCQ	-10.5411
cS	-10.5414
UJL	-10.5416
JOAAAAB	-10.5417
iJRCS	-10.5426
Reh	-10.5429
CIBQAAAAAPt	-10.5432
DwAJ	-10.5432
AHQg	-10.5435
oOMEEOKEIOIEIOGE	-10.5437
Xsi	-10.5438
SAHy	-10.544
AEAAAAAAAB	-10.5449
GaJBQAAAABIi	-10.5451
AAAAAAAAAAhg	-10.5453
AMAAA	-10.5459
AAAEEOEIYCQw	-10.5463
iYW	-10.5466
iNDQAAAABIiRQI	-10.5469
miYW	-10.5472
AJIi	-10.5479
bAiAUAAAAA	-10.5479
wkY	-10.5482
GaJRa	-10.5483
MTieT	-10.5486
zR	-10.5488
EiNHQAAAAB	-10.5491
UgSI	-10.55
BIAc	-10.5501
TWv	-10.5506
dH	-10.5509
OcIPTcK	-10.551
AAAAAAAAABY	-10.5515
eT	-10.5519
Oi	-10.5527
AABIx	-10.5532
HL	-10.5533
VAAAAAIgME	-10.5534
AAAAAAAAAAPg	-10.5542
Qe	-10.5543
qg	-10.5545
EiNFQAAAABIAdDGA	-10.5551
AAAAAEiN	-10.5553
iLRd	-10.5558
QkoAAAA	-10.5563
YhF	-10.5567
hfT	-10.5567
EgBwotF	-10.5572
ZokFAAAAAE	-10.5584
FTP	-10.5584
rCS	-10.5607
XK	-10.561
wIgFAAAAAA	-10.5611
AAAAAAAAAAHg	-10.5614
gCAAAAAAAA	-10.5615
ECIPQAAAAD	-10.5618
iLRZB	-10.563
oiF	-10.5648
IRCT	-10.5649
AAABMi	-10.5649
ZpB	-10.5651
IweIE	-10.5652
MjQUAAAAA	-10.5656
jTwQD	-10.5656
ZID	-10.5658
SIPAB	-10.566
jTQCD	-10.5661
HBQAAAAA	-10.5663
UoSAHC	-10.5663
AAAAAAABgAAAAA	-10.5669
lImEhj	-10.567
icIPtkX	-10.5671
GaB	-10.5674
MOc	-10.5676
PQt	-10.5678
QAAAABMi	-10.5687
FIg	-10.5687
RCTQ	-10.5692
wEiNFQAAAABmiQwQ	-10.5692
EnB	-10.5694
MHgAkiJwkiL	-10.5697
Jn	-10.5701
YtV	-10.5706
LG	-10.5707
BIjQ	-10.5709
BQAAAABmg	-10.5719
FAAB	-10.572
CRQ	-10.5727
IsEg	-10.5728
ABHQ	-10.5728
ECA	-10.5731
JEh	-10.574
rBbg	-10.5746
TIs	-10.5747
QkkAAAA	-10.5749
SIsA	-10.5752
pID	-10.5753
NQAAAAD	-10.5758
IOEEIOCAAAAAAA	-10.5761
gBAAC	-10.5763
RCQQ	-10.5776
BIAdCL	-10.5779
weAFSInCSItF	-10.5783
ZImEhj	-10.5783
IsFAAAAAIlF	-10.5786
AAEi	-10.5787
ESJw	-10.5796
VQSI	-10.5798
wkgAAAA	-10.5803
dBIweACSAHQSAHA	-10.5814
dY	-10.5814
kYXRhLmNzdD	-10.5821
wkK	-10.5821
hdT	-10.5825
icGL	-10.5827
SInQSAHASAHQSMHg	-10.5828
UDAcIAAAA	-10.5831
FeP	-10.5837
dS	-10.5838
JEB	-10.5842
khjy	-10.585
BAABID	-10.5858
rr	-10.5864
RIk	-10.5864
Rcy	-10.5866
kSN	-10.5871
AAAASIm	-10.5875
AABmx	-10.5883
iwUAAAAAiUX	-10.5886
eU	-10.5891
icFIi	-10.5894
AADF	-10.5894
yIn	-10.5896
RhdGE	-10.5901
BAAAAAAAAD	-10.5909
wjn	-10.5909
FMf	-10.5913
FUVVN	-10.5917
ZFp	-10.5921
SIuFaP	-10.5922
XISItFwEg	-10.5924
AAAAAOs	-10.5927
cBIjRUAAAAAZokME	-10.5929
hbj	-10.5936
WZmL	-10.5943
RYg	-10.5944
UJE	-10.5944
VAAAAAIkME	-10.5952
AAAATI	-10.5965
QkqAAAA	-10.5971
QkuAAAA	-10.5984
bQD	-10.5988
iLRZh	-10.5988
wke	-10.599
haj	-10.5992
InQ	-10.5997
GaJBQAAAAA	-10.6007
cd	-10.601
ZEJO	-10.6012
AIAAEiJ	-10.6013
zHA	-10.6015
UwSAHC	-10.6016
NAAAAAIkUC	-10.6019
BjY	-10.602
kgPR	-10.602
IKc	-10.6023
AQAASIm	-10.6023
IixUAAAAA	-10.6029
EOc	-10.6034
DwAN	-10.6037
mOc	-10.6038
EgBwEiJwkiL	-10.6038
CDhBCDggAAAAAAAA	-10.6039
dBIAcBIAdBIweAC	-10.6042
cc	-10.6046
EiLdCS	-10.6059
EAd	-10.6059
IkVAAAAA	-10.6061
oAQAAAAAAAD	-10.6063
gAgAA	-10.6068
Rdx	-10.6068
AAAAAOk	-10.607
bo	-10.6074
JMi	-10.6078
AAAAAiRQI	-10.608
khpw	-10.6092
ANIjQ	-10.6097
SIuFUP	-10.61
pIg	-10.6101
SAHG	-10.6111
JFB	-10.6113
EiJBQAAAAC	-10.6116
yEhj	-10.612
MHgBEgp	-10.6125
JQAAAAB	-10.613
EiNFQAAAABIAdCIC	-10.6138
oSIl	-10.6146
rBbj	-10.6148
mQYM	-10.6153
TAHA	-10.6154
HuAEAAADrBbg	-10.6164
JFA	-10.6168
xkiJ	-10.6176
VwIgFAAAAAJ	-10.618
mRDn	-10.6185
dL	-10.6185
Rcx	-10.6192
SGnJ	-10.62
FcP	-10.6205
ZFs	-10.6206
GaJBQAAAAC	-10.6212
EiNBI	-10.6213
NBD	-10.6218
AAAAAAAAAAJg	-10.6219
RCSI	-10.6219
AAAABwAAAAAAAAA	-10.6222
ZIA	-10.6222
SAHK	-10.6223
kAAAB	-10.6225
AAAAAAAAAAFI	-10.6227
SGPJSJhIY	-10.6228
iLRR	-10.6234
iAUAAAAAi	-10.6235
IxwUAAAAAAAAAA	-10.6238
Afd	-10.6245
AQAAS	-10.6254
ZCS	-10.6259
Xy	-10.6275
hbz	-10.6276
jgNCDiCNBEIOKIwF	-10.6277
hMl	-10.628
IweI	-10.6288
wkgPTcJI	-10.629
bASIlF	-10.6294
VAAAAAEiJ	-10.6295
FQAAAACJ	-10.6296
cj	-10.6297
cAAA	-10.6301
VASAHQ	-10.6302
iJBQAAAAB	-10.6305
Rbg	-10.6311
okFAAAAA	-10.6314
JMAAAAB	-10.6323
AAAAAAAAABS	-10.6325
JMgAAAB	-10.6325
EiUQk	-10.6327
ZFj	-10.6327
ZFm	-10.633
FBD	-10.6331
QSA	-10.6334
RBD	-10.6334
INF	-10.6337
AAAASItV	-10.6341
IgUQk	-10.6341
JXCT	-10.6342
ifh	-10.6342
Gb	-10.6352
AAAAAAAAAAeA	-10.636
QksAAAA	-10.6367
Djh	-10.6367
SAHwSMHgA	-10.637
MjRUAAAAA	-10.6372
hIAc	-10.6376
TieT	-10.6378
Ofh	-10.6384
jCR	-10.6386
AgAAi	-10.6402
SJhIiUX	-10.6415
AABIAc	-10.6422
iJRehIi	-10.6423
GaJRfwPt	-10.6428
KdC	-10.6432
AwAAD	-10.6438
oAgAA	-10.6439
CDAcIAAA	-10.644
ZFh	-10.6445
EQPv	-10.6446
OdAPT	-10.6453
CAACL	-10.6466
AAAAAAAAAMwAAAA	-10.647
NcP	-10.6471
SJiLBI	-10.6471
OII	-10.6479
xn	-10.6481
iLRc	-10.6481
RIlN	-10.6483
SIPAA	-10.6486
gPtg	-10.6488
IPtt	-10.6491
iNFIUAAAAA	-10.6492
Hc	-10.6497
SAHwSAHI	-10.6497
HAAAA	-10.6498
IRc	-10.6507
xyU	-10.6511
KFwA	-10.6519
UJJ	-10.6522
mhf	-10.6523
PvpU	-10.653
ZoXAD	-10.6532
gLwk	-10.6533
AAAAAAAAAAhw	-10.6534
Hh	-10.6537
zz	-10.6538
IweY	-10.6538
AAAAAAAAAAPA	-10.6559
SGPKSGPQSInQS	-10.6559
AdAPt	-10.6563
AAMaF	-10.6563
cG	-10.6564
hcAPlMAPts	-10.6567
Elr	-10.657
Elpx	-10.657
BIac	-10.658
bz	-10.6581
haz	-10.6584
AABED	-10.6584
iNFMUAAAAA	-10.6589
RInA	-10.6592
chIAcBIAchI	-10.6594
EiDwB	-10.6606
OUQk	-10.6613
AAAAAAAALn	-10.6617
UYSI	-10.6624
RIl	-10.6624
FGP	-10.6627
JNAAAAB	-10.6631
HQGD	-10.6632
AEAACAAHAECE	-10.6633
xwE	-10.6635
QkMn	-10.6636
gPvkX	-10.6637
BQAAAABIi	-10.664
EiLhCQ	-10.6643
LoBAAAA	-10.6648
FMP	-10.665
AHASInCSItF	-10.6655
AcAA	-10.6655
SInQSAHASAHQ	-10.667
JOgAAAB	-10.6671
FUP	-10.6675
QAAE	-10.6676
BQAAAABIg	-10.6677
ASIkFAAAAA	-10.6678
ItN	-10.6682
SYM	-10.6688
bb	-10.6695
AAPlMAPts	-10.6698
kJDJ	-10.6701
IweAG	-10.6701
SIuFWP	-10.6707
UQSAHC	-10.671
PoA	-10.6711
iFwk	-10.6713
wEiNFQAAAABmxwQQ	-10.6714
wAPlM	-10.6714
AAAAAEyN	-10.672
Hd	-10.6723
AAACA	-10.6725
OwkiJ	-10.6726
cBIjRUAAAAAZscEE	-10.6732
AOM	-10.6738
Th	-10.6746
GAAA	-10.6747
OAAAA	-10.6747
cJE	-10.6749
iAUAAAAAk	-10.6749
VYSI	-10.6763
iNNB	-10.6764
QAAAAcAAAAAAAAAC	-10.6771
iJfCT	-10.6775
AAAAAAAAAKABAAAA	-10.6779
YVAAAAA	-10.678
hIu	-10.678
TAAAABwAAAAAAAAA	-10.6786
Xm	-10.6786
wEA	-10.6787
SMcFAAAAAA	-10.6788
EAAAAAABIi	-10.679
pn	-10.679
InIiEX	-10.6791
FPP	-10.6802
jRSFAAAAAEgB	-10.681
FOP	-10.6818
JAABAAB	-10.6822
hYj	-10.6829
AAAAAAAAAAWg	-10.6836
DlF	-10.6842
AAAAAAAAADMAAAA	-10.6844
RTHA	-10.6849
MAEAAAAAAAA	-10.6856
oAwAA	-10.6868
SMHhB	-10.6871
gNIAcJI	-10.6872
YAAAB	-10.6874
iLRe	-10.6879
Wu	-10.6884
CAAAPt	-10.6885
NAAAAAIkEC	-10.6886
BOd	-10.6886
hcD	-10.6887
xgUAAAAAAU	-10.6888
AAAAAAAAAAII	-10.6889
oOOE	-10.6894
SItFGEgB	-10.6897
AAAAAqAAAAAQAAA	-10.6901
BFD	-10.6908
aj	-10.691
dBIweADSAHQSMHgA	-10.6913
PRM	-10.6922
ZBi	-10.6925
SItVIEgB	-10.6927
QkM	-10.6932
AZIicJIi	-10.6933
Tx	-10.6934
XSD	-10.6935
MiUQk	-10.6939
nL	-10.694
Eie	-10.6945
mRYX	-10.6948
NSP	-10.6952
JBg	-10.6957
UwIhF	-10.6959
wAAAAcAAAAAAAAAF	-10.696
IjVAB	-10.6962
BIjT	-10.697
iLRV	-10.6973
OR	-10.6976
EiNDQAAAAB	-10.6979
kGD	-10.698
GRf	-10.6987
AAAAAAAAAAcw	-10.6987
hcAPlcDr	-10.6988
iJRdBI	-10.699
AAAAAiQQK	-10.7
PQv	-10.7001
ZoXAd	-10.7002
AdAt	-10.7003
iwS	-10.7007
EOf	-10.7016
SInI	-10.702
AgAAAEEOEIYCQw	-10.7024
AJIjQ	-10.7024
AEAAAAAAAAAAEg	-10.7029
SItFyE	-10.703
CDhBCDghBCwAA	-10.703
fQAA	-10.7031
SMHgBEiJwk	-10.7032
iLRb	-10.7033
yEiLVchIi	-10.7037
EgPvoV	-10.7039
gBwg	-10.7041
IhcB	-10.7047
NIg	-10.7047
IBQAAAABIi	-10.705
rBb	-10.7057
AiHwk	-10.7065
IiUXg	-10.7066
EEPtg	-10.7071
icJIi	-10.7074
MJI	-10.7077
kiYD	-10.7078
gAAD	-10.7079
dx	-10.708
kMn	-10.7081
SGnG	-10.7081
JAh	-10.7088
FMe	-10.7094
AHI	-10.7099
GYB	-10.711
gPk	-10.7119
weADSI	-10.7127
QkyAAAA	-10.7136
AAAAAAAAABe	-10.7139
SIuFSP	-10.7143
EiJRfBIi	-10.7146
IQQsAAAA	-10.7147
AJIjRUAAAAAxwQQ	-10.7148
AEAACAAHAGaF	-10.7155
BIO	-10.7158
xfFz	-10.7161
SItFKEgB	-10.7165
SAHQiwCJ	-10.7168
kBAAAA	-10.7168
cJB	-10.7169
NID	-10.7171
AAAAAAACwAAAA	-10.7171
iEwk	-10.7175
gPvs	-10.7176
miR	-10.7177
ADAAB	-10.718
wkgPTsJI	-10.719
BBi	-10.7193
SMc	-10.7195
IsVAAAAA	-10.7198
ImIsEgo	-10.7201
SGPSSMHiA	-10.7204
LRa	-10.7206
SItFqE	-10.7209
EiLRbh	-10.7214
AAAAAAAACwAAAA	-10.7229
jQSVAAAAAEiJwkiJ	-10.7236
AAAAAKgAAAAEAAAA	-10.7239
BOf	-10.7246
bt	-10.7246
ZFl	-10.7256
SInQ	-10.7257
iLRa	-10.7262
SInCSMHiA	-10.7265
BJg	-10.7265
IjRTFAAAAAEiLRR	-10.727
iLhXD	-10.7271
Rfh	-10.7275
AHQHu	-10.7278
CAAAAQQ	-10.7282
FFP	-10.7291
IOEEIOCEELAAAA	-10.7295
DnCf	-10.7295
JGh	-10.7298
iLRah	-10.7303
SAHISMHgA	-10.7304
wkiNBJUAAAAASInC	-10.7304
AEAACAAHAEiF	-10.7305
OcIPRsK	-10.7305
BmiYV	-10.7307
3//+	-10.7308
khjyEiJ	-10.7327
IidBIweACSAHQSAH	-10.7328
iNUP	-10.7334
EiJhCS	-10.7337
AEAACAAHAEGJ	-10.7344
BIAcIPt	-10.7347
QEAAAAAAAA	-10.7355
RZg	-10.7361
IAdBIAfBI	-10.7369
ct	-10.7369
hZD	-10.7373
IlEJP	-10.7373
FbP	-10.7377
BAD	-10.738
Rag	-10.7383
iwSB	-10.7389
cJA	-10.7393
OYU	-10.7394
hrwD	-10.7399
EWN	-10.74
SItEJG	-10.7409
SItEJF	-10.7426
FAAAAAA	-10.7427
iLXCR	-10.7427
AAAAAMcE	-10.7428
UAAAAAQQ	-10.744
LVd	-10.7444
cFAAAAAA	-10.7445
SIsFAAAAAEg	-10.7447
SGnD	-10.7453
AAAARA	-10.7456
AHQL	-10.7458
hmiUW	-10.7462
FaP	-10.7463
wEAAAAAAAA	-10.7464
WbH	-10.7466
iJRfhIi	-10.7467
kmJ	-10.7473
hrwB	-10.7475
iLTCR	-10.7477
gJIjQ	-10.7483
EjHRfg	-10.7487
AQAATIu	-10.749
AAAASIl	-10.7493
SAHASAH	-10.7495
IDQAAAAB	-10.7503
PRs	-10.7512
SItVKEgB	-10.752
EiNPB	-10.7523
YSIl	-10.7524
iYSMHgA	-10.7526
RMi	-10.7545
uO	-10.7545
AJIjRUAAAAAiQwQ	-10.7548
EiNNQAAAAB	-10.755
EgPQs	-10.7552
xoX	-10.7556
MiY	-10.756
CIBQAAAACQ	-10.756
oPAA	-10.756
OfB	-10.7561
AAAATIu	-10.7569
ZAD	-10.7569
DJw	-10.7571
bR	-10.7571
jgNCDiCNBEUOKIwF	-10.7572
Afc	-10.7572
EmDw	-10.7575
hZz	-10.7576
fCTo	-10.7585
AAAAEyL	-10.7596
BQAAAAAB	-10.7607
EiDx	-10.7611
jQT	-10.7612
GAm	-10.7614
BIAcIPv	-10.7623
AAOs	-10.7629
EwXlu	-10.763
QIAAE	-10.763
wkmAAAA	-10.7637
IXSD	-10.7638
uH	-10.7643
QEAAE	-10.7648
AABIjQ	-10.7649
SItFIEgB	-10.7659
WwSDnC	-10.7664
SItFsEg	-10.7671
qQAAAEiJ	-10.7681
SItFE	-10.7694
TCn	-10.7695
JPAAAAB	-10.7696
Bxfl	-10.7696
QAAAAcAAAAAAAAAE	-10.7696
QYB	-10.7706
Tieff	-10.7707
JGB	-10.771
ElQAAAABIicJIi	-10.7713
YPtkX	-10.7718
nCR	-10.7719
EjY	-10.7726
BQAAAAAAAD	-10.7726
BJD	-10.7729
bgUAAAAA	-10.7729
iUXQ	-10.7732
kmD	-10.7736
hIAdCL	-10.7737
SItFEEgB	-10.7737
Exr	-10.7738
AAAAAAAAAAFE	-10.7739
ImEiLBMJI	-10.774
GaJBQAAAAAPt	-10.7746
ZolcJ	-10.7748
dFy	-10.7753
EAPtv	-10.7754
AAAAAAABoAAAAA	-10.7763
EEPts	-10.7777
gPvkW	-10.7779
EiLTCT	-10.7785
BBg	-10.7793
LVZ	-10.7794
SAHQSItV	-10.7798
Zmg	-10.7799
jRUAAAAASAHQQIgw	-10.7806
SAHQSDlF	-10.7809
oAAAB	-10.7813
QhgJDDQYCR	-10.7813
dIY	-10.7815
OGI	-10.7818
AYAAAAAAAA	-10.7819
SGPQi	-10.782
Rby	-10.7822
IAdBIiUX	-10.7824
GbHBQAAAAAAA	-10.7838
EiLnCT	-10.7839
mQYk	-10.7842
JfCT	-10.7844
qQAAA	-10.7845
uu	-10.7848
dBIweACSAHQSMHgA	-10.7855
hIiQUAAAAA	-10.7856
IjQy	-10.7857
JBQAAAACL	-10.7859
iYSGnA	-10.7862
EiLRehI	-10.7872
bAiUX	-10.7881
IicJIweIDSAHCSI	-10.7883
ABBDhCGAkMNBgK	-10.7885
FSP	-10.7895
/3//0	-10.7896
AAABIx	-10.7897
QhgJDDQYCQ	-10.7902
SItVMEgB	-10.7911
BIAdBIiw	-10.7912
PtoQk	-10.792
xMi	-10.7922
EiJBQAAAAAPt	-10.7928
uQEAAAB	-10.7929
MJC	-10.793
IPtkW	-10.7932
PvkQk	-10.7933
MPv	-10.7933
Nmg	-10.7938
APtoU	-10.7944
AAIlF	-10.7948
iLhUj	-10.7954
EEPT	-10.7959
ZFo	-10.7966
SItVEEgB	-10.7966
AAAAAAAAAAQwAAAA	-10.7967
RCTI	-10.7967
IAdBIA	-10.7969
ZoNF	-10.7977
hEiU	-10.7977
miVwk	-10.798
JPQAAAAD	-10.7983
iJyEgBwEgByE	-10.7983
CSIXAD	-10.7984
kCI	-10.7989
iUXY	-10.7989
kmN	-10.8001
jUr	-10.8004
RTHJ	-10.8004
IjQTA	-10.8015
ABgAA	-10.8017
GwkiJ	-10.8017
ZED	-10.8022
LVa	-10.8023
jYQ	-10.8027
AgAASIt	-10.8027
IidBIweAESCnQ	-10.8035
ZIg	-10.8035
tCR	-10.8044
IHq	-10.8044
FAAAAAEgB	-10.8046
hXr	-10.805
SItVGEgB	-10.8055
iJy	-10.8057
MYFAAAAAAF	-10.806
BAACJ	-10.8064
AgAASIu	-10.8065
AAAAAAAAAGgBAAAA	-10.8073
VgSI	-10.8073
EwPv	-10.8074
AAAAAZokUC	-10.8074
SIuVeP	-10.8076
wAAAAAQQ	-10.8076
EEPR	-10.8083
uFeP	-10.8086
UQPt	-10.8087
AdBIjRUAAAAASAHQ	-10.8088
QAQ	-10.811
iLRWh	-10.8112
dIg	-10.8115
gUAA	-10.8115
IAcK	-10.8118
ImEhp	-10.8118
SGPwi	-10.8118
JBQAAAACQ	-10.8118
DwG	-10.8126
QkAAEAA	-10.8127
JHh	-10.8128
EiNFQAAAABIAdB	-10.8129
SIuFMP	-10.813
SAHx	-10.8136
jQw	-10.8138
CIRd	-10.814
Pls	-10.8141
MJA	-10.8145
OwokFAAAAA	-10.8156
ifqIV	-10.8158
EiNU	-10.8158
AAAPtkW	-10.8162
AAAAAiBQI	-10.8165
FMi	-10.817
wkiAAAA	-10.8171
////99	-10.8171
iUXg	-10.8175
VDAcIAAAA	-10.8181
miXwk	-10.8182
gAAAAAAADg	-10.8182
iLlXj	-10.8183
jXj	-10.8188
SGPJSGPS	-10.819
RCn	-10.8193
AfAPtwRB	-10.8196
IweAF	-10.8197
Fmg	-10.8203
gAAAAAAAAADgAAAA	-10.8212
hWL	-10.8213
gIAAA	-10.8218
Bge	-10.8223
JLg	-10.8227
iYSAHASI	-10.8234
hIjQ	-10.8235
GaJRZ	-10.8237
CAAHAEFXQVZBVUGJ	-10.8247
iJyEjB	-10.8252
BQAAAABmiUX	-10.8256
nT	-10.8262
NwokFAAAAA	-10.8263
IjRTFAAAAAEiLRS	-10.8266
AAAAAAAAAzAAAAA	-10.8275
dq	-10.8277
CIRe	-10.8278
jQRFDiiMBUEOMIYG	-10.8279
jTQ	-10.8279
SMHgBUiJwkiL	-10.8279
iNFQAAAABIxwQQ	-10.828
wIAAA	-10.8281
EjHBQAAAAAAAAAA	-10.8282
MdK	-10.8284
GBQAAAAA	-10.8288
AAAAARA	-10.8293
Fhf	-10.8294
jQwQD	-10.8295
UGD	-10.8296
iLRdB	-10.8299
AAAATQAAAAAAAAA	-10.8305
AdR	-10.8307
SAHISAH	-10.8308
EPr	-10.8316
znQD	-10.8319
JPgAAAB	-10.832
FEP	-10.832
EiJRCS	-10.8322
AAAASAH	-10.8326
IAdB	-10.8328
AABIiUX	-10.8331
ECIM	-10.8332
fCTg	-10.8334
GRe	-10.8335
iUXo	-10.8336
ImIsEg	-10.8337
EiLdCR	-10.8343
jTQQD	-10.835
AAAAAAAEM	-10.8352
oCAAAA	-10.8358
wAAAAcAAAAAAAAAJ	-10.836
fCTY	-10.8364
JAgBAAB	-10.8366
gDp	-10.8366
wAAAAcAAAAAAAAAK	-10.8368
NAAAAAA	-10.8369
UJB	-10.8376
SGnH	-10.8377
IadL	-10.838
LVe	-10.838
hcT	-10.8381
DwokFAAAAA	-10.8382
chIAcBIAchIweAC	-10.8382
QBAAA	-10.8386
GbHRf	-10.839
AAAASAHQD	-10.8392
JBgBAAB	-10.8396
hdt	-10.8398
EGB	-10.8399
Xci	-10.84
hXb	-10.8406
hfYPh	-10.8407
IAAABIi	-10.8409
EiLvCS	-10.8412
wkkAAAA	-10.8414
lIidBIweACSAHQS	-10.8415
UJA	-10.8418
RIlF	-10.8421
NAAAAAIgUC	-10.8421
AiHQk	-10.8425
AAPlcAPtsA	-10.8433
HBQAAAAC	-10.8436
EiJBQAAAAA	-10.8442
JBQAAAAD	-10.8448
hIAcIPt	-10.8451
iNDQAAAAC	-10.8452
GbHBQAAAAD	-10.8454
RCRA	-10.846
IhcAPh	-10.8462
gPQ	-10.8471
AAAAAAAAAAig	-10.8472
Tt	-10.8472
SAHwiwSB	-10.8474
hckPh	-10.8475
ESJy	-10.8477
gCAABIi	-10.8481
EAEbDAcIkAEAAC	-10.8485
eUiJ	-10.8485
InCi	-10.8487
ISIl	-10.8504
iUWg	-10.8505
iFQk	-10.8507
PvsCD	-10.8511
AGaFwHQ	-10.8512
bCiQUAAAAA	-10.8513
AAAAAAAAABh	-10.8516
InG	-10.8518
AAAAEEOEIYCQw	-10.8522
ItcJO	-10.8522
EiLXCQ	-10.8523
AUiL	-10.8528
FWP	-10.8537
FKP	-10.8539
hWb	-10.8543
iLVch	-10.8544
pBD	-10.8544
Rch	-10.8548
Rey	-10.855
yEgBwEgByEgBwEgB	-10.8553
ce	-10.8557
APtsCJ	-10.8561
LXCT	-10.8564
uFaP	-10.8566
dFv	-10.8568
FdP	-10.8569
gPvoV	-10.8572
AAAAAAAAAAMg	-10.8576
QkwAAAA	-10.8577
ReR	-10.8579
tdQVxBXUFeQV	-10.8579
AAAAAAAAAAIQ	-10.8585
EiLTCS	-10.8587
AwAASI	-10.8587
Ige	-10.8592
QTj	-10.8596
SIsASIXA	-10.8598
AfB	-10.86
SGnB	-10.8605
AAAAAAAAAAGo	-10.8608
RYs	-10.8609
AQAATI	-10.861
jVB	-10.8616
AAEiD	-10.8616
PCB	-10.862
AABIY	-10.8621
EiLVe	-10.8622
vDQAA	-10.8622
AABIiYQk	-10.8623
EiNFA	-10.8623
SIsU	-10.8629
ZolV	-10.8633
hCSYAAAA	-10.8638
Iwec	-10.8639
AAABIg	-10.864
UAAAB	-10.8641
JFQAAAAB	-10.8644
hCSIAAAA	-10.8645
AEAAAAAAAAAAEw	-10.8645
18////	-10.8649
IPtsCFw	-10.8649
XCTo	-10.865
SGvJ	-10.8655
dFr	-10.8655
QAAAAAAI	-10.8656
iLRRhI	-10.8656
AJIAcJIi	-10.8659
AAAACoAAAABAAAA	-10.866
UhQAAAABIAdBI	-10.866
BbXUFcQV	-10.8663
SJhIweACSI	-10.8664
AEAACAAHAIX	-10.8664
SGN	-10.8666
FUVVOJ	-10.8671
SGNEJ	-10.8677
iJBQAAAAD	-10.8678
iLhWD	-10.8679
SIuFQP	-10.868
CIBQAAAABIi	-10.8694
ec	-10.8698
gGAAAA	-10.8699
IRb	-10.87
SYk	-10.8705
USN	-10.8705
DnID	-10.8712
Jgc	-10.8712
RID	-10.8714
CSIlF	-10.8715
SInISAHASAHISAHA	-10.872
gPtkW	-10.8722
QYg	-10.8735
OMIPTcIPvs	-10.8737
ZjnQD	-10.8745
AAAAAAAAABj	-10.8746
SGvADk	-10.8749
GaQ	-10.8754
EiLAEiJ	-10.8755
AAAAAAAAAAFU	-10.8756
GwokFAAAAA	-10.877
dFu	-10.8773
EgDhCS	-10.8775
AABJg	-10.8778
AAAAAOl	-10.8781
Ehpy	-10.8781
AABMA	-10.8785
oAAA	-10.8797
AAAAAAAAAAFo	-10.88
QkGAEAA	-10.8804
iNDBCL	-10.8805
AEAACAAHAEgPv	-10.8806
DwAR	-10.8808
jVQ	-10.8811
hbT	-10.8813
ffQ	-10.882
AcBIjRUAAAAAZok	-10.8822
RCRI	-10.8823
AAAPtoV	-10.8829
AAAAAAAAAAGw	-10.883
NMi	-10.8834
BAABMi	-10.8838
NIY	-10.8838
hWr	-10.8843
QAAAOsFu	-10.8847
JIjQ	-10.8849
AAAAAAAAAAGU	-10.8854
NAAAAAEiJ	-10.8854
CFwHQ	-10.8855
QkIAEAA	-10.8857
dFx	-10.8858
AdCDwA	-10.886
xwUAAAAAAQAAA	-10.8863
PlcAPts	-10.8873
gAAAAAQQ	-10.8874
ZgX	-10.8874
UwIiF	-10.8875
AAAASItF	-10.8892
iNPQAAAAB	-10.8897
IBQAAAAC	-10.8902
osEk	-10.8905
iLhUD	-10.8909
IAdCLA	-10.8913
AAAAAAAAANABAAAA	-10.8913
AcgPt	-10.8922
EjV	-10.893
QYt	-10.893
AIAAEiL	-10.8934
XCD	-10.8935
RcR	-10.8946
RdR	-10.8946
DwAKI	-10.8948
UmJ	-10.8948
IidBIweAESCnQSAH	-10.8954
THA	-10.8955
IiUXQ	-10.8955
AAAAAAAAAAGs	-10.8956
RZhI	-10.8961
Rdi	-10.8969
IAdCLAIXAd	-10.8975
SItFMEgB	-10.8985
HAAA	-10.8988
ZscFAAAAAAEA	-10.8988
iLRY	-10.8989
jZD	-10.8989
cAAAB	-10.8999
QkEAEAA	-10.8999
ZgW	-10.9007
pMi	-10.901
kUx	-10.9011
AAAAAAAAAANg	-10.9011
IxwUAAAAAAQAAA	-10.9012
EAAC	-10.9013
PttKD	-10.9015
hXL	-10.9015
BQAAAADp	-10.9016
weACSAHQSAH	-10.9017
GaJPQAAAAD	-10.902
JIAf	-10.9023
AAAAAAAAAAKg	-10.9023
EgByE	-10.9025
OcgPj	-10.9026
JBABAAB	-10.9029
SIuFOP	-10.9032
ZscE	-10.9039
AEAAADp	-10.9039
SItVuEiLRbBI	-10.9041
SIsVAAAAA	-10.9042
AAAAAAAAAAFY	-10.9042
VBQAAAAD	-10.9044
lID	-10.9045
SIkFAAAAAE	-10.9047
xwS	-10.9048
ZEA	-10.9053
JBQAAAABIi	-10.9053
AIiF	-10.9054
AAAAAAAAAAWw	-10.9055
EiLfCQ	-10.9057
AfBIiwTB	-10.9058
OMIPTsIPvs	-10.906
QxNgAu	-10.906
iwT	-10.9061
hpwK	-10.9065
ACAABIi	-10.9076
MTY	-10.9077
JBB	-10.9082
ifCI	-10.9084
VASAHC	-10.9086
IBQAAAAAPt	-10.9087
PTs	-10.9087
FyX	-10.9089
JCABAAB	-10.9092
AAAAHAAAAAAAAAD	-10.9099
EiUwk	-10.9101
CIRc	-10.9107
SAHY	-10.9117
iJRfBIx	-10.9126
EiLAEiFwHQ	-10.9128
SGnAuAoAAE	-10.9129
AAAAASIt	-10.913
BEic	-10.9131
EiLRfh	-10.9135
VISAHQ	-10.9148
SJgPt	-10.915
NAf	-10.916
SMdEJ	-10.9166
NSv	-10.9166
ifB	-10.917
QkCAEAA	-10.9171
AAAAAAAAAAGk	-10.9174
zHS	-10.9176
AAAAAAAAAAIMAAAA	-10.9177
kQB	-10.9184
SMHgC	-10.9185
AQAAAI	-10.9189
IweAGSInCSItF	-10.9191
IicJIAdJIAcJI	-10.9194
AiAUAAAAAD	-10.9197
hcAPlcAPtsA	-10.9205
GRd	-10.9209
ogVAAAAA	-10.921
gJIAcp	-10.9211
gAAAEIOEI	-10.9215
UPv	-10.9216
lAAAA	-10.9216
EiNR	-10.9223
BQAAAAAPts	-10.9224
AAAAAAAAAIABAAAA	-10.9226
rCT	-10.9228
IgNAAAAA	-10.9229
gDAAAAAAAA	-10.923
EPtkX	-10.9232
AAAAAEiL	-10.9234
APtsBI	-10.9235
jRUAAAAASAHQiA	-10.9236
ojAVBDjCGBk	-10.924
iLVCT	-10.9242
uq	-10.9247
iLhXj	-10.9248
ANIAfBI	-10.925
mRIl	-10.9255
sTi	-10.9257
icKLBQAAAAA	-10.9258
nQZokFAAAAA	-10.926
AfCLBIG	-10.926
SYt	-10.926
AAAAOdAPj	-10.9261
xID	-10.9264
MjTUAAAAA	-10.9266
EwBy	-10.9266
XAiIU	-10.9274
iNFQAAAABIiQwQ	-10.9276
YiF	-10.929
AAAAAAAAABX	-10.929
iNFQAAAAC	-10.9291
SItVOEgB	-10.9296
YAAAAAQQ	-10.93
ImEhr	-10.93
AfZ	-10.9301
ifmIT	-10.9304
BAABIg	-10.9311
iLVCS	-10.9327
AAAAAAAAAAiQ	-10.9327
tgAAA	-10.9327
dMi	-10.9328
fCSo	-10.9329
dFt	-10.9338
TIuk	-10.934
RCRQ	-10.9342
icIPtkW	-10.9343
APtkQk	-10.9344
PCiQUAAAAA	-10.9344
iLRCQ	-10.9348
FhO	-10.935
iLhTD	-10.9353
AAAAAEyL	-10.9355
SItVu	-10.9366
IKf	-10.9368
zBQAA	-10.9373
miXQk	-10.9377
wkoAAAA	-10.9379
AAPlcAPtsAB	-10.938
RTHS	-10.9382
SGnAxAAAAE	-10.9382
FQAAAAAx	-10.9389
YVAAAAAA	-10.9394
AgAASA	-10.9396
AAAAAEj	-10.9397
SAHwSIsEw	-10.9397
SMHmB	-10.9399
ZgU	-10.94
FgBAAA	-10.94
EiLtCS	-10.9401
FZP	-10.9404
fCTw	-10.9406
jnQD	-10.9406
AAAAAAAAABi	-10.9408
iLhVD	-10.9414
GbHh	-10.9415
PtkXc	-10.9425
idFIm	-10.9425
IAdBIAfhI	-10.9429
icIPtwUAAAAA	-10.9435
uFcP	-10.9435
gHQg	-10.9435
EiLRS	-10.9436
hcAPlM	-10.9442
IRf	-10.9444
IBQAAAACQ	-10.9445
NBE	-10.9446
EgPTM	-10.9453
EiJRdhIi	-10.9456
AAAAAAAAABd	-10.9462
kUPt	-10.9476
/////////	-10.9482
BEJm	-10.9489
IlMJP	-10.949
iNDQAAAAB	-10.9491
PttKB	-10.9492
AHQH	-10.9493
AAAATIt	-10.9495
Jad	-10.95
nJv	-10.9503
BQAAAAAPtgUAAAAA	-10.9504
oXAd	-10.9506
iLVCR	-10.9507
AAAAAGZ	-10.9513
EiFwA	-10.9514
ANIjRUAAAAASMcEE	-10.9515
hEic	-10.9516
hYz	-10.9518
SItFiE	-10.9519
fCSY	-10.9524
iUXsi	-10.9524
ARn	-10.9524
Afb	-10.9529
IidBIweADSAHQSI	-10.9531
RbhI	-10.9532
mQTn	-10.9532
vfY	-10.9534
uFWP	-10.9535
jHS	-10.9535
YASA	-10.9535
AEAAAAAAAAAAFA	-10.9535
QYk	-10.9546
MUiJ	-10.9552
PCA	-10.9552
SAHQSIsASIlF	-10.9555
tAAAAAE	-10.9556
InBD	-10.9558
EiNk	-10.9559
EEPlc	-10.9565
BIjRUAAAAA	-10.9567
FyP	-10.9568
EAPts	-10.9575
ZIa	-10.9578
QAAAEgB	-10.9579
AIAAAAAAAB	-10.9582
AHUH	-10.9584
iLfCS	-10.9585
AABIgUQk	-10.9586
BIidBIweACSAHQ	-10.9588
iLRT	-10.959
IjRQB	-10.9591
JCh	-10.9596
UQB	-10.9597
SItFoE	-10.9598
iLVTh	-10.9602
TIuU	-10.9603
xkQ	-10.9605
weACSI	-10.9605
PtgQC	-10.9606
Mac	-10.9609
bSg	-10.961
CEwHQ	-10.9611
IicJ	-10.9611
lWT	-10.9612
aFfP	-10.9616
geq	-10.9618
dFq	-10.9622
EiLBQAAAAB	-10.9631
AAAAAAAAACO	-10.9634
IjTS	-10.965
AAAAAAAAAAiw	-10.9653
SAHwSAH	-10.9654
CAAHAFVIieVIgey	-10.9656
ZomEJ	-10.9656
gUAAAAA	-10.9658
BgH	-10.9659
iJRdhIi	-10.9659
BIAcJIi	-10.9663
ItEJP	-10.9668
OcZ	-10.9668
iLVR	-10.9671
kiJwkjB	-10.9673
EWL	-10.9676
mYPH	-10.9676
AAAAAAAAAAFk	-10.968
FQAAAABIi	-10.9681
ZEJN	-10.9686
kkB	-10.9686
AGaFwA	-10.9687
FvP	-10.9694
ger	-10.9695
SGPIi	-10.9701
dCTo	-10.9703
EgDhCT	-10.9704
iYSGv	-10.9704
AMAAEgB	-10.971
AQAASIl	-10.9711
MYFAAAAAAH	-10.9712
jRT	-10.9713
fCSQ	-10.9722
GaJRCT	-10.9728
CIBQAAAAD	-10.9728
VBQAAAAB	-10.9731
SItEJD	-10.9734
wAYAA	-10.9734
AAAAAAAAAAIAAAAA	-10.9735
jQwCD	-10.974
FAAAAAEiJ	-10.974
GBQAAAAB	-10.9745
cAm	-10.9752
RCQY	-10.9753
SItFuE	-10.9759
JBh	-10.9765
AJIjVD	-10.9767
SGPSSGv	-10.9768
AAAAAAAAABo	-10.977
wkgPRsJIiQUAAAAA	-10.9773
IsEgY	-10.9776
gNIAcpI	-10.9778
SItFQEgB	-10.9783
AAAAAAAAAAIU	-10.9789
iNHQAAAAB	-10.9791
kWF	-10.9794
ZMi	-10.9801
IlEJL	-10.9804
QPtkW	-10.9812
IiUXI	-10.9814
AAAAAAAAABq	-10.9817
SItFmE	-10.9823
chIAcBIAchIAcBI	-10.9827
OOIMHA	-10.9828
GwkiFw	-10.9837
hIAdBIiw	-10.984
iLVTB	-10.9846
AAAAAAAAABP	-10.9849
AQAASItF	-10.985
VoSI	-10.9863
IKd	-10.9863
rCki	-10.9867
JED	-10.9867
rCQ	-10.9868
MYAA	-10.9876
EiLBQAAAABIiUXw	-10.9883
JdCT	-10.9883
EiNh	-10.9885
mOf	-10.989
UJI	-10.9892
UxQAAAABIAdBI	-10.9893
gIAAAAAAAA	-10.9896
IPtkX	-10.9898
EiJBQAAAACL	-10.9899
hIAcIPv	-10.9902
wAPlcAPtsA	-10.9903
ARIg	-10.9904
EAe	-10.9909
AAAAAAAAACR	-10.9911
iNBQAAAAB	-10.9916
BIAd	-10.9918
GaJBQAAAACL	-10.9919
AQAAx	-10.9924
KAP	-10.9925
fCTQ	-10.9928
Fhe	-10.9934
ZFk	-10.9937
DwF	-10.9937
ANIjVD	-10.9939
dFm	-10.994
EjZ	-10.994
IlEJO	-10.994
IidBIweADSAHQS	-10.9942
QAQAAAAAAAD	-10.9944
UQSI	-10.9944
hVr	-10.9946
SAHCSIuF	-10.9946
HBQAAAAABAAAA	-10.9946
SItVQEgB	-10.9953
Pjm	-10.9954
iQUAAAAASItF	-10.9954
hCSoAAAA	-10.9957
YEAoTAd	-10.9961
hImA	-10.9969
PCSIkFAAAAA	-10.9969
IlEJK	-10.9971
MAL	-10.9971
SSn	-10.9973
miYQk	-10.9975
UiYSGPKSInCSMHiA	-10.9979
SJhIjQ	-10.9993
SItcJM	-11.0014
PvtKD	-11.0016
RZy	-11.0018
IjYQ	-11.002
iLhCS	-11.0025
SItFy	-11.0026
eFfP	-11.0031
YAQAAAAAAAD	-11.0034
iJdCT	-11.0036
ANIjRUAAAAASIkME	-11.0043
SJiL	-11.0043
DwH	-11.0048
HQAAAAC	-11.0053
ifK	-11.0056
haT	-11.0058
AjVA	-11.006
SIkFAAAAAEiL	-11.0063
UiYSI	-11.0063
FIa	-11.0065
ChcAPlcCIBQAAAA	-11.0067
AJIAdB	-11.0069
PlUQk	-11.0073
hUb	-11.0074
LRCS	-11.0074
hVb	-11.0074
Afa	-11.0076
AAAAAAAAAAJk	-11.0076
AAAAAAAAAAIE	-11.0077
ykhj	-11.0077
wkuAAAA	-11.008
dCTY	-11.0082
EiLRV	-11.0083
AgwHCAAA	-11.0084
Xki	-11.0088
DwkiJBQAAAA	-11.0088
XAiAUAAAAAk	-11.0089
SItFsE	-11.0089
BIAAAA	-11.0091
dFn	-11.0092
haD	-11.0092
kiYSGP	-11.0097
WDAcIAAAA	-11.0105
iLRXh	-11.0111
hCSQAAAA	-11.0116
SIPAAk	-11.0117
IacDoAwAA	-11.0118
LAAAAAC	-11.012
GJy	-11.0122
cAAAAAQQ	-11.0125
LhXj	-11.0129
PtwUAAAAAZomF	-11.0132
fCSg	-11.0134
AHQK	-11.0134
MjU	-11.0134
SItFkE	-11.0135
NAe	-11.0138
ynQ	-11.0139
SGPSSJhIa	-11.0145
SAHQiwC	-11.0147
SAHQSInKSMHiA	-11.0148
vwogFAAAAA	-11.0151
iJBQAAAAC	-11.0152
MOd	-11.0154
EiLRaB	-11.0154
EiLRbB	-11.0154
SPfY	-11.0156
IiUXwSMdF	-11.0157
oiXXk	-11.0159
aQAA	-11.016
AABBg	-11.0164
cTi	-11.0175
EiLBMFI	-11.0175
MAcB	-11.0178
iwSC	-11.0178
EiLRdh	-11.0179
iLRWBI	-11.018
BmxwUAAAAA	-11.0182
PCic	-11.0182
SGPSSI	-11.0185
IXSd	-11.0187
QAwAA	-11.0188
mRA	-11.0188
RchI	-11.0193
fQAC	-11.0194
iJRbhIi	-11.02
iIQk	-11.0206
BXkFf	-11.0209
GBQAAAAC	-11.021
iLRbh	-11.0213
iJVCT	-11.0215
IAdAPtgCEwHQ	-11.0218
AhPZ	-11.022
wkgPTsJIiQUAAAAA	-11.0226
AEAAAAAAAAAAEQ	-11.0228
jnCD	-11.0229
IacDEAAAA	-11.0229
FwH	-11.0235
sAAAB	-11.0237
lIa	-11.0243
AAAAAAAAABr	-11.0244
AEAAAAAAAAAADw	-11.0245
wAAAAcAAAAAAAAAN	-11.0248
IjRTFAAAAAEiLRT	-11.0248
uAoAA	-11.025
JHB	-11.0252
SIlFuEiLVb	-11.0253
AHASAH	-11.0253
SAHKD	-11.0256
aJRCT	-11.0258
IjTQ	-11.0259
IiYU	-11.026
BIjQUAAAAA	-11.0261
AgAAAAAAAG	-11.0262
iQUAAAAAg	-11.0264
AAAAAAAAAAFc	-11.0267
DQAAAAAPt	-11.0268
SItFG	-11.0271
IiUXwSItF	-11.0273
EiJRCTY	-11.0274
ImEgB	-11.0275
dFp	-11.0277
EiLhCR	-11.0279
AHQM	-11.028
OcIPTsKJBQAAAA	-11.0281
MHgA	-11.0287
hIAdBIiwBI	-11.0292
GRc	-11.0299
MiXQk	-11.0302
SIkFAAAAAEi	-11.0304
iwy	-11.0307
SIuFIP	-11.031
AfCQ	-11.0316
jVABD	-11.0321
JjU	-11.0322
JTCT	-11.0323
MiXwk	-11.0326
dEJP	-11.0326
LVfyLRfg	-11.0332
AAPlcDr	-11.0338
bCSIkFAAAAA	-11.0341
RfR	-11.0345
NAd	-11.0359
BIidBIweADSCnQ	-11.0359
lBD	-11.0365
EkBw	-11.0368
wkgPTcJIiQUAAAAA	-11.0369
SGPSSJh	-11.0369
BIidBIweAESCnQ	-11.0381
wkqAAAA	-11.0385
Ehry	-11.039
IRa	-11.0393
jZC	-11.0395
IadK	-11.0399
EiNDQAAAABIAciIE	-11.0401
wAAAAcAAAAAAAAAM	-11.0403
BQAAAAAJ	-11.0407
IAdCL	-11.0413
GaDfCT	-11.0415
AAOm	-11.0417
bCR	-11.0418
IweAD	-11.0435
BIAf	-11.0442
JRCQ	-11.0449
AAAAAAAAAAGc	-11.0455
AAAAAAAAAAFs	-11.0463
SItVME	-11.0464
lEJP	-11.0464
ItcJL	-11.0469
AcAAAAAAAA	-11.047
BQAAAABBD	-11.047
AAAAAAAAABl	-11.0473
dFh	-11.0476
cBAAB	-11.0476
ZkGB	-11.0482
AAAAAAAAAALg	-11.0482
DwC	-11.0483
VCTo	-11.0495
IjQRA	-11.05
EUPv	-11.0502
ZkU	-11.0504
TAHI	-11.0504
IidBI	-11.0505
mhcB	-11.0506
OcIPTcKJBQAAAA	-11.0508
iLhRD	-11.0512
IlMJO	-11.0518
iLReB	-11.0521
AABBi	-11.0522
iLhTj	-11.0524
wksAAAA	-11.0527
AAAAAZokEC	-11.0528
Ocd	-11.0529
PlMAPts	-11.0529
ItFz	-11.0532
NwkiJBQAAAA	-11.0534
gAwAA	-11.0535
CEwA	-11.0536
YnQ	-11.0537
cEQg	-11.0545
SItFOEgB	-11.055
BAABIx	-11.0551
THS	-11.0553
GAo	-11.0553
AAAAAAAAACK	-11.0558
kAPtv	-11.0561
IgFAAAAAEiL	-11.0562
iUWQ	-11.0568
NAAAAAEgByIgQ	-11.0569
QkKAEAA	-11.057
AQAASAH	-11.057
xmg	-11.0572
ItcJJ	-11.0576
wpIu	-11.0578
AAAAAAAAACo	-11.058
ifBIi	-11.0581
IlEJJ	-11.0582
gBwEgByEj	-11.0583
dCTw	-11.0583
icIPtoV	-11.0584
QkoE	-11.0586
mbH	-11.0586
EiLAEiFwA	-11.0589
IuN	-11.0589
lVT	-11.059
SItFu	-11.0591
AAAAAAAAABk	-11.0594
PvgQ	-11.06
dFj	-11.0604
EiRUAAAAA	-11.0608
Jiw	-11.0611
EiLRch	-11.0614
AIAAI	-11.0618
SItVOE	-11.0619
kSL	-11.062
QMBwgAAAA	-11.0621
IsEk	-11.0628
vfQ	-11.0629
wAPlcAPtsAB	-11.0631
JCB	-11.0633
wkgPRsJ	-11.0635
AcJIi	-11.0637
AAAAAAAAAAJc	-11.0638
jQz	-11.0639
hUr	-11.064
LVY	-11.0651
IjQz	-11.0652
YlF	-11.0654
EiLnCQ	-11.0654
aJBQAAAAB	-11.0657
xfluw	-11.066
SInBSItF	-11.0661
dCTg	-11.0662
GABAAAA	-11.0663
FcQV	-11.0664
gAAAAPt	-11.0669
EiLvCT	-11.067
mgzx	-11.0677
lXj	-11.0682
IAdh	-11.0683
CIRf	-11.0688
gHAAAA	-11.0688
SItVSE	-11.0691
hUL	-11.0697
SIuFKP	-11.0699
GbHBQAAAAA	-11.07
iLVS	-11.0705
AAAAAAAAAANA	-11.0706
SIPAC	-11.0712
AHASAHISMHgAkgB	-11.0715
LhXD	-11.072
ItcJK	-11.0725
SIuFEP	-11.0729
InK	-11.0731
MjSUAAAAA	-11.0735
BjV	-11.0739
VAAAAAEiL	-11.0741
WgSDnC	-11.0742
UUPt	-11.0744
BMjQ	-11.0745
iLnCS	-11.075
AAAAAEyJ	-11.0751
iLVah	-11.0754
IPtsCIBQAAAA	-11.0762
IXJD	-11.0763
JBQAAAAB	-11.0766
hZT	-11.0768
AAAAAAAAACg	-11.077
kiLRR	-11.0775
AAAAAAAAAAJY	-11.0777
cAZoXAD	-11.0778
IjTT	-11.078
yESJ	-11.0782
EPtkW	-11.0784
JDQAAAAB	-11.0789
jRR	-11.079
AAAAAAAAABn	-11.0792
iLBQAAAAB	-11.0792
EiLvCQ	-11.0793
kiYSI	-11.0794
EiJRCTg	-11.0794
GaJRY	-11.0797
VQSAHQ	-11.0798
xfh	-11.0799
EgPvoU	-11.08
McFAAAAAA	-11.0804
iLhSD	-11.0808
JReyLVeyLRe	-11.081
SInG	-11.0816
wEiNDQAAAABmiRQI	-11.0821
wAAAAcAAAAAAAAAI	-11.0822
weACSAH	-11.0824
APl	-11.0825
SGPJSGPSSMHiA	-11.0835
EiBx	-11.0837
EiJTCT	-11.0837
JDgBAAB	-11.0838
NeP	-11.0839
tIg	-11.084
IweAESI	-11.0848
ykiL	-11.0848
kiF	-11.0851
GBA	-11.0855
uFdP	-11.086
SMHgBEiJwkiL	-11.0864
AAAAAAAAABm	-11.0867
RTHb	-11.0867
AAAAAAAAABp	-11.0871
rBbgAAAAA	-11.0873
IiUQky	-11.0875
EiLVd	-11.0878
XUi	-11.0884
hdIPlc	-11.0888
BgDw	-11.0892
DhCPAk	-11.0893
rBbh	-11.0893
PnM	-11.0894
rBbgBAAAA	-11.0895
EiNNA	-11.0897
VwITAD	-11.0898
NAc	-11.0901
iJBQAAAABIi	-11.0902
TANEJ	-11.0902
kwD	-11.0907
InQZolF	-11.0913
SIlN	-11.0914
UJC	-11.0919
OcIPTsKFw	-11.0921
hVL	-11.0922
IPq	-11.0929
SIuVaP	-11.093
AJIAfBI	-11.093
wfg	-11.0932
MOe	-11.0936
SMHnB	-11.0949
AAAAAAAAACW	-11.0949
FAABIi	-11.0949
mQYH	-11.095
OcIPRsKJBQAAAA	-11.0951
Ptsl	-11.0955
SMfA	-11.0959
ibQk	-11.0963
AAAAAAAAABu	-11.0966
PlcB	-11.0967
Igzz	-11.0968
maJBQAAAAB	-11.0968
IAwAA	-11.0969
IBAAB	-11.0971
EGI	-11.0972
RCQI	-11.0976
hCSgAAAA	-11.0981
TImN	-11.0986
GbHRe	-11.0988
EiNFIUAAAAASAHQS	-11.0989
EiLhXj	-11.0993
PlMB	-11.0994
Pns	-11.0997
AGAAAAAAAA	-11.0999
uFbP	-11.1002
IjQx	-11.1011
BQAAAAAh	-11.1016
hBi	-11.1017
EyXQ	-11.1017
AAAAAAAAACT	-11.1024
InBi	-11.1028
ANIg	-11.1029
JEgBAAB	-11.1034
IiUQkq	-11.1035
EiJRCTI	-11.1042
BJi	-11.1044
QhgJDDQYCW	-11.1047
SIuFAP	-11.1047
hCTIAAAA	-11.1048
FgAA	-11.1049
JBQAAAABIg	-11.1051
SCnQ	-11.1052
AdCFw	-11.1055
wUAA	-11.1056
VwSI	-11.1056
pCS	-11.1067
Fie	-11.1068
QkkE	-11.1068
AQAARA	-11.1074
iLlWj	-11.1075
AAAAQAAAAAAAAAAa	-11.1075
ItcJD	-11.1076
EiLRdhI	-11.1077
CIBQAAAAC	-11.1078
ImEgt	-11.1083
YAhMAPlc	-11.1085
ABAAAPt	-11.1087
QCA	-11.1094
LVb	-11.1094
SGPKSInCSMHiA	-11.1099
EPlM	-11.1103
iLj	-11.1105
ZEJM	-11.1105
RED	-11.1116
IiUQku	-11.1122
EiLdCQ	-11.1123
idZ	-11.1123
EEPlM	-11.1126
QQQ	-11.1129
AAAAAAAAAAGQ	-11.1135
UjH	-11.114
yNPQAAAAB	-11.1143
EgByEjB	-11.1143
UAAAAASI	-11.1145
ZscFAAAAAP	-11.1146
hYT	-11.1146
rBbi	-11.1151
AAAAAAAAAAIc	-11.1151
AAAAAAAAACS	-11.1151
jHBQAAAAAAAAAA	-11.1157
iLVf	-11.1161
QkyE	-11.1161
iNUAFIi	-11.1168
AAAASMdF	-11.1173
BAAAAi	-11.1178
cPv	-11.118
hdsPh	-11.1181
BYtF	-11.1182
Ray	-11.1186
LhVj	-11.1187
kSInQSMHgAkgB	-11.1193
IiZwk	-11.1197
IjTy	-11.1203
IidBIAcBIAdBIweA	-11.1204
JGABAAB	-11.1208
SIlEJOh	-11.1213
hrwH	-11.1214
CiQUAAAAAD	-11.1215
nQSMHgBEiJwkiJyE	-11.1218
gPvoU	-11.1222
XCSo	-11.1224
EiJRCTA	-11.1229
EAAAAHAAAAAAAAAB	-11.123
hIjR	-11.1234
Pks	-11.1236
AAAAAAAAABgCAAAA	-11.1236
JyESJ	-11.1236
EiLRRBI	-11.1241
JEABAAB	-11.1241
OcIPTcKFw	-11.1241
QkOAEAA	-11.1248
iLRcB	-11.1252
RIgFAAAAA	-11.1255
EiLtCT	-11.1255
EiNUP	-11.1257
SItFwE	-11.1258
AYV	-11.1259
LhWj	-11.126
AGaY	-11.1262
xoW	-11.1266
JBQAAAABID	-11.127
EiJRCTo	-11.1276
iJBQAAAACQ	-11.1281
SMcE	-11.1281
GZBi	-11.1283
SGPJSGP	-11.1284
SIlEJNh	-11.1287
bHBQAAAAD	-11.129
SItFgE	-11.1292
AAAAEgD	-11.1292
EiJRCTQ	-11.1292
SItcJF	-11.1293
xgUAAAAAAQ	-11.1293
JDABAAB	-11.1297
iLRRBI	-11.1298
iLhWj	-11.1301
SAHQSC	-11.1301
EgBwE	-11.1302
Fbv	-11.1309
wkyAAAA	-11.1312
AAAAAVQAAAAAAAAA	-11.1313
wIiF	-11.1313
SItVKE	-11.1318
IAdJIjQ	-11.1322
AQDp	-11.1328
izUAAAAA	-11.1329
mQQ	-11.1334
ZAgAA	-11.1335
GgAA	-11.1337
iLRSBI	-11.1339
SPfQ	-11.1341
UmN	-11.1342
QUAA	-11.1345
hBg	-11.1346
SIlEJLh	-11.1346
IidBIweADSCnQ	-11.1348
dBIweAESInCSInIS	-11.1349
wAQAAAAAAAD	-11.1351
ItEJE	-11.1353
6//8	-11.1354
EiNBM	-11.1355
sBAAA	-11.1362
fCTI	-11.1365
EjW	-11.1367
AfBIAcgPtg	-11.1369
SIlEJMh	-11.137
iJRcBI	-11.1372
FVIieWJfeyJde	-11.1388
aFbP	-11.1391
AAAAAAAAAAJs	-11.1391
CJBQAAAABIi	-11.1392
iUXI	-11.1392
VISAHC	-11.1399
CJBQAAAAD	-11.1406
XAhMAPh	-11.1406
CLRd	-11.1411
IAfJ	-11.1413
DnKf	-11.1424
sYFAAAAAA	-11.1426
AAAAAAAAAARw	-11.143
AAAAAAAAAAJo	-11.1431
iJwkjB	-11.1436
SMHhA	-11.1437
SIlEJN	-11.1441
SAHQSMHgA	-11.1442
DDAcIAAA	-11.1444
AAAAHAAAAAAAAAC	-11.1444
AAAAAAAAAAJU	-11.1445
QkQAEAA	-11.145
QksE	-11.145
iLhRj	-11.145
iNNQAAAAB	-11.1454
AAAAEgBwg	-11.1456
QkOE	-11.1456
OfJ	-11.1457
SIlEJOB	-11.1458
usFu	-11.146
QAgAAAAAAAD	-11.1462
iLhVj	-11.1472
AcAAE	-11.1481
kZolF	-11.1481
InH	-11.1488
gPQs	-11.149
FHP	-11.15
OMIPRsIPtsCFw	-11.1511
AAAAEIOEI	-11.1513
LhXz	-11.1519
BAABmx	-11.152
AQAAAEIOEI	-11.1521
IweIDSI	-11.1524
AAAAAAAAABt	-11.1524
AAAAAAAAABz	-11.1541
Eja	-11.1549
ZkGDP	-11.1551
eFbP	-11.1556
dEJO	-11.1557
CJBQAAAACQ	-11.156
hJg	-11.1564
EiAUAAAAA	-11.1574
DvXj	-11.1581
iNFMUAAAAASIuF	-11.1589
iwCJ	-11.1591
VAAAAAMYEE	-11.1594
PtsCD	-11.1596
iUXoSItV	-11.1598
VCTY	-11.1598
CnI	-11.1598
RRn	-11.1603
NAAAAAEgB	-11.1603
XYSI	-11.1605
iLRXBI	-11.161
vgEAAAB	-11.1611
APtsBIiQUAAAAA	-11.1611
hrwG	-11.1611
dmg	-11.1614
wkAAEAA	-11.1616
MBAAA	-11.1618
QAAABIi	-11.1619
RdS	-11.1619
JIweIDSI	-11.162
Ehrx	-11.1622
iFW	-11.1622
OcIPRsKJw	-11.1622
TjfTn	-11.1622
QAUiJ	-11.1624
iLRZ	-11.1626
ugAAAABI	-11.1626
kiJRfhIi	-11.1629
LVf	-11.1629
hTr	-11.1634
JNQAAAAB	-11.1637
IhcAPlc	-11.1638
yIXAD	-11.1638
TAiEX	-11.1643
miUwk	-11.1644
EiNc	-11.165
QAAAAcAAAAAAAAAA	-11.1652
gPtkQk	-11.1653
VAAAAAIk	-11.1657
EiLd	-11.1659
Ocp	-11.1659
cYFAAAAAA	-11.1662
xmiUW	-11.1664
SIlEJO	-11.1677
AQAATIt	-11.1678
BIAdBIiwBI	-11.1681
dCTQ	-11.1686
hmx	-11.1688
AEAAADr	-11.1702
AAAAAAAAAAjg	-11.1702
wkqE	-11.1703
IAcoPt	-11.1705
OYX	-11.1709
LVc	-11.1709
EjHh	-11.1711
EiJXCS	-11.1712
kiNDQAAAABmiQQK	-11.1717
AABIAdBI	-11.1719
JOd	-11.1719
SAHR	-11.1728
LRCQ	-11.1729
RbBI	-11.1731
ZolMJ	-11.1733
Ofp	-11.1735
iDwAJ	-11.1737
WoSItFoEg	-11.1738
wAAAAcAAAAAAAAAL	-11.1748
XCSI	-11.1749
Fav	-11.175
SAEAAAAAAAA	-11.1756
IBAAA	-11.1757
hCTYAAAA	-11.1765
PtsCJ	-11.1771
VCTg	-11.1773
AAAPh	-11.1775
BQAAAAAPv	-11.1776
IsEh	-11.1778
RCQo	-11.1778
iNc	-11.178
JIhcB	-11.178
gNIAf	-11.1783
SIlEJMB	-11.1786
LhWz	-11.1788
SGnR	-11.1788
lWj	-11.1793
wAAAAcAAAAAAAAAP	-11.1794
UmD	-11.1794
hIjT	-11.1799
EiLRRhI	-11.18
jZQ	-11.1803
IlEJN	-11.1804
bAZolF	-11.1815
YPtkW	-11.1816
iLRShI	-11.1822
iNBE	-11.1822
MAAAAAQQ	-11.1825
ItEJO	-11.1827
IPoA	-11.1828
SIlEJG	-11.1836
iLhSj	-11.1838
EiJRCTw	-11.1845
EiBRCT	-11.1846
AEAAABIi	-11.185
QHQg	-11.1851
FMcl	-11.1851
IacAvDQAA	-11.1852
AAABmg	-11.1857
hCSAAAAA	-11.1858
BImA	-11.1861
tEJP	-11.1866
AAAAAAAAAAjQ	-11.1867
ZEJL	-11.1868
iUWo	-11.1868
ZkWJ	-11.1873
BEIPt	-11.1874
EiNDAIPv	-11.1875
RIkVAAAAA	-11.1883
SAHISIPA	-11.1883
EmBw	-11.1893
YkFAAAAA	-11.1894
EiNBE	-11.1897
CIRb	-11.1898
AAAAAAAAACP	-11.19
BIAdCLAI	-11.1901
JFABAAB	-11.1902
xOJp	-11.1908
AAABED	-11.192
QkMAEAA	-11.1925
weACSAHQSAHw	-11.1925
EAAAAHAAAAAAAAAA	-11.1927
SIuVWP	-11.1931
LhVz	-11.1937
SIuFGP	-11.1939
AAAAAAAAACN	-11.1942
Nie	-11.1948
IAUX	-11.1953
IOUW	-11.1954
JCgBAAB	-11.1956
TANMJ	-11.1957
QAAAEEOEIYCQw	-11.1972
DHb	-11.1976
JwosFAAAAA	-11.1977
EjHBQAAAAD	-11.1977
wMAAA	-11.1977
hIac	-11.1982
ANIAcJIi	-11.199
hjyEiJ	-11.2005
SIlEJKh	-11.2012
RIidBIweACSAHQS	-11.2013
iLdCS	-11.2015
AAAAAAAAALABAAAA	-11.2016
AAAAAAAAACh	-11.2016
mZBg	-11.2022
eFaP	-11.2022
IAdBIOUX	-11.2023
YMBwgAAAA	-11.2024
wAAAEIOEI	-11.2025
hTL	-11.2032
AQAAAOs	-11.2032
BCg	-11.2033
AABIOUX	-11.2033
AAAAAAAAAAjw	-11.2035
wHQZi	-11.2039
iLXCQ	-11.2039
IjTz	-11.2044
SGnAL	-11.2044
uFUP	-11.2045
iLRS	-11.2048
idh	-11.205
iLReh	-11.205
SInH	-11.2054
TIlsJ	-11.2063
iNPB	-11.2066
xSInQSMHgA	-11.207
IPCA	-11.2071
LgCAAAA	-11.2071
DwE	-11.2074
Pvr	-11.2079
ECIO	-11.2081
AAAAAAAAABN	-11.2082
MwUAA	-11.2083
yLXCR	-11.2089
hSb	-11.21
IjUQ	-11.2101
AAPlcCIBQAAAA	-11.2102
aFeP	-11.2104
cFAAAAAAEAAA	-11.2114
iLlVj	-11.2114
PtxR	-11.2114
SIkEJ	-11.2116
RbxI	-11.2118
kGN	-11.2122
DjQD	-11.2125
SGPwSGPSSInQS	-11.2126
ItcJN	-11.2134
VYSAHQ	-11.2146
AAAAAWQAAAAAAAAA	-11.215
SJiLBIKJ	-11.2153
SIlEJLB	-11.2153
CLRe	-11.2155
BIad	-11.2155
SIuFCP	-11.216
SIlEJM	-11.2161
rBw	-11.2162
xfluy	-11.2163
OwkiFw	-11.2165
cER	-11.2169
uAEAAAA	-11.217
khjyUjB	-11.2173
MMBwgAAAA	-11.2173
IAAAAAAAAAC	-11.2178
hTb	-11.2179
hSr	-11.2179
UJH	-11.218
iLhCT	-11.218
AAAAAAAAAAXQ	-11.2184
VAAAAAGbHBBA	-11.2185
EjX	-11.2186
lcJO	-11.2188
FQAAAAAPr	-11.2189
LAAAABwAAAAAAAAA	-11.2192
EkPT	-11.2192
RIlMJ	-11.2194
AAAAAEQPt	-11.2197
SJgPtgQChMB	-11.2197
xQAAAAB	-11.22
QhgJDDQYCX	-11.2201
yLVCR	-11.2203
EiJRCSo	-11.2218
ZolUJ	-11.2218
RCH	-11.2218
IacCVCAAA	-11.222
Iibwk	-11.2221
PtwRC	-11.2229
AQAAAEi	-11.2232
SItVqEiLRaBI	-11.2235
IichIweADSAHI	-11.2242
VCSo	-11.2244
HwAA	-11.2245
SInISMHgAkgByEgB	-11.2246
EiJwUiLR	-11.225
MdBIiQUAAAAA	-11.2252
gBAAAPt	-11.2253
fCSI	-11.2256
SIlEJNB	-11.2262
SBn	-11.2264
yDnCD	-11.2266
AdQe	-11.227
eFdP	-11.2271
FMcB	-11.2272
iLRfh	-11.2273
AAAAAAAAAAXg	-11.2274
gHQZi	-11.2274
yEiYD	-11.2274
kFUVVN	-11.228
VCSQ	-11.2284
ItMJO	-11.2286
EEPtk	-11.2287
AADlF	-11.229
IXAdAe	-11.2292
SAHQSImF	-11.2294
uFYP	-11.2297
////////9/	-11.2298
wkCAEAA	-11.2304
SItFyEgB	-11.2306
AAAAAAAAABx	-11.231
AcBIAchI	-11.2315
LkBAAAA	-11.2318
SGvSDk	-11.2321
gBwEiNUP	-11.2322
NwphmiQUAAAAA	-11.2325
lEJO	-11.2326
wkSJ	-11.2326
EiXwk	-11.2326
SMcFAAAAAAAAAAB	-11.2331
OcIPn	-11.2338
IAcF	-11.2341
OwphmiQUAAAAA	-11.2341
VQSAHC	-11.2342
AAAAAAAAAABc	-11.2343
IkFAAAAAEi	-11.235
AAAAAAAAAGACAAAA	-11.2351
FRP	-11.2351
iLhYAAAAB	-11.2351
SIlEJPB	-11.2352
JRfSLVfSLRf	-11.2352
IacDABgAA	-11.2353
SAHKSI	-11.2355
BQAAAACIRf	-11.236
EiNDAKL	-11.2362
CAAHAFVIieWJfcyJ	-11.2363
IhcJ	-11.2366
DvWj	-11.2368
SInwSMHgA	-11.2373
IiUWo	-11.2374
yNNQAAAAB	-11.2375
iJTCT	-11.2376
AQAAAAAAAG	-11.2377
EiDwC	-11.2381
AAOt	-11.2383
EiNDA	-11.2389
gDAAAAAAAAAAAAA	-11.2393
InQiEW	-11.2394
EiYSC	-11.2395
IhMJ	-11.2398
EiLRchI	-11.2401
OwkiY	-11.2403
iLhQD	-11.2408
AABIO	-11.2408
SItFSEgB	-11.2409
IAdJ	-11.2409
VCTQ	-11.2411
ImEiN	-11.2414
cEQWaFw	-11.2417
AdBIAfBI	-11.2425
aFXP	-11.2427
wkiJyEgBwEgByEgB	-11.2432
AAAAAAAAAAnw	-11.2434
hIiUX	-11.2438
IAfp	-11.2439
iNBI	-11.244
BAAAAQg	-11.2445
nCi	-11.2453
KIBQAAAAB	-11.2455
QkUAEAA	-11.2462
xwGZ	-11.2462
NBM	-11.2471
oAgAAAAAAAD	-11.2472
AAAAAAAAACU	-11.2477
AJIAdBIAcBIicJIi	-11.2482
TIlcJ	-11.2483
XwSItF	-11.2483
EiLReh	-11.2491
ZkEPv	-11.2494
IAcgPt	-11.2497
wAAAAcAAAAAAAAAA	-11.2507
XISI	-11.2511
wAPlMAPts	-11.2511
EyNH	-11.2517
gBykjB	-11.2519
gEX	-11.2519
SGnAwAYAAE	-11.2523
dBIweADSAHQSMHgB	-11.2525
AAAAAAAAAAVg	-11.2525
DFIidBIweADSCnQ	-11.2526
MTieffC	-11.2527
MiVwk	-11.2527
SIlFqEiLVahIi	-11.2527
AEgPvsBI	-11.2528
SGnAlQgAAE	-11.2529
YBAAA	-11.2532
XDAcIAAAA	-11.2548
SGvAZE	-11.2551
TCTo	-11.2552
MHgAkgBy	-11.2553
UMBwgAAAA	-11.2555
JImEhr	-11.2556
AAAAAAAAaAAAAAA	-11.2556
AAAAAPf	-11.2556
EiJRCSw	-11.2559
fBIAcBIAfBI	-11.256
OsE	-11.2561
kEPT	-11.2561
IAdAPtgCEw	-11.2562
QCAAB	-11.2567
WAAAAASI	-11.2571
LhXT	-11.2572
AAAAAAAAAAJw	-11.2572
iJXCS	-11.2574
IAcZ	-11.2578
SJjr	-11.258
AdIicJIi	-11.2582
AAImF	-11.2582
JNQAAAAD	-11.259
BOM	-11.2592
SGnAMwUAAE	-11.2593
CAAHAFVIieWJfdyJ	-11.2594
jlF	-11.2596
iJRahIi	-11.2599
IsU	-11.2616
IiwTC	-11.2617
PtgUAAAAAiEW	-11.2619
aFwA	-11.262
IweIDSAHK	-11.2622
iYSIsEwkiFw	-11.2624
GbHRd	-11.2626
AAAAHAAAAAAAAAA	-11.263
jRUAAAAAiAwQ	-11.2632
FLP	-11.2636
OsFuAEAAA	-11.2639
EgBwEgBy	-11.2639
QDr	-11.2645
SIHC	-11.2646
IjUj	-11.2649
kVAAAAA	-11.265
okVAAAAA	-11.2656
EiLRT	-11.2664
SJhIweADSI	-11.2667
QAAAEiL	-11.2668
Odh	-11.2668
QVxBXUFeQV	-11.2669
IweAC	-11.2669
VCSg	-11.2675
eFeP	-11.2676
AAAAAAAAACX	-11.2683
SIlEJJh	-11.2684
RfyIBQAAAA	-11.2685
aFTP	-11.2692
ifiJ	-11.2694
RahI	-11.2699
QkWAEAA	-11.27
AdBIAfhIAfAPtg	-11.2701
EgAAA	-11.2701
iwCFwA	-11.2702
iLVbh	-11.2703
EjHBQAAAAABAAAA	-11.2707
eFXP	-11.2709
iNDBBIi	-11.2713
wkGAEAA	-11.2715
SItVIE	-11.2716
YNAAAAA	-11.2716
JHABAAB	-11.2718
VCSY	-11.2721
zlF	-11.2722
Nac	-11.2722
AEEPlc	-11.2723
iwSG	-11.2725
AAAAAAAAAAYQ	-11.2727
AAPlcAPts	-11.2729
aJNQAAAAB	-11.2732
wAAAADr	-11.2732
ImEgF	-11.2735
EyNL	-11.2735
EAAAAHAAAAAAAAAD	-11.2736
gJAAAA	-11.274
AAAAAAAAACl	-11.2744
BmiUQk	-11.2746
OcIPR	-11.2755
DrC	-11.276
EkPR	-11.2763
BQAQAAAAAAAD	-11.2767
hSL	-11.2769
BImEiJ	-11.2773
kxj	-11.2773
hCTQAAAA	-11.2773
iLVeh	-11.2778
hCSwAAAA	-11.278
InxiVX	-11.2781
EiQUAAAAA	-11.2783
hCQAAQAA	-11.2792
QAAAAAQQ	-11.2807
AAAASAO	-11.2813
OcIPTsJIm	-11.2814
EAAAAAAAPt	-11.2819
jRz	-11.2821
hrwBxIi	-11.2823
TJd	-11.2824
miVQk	-11.2828
InIiEW	-11.2834
EgDhCQ	-11.2836
EiLjCS	-11.2836
uFZP	-11.2842
SGO	-11.2845
iLlUj	-11.2846
SInISAHASAHIS	-11.2847
IAcpIAf	-11.2851
SItcJG	-11.2858
4305	-11.2859
wkgPTcJ	-11.2861
dCSo	-11.2865
kiYSMHgA	-11.2865
IacDhAAAA	-11.2865
Ffv	-11.2867
EiNPA	-11.2871
SIsM	-11.2872
eFZP	-11.2877
CIBQAAAACL	-11.2877
SItFUEgB	-11.2885
jHRfA	-11.2886
CJBQAAAAC	-11.2888
gPs	-11.289
JFgBAAB	-11.2896
EiYiwSC	-11.2898
ibwk	-11.2901
SGPKi	-11.2904
FMdJ	-11.2907
EgDRCR	-11.2908
AAAAAAAAAAXw	-11.2909
APtsBmiQUAAAAA	-11.2912
ItMJM	-11.292
vwEAAAB	-11.2924
AAEEPt	-11.2924
SAHQiwCFwHQ	-11.2926
SAGF	-11.2927
QkYAEAA	-11.2928
iLnCT	-11.2929
AAABmx	-11.293
CJBQAAAAAPt	-11.2931
RItMJ	-11.2935
EAAAAAQQ	-11.2936
SCH	-11.2943
SGvADkgB	-11.2945
AAAPtoU	-11.2945
OcIPTcI	-11.2945
iLhYgAAAB	-11.2948
AgAASIm	-11.295
iLRTBI	-11.2952
EiFwHQ	-11.2959
JHgBAAB	-11.2964
Rfz	-11.2964
AIAAADp	-11.2966
RaBI	-11.2967
AHASAHwSAH	-11.2969
OEIYC	-11.2974
IAfF	-11.2978
lQgAA	-11.2981
RmiUW	-11.2983
cMBwgAAAA	-11.2991
Pnc	-11.2992
BIidBIweADSAHQS	-11.2995
FRv	-11.2995
UUx	-11.2997
wkIAEAA	-11.3
wkiJyEjB	-11.3
Fev	-11.3001
HQAAAAD	-11.3005
OcIPTsI	-11.3008
IAchIjQ	-11.3013
SIlEJKB	-11.3014
yLXCT	-11.3017
TnQD	-11.302
iNFIUAAAAASIuF	-11.3021
SJhIjRUAAAAAiAwQ	-11.303
SItEJM	-11.3038
iNDAIPt	-11.3041
GbHBQAAAAABA	-11.3043
EiXQk	-11.3044
SMHgCUiJ	-11.3047
InKSMHiAkgBykgB	-11.3053
IAcoPtwRQ	-11.3064
VgSAHQ	-11.3071
iUXci	-11.3071
dCTI	-11.3073
uFOP	-11.3078
aJDQAAAAB	-11.3079
SAHQSAHwSI	-11.3083
SItEJJ	-11.3085
iLVc	-11.3086
APtsDr	-11.3097
EiLVZ	-11.3098
AAAAAAAAAAgg	-11.3098
otEJ	-11.3102
iZQk	-11.3104
QVR	-11.3106
IAdAPtwBm	-11.3106
IAcFIi	-11.3111
EqNB	-11.3118
mQYN	-11.3118
IjQUAAAAASI	-11.3121
BEJmhcB	-11.3126
EiDfCT	-11.3129
AQAASMdF	-11.313
IAcBIjVD	-11.3133
SItVSEgB	-11.3136
iLVSh	-11.3138
IiUXo	-11.3139
BAAAPv	-11.3141
JwYtF	-11.3143
AAAAAAAAAAng	-11.3148
SDnHS	-11.3149
IweEE	-11.3149
JRdyLVdyLRd	-11.3154
izS	-11.3157
PtsAt	-11.3163
EiJRCSg	-11.3167
OAAPh	-11.3168
XAiIX	-11.317
iLRfB	-11.3171
AMAAAAAAAB	-11.3172
SAHwSAHASI	-11.3175
CJBQAAAAB	-11.3175
EiJRCSY	-11.3176
kgBykjB	-11.3181
CQAIAEFXQVZBVU	-11.3182
EiJfCS	-11.3184
AITAdA	-11.3187
BmiYU	-11.3194
RDH	-11.3198
OcIPTcJIm	-11.3201
SGPQSI	-11.3201
SIsNAAAAA	-11.3204
LjQR	-11.3205
BIixUAAAAA	-11.3206
HCR	-11.3206
EiDffg	-11.3206
EAAAAHAAAAAAAAAC	-11.3207
SIlEJPh	-11.3218
iLhQj	-11.3219
wcXx	-11.322
AAAAEyN	-11.3222
AAAAAAAAAAGI	-11.3223
IgFAAAAAItF	-11.3226
RUAAAAA	-11.3228
IiUQkm	-11.3233
FXv	-11.3238
QkSAEAA	-11.3243
IjTR	-11.3248
uAEAAAC	-11.3258
AITAdB	-11.326
AAAAAAAAACj	-11.3262
xmx	-11.3268
EiLRSBI	-11.3271
EiLhXD	-11.3275
AJIAdBIAfBI	-11.3278
miX	-11.3278
otN	-11.3278
AEAACAAHAEAPvv	-11.328
EiLRUh	-11.3282
NwkiY	-11.3284
CIRa	-11.3287
AAABBD	-11.3291
IkFAAAAAItF	-11.3292
TANUJ	-11.3295
AAAAAAAAAAGY	-11.3299
OcIPl	-11.33
iLVUh	-11.3304
yLbCR	-11.3304
YFAAAAADHQ	-11.3306
AAAAAAAAALgBAAAA	-11.3306
IBQAAAACL	-11.3309
AgAAAAAAAA	-11.331
AAAAAAAAAJgBAAAA	-11.3313
hCTgAAAA	-11.3316
Mdt	-11.3318
UgPT	-11.3318
MiWwk	-11.3319
IAciLA	-11.3323
wkgPTcK	-11.3326
iLRYh	-11.3332
SItFWEgB	-11.3334
AlIicJIi	-11.3336
714////	-11.3339
IOchID	-11.334
hCQIAQAA	-11.3342
AIAAEgB	-11.3346
AAAAAAAAABy	-11.3351
hIAd	-11.3352
IkNAAAAA	-11.3352
BAKEw	-11.3353
TIlUJ	-11.3353
kiNFABIi	-11.3354
SMcFAAAAAP	-11.3355
wkEAEAA	-11.3359
EiNBMB	-11.3361
icHr	-11.337
kiLRS	-11.3371
EjHBQAAAAA	-11.3385
SDnIS	-11.3394
EgBwEgByEgB	-11.3395
SIsFAAAAAEiJRfBI	-11.3399
KJwg	-11.34
UOGI	-11.34
GAABIi	-11.3404
OcIPRsKFw	-11.3406
iQUAAAAASA	-11.3409
IiQQk	-11.341
PAI	-11.3412
CLRb	-11.3413
IichI	-11.3414
EwBwEgB	-11.3415
SGPSSGn	-11.3415
JBQAAAAAPt	-11.3416
IidBIweADSAHQSAH	-11.3416
BgAAAAAAAD	-11.3418
bHBQAAAAAAA	-11.3421
iJRchIi	-11.3426
IicFIi	-11.3427
QAPh	-11.3434
jTz	-11.3436
RYXAD	-11.3453
SGPSSIPC	-11.3455
FhdJ	-11.3459
EiNBJ	-11.346
SDnQD	-11.3485
jHRa	-11.3486
uFSP	-11.3494
wGaJBQAAAAAPt	-11.3498
AEAACAAHAEAPts	-11.3498
rgBAAAA	-11.3498
aFPP	-11.3502
EiLRcB	-11.3504
iAUAAAAASItF	-11.3507
EiLRd	-11.3507
PtjUAAAAA	-11.3508
CLRc	-11.3514
PlAUAAAAA	-11.3519
AfAPt	-11.352
fQABIi	-11.3521
PvpX	-11.3523
kiLRT	-11.3523
iJRfBI	-11.3524
sQAAABIa	-11.3533
SGPySGPQSInQSMHg	-11.3541
AfBIAfhIAcgPtg	-11.3544
mRIm	-11.3544
Owpi	-11.3544
QkcAEAA	-11.3554
///39	-11.3558
EiLnCR	-11.3558
EyNJ	-11.3561
uFKP	-11.3563
QIAAAAAAAA	-11.3563
AAAAAAAAAAjA	-11.3569
EhjyUhj	-11.357
weACSAHQSAHwSAH	-11.3579
EiLRYh	-11.3588
kEPv	-11.3589
hIAcJIi	-11.3593
SInQSAHASAHQSAHA	-11.3594
AQAASAO	-11.3598
hCQgAQAA	-11.3599
SDtF	-11.36
xoQk	-11.36
YAgAAAAAAAD	-11.3603
EiLRahI	-11.3603
SMHgBkiJwk	-11.3604
whgZBDjiDBwM	-11.3605
aDfCT	-11.3607
ItEJN	-11.3608
IichIweAESCnI	-11.3614
EyNBQAAAAB	-11.3614
SItVUEgB	-11.3622
SMHgAkiJ	-11.3625
iZwk	-11.3626
EiJBQAAAABIg	-11.3626
EiLVfh	-11.3627
EUPts	-11.3629
BwAAAAAAAD	-11.363
mUH	-11.3631
EiLVfBIi	-11.3633
AdBIiQUAAAAA	-11.3634
gByosEk	-11.3634
EiLAEi	-11.3635
hCToAAAA	-11.3637
CIRZ	-11.364
TIlkJ	-11.3641
SAHKSIs	-11.3641
LhVD	-11.3644
jQREDiiMBUEOMIYG	-11.3646
FwHQHuAEAAADrBbg	-11.3648
MjV	-11.3657
BQAAAAAPr	-11.3657
aFdP	-11.366
jgNCDiCNBEQOKIwF	-11.3661
SGM	-11.3662
LXCQ	-11.3668
EiNBEB	-11.3669
SGvAOE	-11.3672
AfCLBI	-11.3674
AAAAHAAAAAAAAAB	-11.3676
ItcJE	-11.368
dCSQ	-11.3681
LVR	-11.3681
OXwk	-11.3691
JBQAAAAAPtkW	-11.3693
SAHQSIkFAAAAA	-11.3696
iLhfD	-11.3697
EAACAAHAEFXQVZBV	-11.3703
PCR	-11.3704
lXT	-11.371
QkaAEAA	-11.3714
SIHs	-11.3717
iAUAAAAASA	-11.3717
BAKEwHQ	-11.3718
UxQAAAABIAcJIi	-11.3723
Ptmwk	-11.3723
DwkiJ	-11.3723
lXz	-11.3723
CIfCT	-11.3723
WIAAAASI	-11.3726
AAAAAAAAACk	-11.3729
hdsP	-11.3739
SIuVSP	-11.3741
EiJPQAAAAD	-11.3744
BAABmg	-11.3744
RItUJ	-11.3748
RIkdAAAAA	-11.375
AAAAAIgFAAAAA	-11.3753
AABJi	-11.3756
SInK	-11.3765
AAAAAESJ	-11.3768
EjHw	-11.377
CINQAAAAB	-11.377
AAAAAAAAAAKwAAAA	-11.3772
kiDwg	-11.3774
hCTAAAAA	-11.3776
hCTwAAAA	-11.3782
wAAAAcAAAAAAAAAO	-11.3785
icpIweICSAHKSAHQ	-11.3795
AAAAAAAAAAHc	-11.3801
GcB	-11.3802
jVj	-11.3806
AABIiVwk	-11.3815
iJXCQ	-11.3816
SIlEJJB	-11.3818
EiNBN	-11.3819
jHBQAAAAD	-11.3829
IhdJ	-11.383
EiJReBI	-11.3837
ZolEJP	-11.3838
AAAAAAAAAAYg	-11.3838
CLRa	-11.3841
SIGE	-11.3842
mOd	-11.3844
kiLBN	-11.3846
uVfP	-11.3849
AAMeF	-11.3854
IAdBIAchI	-11.386
IichIweACSAHIS	-11.387
SMHgBEgB	-11.3872
LhWT	-11.3875
Fhcl	-11.3879
cNAAAAA	-11.3886
onCD	-11.3888
icZIi	-11.389
AfiLBI	-11.3892
ixT	-11.3893
EiDfCS	-11.3893
ZsJ	-11.3895
cEQmaFw	-11.3899
SItEJN	-11.3904
GbHBQAAAAB	-11.3905
hQr	-11.3907
IAdAPtwAPt	-11.3911
cEQQ	-11.3918
AAAAAAAAAAGE	-11.3922
AAAAAAAAAAEE	-11.3925
wkgPTsJ	-11.3925
RcxI	-11.3926
iNSP	-11.3935
iJBQAAAAAPt	-11.3937
ItMJK	-11.3939
aJFQAAAAB	-11.3941
VAAAAAEjHBBA	-11.3945
uEAAAB	-11.3945
QhgJ	-11.395
LhWD	-11.3951
ifhIi	-11.3956
ZEJK	-11.3958
hRL	-11.3958
SGnSxAAAAE	-11.3958
PtsBIY	-11.396
AkAAAAAAAA	-11.3963
JBQAAAAAPtoV	-11.3965
AOSAHQ	-11.3966
IlEJM	-11.3969
hIidBIweADSAHQSI	-11.3976
PlQQ	-11.3978
RYhI	-11.3984
yLZCR	-11.3986
nQH	-11.3988
ohEJ	-11.3995
GaJFQAAAAB	-11.3996
WYPH	-11.3997
IacCIAQAA	-11.3998
RTHk	-11.4001
OVwk	-11.4001
SItFuEgB	-11.4001
hpwLgKAABIi	-11.4003
AAAAAAAAACn	-11.4006
ugAAAAD	-11.401
iLVVB	-11.401
AAAAAAAAAKgBAAAA	-11.4014
BBDhCGAkMNBgL	-11.4021
SItVGE	-11.4023
AQAAAAAAAE	-11.4027
MAch	-11.4034
Nwpi	-11.4035
WaJT	-11.4036
UAAAAHAAAAAAAAAC	-11.4039
hcAPlcCEw	-11.404
RYBI	-11.4045
ZEJJ	-11.4047
EiJdCS	-11.405
FAAAAAIP	-11.4053
ARIKch	-11.4054
IweADSAH	-11.4057
iLlXD	-11.4058
xfluBQAAAAB	-11.4059
AQAARI	-11.4065
EiJRCSQ	-11.4069
MTBeW	-11.4069
iLVb	-11.407
AABFD	-11.4071
GbHRc	-11.408
mRIkFAAAAA	-11.4087
dBIAcBIAdBIAcBI	-11.4089
LhUz	-11.4094
IlUJP	-11.4097
AfBIAcgPtgAPts	-11.4099
aJRe	-11.4099
SGvADkiLV	-11.41
WQSDnC	-11.41
CoAAE	-11.4101
IjRSFAAAAAEiLRR	-11.4106
ZsdEJ	-11.4108
XsiUX	-11.4109
SIkdAAAAA	-11.4112
Elrx	-11.4112
aJRZ	-11.4117
JJABAAB	-11.4117
BQAAAAAPh	-11.4127
GZBgz	-11.413
EyNFQAAAAB	-11.4133
EiJReBIi	-11.414
SAHISIsA	-11.4143
cASA	-11.4144
PvpW	-11.4145
IieVBV	-11.4146
RIgNAAAAA	-11.4155
EiLjCT	-11.4159
MiWQk	-11.416
wAPlcDr	-11.4163
IAAAC	-11.4163
SItEJK	-11.4164
GYPvkX	-11.4167
AQAPt	-11.4168
whgZBDjiDBwN	-11.4175
MaEJ	-11.4176
SItEJL	-11.4176
EiLRcBI	-11.4176
IjZB	-11.4185
iNLQAAAAB	-11.4187
IjRQASIuF	-11.4188
wdIx	-11.4195
IAcgPtgAPts	-11.4199
bAZomF	-11.4203
iLTCS	-11.4206
TDAcIAAAA	-11.4212
iLTCT	-11.4221
EiLhWj	-11.4223
iJwkgB	-11.4223
AAAPtkQk	-11.4225
IAcpIg	-11.4225
aJPQAAAAB	-11.4227
AEAAAAAAAAAADQ	-11.4233
iLhZgAAAB	-11.4234
IjRQASItFGEgB	-11.4235
bCSIlF	-11.4237
IhUJ	-11.4239
QbgBAAAA	-11.4243
IacAzBQAA	-11.4243
LfCT	-11.4243
AAAAAUQAAAAAAAAA	-11.4246
EiNS	-11.4246
LhVT	-11.4248
AEPh	-11.4255
eFOP	-11.4257
IixT	-11.4257
gDRCT	-11.4258
CAAHAFVIieVIgez	-11.4261
TAHASAH	-11.4264
SItFwEgB	-11.4269
CJBQAAAACL	-11.4273
AAAAAAAAAAHU	-11.4276
mxwUAAAAAAAB	-11.4281
AAAAAAAAAOABAAAA	-11.4281
ItEJB	-11.4286
AAAAAAAAAAFEAAAA	-11.4287
EiLRShI	-11.4287
IacBXAQAA	-11.4291
IPwAQ	-11.4293
ZEOc	-11.4294
AQAAQY	-11.4295
maJBQAAAAC	-11.4296
iQS	-11.43
AAAAAAAAAAYw	-11.4306
RIgVAAAAA	-11.4308
iLfCQ	-11.4311
lVj	-11.4312
SItEJO	-11.4313
WQAAAASI	-11.4314
CJRCS	-11.4318
aJRY	-11.432
AfBIweADSI	-11.4321
hCQYAQAA	-11.4326
Mad	-11.4336
geo	-11.4337
ReBI	-11.4337
IlMJN	-11.4341
EyNDQAAAAB	-11.4342
SAHQSAFF	-11.4343
SGnAVwEAAE	-11.4344
NwkiJ	-11.4349
hrwDhIi	-11.435
InxiE	-11.4354
EiLRTBI	-11.4355
IjQUAAAAASAH	-11.4367
JGgBAAB	-11.4368
DvVj	-11.4368
KLBJ	-11.4369
hIx	-11.4376
jXAB	-11.4377
InyiFX	-11.4382
IichIweACSAHI	-11.4384
iLbCR	-11.4386
SGnAqQAAAE	-11.4397
icGJ	-11.4398
JJBIi	-11.44
ItMJJ	-11.4402
IAcJIac	-11.4407
LhSj	-11.4407
EjHRc	-11.4426
QkmAEAA	-11.4427
IAdBIiUW	-11.4427
SAHKi	-11.4429
IOcdID	-11.4429
hCQQAQAA	-11.443
uFRP	-11.4433
Odd	-11.4436
iZSPf	-11.4436
RaxI	-11.4437
wAAOdAPj	-11.444
EiJRchIi	-11.4446
gAAAEEOEIYCQw	-11.4451
IjRSFAAAAAE	-11.4454
LhTj	-11.4456
ifGIT	-11.446
PtgUAAAAAiIV	-11.4463
AEPj	-11.4464
TANcJ	-11.4466
WYSItFkE	-11.4466
iLhfj	-11.4468
RYXJD	-11.4472
ImEiNFQAAAACIDB	-11.4472
dEJN	-11.4475
ImEhrwA	-11.4488
IweIF	-11.4491
EiLlCS	-11.4497
FQAAAACL	-11.4498
EgDhCR	-11.4498
uFMP	-11.4501
AAAAAAAAAMACAAAA	-11.4502
LdCR	-11.4506
iJRfBIi	-11.4508
MHgBEiJwk	-11.4513
iLlYgAAABI	-11.4516
AAAAAAAAACm	-11.4519
QkgAEAA	-11.4523
IacCpAAAA	-11.4527
jWj	-11.453
NAAAAAEiJBApI	-11.4537
AIPj	-11.454
SAHSSI	-11.454
EiJFQAAAAB	-11.4543
vwmaJBQAAAA	-11.455
AEAACAAHAIk	-11.455
SIsFAAAAAEiJRf	-11.4551
cFAAAAAGY	-11.4564
ffyJdfiLRfy	-11.4571
AfBIweACSI	-11.4574
wEAAADp	-11.458
ZQff	-11.4582
iJPQAAAAD	-11.4583
eFVP	-11.4583
dBIweADSAHCSItF	-11.4586
SInCSAHSSAHCSI	-11.4586
EjHB	-11.4589
NwoXAD	-11.4605
SGPSSGPI	-11.4606
SIuVcP	-11.4608
EiLTCQ	-11.4608
aFWP	-11.4613
EiDfeg	-11.4623
AAAAAAAAACq	-11.4626
SInISMHgBEgpyE	-11.4627
jUoB	-11.4631
IAcqL	-11.4637
AAAAAAAAACp	-11.4638
AQAAAOm	-11.4639
EiJTCS	-11.4641
VwITAdA	-11.4641
PCSIlF	-11.4644
SMHgBkiJwkiLR	-11.4646
PCSIXAD	-11.4651
ImEiNDQAAAACIFA	-11.4652
hjyEhj	-11.4653
PtkWc	-11.4656
VYSAHC	-11.4656
AAAAAAAAACs	-11.4661
EiLRCSo	-11.4666
FWQVVBVFN	-11.4671
IBQAAAAAPtkX	-11.4672
DjBBDihCDiBCDhh	-11.4679
mxwR	-11.468
UWF	-11.4681
IweAH	-11.4685
GbHBQAAAAC	-11.4688
RItsJ	-11.4695
EiLvCR	-11.4696
OUwk	-11.4696
wkQAEAA	-11.4697
IjRTFAAAAAE	-11.47
jRUAAAAASAHQxgAB	-11.4703
BEFm	-11.4705
RdxI	-11.4706
cAZolF	-11.4709
RDAcIAAAA	-11.4714
aFaP	-11.4715
EyJTCT	-11.4718
uAIAAAB	-11.4719
ZokFAAAAAItF	-11.472
eFPP	-11.4722
OVQk	-11.4723
Fhdt	-11.4724
AchIweACSI	-11.4725
XUFcQV	-11.4726
AQAASGn	-11.4727
McFAAAAAP	-11.4727
JLgBAAB	-11.4733
kiLRdh	-11.4737
Jzkhjyk	-11.4737
SIlEJP	-11.474
IacDYAAAA	-11.4744
IjQzFAAAAA	-11.4747
MxQAAAABIi	-11.4753
EiLRc	-11.476
IOYV	-11.4767
TAiAUAAAAA	-11.4768
ItcJB	-11.4769
yLfCT	-11.477
iLVfhIi	-11.4772
yLdCS	-11.4773
SImFeP	-11.4774
IjRSFAAAAAEiLRS	-11.4777
BQAAAABmxwUAAAAA	-11.4777
wkgPTsK	-11.4785
RZxI	-11.4785
TlF	-11.4787
iwUAAAAAiUW	-11.4787
SAHQSAHwSIPA	-11.4787
EEPl	-11.4792
qkAAAB	-11.4792
BxgQ	-11.4795
gjQR	-11.4795
iLVYh	-11.4796
aFHP	-11.4797
SIPCA	-11.4798
SJgPtwRCZoXAd	-11.4801
izy	-11.4803
BIAcIPtkX	-11.4803
IjRSFAAAAAEiLRT	-11.4807
hIidBIweACSAHQSI	-11.4813
LVCQ	-11.4815
JLBIi	-11.4815
EiLVcB	-11.4824
DtUJ	-11.4826
lcJL	-11.4832
QAAAAcAAAAAAAAAG	-11.4836
IgFAAAAAEi	-11.4838
kiLBNBI	-11.4842
JIweICSI	-11.4842
EiLRCSQ	-11.4843
AAAAAAAAACr	-11.4846
SItEJMh	-11.4848
NQAAAAAPt	-11.4854
BAKI	-11.4856
AchIweADSI	-11.4863
icqIVfyIRf	-11.4863
WYAAAASI	-11.4865
ZEJA	-11.4866
LjQS	-11.4868
BIAdBIiwBIhcB	-11.4877
JyIiF	-11.4879
SImFcP	-11.4882
sVAAAAA	-11.4882
YgVAAAAA	-11.4883
SIuVgAAAAE	-11.4884
FTv	-11.4887
wkKAEAA	-11.4887
yLTCT	-11.4888
JKBIi	-11.4901
ItEJM	-11.4904
AAABBDhCGAk	-11.4906
OwoXAD	-11.4908
IAdBIiUQk	-11.4917
iLnCQ	-11.4918
SIHE	-11.4921
TIkFAAAAA	-11.4924
icIPtoU	-11.4935
SAHQSIsASIXAD	-11.4938
jTT	-11.4939
EiLtCQ	-11.4943
aJhX	-11.4946
OdEP	-11.4946
EOcB	-11.495
JImEhp	-11.4952
LhTz	-11.4954
ZCR	-11.4955
gAAAEgB	-11.4966
SAHISAHASI	-11.4968
uFLP	-11.497
SIuEJJg	-11.4971
EAAAAAAAB	-11.4977
LhUT	-11.4977
LlXz	-11.4978
EiJVCS	-11.4978
aJRd	-11.4981
IAcIPv	-11.4986
LhTD	-11.4988
AQAAAOsFuAAAAACJ	-11.4993
AQAAAEG	-11.4995
SItVWEgB	-11.4996
GYPvo	-11.5004
AEAACAAHADHA	-11.5005
OdZ	-11.5005
SItFqEgB	-11.5006
OsESItF	-11.5009
EyNHQAAAAB	-11.5009
AMPh	-11.5019
EiDwD	-11.502
FQAAAABBD	-11.502
AIPh	-11.5022
JBQAAAAAPtkX	-11.5026
AchIjRUAAAAASAHQ	-11.5031
QkkAEAA	-11.5032
AAAAAAAAAAnQ	-11.5033
eFTP	-11.5033
JIweICSAHK	-11.5036
PfQSJh	-11.504
xflvDQAAAAB	-11.504
icLr	-11.5044
GbHRb	-11.5051
AAAAAAAAAAMU	-11.5053
XsZolF	-11.5054
ZkKJ	-11.5054
BQAAAABmiUW	-11.506
wkgPRsK	-11.5062
AACJRCT	-11.5066
Ncv	-11.5066
ECINQAAAAB	-11.507
JJgBAAB	-11.5078
OXQk	-11.5082
weAESInCSIuF	-11.5084
SItEJNB	-11.5085
sFAAAAAIlF	-11.5085
NAAAAAEiJBAoPt	-11.5088
GYPvk	-11.5092
wkhpx	-11.5094
EiNBF	-11.5095
iUXki	-11.5096
cFAAAAAAHQ	-11.5098
ifd	-11.5111
bAiUW	-11.5111
BIAcIPtkW	-11.512
IAcpIiwTQ	-11.5121
Jwus	-11.5123
AITAdAe	-11.5127
DwonC	-11.5127
VoSAHQ	-11.5128
EiLRThI	-11.5138
uFQP	-11.5143
QSn	-11.5144
tEJO	-11.5147
SCHQSIkFAAAAA	-11.5148
wEiNFQAAAABmiTQQ	-11.5152
IweAJ	-11.5156
JJhIi	-11.5157
EAEbDAcIkAEAAD	-11.5164
AMPj	-11.5164
BmhcB	-11.5172
JBQAAAAAPv	-11.5178
IweM	-11.5183
SIuVOP	-11.5188
RYxI	-11.5189
UiJRCT	-11.519
AAAAAAAAAAbg	-11.519
aFLP	-11.5191
AYPh	-11.5197
QhgJDDQYCc	-11.5198
iLhej	-11.52
DggAAAAAAAA	-11.521
iLvCS	-11.521
XoSDnC	-11.521
IhfZ	-11.5212
FMdt	-11.5212
EiLhWD	-11.5212
ItMJE	-11.5213
ItUJJ	-11.5215
FyXQ	-11.522
SItEJKh	-11.5222
uVbP	-11.5224
MYFAAAAAP	-11.5224
EicJEiU	-11.5229
SJhIjRSFAAAAAEiL	-11.5229
ogNAAAAA	-11.5231
SItFYEgB	-11.5242
uFGP	-11.5247
hpwMAGAABIi	-11.5249
AwAAAAAAAG	-11.525
SItEJNh	-11.5253
ItcJP	-11.5254
AdAkPt	-11.5255
iDfCT	-11.5258
eFUP	-11.5259
IOfhID	-11.5259
AAAAAAAAAAow	-11.5259
AEAACAAHAFV	-11.5264
EiZSPf	-11.5265
ECIPQAAAAB	-11.5266
KdBmiQUAAAAA	-11.5266
AwAASIu	-11.5272
dhb	-11.5278
iLVZh	-11.5278
HRfg	-11.5279
DnIf	-11.528
AAAAAAAAAAoQ	-11.528
chIweADSAHISMHgA	-11.5289
EiJwkjB	-11.5291
weADSAHI	-11.5292
AAAAAAAAAAACAAAA	-11.5296
jRUAAAAASAHQQIg	-11.5301
IAdBIweADSI	-11.5305
wkMAEAA	-11.5305
kxp	-11.5306
OfBID	-11.5313
BgAAAAAAAAA	-11.5314
JReSLVeSLRe	-11.5316
GaJBQAAAABIg	-11.5319
RfyJBQAAAA	-11.532
QkeAEAA	-11.5321
icIPtgUAAAAA	-11.5329
AcBIicJIi	-11.5333
XYSAHQ	-11.5334
JweI	-11.5341
iLVUBI	-11.5343
SItFsEgB	-11.5348
AAAAAAAAAAMQ	-11.5356
UgPR	-11.5359
ift	-11.5359
idd	-11.536
RItcJ	-11.536
IlUJO	-11.5365
ZBOc	-11.5365
JIABAAB	-11.5369
MTicT	-11.5375
eFcP	-11.5379
IuFfP	-11.5381
QkiAEAA	-11.5383
CEwHR	-11.5384
wkOAEAA	-11.5386
aJBQAAAAC	-11.5386
AoPh	-11.5392
EDAcIAAA	-11.5404
iNS	-11.5405
TBeW	-11.5411
kiYSGPSSGv	-11.5415
SAHQSDmF	-11.5416
SGvAHE	-11.5416
AAAAAAAAAAcQ	-11.5424
IweAHSInCSItF	-11.5425
AAAAAAAAAPACAAAA	-11.5426
MhQAAAABIi	-11.5426
RItkJ	-11.5428
IweICSI	-11.5429
EiJwU	-11.5434
SGvAMU	-11.5434
gCAAC	-11.5435
jTwCD	-11.5437
ItcJH	-11.544
EiLVCQ	-11.5441
iLVXB	-11.5441
SItEJJh	-11.5443
AcIPtoV	-11.5443
ItEJJ	-11.5445
EiBRCS	-11.5445
lcJK	-11.5447
AAAAAAAAAAtw	-11.545
mZEi	-11.5457
iJRZhIi	-11.5458
OMEEOKEIOIEIOGE	-11.546
AAAAAAAAANgCAAAA	-11.5468
eFWP	-11.5473
bCSIXAD	-11.5479
EiLRCTI	-11.5486
aFZP	-11.5488
AAAAAAAAACi	-11.5493
SIuVkAAAAE	-11.5499
SItEJJB	-11.5505
YFAAAAAAHQ	-11.5508
AABIiUW	-11.5513
EiLRCTg	-11.5524
IgBAAA	-11.5525
AAAAAAAAAAtg	-11.5528
XISAHQ	-11.5532
AHQiQUAAAAA	-11.5538
Nad	-11.5538
miZ	-11.5539
iNUPhIi	-11.5541
QOcp	-11.5543
RTHt	-11.5545
znCf	-11.5545
AchIAfBI	-11.5546
iNDAJIi	-11.5548
AwPh	-11.555
PcHF	-11.5552
EiNFAFIi	-11.5553
BFBm	-11.5563
khpycQAAABIa	-11.557
hpwMQAAABIi	-11.5574
JMgBAAB	-11.5578
FLv	-11.558
AEAAAAAAAAAAKg	-11.5585
BQAAAAAPtwUAAAAA	-11.5585
EiNBH	-11.5589
hpwNgAAABIi	-11.5591
eFSP	-11.5593
IAdBIiwBI	-11.5604
IsFAAAAAImF	-11.5609
PAAohF	-11.5616
PtzUAAAAA	-11.562
ItEJK	-11.5622
SGPISInQSMHgA	-11.5624
icIPtgUAAAAAAd	-11.5624
AAAAAAAAACACAAAA	-11.5625
AAAAAAAAAAgQ	-11.5626
YnwiVXkic	-11.563
QksAEAA	-11.5638
SANcJ	-11.5641
CdBmiQUAAAAA	-11.5642
EiJRCQI	-11.5648
iLVdh	-11.5651
hckP	-11.5656
AEAAEgD	-11.5656
eFRP	-11.5656
FVQVR	-11.5656
ZokdAAAAA	-11.5659
AABIAUX	-11.5662
MMPH	-11.5672
iLlTj	-11.5675
CIPQAAAAB	-11.5678
hpwOgDAABIi	-11.5681
SMHiAkgB	-11.5683
CdCIBQAAAA	-11.5685
oPAB	-11.5688
icLrB	-11.569
SItEJLh	-11.5691
JRdSLVdSLR	-11.5693
JLhIi	-11.57
iLvCT	-11.5704
IiUXgSMdF	-11.5704
mRYk	-11.5705
ifdIY	-11.5708
gGAAAAAAAAAAAAA	-11.5709
IAcd	-11.5716
QhgJDDQYCd	-11.5716
AAAAAAAAAAog	-11.572
EQPR	-11.5723
iLVSBIAdAPtg	-11.5729
SItVYEgB	-11.5734
LjQT	-11.5734
rCR	-11.5737
ZkHHB	-11.5741
ImIsEgoXAd	-11.5745
AGEwHQ	-11.5747
kEPR	-11.575
gMAAAAAAAAAAAAA	-11.575
IlMJM	-11.575
TIkNAAAAA	-11.5754
AGEwHW	-11.5756
KIBQAAAAC	-11.5757
uVdP	-11.5763
AACAfCT	-11.5765
AAABwAAAAAAAAACw	-11.5765
AAAAAAAAABsA	-11.5766
PoAkiY	-11.5772
SItEJPB	-11.5779
QkoAEAA	-11.578
IacDIAAAA	-11.5784
JKABAAB	-11.5788
JKhIi	-11.5788
AHAAAAAAAA	-11.5789
QjwJFDhiOA	-11.5792
EiLRCTQ	-11.5796
EiNBL	-11.5798
LBQAAAACJRf	-11.5805
McFAAAAAAAAAAD	-11.581
TAiEW	-11.5817
eFYP	-11.582
iLlWD	-11.582
kiNBQAAAAB	-11.5822
OdAPTMK	-11.5823
iLhdD	-11.5828
QIAAEgB	-11.5829
BFAPt	-11.5834
iUXwi	-11.5834
FWQVVBVFVT	-11.5837
PfYSJhI	-11.5838
IjRQASItFIEgB	-11.5839
QkuAEAA	-11.5841
QkwAEAA	-11.5841
xMJ	-11.5844
NAAAAAEiJFAhI	-11.5846
IiUWYSItVmEiLR	-11.5848
QcYE	-11.5849
iwSQhcB	-11.5855
wAPlcCEw	-11.5857
PAAoiF	-11.5858
Iicd	-11.5863
iLVVh	-11.5868
SItFoEgB	-11.5869
VgSAHC	-11.5874
IKdBIiQUAAAAA	-11.5882
mEiLVZhIi	-11.5888
iLheD	-11.589
EiLhVD	-11.5894
jRUAAAAASAHQ	-11.5903
WASDnC	-11.5906
IweAFSI	-11.591
ItEJL	-11.5911
Oeh	-11.5913
SAHQSAHASI	-11.5924
iNNAIPv	-11.5927
FCR	-11.5931
EiLhVj	-11.5934
PABIhF	-11.5935
LhSz	-11.5938
iJwU	-11.5941
iNDABIi	-11.5945
nRSJhI	-11.5949
IjRTFAAAAAEiLRU	-11.595
EiLRYB	-11.5957
gAAOdAPj	-11.596
AABFi	-11.5961
cEQmaJ	-11.5969
aJRa	-11.5969
ScHgB	-11.5972
IAdAPtgAPtsBI	-11.5978
iLlZgAAAB	-11.598
SGnAyAAAAE	-11.5982
InwiEX	-11.5983
SItEJEh	-11.5984
jrBb	-11.5989
OsDi	-11.5993
uFDP	-11.5998
SDnwS	-11.5998
IiUXwSItV	-11.6002
SIlEJBB	-11.6006
QVxBX	-11.6011
IdBIiQUAAAAA	-11.6015
AAAAAAAAAALQ	-11.6018
idBIiU	-11.6031
IOSAHKSAH	-11.6033
bHBQAAAAA	-11.6033
RYXSD	-11.6034
EAAAAAAAPHwC	-11.6039
ISAHASAHISAHQSAH	-11.6042
IXJd	-11.6043
IichIweADSCnI	-11.6049
fgAAAAAC	-11.6051
AADHRe	-11.6052
ffxmxwUAAAAA	-11.6053
SIlEJAh	-11.6058
CdBIiQUAAAAA	-11.6066
CAAQAAAAAAAD	-11.6066
gDoA	-11.6067
nOSGPKSGPQ	-11.6082
EyLdCR	-11.6082
SGvAeU	-11.6084
AEZolF	-11.6084
SCnQSIkFAAAAA	-11.6085
QAAAAcAAAAAAAAAH	-11.6085
EiLRCTA	-11.6088
UwIgFAAAAA	-11.6089
EiLVdh	-11.609
nQSAHASAHQSMHgAk	-11.6101
CINQAAAAD	-11.6102
AcPh	-11.6103
GABAAAAAAAA	-11.6104
SDtEJ	-11.6106
InKRIlF	-11.6108
OgBAAA	-11.6115
SItEJKB	-11.6124
EiLRCTo	-11.6126
Jgzz	-11.6127
khjyUiY	-11.6129
AAAAAAAAACV	-11.6131
IAXQk	-11.6134
UAEiLRRhIAdAPtw	-11.6138
IweAJSInCSI	-11.614
AEAAAAAAAAAAJQ	-11.614
SAnQSIkFAAAAA	-11.6147
InCiwUAAAAA	-11.6148
OcHF	-11.6148
BAADGh	-11.615
ItMJD	-11.6152
nQZomF	-11.6159
IacDZAgAA	-11.6159
GwonC	-11.6166
iLFQAAAABI	-11.6166
WgAAAASI	-11.6169
gwcC	-11.6169
AUPh	-11.617
AAAAAAAAABACAAAA	-11.6178
EiNBP	-11.6178
AsPh	-11.6178
AAAAAAAAACc	-11.6183
SGPQSIt	-11.6183
AQAAZsdF	-11.6184
AAAAAAAAAAtQ	-11.6186
SJhIjRUAAAAAxgQQ	-11.6187
AABIiwUAAAAASIlF	-11.6194
BFBmhcB	-11.6196
AQAAAOn	-11.6196
EiNFQAAAABIAdAPt	-11.6207
iDfcA	-11.6217
EyLfCR	-11.6221
ImEiLBMJIhcB	-11.6227
YhEJ	-11.6234
lFzItVzItF	-11.6235
SGlEJ	-11.6241
aJBQAAAAAPt	-11.6243
YAiEX	-11.6249
RIgdAAAAA	-11.625
ItUJK	-11.6256
AvT	-11.6263
hrwFh	-11.6265
AEAAAAAAAAAAIg	-11.6268
CAAHAFVIieWJdeiJ	-11.6272
RexmiUX	-11.6277
PlsAPts	-11.6278
AAAAAAAAACH	-11.6282
EiNFI	-11.6295
uwEAAAB	-11.6296
AEAAAAAAAAAAOQ	-11.63
AEAAAAAAAAAAJg	-11.6302
EiNL	-11.6302
IXbD	-11.6303
hrwGRIi	-11.6305
SGnJxAAAAEhr	-11.6311
idBmiUW	-11.6315
SJhIacC	-11.6319
ItUJM	-11.6319
iNUAF	-11.6319
SIlsJ	-11.632
EiLBNBI	-11.6321
SIuVYP	-11.6322
LBJCJ	-11.6324
maDfe	-11.6326
icIPtgUAAAAAMd	-11.6328
fhAAAAAAAZpC	-11.6331
OsHD	-11.6332
VAAAAAIs	-11.6332
maJBQAAAAD	-11.6336
IOSAHK	-11.6338
QAAAEIOEI	-11.6344
QkqAEAA	-11.635
xQAAAABIAdBIicpI	-11.6351
IDAcIAAA	-11.6352
JKgBAAB	-11.6355
IdBmiQUAAAAA	-11.6357
JACAAAA	-11.6363
EiLVbB	-11.6366
JBQAAAABIx	-11.6366
iLhagAAAB	-11.6367
wEiNFQAAAABmiTwQ	-11.6367
EiDfdg	-11.637
cEUGaFw	-11.6372
EjHRdg	-11.6374
SItFaEgB	-11.6375
DnwD	-11.6376
aJRc	-11.6388
EjHReg	-11.639
hCQwAQAA	-11.6393
iNNAIPt	-11.6394
VAAAAAGaJDBAPt	-11.6395
fAiUX	-11.64
SItMJN	-11.6402
AkPh	-11.6404
Ptjw	-11.6404
jwOOB	-11.6411
hjyUiYSGPSSGvw	-11.6413
aJRf	-11.6414
AABIiXwk	-11.6415
IicN	-11.6417
AJIAdBIAchI	-11.642
TieTvBxfl	-11.6424
ITSd	-11.6435
ItUJF	-11.6437
ZolEJO	-11.6444
EjQWMBoMHA	-11.6454
SMcFAAAAAAEAAAB	-11.6455
hIAcIPtkX	-11.6455
FUVVO	-11.6456
ANIAdBIweAC	-11.6456
hCQoAQAA	-11.6456
bASJhI	-11.6459
SItEJMB	-11.6459
AABJa	-11.6462
SGvAHEiLV	-11.6465
SIlEJCB	-11.647
AQAAAOk	-11.6475
EiNe	-11.6477
MAkiL	-11.6483
qEQAA	-11.6483
HUGD	-11.6483
kkPT	-11.6487
DwAOIh	-11.6488
wkgPRsI	-11.6492
aFDP	-11.6509
aFRP	-11.651
iLdCQ	-11.6521
SMHgBUiJ	-11.6522
EiLRCTY	-11.6523
LlXT	-11.6524
EiLRUBI	-11.6531
AADGBQAAAAAB	-11.6531
whgZBDjiDBwO	-11.6533
JOABAAB	-11.6534
RmiQUAAAAA	-11.6535
eFLP	-11.654
DwQJ	-11.654
QAAOdAPj	-11.6541
AHASAHQSAHwSAHI	-11.6549
Rejr	-11.6551
ItUJO	-11.6551
gDgAD	-11.6553
iJXCR	-11.6554
hCRAAQAA	-11.6557
iLhaAAAABI	-11.6557
jHBQAAAAABAAAA	-11.6557
mbHR	-11.656
EgByEiDwA	-11.657
McAPH	-11.6577
iUXUi	-11.6578
EgDRCS	-11.6578
uFHP	-11.658
AIAAADr	-11.6581
AABJgc	-11.6581
icJIiwUAAAAA	-11.6583
iLlYAAAAB	-11.6598
AAAAAAAAAMgBAAAA	-11.6599
wInA	-11.66
JykSJ	-11.6603
YFAAAAAAnQ	-11.6606
OfoP	-11.6611
iYiwSChcB	-11.6615
FheR	-11.6617
mRIkNAAAAA	-11.662
SGPJSGPSSJhIa	-11.6625
SItEJOB	-11.6625
SItFmEgB	-11.6626
AAPlcCEwHQ	-11.6628
nBidApy	-11.6631
IPgAY	-11.6637
BmiQUAAAAAk	-11.6639
gDkA	-11.664
jVACD	-11.6647
AAAOdAPj	-11.6649
AEAAAAAAAAAAHg	-11.665
hjyEiJyEjB	-11.6653
aJBQAAAAD	-11.6658
mxwUAAAAAAQB	-11.6672
JwYuF	-11.6685
EiJRCQY	-11.6685
wkgPRsJIhcB	-11.6688
XPYBM	-11.6688
gBwkiLh	-11.6691
JABAAAA	-11.6695
iNDQAAAABIi	-11.6698
SIuVmAAAAE	-11.6698
kiLRch	-11.6706
iLhcj	-11.6711
CHQiQUAAAAA	-11.6719
VAAAAAGaJDBBI	-11.672
SIuFkAAAA	-11.6724
AABEO	-11.6726
QAAAAAAJC	-11.6727
SDnGS	-11.6728
weIDSAHKSAHQSAH	-11.6732
AAEAAAAAAAAAAKA	-11.6735
RIkNAAAAA	-11.6738
BQAAAACLBQAAAACJ	-11.6742
gEMBwgAA	-11.6746
PtwAPt	-11.6747
MEIuF	-11.675
McBmZ	-11.6751
IAdBIAUX	-11.6751
SGPKSGPQSInQSMHg	-11.6752
PtgCEwHQ	-11.6759
wEPj	-11.676
JLABAAB	-11.6763
AAAAAAAAAAmw	-11.6767
IAdAPtwBmhcB	-11.6772
CHQiAUAAAAA	-11.6776
bAOcJ	-11.6776
DfewAd	-11.678
ItUJL	-11.6782
SIuEJMA	-11.6782
SGvAHk	-11.6784
BIAdAPv	-11.6785
AADrBb	-11.6793
AfhIweACSI	-11.6795
AEAAAAAAAAAAJw	-11.6797
EmBx	-11.6802
hNIPh	-11.6804
ItUJD	-11.6807
wEPh	-11.6812
QAAAOsFuAAAAABIm	-11.6814
JRcyLVcyLRc	-11.6821
iLtCS	-11.6825
SImFYP	-11.6828
EiLjCQ	-11.6828
EiLFM	-11.683
GaJBQAAAAAPtkX	-11.6836
XAiIW	-11.6837
DfegAd	-11.6846
xOJxO	-11.685
ffzGBQAAAAA	-11.6864
iJfCS	-11.6865
IlEJB	-11.6867
IaUQk	-11.6867
SIlEJBh	-11.6876
SJhIiwTCSIlF	-11.6878
ESJRCT	-11.688
mQccE	-11.6882
hMAPlc	-11.6883
SItEJOh	-11.6887
AAAAAAAAACu	-11.6891
JwouF	-11.6895
kAPvv	-11.6895
xOJxP	-11.6898
EiLtCR	-11.6899
AAAAAAAAAGgCAAAA	-11.6899
IjRSFAAAAAEiLRU	-11.6903
RYXbD	-11.6909
uVZP	-11.6915
iLVRBIAdAPtg	-11.6916
ARIKdBIicFIi	-11.6922
AfBIAcgPtgCEw	-11.6924
EiDRCS	-11.6927
AAAAAAAAACt	-11.693
CAAAAAAAAD	-11.6943
IsNAAAAA	-11.6945
AEAAAAAAAAAAKw	-11.6947
AEAACQAIAMX	-11.6949
vwokFAAAAA	-11.695
QjwJ	-11.6953
DhiOA	-11.6954
EiLRCRY	-11.6956
IiWwk	-11.6958
AcBIjQ	-11.696
iLVaBI	-11.6964
QbkBAAAA	-11.6969
PABIiF	-11.6976
AJIAchIAcB	-11.6979
JMABAAB	-11.698
SAHIiBBI	-11.6981
AHQZi	-11.6981
SImFaP	-11.6982
DACAAA	-11.6984
GaJBQAAAABID	-11.6987
AcIPtoU	-11.6987
iLVXh	-11.6988
YAhMAPh	-11.6996
wkUAEAA	-11.6997
IidBIAcBIAdBIAcB	-11.7004
GZEiQ	-11.7005
EiNFJ	-11.7005
JIgBAAB	-11.7007
yNHQAAAAB	-11.7007
IAdBIweACSI	-11.701
SItEJLB	-11.7011
ANIAdBIAcBIicJIi	-11.7014
BQAAAABmiYV	-11.7023
AEAAAAAAAAAANQ	-11.7023
AAAAAAAAADgCAAAA	-11.7028
yLVCT	-11.7028
EiLBMFIhcB	-11.703
VoSAHC	-11.7034
CQAAAAAAAD	-11.7037
AEAAAAAAAAAAKQ	-11.7038
EiJRCQg	-11.7039
ScHhB	-11.704
SGnAiAEAAE	-11.7056
AJIAdBIAcBIAcJIi	-11.7057
AAAAAAABNA	-11.7061
SItEJPh	-11.7062
wIPh	-11.7066
hckPlc	-11.707
WISItFgE	-11.7075
OwogFAAAAA	-11.7077
aJhV	-11.7083
AHASAHQSAHASAHw	-11.7088
RfxmiQUAAAAA	-11.709
iLlaAAAAB	-11.709
EiSUAAAAA	-11.7098
JNABAAB	-11.7104
wUPh	-11.7104
NAAAAAEiJFAgPt	-11.7108
hcAPj	-11.7121
GaJRCS	-11.7124
TieTnBxfl	-11.7124
OcpID	-11.7129
IjRQASItFEEgB	-11.7131
EAAAAAAAPHwA	-11.7134
EgByIsA	-11.7137
AAEAAAAAAAAAAJA	-11.7139
IiwTQSIXAd	-11.714
SItViEiLRYBI	-11.7146
fAhcB	-11.7149
iLlSj	-11.715
WoAAAASI	-11.7153
QVZBVUFUVVN	-11.7153
SIuFyP	-11.7156
bHBQAAAAABA	-11.7166
OCAAAAAAA	-11.7167
cEQmaFwHQ	-11.7172
SGPxSGPS	-11.7173
IPwAYTAd	-11.7174
AkPj	-11.7177
AAAAEgBwouF	-11.7179
EgBwU	-11.7182
fhAAAAAAAZpA	-11.7184
eFKP	-11.7186
hpwMQAAAB	-11.7188
gJIAfJ	-11.7192
iLVRhI	-11.7192
AEAAAAAAAAAADg	-11.7194
DjgSNBYwGgwcD	-11.7194
iLhZAAAABI	-11.7198
wYPh	-11.7198
uVXP	-11.7201
EiWwk	-11.7206
iLlRj	-11.7208
IAfhIAfBI	-11.7208
FWQVV	-11.7212
IKdBI	-11.7213
ItUJP	-11.7213
UYSAHQSIsA	-11.7217
iLVUBIjQwQ	-11.7221
JNgBAAB	-11.7223
DnYD	-11.7229
SJhIiwTCSIXAd	-11.7231
CAAHAEFXQVZBVYn	-11.7236
AnQiQUAAAAA	-11.7237
uFAP	-11.7244
OwonC	-11.7249
ImEiLBMK	-11.7258
EjHBQAAAAC	-11.7263
CmGaJBQAAAAC	-11.7268
AAAAAAAAACgCAAAA	-11.728
WAAAAASAHQ	-11.728
wMPh	-11.7282
EiDUAAAAA	-11.7289
uFNP	-11.7289
bCSIXAd	-11.729
iNBMB	-11.7292
eFHP	-11.7293
kiYSGPSSGn	-11.7294
bSger	-11.7295
iLVRhIAdAPtg	-11.73
vCSIAAAA	-11.7302
wMPj	-11.7303
kiNFQAAAADHBBA	-11.7305
IlMJK	-11.7306
bSgeq	-11.7307
AEAAEyN	-11.7309
AAEAAAAAAAAAALA	-11.7309
RIhEJ	-11.731
NwogFAAAAA	-11.731
IlEJC	-11.7319
EFXQVZBVUFUVVN	-11.7322
iJRfAPt	-11.7326
IjRQASItFKEgB	-11.733
SGPSSGPJSMHiA	-11.7331
SItFcEgB	-11.7331
eFQP	-11.7343
CnQiQUAAAAA	-11.7344
YjgN	-11.7347
whgZBDjiDBwP	-11.7349
AfhIweADSI	-11.7356
NCR	-11.7357
QVdBVkFV	-11.7364
InIRIlF	-11.7367
SIlEJCh	-11.7371
GbHRa	-11.7376
AABMa	-11.7379
IafipAAAASIn	-11.7381
hIAdBIiwBIhcB	-11.7382
SIuFgAAAAEgB	-11.7384
aDfc	-11.7385
EiNFF	-11.7387
JDAcIAAA	-11.7397
SGPxSJhIY	-11.7399
aFVP	-11.7405
QboBAAAA	-11.7412
OKEIOIEIOGE	-11.7413
SIsEwU	-11.7424
ffxIxwUAAAAA	-11.7427
iLVWB	-11.7427
AYPj	-11.7431
aDvV	-11.7434
SItFOEiN	-11.7441
HuAIAAADrBbgB	-11.7454
EyJRCT	-11.7458
ESJRdyJ	-11.7461
cFAAAAAGaJRf	-11.7462
AITAdC	-11.7465
EyNN	-11.7468
IOcZID	-11.7471
QVVBV	-11.7473
SIlEJDB	-11.7474
FXQVZBV	-11.7478
QEMBwgAA	-11.7481
SGvAOEiLV	-11.7483
SIuFwP	-11.7483
CAAHAEFXQVZBVUmJ	-11.7484
iYSC	-11.7487
Tiaff	-11.7493
IjQwASItF	-11.7497
IAcBIjQ	-11.7498
wIPj	-11.75
EiDwE	-11.75
AAAAAAAAAEACAAAA	-11.7505
WIAAAASAHQ	-11.7513
aDvU	-11.7516
AAAAAAAAAPgBAAAA	-11.7517
OfIP	-11.7517
yNFQAAAAB	-11.7518
PtkXsiEX	-11.7531
uVVP	-11.7534
cFAAAAADHQ	-11.7543
RYXkD	-11.755
klj	-11.7559
RdhIg	-11.7572
AADmF	-11.7578
hCRgAQAA	-11.7578
SIlEJIh	-11.7581
QccE	-11.7582
SMHgBUgB	-11.7602
PvsCJ	-11.7603
OcIPRsI	-11.7603
ImEhrwD	-11.7603
SJiLBIKFw	-11.7609
GaJBQAAAABmg	-11.7613
RIlsJ	-11.7624
mhcAPh	-11.7628
gMAAAAAAAA	-11.763
SGPISGPSSInQS	-11.7631
PtnW	-11.7632
SMHjB	-11.7637
PoAon	-11.7643
ZscFAAAAAA	-11.7646
AAPlcCIBQAAAACQ	-11.7662
GwonA	-11.7668
wkSAEAA	-11.767
hCRIAQAA	-11.7672
PnsAPts	-11.7673
aJhU	-11.7674
PCSIXAd	-11.7676
SImFWP	-11.7676
FACAAAAAAAA	-11.7677
PtrV	-11.7683
AEAAAAAAAAAAIw	-11.7683
IjQyFAAAAAEiLR	-11.7687
yNDQAAAAB	-11.7687
SGPySGPR	-11.7693
IicJIu	-11.7693
vSDkgBykgB	-11.7696
hCRYAQAA	-11.77
hjykiJwk	-11.77
IsEgYXAd	-11.7703
wAPlcAPts	-11.7705
JPgBAAB	-11.7705
TIkdAAAAA	-11.7706
AAAAAaAAAAAAAAAA	-11.771
EiLRCRQ	-11.7712
fSger	-11.7716
eFNP	-11.7716
AAAAAAAAAIADAAAA	-11.7718
Dnyf	-11.7723
dQVxBXUFeQV	-11.7723
wkWAEAA	-11.7726
ItMJP	-11.7742
gByIgQ	-11.7743
IxwT	-11.7746
ugEAAAC	-11.7749
aDvT	-11.7754
iNDIUAAAAASItF	-11.7755
DwQN	-11.7759
EiYSIsVAAAAAEg	-11.776
iLnCR	-11.7766
IBQAAAAAPtkW	-11.7767
hpwOEAAABIi	-11.7777
QkyAEAA	-11.7781
AcIPvoV	-11.7782
DjiDB	-11.7786
SIuVKP	-11.7793
BQAAAADGBQAAAAAB	-11.7794
IAdAPtgCIh	-11.7804
bCicBI	-11.7836
hCRoAQAA	-11.7837
AADHRd	-11.7846
AAAAAAAAAHACAAAA	-11.7847
wkeAEAA	-11.7853
AMAAADp	-11.7857
NwonC	-11.7857
wkgPTsI	-11.7863
QAAAAcAAAAAAAAAF	-11.7867
TAiIV	-11.787
EiJRCQo	-11.7877
IjRQASItFMEgB	-11.7885
AQAAAOl	-11.7886
EiLAInC	-11.7887
iLlZAAAAB	-11.7891
AQAAAOsFuAAAAACI	-11.7891
ZkKDP	-11.7891
IQUAAAAA	-11.79
EiLlCT	-11.7907
WwAAAASI	-11.7909
JBACAAB	-11.7909
iLVUhIjQwQ	-11.7911
SJyIhF	-11.7913
PlMC	-11.7914
hpwLgKAAB	-11.7916
AHQFi	-11.792
wkYAEAA	-11.7921
uFBP	-11.7923
EiLRCRA	-11.7927
EyJRch	-11.7931
SIlFiEiLVYhIi	-11.7931
hIAcIPtkW	-11.7933
GZEiQUAAAAA	-11.7937
mQok	-11.7939
AAAAAAAAADgDAAAA	-11.7943
iLVThIjQwQ	-11.7943
QscE	-11.7944
BIjQwCD	-11.7947
AAAAAAAAAFADAAAA	-11.7953
IiwBI	-11.7957
iLlagAAABI	-11.796
DlMJ	-11.797
fSgeq	-11.7972
uAMAAAB	-11.7977
DnBf	-11.7977
jQwCi	-11.798
Ptpwk	-11.7984
EiLBN	-11.7991
EiJBQAAAAAPtkX	-11.7999
UAEiLRSBIAdAPtw	-11.8003
IAdBIOUW	-11.8006
HgCAAA	-11.8007
iLlVD	-11.8008
gEQk	-11.8011
SJhIacD	-11.8013
ichEiUW	-11.8016
gwdHD	-11.8017
RYXtD	-11.8023
gBykiLBNBI	-11.8027
ItMJG	-11.8034
SItEJIh	-11.8036
UAEiLRShIAdAPtw	-11.8039
EQPtkQk	-11.8041
LVeyLReg	-11.8041
SIlEJEB	-11.805
AQAAAOsFuAAAAACD	-11.8052
OdAPR	-11.8069
SGPwSGPB	-11.8069
SIuFmAAAA	-11.8078
IiUXgSItF	-11.8079
TAOE	-11.8079
SIuVGP	-11.8079
RIktAAAAA	-11.8092
iJRYhIi	-11.8092
hpwMgAAABIi	-11.8094
oAAAAASPf	-11.8096
hpwIgBAABIi	-11.8105
AcBIAfBI	-11.8106
EyLTCS	-11.811
wcPh	-11.8111
maDfd	-11.812
mgzgA	-11.8121
RYXJd	-11.8121
QsYE	-11.8123
lFxItVxItF	-11.8126
CnQiAUAAAAA	-11.8131
iflmiU	-11.8132
RInCRIlN	-11.8132
IAcqLBJC	-11.8141
EyLRCR	-11.8144
iQUAAAAASINF	-11.8144
QAAAAcAAAAAAAAAJ	-11.8147
JwkiLBQAAAABI	-11.8151
AAAAAAAAAFgCAAAA	-11.8157
NUAEPv	-11.816
EyNP	-11.8162
OcgPT	-11.8164
AoPj	-11.8167
SGPxSGPI	-11.8173
EiLRCTw	-11.8179
AsPj	-11.8181
MxQAAAABIAchI	-11.8181
AAAAAgAAAAAAAAAA	-11.8189
LBJCFw	-11.8193
iDvXD	-11.8194
AdBIAfgPtwRG	-11.8195
Ehjxkhj	-11.8202
BEFmhcB	-11.8205
wkgPTcI	-11.8216
wkgPTsJIhcB	-11.8227
EiDfeA	-11.8234
JRcSLVcSLRc	-11.8249
ScHiB	-11.8252
IAciIE	-11.8257
JRbyLVbyLRb	-11.8269
YgNAAAAA	-11.827
iLhcD	-11.8273
nwiVXkicqIVeyIRe	-11.828
AEAAAAAAAAAANg	-11.8284
AdAPtgAPvsC	-11.8288
AAABBDhCGAkMNBgL	-11.8291
ReyIRf	-11.8295
EiWQk	-11.8296
CQUAAAAA	-11.8297
DfRAAd	-11.8302
hrwGhIi	-11.8304
uVTP	-11.8306
GABAAAAAAAAAAAAA	-11.8306
ZgFF	-11.8311
IAVwk	-11.8312
mQoM	-11.8313
idaJy	-11.8315
CAAHAFVIieVIgew	-11.8316
AEAAAAAAAAAANw	-11.832
AfBIg	-11.832
DwAKJ	-11.8322
ugEAAAD	-11.8324
iYSIsEwkiJ	-11.8324
hrwHBIi	-11.8325
EFXQVZBVYnwQVRVU	-11.8326
ItUJG	-11.8338
EiLAEiFwHU	-11.8341
EiNDI	-11.8342
WwSAHQ	-11.8344
OdAPTMJ	-11.8347
iLVShIjQwQ	-11.8352
hCRQAQAA	-11.8353
iLVTBIjQwQ	-11.8354
YEAoTAD	-11.8356
SGnACAcAAE	-11.8362
BgPg	-11.8364
AAEAAAAAAAAAAOA	-11.8365
JweM	-11.8368
WoSAHQ	-11.8372
KSInCSAHSSAHCSI	-11.8382
JIacnEAAAASG	-11.8389
AQAAAOt	-11.8394
SGnAqEQAAE	-11.8399
chIweACSAHISAHA	-11.84
SAHQSAHISIPA	-11.8403
iNDMUAAAAASItF	-11.8403
BQAAAACIRe	-11.8406
PABGaJh	-11.8408
GaJRewPt	-11.8408
SIuFiAAAAEgB	-11.8412
Ptrwk	-11.8418
InQiU	-11.8422
iLVWh	-11.8423
ESNQ	-11.8429
SGPSSGPISInQSMHg	-11.843
EiYSIPA	-11.8447
EiLRCRg	-11.845
hMkPh	-11.8465
EgByEgF	-11.8466
NUAEPt	-11.8467
wcPj	-11.8468
EyLVCS	-11.8469
hIAdAPv	-11.847
xOH	-11.8473
SIuVoAAAAE	-11.8474
EFXQVZBVUFUVVOJ	-11.8476
wUPj	-11.8477
APtgAPts	-11.8482
AhIicJIi	-11.8486
IAeh	-11.8496
EiJRfBIu	-11.8498
SItFeEgB	-11.8507
SItVaEgB	-11.851
DfRAAD	-11.8514
ItMJB	-11.8523
weACSAHwSAHI	-11.8528
wkgPTcJIhcB	-11.8532
AHASAHQSAHwSAH	-11.8532
gAAAAAAAG	-11.854
vCSYAAAA	-11.8541
iJReBIi	-11.8547
vQEAAAB	-11.8548
AEAACAAHAEmJ	-11.8552
BAAAPtkX	-11.8554
AAAAAAAAAANo	-11.8559
iUXQSMdF	-11.8563
AsAAAAAAAA	-11.8575
XQSAHQ	-11.8577
AAAAAAAAABcA	-11.8578
SIuEJIgAAA	-11.8582
iJRfCL	-11.859
SAHKSIPC	-11.859
AUPj	-11.8591
EiLRCRI	-11.8592
kiNFQAAAACJDBAPt	-11.8597
IacCoRAAA	-11.8598
BEKY	-11.8604
RDnAf	-11.8605
EiLRCRo	-11.8607
SGnAEAMAAE	-11.8619
hrwHhIi	-11.8622
EiDwANI	-11.8634
IOcFID	-11.8635
idCIRe	-11.8637
weACSInCSIuF	-11.8637
weACSAHCSItF	-11.8643
BVUFU	-11.8649
SIuVUP	-11.865
NwmaJ	-11.8654
PtwBm	-11.8664
SAFcJ	-11.8664
MlQAAAABIi	-11.8668
jHRegAAAAA	-11.8684
hjyIuF	-11.8685
EgByEiLA	-11.8686
AAAAAAAAAIgCAAAA	-11.8692
EiLBMZI	-11.8694
McFAAAAAAAAAAB	-11.8694
UAEiLRTBIAdAPtw	-11.87
MHgAkiJwkiLRS	-11.8708
EUxyU	-11.8709
IAdAPtwCY	-11.8728
ANIjRUAAAAASIk	-11.8737
SInwSAHASAHwS	-11.8741
AAAAAqAEAAAAAAAA	-11.8744
AAAAAAAAABOA	-11.8744
QAAAAAAJA	-11.8745
OsHSMfA	-11.8745
SDnBS	-11.8746
DwASIh	-11.8749
BQAAAABIxwUAAAAA	-11.8749
hpwJUIAABIi	-11.8756
weACSAHQSI	-11.8762
GZCi	-11.8775
IlEJD	-11.8778
jHRdA	-11.878
SGPwSInISMHgA	-11.878
AEAAAAAAAAAAOw	-11.8781
ZBxwR	-11.8782
IPAAmaJ	-11.8791
GwmaJ	-11.8794
EAPlcZ	-11.8798
NgAAAAAAAAA	-11.8799
SGvAPE	-11.8801
LDAcIAAA	-11.8801
MQUAAAAA	-11.8803
IlcJP	-11.8813
maDff	-11.8815
iLVVBIjQwQ	-11.8817
IPoJ	-11.8817
nQhcAPlcCIBQAAAA	-11.8817
DwogFAAAAA	-11.882
CmGaJBQAAAAAPt	-11.8821
AAAAEiNDBAPt	-11.8832
AgAAAOm	-11.8838
RYXAd	-11.8841
EiDwAJI	-11.8841
FDAcIAAA	-11.8843
SItVcEgB	-11.8843
SANsJ	-11.8848
kkPR	-11.8853
AAAAAAAAAAsQ	-11.8856
hpwNkCAABIi	-11.886
uAMAAADrBbgCAAAA	-11.8869
AAAAEwD	-11.8874
PvlQk	-11.8888
ZolEJN	-11.8889
McFAAAAAAEAAAD	-11.8896
AAAAAAAAAIgAAAAA	-11.8897
gByEiNDMUAAAAAS	-11.8897
WQAAAASAHQ	-11.8909
iLhbj	-11.8914
PtgUAAAAAiIU	-11.8918
nCSYAAAA	-11.8919
SIlEJEh	-11.892
SGNUJ	-11.8922
ifiI	-11.8925
SGnASAUAAE	-11.8927
iLRbBI	-11.8933
RIlkJ	-11.8936
OMIPTcIPvsCI	-11.8944
AHASAHISAH	-11.8947
DfcgAd	-11.8956
CscFAAAAA	-11.8957
aJhT	-11.8965
SIlEJDh	-11.8965
SInISMHgAkgByE	-11.8972
iLlQj	-11.8977
AfewAd	-11.8982
XASAHQ	-11.8985
rgKAAB	-11.8991
YAiEW	-11.8995
PtwBmhcB	-11.8999
AAAAAbQAAAAAAAAA	-11.9009
IweEC	-11.901
IlMJL	-11.9015
DnCd	-11.9018
AcgPtgCEw	-11.9018
AfBMAcBI	-11.9025
OMIPTsIPvsCI	-11.9025
PfQZokFAAAAA	-11.9029
gJIAc	-11.9029
SIlEJFB	-11.9031
AAAAAAAAAEAEAAA	-11.9034
PtwRQZoXAd	-11.9036
IgzgA	-11.9037
AAAAAAAAAKACAAAA	-11.9038
EiNFM	-11.904
IlUJN	-11.9041
YAhMAPlM	-11.9043
VfYPt	-11.9045
ZkSJBQAAAAB	-11.9048
iNNBCL	-11.9049
IacBSAQAA	-11.9054
SDlEJ	-11.9054
iwUAAAAAiYV	-11.9061
SGnAUgEAAE	-11.9061
IPoK	-11.907
SAHKSMHiA	-11.907
DlUJ	-11.9073
TieTvB	-11.9078
RYTJd	-11.908
QbsBAAAA	-11.9088
hpwBADAAB	-11.909
BAAAAAAAAG	-11.9094
SGnAwgEAAE	-11.9095
RYTAd	-11.9099
SItFKEiN	-11.9103
iUWsi	-11.911
InyZolV	-11.9131
IkFAAAAAIN	-11.9137
McFAAAAAO	-11.9146
SMHgAkiNUPxIi	-11.9147
UFXQVZBVUFUU	-11.9148
PAAmaJh	-11.9153
JAACAAB	-11.9163
IacAQAwAA	-11.9163
EiNFN	-11.9169
SAFMJ	-11.917
AdBIAfhIiwTG	-11.9172
wIAAADp	-11.9174
IPoE	-11.9185
RIlcJ	-11.9186
BgPo	-11.9194
lFvItVvItF	-11.9201
IweIDSAHKSMHiA	-11.9202
wHQhcAPlcCI	-11.9203
MAcBIAf	-11.9204
DfbgAd	-11.9205
IacDCAQAA	-11.9206
SGPJSGPSSAHSSAHK	-11.9216
AdCIh	-11.9219
DvWz	-11.9223
OdcP	-11.9223
McFAAAAAB	-11.9224
XPYCMX	-11.9226
VwSAHQ	-11.923
feyJdeiJVeS	-11.9231
QAAAAcAAAAAAAAAK	-11.924
hrwDxIi	-11.924
PlEQk	-11.925
NAAAAAEiJBAq	-11.9252
GZFhc	-11.9253
IacAgBgAA	-11.9254
iLhbAAAABI	-11.9257
SccE	-11.9257
IsAicBI	-11.926
LlTz	-11.9263
YAiIV	-11.9266
IAfhIiUQk	-11.9266
cEUGaFwHQ	-11.9271
TieTnB	-11.9275
pmiVXsZolF	-11.9286
LlSz	-11.9289
QkAAIAA	-11.9289
IacDgKgAA	-11.9297
xkiJyEjB	-11.9308
EOOIMHRw	-11.9308
SItMJF	-11.9309
DwAJmiUX	-11.9314
YiXXU	-11.9314
iLhaj	-11.9315
ANIjRUAAAAASIs	-11.9318
AJIjRUAAAAAiTQQ	-11.9318
JIgAAAC	-11.9319
SAHSSAHK	-11.9325
EiLBQAAAABIiUXg	-11.9334
SAHQSIsQ	-11.934
VwOsHg	-11.9342
IacBeGgAA	-11.9344
SItcJJh	-11.9348
wkgAEAA	-11.9359
IiYQkkAAAA	-11.9365
PfQiAUAAAAA	-11.9368
OfgPT	-11.937
IacCkAgAA	-11.9374
CmGaJBQAAAABI	-11.9376
AAAAAOAIAAAAAAAA	-11.938
IacAIBwAA	-11.9385
JwusFu	-11.9389
RShIAdCLA	-11.9395
idBmiUX	-11.9395
hrwDRIi	-11.94
hCRwAQAA	-11.9405
LTRB	-11.9412
AdCDwF	-11.9415
ARIKdBIAfBI	-11.942
JBQAAAABmx	-11.9421
IPoc	-11.9422
OfAPT	-11.9426
IacBIBQAA	-11.9429
PfYiQUAAAAA	-11.9436
CJyIhF	-11.9448
IjRTFAAAAAEiLRV	-11.9454
uAQAAADrBbgDAAAA	-11.9455
JQAAAAC	-11.9456
IweED	-11.9459
chIweADSAHISMHgB	-11.9459
AAAAAAAAACJ	-11.946
EiDfdA	-11.9462
wAPlcCIBQAAAA	-11.9466
EiBRCQ	-11.9467
AAEAAAAAAAAAAPA	-11.9467
FVIieWJffxIiXXw	-11.9468
yLZCQ	-11.9476
uAEAAAD	-11.9478
jRUAAAAASAHQRIgA	-11.9479
AGaFwHU	-11.9483
AEAAAAAAAAAAIQ	-11.9484
BXEFd	-11.949
EFXQVZBVUFUVVNIg	-11.9493
IPoS	-11.9497
IafDhAAAASI	-11.9512
BImEiJBQAAAAB	-11.9526
EjHRCS	-11.9527
AAAAAZQAAAAAAAAA	-11.9529
RfxIiQUAAAAA	-11.953
AQAAAAAAAF	-11.9531
JRcjp	-11.9532
iLbCT	-11.9545
IAdAPtgBmm	-11.9547
BVkFVQVR	-11.9557
SGnAeGkAAE	-11.9557
IidBIAcBIAcJIi	-11.9564
icIPtoX	-11.9566
SGvAaE	-11.9568
iLlUD	-11.9572
PlMJ	-11.9579
SMfC	-11.958
icIPtwUAAAAAAdBm	-11.9582
PfQiQUAAAAA	-11.959
IPoa	-11.9602
LVfSLRf	-11.9604
icKJy	-11.9616
UoSAHQiw	-11.9621
AAEAAAAAAAAAAIA	-11.9624
weADSInCSIuF	-11.9626
AHASInCSI	-11.9629
iLlTD	-11.9631
EyJRdh	-11.9635
InWicp	-11.964
uVPP	-11.9645
IacCEAwAA	-11.9647
SMHgAkiNFQAAAACL	-11.9647
iLlbAAAAB	-11.9659
DHQSIkFAAAAA	-11.9662
hpwDMFAABIi	-11.9668
icIPtwUAAAAAMdBm	-11.967
gpyEgB	-11.9676
UoSAHQSIsA	-11.968
IPoF	-11.9682
AfhIiwTB	-11.9682
TnQf	-11.9683
AdCDwC	-11.9686
OcYPj	-11.969
PtgCEwA	-11.9695
SJhIixUAAAAAS	-11.9696
IPoI	-11.97
EiDffA	-11.97
jnCf	-11.9701
AAAAEiNNBAPt	-11.9703
IPob	-11.9706
iJRbBIi	-11.9708
AHASAHQSI	-11.971
QVZBVUFU	-11.9717
DwmaJBQAAAA	-11.9717
BIAdBIiwBIiUX	-11.9718
SMHgCEiJwkiL	-11.9724
IPoL	-11.9724
AfhIAfAPtwRB	-11.9732
Pttt	-11.9736
hjyouV	-11.9751
BAAgAAAAAAAD	-11.9756
bxUAAAAA	-11.9759
ZolEJM	-11.9765
AEAACAAHADHAZoX	-11.9772
CmIXAd	-11.9776
olcJ	-11.9777
KDAcIAAA	-11.978
iLlbgAAA	-11.978
AdAPtgCEwHQ	-11.978
nIiIV	-11.9788
AAAAAAAAAAPc	-11.9789
MhQAAAABIAchI	-11.9797
CIhX	-11.9806
weAESGn	-11.9808
xfluBQAAAAD	-11.9817
kgBwkiNBBJIicJIi	-11.9825
SInISAHASAHISMHg	-11.983
vCSoAAAA	-11.9833
OwoXAd	-11.9838
aDvR	-11.9842
jRUAAAAASAHQxgA	-11.9845
CIPQAAAAA	-11.9847
iLhaD	-11.9849
JReBIx	-11.9852
AABIgYQk	-11.9853
AUAAAAAAAB	-11.9862
IAUwk	-11.9863
FhcAPh	-11.9869
JBQAAAAAPtoU	-11.9874
iNFMUAAAAASItFOE	-11.9876
QbwBAAAA	-11.9879
hrwCxIi	-11.9879
IlMJJ	-11.9881
RYXSd	-11.989
iNFIUAAAAASItFME	-11.9894
SItcJOh	-11.9899
iJRZBI	-11.9902
hjyUiYSGPSSGnw	-11.9902
IweIDSAHy	-11.9904
TiaT	-11.9909
TANkJ	-11.9913
IlEJA	-11.9917
hpwLw	-11.9923
ZgGF	-11.9923
DfdgAd	-11.9924
SIsEwUiFw	-11.9927
hpwFIBAABI	-11.9927
iLhbgAAABI	-11.9929
icIPtgUAAAAAIdC	-11.993
EgBwEiJwkiLRR	-11.993
hpwMIBAAB	-11.9932
SGnAhAMAAE	-11.9935
wkgPTsJIiUX	-11.9937
iLBNBI	-11.9938
AABIOUW	-11.9938
yJyIhF	-11.9939
IAdBMAcBI	-11.9947
AHQGSItF	-11.9947
AEAACAAHAEFXQYn	-11.9948
kiNDQAAAACJBAoPt	-11.9953
QVZBVU	-11.9956
iLVSBIjQwQ	-11.9967
iNDBJIi	-11.9968
BQAAAABBi	-11.997
WAAAAASAHC	-11.997
PtwRB	-11.9972
SGvAGk	-11.9972
IPoR	-11.998
KhEAA	-11.9984
JKgAAAC	-11.9985
AfhIAfBIiwTB	-11.9987
GaJRfxmg	-11.9997
ItEJD	-11.9997
ixUAAAAAAd	-11.9999
iLVVhIjQwQ	-12.0001
khjyUgB	-12.0003
hcAPhI	-12.001
SGnAKhEAAE	-12.001
SGvANE	-12.0018
IacAqEQAA	-12.0022
IidhI	-12.0027
AAAAAOAEAAAAAAAA	-12.0028
ichIAcBIAchIAdB	-12.0029
AEAACQAIAFV	-12.0031
IacBUIgAA	-12.0031
hpwFcBAABIi	-12.0034
EiCUAAAAA	-12.0041
iNFMUAAAAASItFME	-12.0043
IweICSAHy	-12.0044
kicqIVexmiUXo	-12.0044
SIuVCP	-12.0048
AKAAA	-12.0051
EiLBMJI	-12.0053
dLEAAAASGvADkgB	-12.0056
IjRSFAAAAAEiLRV	-12.0057
AAAAAAAAAKoAAAAA	-12.0057
DwkiFwHQ	-12.0058
cBIjRUAAAAAD	-12.0058
VAAAAAEiJDBAPt	-12.0063
ugIAAAB	-12.0066
SAHQiwD	-12.0071
LRdxIm	-12.0072
AEAAAAAAAAAATQ	-12.0077
AAAAAIACAAAAAAAA	-12.009
CJwUiL	-12.0091
IacDAVQAA	-12.0091
AJIAdBIAcBIAfBI	-12.0094
NwoXAd	-12.0101
AAAAAAAAANACAAAA	-12.0102
SJlJ	-12.0117
SGnAmCkAAE	-12.0118
PlcDp	-12.0126
GZEiR	-12.0129
lFtItVtItF	-12.013
JJgAAAC	-12.0132
ANIAchIweAD	-12.0132
AAEAAAAAAAAAAUA	-12.0143
EgDlCS	-12.0144
IicpI	-12.0145
SItFQEiN	-12.0148
EiLVbhIi	-12.0158
SItFMEiN	-12.0159
Iweo	-12.0171
SItFSEiN	-12.0173
GwogFAAAAA	-12.0173
jRUAAAAASAHQiAhI	-12.0173
weACSAHISAH	-12.0174
AAAAAAAAAOADAAAA	-12.0175
IPoe	-12.0182
SAHwSIsEwUiFw	-12.0188
dAlmxwUAAAAA	-12.0197
EiNNAJIi	-12.0197
RIglAAAAA	-12.0207
LRbxImE	-12.0215
qIVfxmiUX	-12.0216
hcAPhK	-12.0223
DfegAD	-12.0233
AEAAAAAAAAAATg	-12.0234
AAACLBQAAAACJ	-12.0245
Tiavf	-12.0246
ANIKch	-12.025
EiNDE	-12.0252
AEPtsC	-12.0262
hcAPhL	-12.0271
SIlEJFh	-12.0273
UQSAHQiw	-12.0287
EgDVCR	-12.029
SGvAfU	-12.0293
AAAAAAAAABWA	-12.0297
AMAAADr	-12.03
hrwBpIi	-12.03
McFAAAAAH	-12.0304
ONAPR	-12.0309
IPoG	-12.031
WYAAAASAHQ	-12.031
BQAAAABIiwUAAAAA	-12.0311
PncAPts	-12.0317
QIgtAAAAA	-12.0319
IjRQASItFOEgB	-12.0324
weAFSInCSIuF	-12.033
SItcJEh	-12.0342
IiYQkiAAAA	-12.0342
JRayLVayLRa	-12.0352
SItVeEgB	-12.0353
VwSAHC	-12.0353
aDvS	-12.0356
cFAAAAACHQ	-12.0358
SJiLBIKFwHQ	-12.0358
NAAAAAGaJFAgPt	-12.0364
SGnAIAYAAE	-12.0371
SIuFiAAAA	-12.0376
IPoW	-12.0379
SItcJPB	-12.0388
AfBIAfhI	-12.039
RIgtAAAAA	-12.0392
ZBgzx	-12.0395
AEAAAAAAAAAAOg	-12.0397
IacDIAwAA	-12.04
lFrItVrItF	-12.04
okNAAAAA	-12.0401
hrwHlIi	-12.0405
IacCYKQAA	-12.0413
JRbSLVbSLR	-12.0413
AQUAAAAA	-12.0414
IPoQ	-12.0426
DwonB	-12.0428
BIAcIPvkX	-12.0437
jTTFAAAAAEgB	-12.0439
LRexIm	-12.044
SAHQSAGF	-12.0455
iDvWD	-12.0475
QjwJEDhiOA	-12.0476
EiDwAIPtg	-12.0479
JjQS	-12.049
AAAAAAAAAAMYAAAA	-12.0494
AchIiwBI	-12.0494
AAAAcAAAAAAAAAAs	-12.0499
EicCI	-12.0511
IOEEIOC	-12.0516
SItFGEiDw	-12.0519
ewwHCAAAAAA	-12.0531
AHASAHQSAHASAHI	-12.0542
DfcgAD	-12.0543
AAAAAAAAALADAAAA	-12.0549
SItcJKh	-12.0559
iUWci	-12.0562
mQYl	-12.0567
SGnAvDQAAE	-12.057
TnCf	-12.057
iNDNUAAAAASItV	-12.0586
EjHRfj	-12.0587
EJGgBAA	-12.0587
SDnyS	-12.0592
SAHQSAHISI	-12.0592
UYSIPA	-12.0606
SGnAyAMAAE	-12.0609
AAAAAaQAAAAAAAAA	-12.0611
EJFgBAA	-12.0613
rBouF	-12.0613
IacAAGwAA	-12.0618
SIlcJOh	-12.0627
SGPSSGPwSInQS	-12.0627
SAHQiwBIm	-12.0631
ADAAAAAAAAYA	-12.0631
iLhcAAAABI	-12.0633
EiHwk	-12.0637
SGnAwFUAAE	-12.0638
ItcJM	-12.0639
CTUAAAA	-12.0645
DhCDAg	-12.0651
IiYQkmAAAA	-12.0654
UQSIPA	-12.066
IacDMFAAA	-12.0663
SItFKEiDw	-12.0666
QzMgAu	-12.0669
QAAAAcAAAAAAAAAN	-12.0671
IAfBIAchI	-12.0671
DfdwAd	-12.0671
iLVShIAdAPt	-12.0672
oRAAA	-12.0679
IacBAHwAA	-12.068
CAAHAFVIieWJfbyJ	-12.0681
ixUAAAAAMdC	-12.0688
EFXQVZBVYnQQVRVU	-12.0696
EQPtmQk	-12.0701
Miawk	-12.0707
AAAAAAAAALACAAAA	-12.0714
SGnAXhoAAE	-12.0726
ANIKdBIAfBI	-12.0728
Kgzz	-12.0729
JwesFu	-12.0734
AAAAAAAAAKkAAAAA	-12.0738
JwonIKd	-12.0745
MAUAAAAA	-12.0749
VAAAAAGbHBBD	-12.0763
AEAACAAHADHASIX	-12.0765
iJReAPt	-12.0767
JABAAAAAAAAAAAAA	-12.0773
PtpQk	-12.0778
QAAAAcAAAAAAAAAM	-12.0787
DfagAd	-12.079
SGvAeE	-12.0793
maJBQAAAAA	-12.0796
icKJyCnQ	-12.0808
MABAAAAAAAAAAAAA	-12.0809
DwANmiUX	-12.0811
ImEiNFQAAAADGBBA	-12.0816
maDfb	-12.083
AAAAASAHIiBAPt	-12.0831
gUAAAAAiEX	-12.0836
SGnAkAEAAE	-12.0842
iLlcAAAAB	-12.0844
LTRh	-12.0858
RYXbd	-12.0863
SGPJSGPSSGvSDkgB	-12.0872
AAAAAAAAAKsAAAAA	-12.0876
ESNS	-12.0878
GDAcIAAA	-12.0882
ARIKdBIAchI	-12.0884
McFAAAAAF	-12.0887
EiNNMUAAAAASAHwS	-12.0889
IacCuAgAA	-12.0912
hpwIQDAABIi	-12.0915
IAdAPtgCEwHU	-12.0921
iNDJUAAAAASItV	-12.0922
SGnArgIAAE	-12.0926
ODAcIAAA	-12.0929
Mckx	-12.093
mAVwk	-12.093
SIlEJHh	-12.0953
MdCJBQAAAA	-12.0953
olUJ	-12.0956
EiHQk	-12.0956
AJIjRUAAAAAiTwQ	-12.0958
AcIPtoX	-12.0959
ONAPT	-12.0962
SGvAHkiLV	-12.0963
GwoXAd	-12.0967
IacCQAQAA	-12.097
CINQAAAAC	-12.0978
hcAPhJ	-12.098
AEAACQAIAEFX	-12.0982
ARIKdB	-12.0988
AITAdQ	-12.0989
UoSIPA	-12.0991
UAEiLRThIAdAPtw	-12.0994
DfbgAD	-12.0998
EiLXCTY	-12.0999
yBYAA	-12.1008
jRUAAAAAxgQQ	-12.1012
FheQPh	-12.1013
EiNFAdIac	-12.1015
AdCDwG	-12.1023
AfhIAfAPtgAPts	-12.1027
UgSIPA	-12.103
ZgFcJ	-12.1034
MDAcIAAA	-12.1038
kiLRaB	-12.1059
JLgAAAC	-12.1062
FWQVVBVF	-12.1075
kiNDQAAAACJFAgPt	-12.1083
VAAAAAEiJDBBI	-12.109
AAAAAAAAAAAACY	-12.1093
AAASIFEJ	-12.1094
InwiEW	-12.1094
AEAAAAAAAAAATw	-12.11
JCACAAB	-12.11
LRdRIm	-12.1107
HRbgAAAAA	-12.1109
GwonB	-12.1111
WIAAAASAHC	-12.1113
iDfcg	-12.1115
GwolF	-12.1117
AAAAAcQAAAAAAAAA	-12.1119
AAAAAAAAABADAAAA	-12.1138
SGnAzBQAAE	-12.1145
fSgep	-12.1145
SItEJAh	-12.1149
RRhIAdCLA	-12.1153
iLVWBIjQwQ	-12.1186
AAAAAAAAAEADAAAA	-12.119
DiBCDhh	-12.1206
VAAAAAGaJDBC	-12.1207
UgSAHQiw	-12.1208
JjQR	-12.1215
SItcJLh	-12.1216
gIxfn	-12.1217
SIuEJPgAAA	-12.1228
EiNFQAAAACIDBAPt	-12.1233
SGnAVCIAAE	-12.1234
MAouF	-12.1249
AAAAAAAAADADAAAA	-12.1249
GZEiT	-12.125
SGnAIAMAAE	-12.1254
SItFIEiDw	-12.1255
lFlItVlItF	-12.1259
SItFEEiDw	-12.127
RYTSd	-12.1274
JRbjp	-12.1274
SIuEJCg	-12.1276
SItFGEiN	-12.128
VdyLRdg	-12.1282
lIweICSAHKSMHiAk	-12.1282
GcCDwA	-12.1291
iLhdAAAABI	-12.1291
RThIAdCLA	-12.1292
AdBIAfiLBIa	-12.1296
RYTbd	-12.1304
jQRGDiiMBUEOMIYG	-12.1311
IweICSAHK	-12.1315
iLhZAAAA	-12.1319
idCJykSJ	-12.1326
hpwOAqAABIi	-12.1336
SItcJPh	-12.1347
TANsJ	-12.135
ANIKdBIicFIi	-12.1354
SIuEJMgAAA	-12.1355
IixUAAAAASDHQS	-12.1362
AAAAAOACAAAAAAAA	-12.1365
iDvVD	-12.137
EiLXCTI	-12.1372
AJIAfBIAcgPtg	-12.1374
SItcJNh	-12.1381
iNHQAAAAC	-12.1384
QAAAAcAAAAAAAAAI	-12.1391
IacDkAQAA	-12.1399
hfYPlc	-12.1407
xflvDQAAAAD	-12.1407
SMHgBUiJwkiLRR	-12.1413
JRaSLVaSLRa	-12.1415
iNFQAAAACJDBC	-12.1415
HuAAAAADrBbj	-12.142
fSgeo	-12.1425
ZscFAAAAAB	-12.143
IweAGSInCSIuF	-12.1438
SGvAcE	-12.1441
SIsFAAAAAEiJReBI	-12.1443
iLVRhIjQwQ	-12.145
SIlcJOB	-12.1452
IPod	-12.1456
kiNFQAAAADHBBD	-12.1459
IacAANgAA	-12.1472
SIlEJHB	-12.1473
AEAACAAHADHAhf	-12.1489
SGnAyBYAAE	-12.1492
AJIAchIweAC	-12.1495
SAHKiwSQ	-12.1497
DihCDiBCDhh	-12.1499
EiNPM	-12.1511
NAAAAAGaJFAhI	-12.1517
SGvALE	-12.1517
EjHRCT	-12.1518
AAAAAAAAAOgCAAAA	-12.1521
fexIiXXgiVXo	-12.1526
DfdgAD	-12.1531
tCSYAAAA	-12.1534
BIAdCLAIlF	-12.1535
kiNDQAAAACJFAhI	-12.1536
CIPQAAAAC	-12.1537
iDffg	-12.1547
EiLXCTQ	-12.1552
QAAAAcAAAAAAAAAP	-12.1554
IacBgAwAA	-12.1556
iLhcgAAABI	-12.1563
AEAAAAAAAAAAUQ	-12.1572
IweAISInCSItF	-12.1575
JIAdJIAcp	-12.1583
NAAAAAGaJBAoPt	-12.1587
SItFWEiN	-12.1595
SItEJBh	-12.1604
IAcpIweIDS	-12.1606
vCTYAAAA	-12.1615
PqAkhj	-12.1626
JEACAAB	-12.163
VwITAdB	-12.1635
ifCJVfCIRf	-12.1637
JReDp	-12.1642
SInlQVdBVkFVQVRT	-12.1643
hNsPh	-12.1649
SAHQiwA	-12.1652
SGvAcEiLV	-12.1657
AAAAABW	-12.1668
hpwFQiAABIi	-12.1669
SJgPtwRCZoXAD	-12.1669
SGvAeEiLV	-12.1692
EiJRfjp	-12.1694
SGnAYAMAAE	-12.1695
SGvAWE	-12.1697
jgNCDiCNBEYOKIwF	-12.1698
lFpItVpItF	-12.1702
4/////////39	-12.1704
oiXXkiVXg	-12.1706
jHReAAAAAA	-12.1708
IacCyBQAA	-12.1708
iLRVBIj	-12.1709
AEAAAAAAAAAAUw	-12.1721
JRajp	-12.1723
JRfjHRfw	-12.1727
wkgPRsKJw	-12.1733
SGnAiAIAAE	-12.1737
SImEJIAAAAB	-12.1742
IacBmCgAA	-12.1753
eGkAA	-12.1755
tFvEiY	-12.1765
NDAcIAAA	-12.1769
SGnApAIAAE	-12.1779
gNIAcpIweIDSAHy	-12.1797
dBIweACSAHCSItF	-12.1798
iLlfj	-12.1803
hpwKhEAABIi	-12.1812
IacBkCwAA	-12.1819
LReRIm	-12.1834
dAfGBQAAAAAB	-12.184
SGnAZgoAAE	-12.1844
SItEJCB	-12.1846
SGNMJ	-12.1851
IacBwFQAA	-12.1854
SInQSAHASAHCSItF	-12.1859
BXkFfXcN	-12.1866
EgDlCT	-12.1871
SGnAABsAAE	-12.1873
FUVVM	-12.1874
SGPSSAHSSI	-12.1874
IweEG	-12.1888
McFAAAAAK	-12.189
EiJRejp	-12.1891
AQAAAOsFugAAAAA	-12.19
IacAgAwAA	-12.1904
OfgPj	-12.1905
SGtEJ	-12.191
PDAcIAAA	-12.1913
EhjwUhjyk	-12.192
CAAHAFVIieVBif	-12.1924
mRIlEJ	-12.1926
SMHgAkgByEgB	-12.1933
icpmiVX	-12.1934
iLVWhIjQwQ	-12.1936
hjyUiYSGPSSMHgA	-12.1936
CgwHCEELAAAA	-12.194
SIuEJJAAAAB	-12.1944
OccPT	-12.1952
AAEAAAAAAAAAAVA	-12.1957
SIuEJBABAA	-12.1966
OdgPj	-12.1971
IAdCLAInA	-12.1972
AEAACAAHADHAQIT	-12.1977
SGnAcBUAAE	-12.1999
ReyJRf	-12.2006
SGvAYk	-12.2008
CAAHAFVIieWJddiJ	-12.2011
IjQyVAAAAAEiLV	-12.2012
AhPYPh	-12.2015
AEAAAAAAAAAAUg	-12.2028
iLlcgAAAB	-12.203
lFnItVnItF	-12.203
IAcKLRZ	-12.2036
FVIieWJfexIiXXg	-12.204
GwkiJBQAAAABI	-12.2042
IacDIFgAA	-12.2043
AAAAEiNNBAPv	-12.2049
iJReCL	-12.2049
iLVUBIjTQQ	-12.2054
DfewAD	-12.2055
iLlRD	-12.2058
kiNDQAAAACJBApI	-12.2074
SJgPtkQC	-12.208
AEAAAAAAAAAAHw	-12.2091
hjyotV	-12.2101
iDvUj	-12.2101
KQUAAAAA	-12.211
SIlcJNh	-12.2114
SImEJJAAAAB	-12.2116
SIuViAAAAEgB	-12.212
EicFEiU	-12.2124
IjQzVAAAAAEiLV	-12.2125
JIafCpAAAASI	-12.2137
SGnAsgUAAE	-12.2144
JwYnQKci	-12.2145
AfdwAd	-12.2145
iLBQAAAABIiUXw	-12.2145
OIEIOGE	-12.2146
WgAAAASAHQ	-12.2146
iLlQD	-12.2163
SGnAsAEAAE	-12.2169
SGvAPEiLV	-12.2183
FVIieWJfdyJdd	-12.2194
JBQAAAAAPtkQk	-12.2195
EhjwUhj	-12.2205
AcIPvoU	-12.2211
AgAAAOsFuAEAAAA	-12.2214
iLRShIAdAPt	-12.2218
jHRcgAAAAA	-12.222
SItFUEiN	-12.2227
DfRgAd	-12.2237
PvsCNUA	-12.2242
IifhIweA	-12.2244
gJIAcpIweICSAHy	-12.2251
IacDyAAAA	-12.2251
hIAcIPvkX	-12.2254
SGnARAEAAE	-12.2261
ifJmiVX	-12.2265
MdIxw	-12.2268
RIlUJ	-12.2269
BIAcIPvkW	-12.2279
idApy	-12.2281
AGEwHX	-12.2293
AKJwE	-12.2294
iLVThIjTQQ	-12.2294
SMHgDE	-12.2318
tVzItF	-12.232
EAPlcd	-12.2325
SIuEJNAAAA	-12.2325
EiJRfjr	-12.2325
jQzFAAAAAEgByEgB	-12.2333
hpwHhpAABIi	-12.2341
AAAAAAAAAGADAAAA	-12.236
ANIAchIweACS	-12.2361
SAHQiwCFwHU	-12.2373
SGvAaEiLV	-12.2382
SIlcJPB	-12.2383
OKIwFQ	-12.2387
IiUXASMdFy	-12.2394
hpwMBVAABIi	-12.2399
VAAAAAMcEEAAAAA	-12.2401
IlMJB	-12.2403
AfegAd	-12.2407
KDAcIQQsAAAA	-12.2427
IacDQBwAA	-12.243
ReiIRf	-12.2433
DhCOAk	-12.2452
JweEE	-12.246
IhcAPlcCIh	-12.2465
AYAAAAAAAB	-12.2469
chIweADSAHIS	-12.2469
OwpiFw	-12.2479
VeSLReA	-12.2479
PtwRG	-12.2489
xfHvy	-12.2501
DfcwAd	-12.2506
SAHQSAW	-12.2507
kiLRfhI	-12.2517
lIAdJIAcpIAdJIAf	-12.2517
JRZyLVZyLRZ	-12.2524
hcAPhN	-12.2535
OcEPn	-12.2537
JRcDp	-12.2542
ItUJC	-12.2559
HDAcIAAA	-12.2561
WoAAAASAHQ	-12.2575
SIlcJNB	-12.2579
VfcPtkX	-12.2584
iLVUBIAdAPt	-12.2585
NwpiFw	-12.2588
NAAAAAEiJFAi	-12.2589
OwonB	-12.2601
XPYAs	-12.2605
NwkiFwHQ	-12.2624
AEAACAAHAITS	-12.2652
OdAPn	-12.2667
DfdwAD	-12.2677
OcYPT	-12.269
hpwEAfAABIi	-12.2691
SGnAADYAAE	-12.2697
IjRTFAAAAAEiLRW	-12.2712
IacBEAQAA	-12.2719
kiLRehI	-12.2719
JRdDp	-12.2735
BQAAAAAPttC	-12.278
IAcpIweICS	-12.2785
IweEF	-12.2792
hpwHAVAABIi	-12.2794
SItMJH	-12.2803
IacCADQAA	-12.2812
QgwIC	-12.2828
hIAcIPtoV	-12.2835
jRQHSGnB	-12.2841
gHQZolF	-12.2854
IacCgDwAA	-12.2862
iLhdgAAABI	-12.2891
SIuEJAgBAA	-12.2892
weAESAHI	-12.2908
OcMPj	-12.2934
JIAcBIAdBIAcBI	-12.2945
AAAAAAAAAFgEAAAA	-12.2946
weACSAHQSAHISAH	-12.2947
JIweACSAHQS	-12.2948
EiNFMUAAAAASAHQS	-12.2949
ffyJdfiJVfS	-12.297
kiLRUhI	-12.2974
CSIXAdAe	-12.2982
SImEJIgAAAB	-12.2985
wkgPTsKJw	-12.2993
IjRUAAAAAZokME	-12.2994
hpwIANAABI	-12.3003
AAAAAaAIAAAAAAAA	-12.3007
SGPISGPC	-12.3011
RInBRInK	-12.3015
DfZgAd	-12.3015
kiLRbB	-12.3035
CABAAAAAAAA	-12.3042
hIAcIPvkW	-12.3052
XYSDnC	-12.3081
IjQwSSItV	-12.3085
iNFMUAAAAASItFIE	-12.3086
QAAAAcAAAAAAAAAO	-12.3088
AAAAAUAIAAAAAAAA	-12.3124
EFXQVZBVYn	-12.3129
RegPg	-12.315
ANIAchIweAES	-12.3157
kiNDQAAAACJFAi	-12.3157
JIafjhAAAASIn	-12.3159
